<pad>	0
</s>	0
<unk>	0
<mask>	0
<n>	0
<0x00>	0
<0x01>	0
<0x02>	0
<0x03>	0
<0x04>	0
<0x05>	0
<0x06>	0
<0x07>	0
<0x08>	0
<0x09>	0
<0x0A>	0
<0x0B>	0
<0x0C>	0
<0x0D>	0
<0x0E>	0
<0x0F>	0
<0x10>	0
<0x11>	0
<0x12>	0
<0x13>	0
<0x14>	0
<0x15>	0
<0x16>	0
<0x17>	0
<0x18>	0
<0x19>	0
<0x1A>	0
<0x1B>	0
<0x1C>	0
<0x1D>	0
<0x1E>	0
<0x1F>	0
<0x20>	0
<0x21>	0
<0x22>	0
<0x23>	0
<0x24>	0
<0x25>	0
<0x26>	0
<0x27>	0
<0x28>	0
<0x29>	0
<0x2A>	0
<0x2B>	0
<0x2C>	0
<0x2D>	0
<0x2E>	0
<0x2F>	0
<0x30>	0
<0x31>	0
<0x32>	0
<0x33>	0
<0x34>	0
<0x35>	0
<0x36>	0
<0x37>	0
<0x38>	0
<0x39>	0
<0x3A>	0
<0x3B>	0
<0x3C>	0
<0x3D>	0
<0x3E>	0
<0x3F>	0
<0x40>	0
<0x41>	0
<0x42>	0
<0x43>	0
<0x44>	0
<0x45>	0
<0x46>	0
<0x47>	0
<0x48>	0
<0x49>	0
<0x4A>	0
<0x4B>	0
<0x4C>	0
<0x4D>	0
<0x4E>	0
<0x4F>	0
<0x50>	0
<0x51>	0
<0x52>	0
<0x53>	0
<0x54>	0
<0x55>	0
<0x56>	0
<0x57>	0
<0x58>	0
<0x59>	0
<0x5A>	0
<0x5B>	0
<0x5C>	0
<0x5D>	0
<0x5E>	0
<0x5F>	0
<0x60>	0
<0x61>	0
<0x62>	0
<0x63>	0
<0x64>	0
<0x65>	0
<0x66>	0
<0x67>	0
<0x68>	0
<0x69>	0
<0x6A>	0
<0x6B>	0
<0x6C>	0
<0x6D>	0
<0x6E>	0
<0x6F>	0
<0x70>	0
<0x71>	0
<0x72>	0
<0x73>	0
<0x74>	0
<0x75>	0
<0x76>	0
<0x77>	0
<0x78>	0
<0x79>	0
<0x7A>	0
<0x7B>	0
<0x7C>	0
<0x7D>	0
<0x7E>	0
<0x7F>	0
<0x80>	0
<0x81>	0
<0x82>	0
<0x83>	0
<0x84>	0
<0x85>	0
<0x86>	0
<0x87>	0
<0x88>	0
<0x89>	0
<0x8A>	0
<0x8B>	0
<0x8C>	0
<0x8D>	0
<0x8E>	0
<0x8F>	0
<0x90>	0
<0x91>	0
<0x92>	0
<0x93>	0
<0x94>	0
<0x95>	0
<0x96>	0
<0x97>	0
<0x98>	0
<0x99>	0
<0x9A>	0
<0x9B>	0
<0x9C>	0
<0x9D>	0
<0x9E>	0
<0x9F>	0
<0xA0>	0
<0xA1>	0
<0xA2>	0
<0xA3>	0
<0xA4>	0
<0xA5>	0
<0xA6>	0
<0xA7>	0
<0xA8>	0
<0xA9>	0
<0xAA>	0
<0xAB>	0
<0xAC>	0
<0xAD>	0
<0xAE>	0
<0xAF>	0
<0xB0>	0
<0xB1>	0
<0xB2>	0
<0xB3>	0
<0xB4>	0
<0xB5>	0
<0xB6>	0
<0xB7>	0
<0xB8>	0
<0xB9>	0
<0xBA>	0
<0xBB>	0
<0xBC>	0
<0xBD>	0
<0xBE>	0
<0xBF>	0
<0xC0>	0
<0xC1>	0
<0xC2>	0
<0xC3>	0
<0xC4>	0
<0xC5>	0
<0xC6>	0
<0xC7>	0
<0xC8>	0
<0xC9>	0
<0xCA>	0
<0xCB>	0
<0xCC>	0
<0xCD>	0
<0xCE>	0
<0xCF>	0
<0xD0>	0
<0xD1>	0
<0xD2>	0
<0xD3>	0
<0xD4>	0
<0xD5>	0
<0xD6>	0
<0xD7>	0
<0xD8>	0
<0xD9>	0
<0xDA>	0
<0xDB>	0
<0xDC>	0
<0xDD>	0
<0xDE>	0
<0xDF>	0
<0xE0>	0
<0xE1>	0
<0xE2>	0
<0xE3>	0
<0xE4>	0
<0xE5>	0
<0xE6>	0
<0xE7>	0
<0xE8>	0
<0xE9>	0
<0xEA>	0
<0xEB>	0
<0xEC>	0
<0xED>	0
<0xEE>	0
<0xEF>	0
<0xF0>	0
<0xF1>	0
<0xF2>	0
<0xF3>	0
<0xF4>	0
<0xF5>	0
<0xF6>	0
<0xF7>	0
<0xF8>	0
<0xF9>	0
<0xFA>	0
<0xFB>	0
<0xFC>	0
<0xFD>	0
<0xFE>	0
<0xFF>	0
▁t	-0
▁a	-1
in	-2
he	-3
re	-4
on	-5
▁the	-6
er	-7
▁s	-8
▁w	-9
▁o	-10
at	-11
nd	-12
▁c	-13
it	-14
ou	-15
or	-16
es	-17
▁f	-18
is	-19
en	-20
ing	-21
▁b	-22
▁p	-23
an	-24
▁to	-25
al	-26
ed	-27
▁m	-28
▁and	-29
ar	-30
▁in	-31
▁of	-32
▁d	-33
ic	-34
le	-35
om	-36
▁h	-37
as	-38
ion	-39
▁th	-40
.
	-41
ll	-42
▁y	-43
▁l	-44
ent	-45
ve	-46
ro	-47
▁e	-48
▁re	-49
st	-50
▁you	-51
▁n	-52
▁g	-53
ct	-54
et	-55
ly	-56
▁I	-57
▁is	-58
▁T	-59
▁for	-60
▁be	-61
ut	-62
▁on	-63
ot	-64
ur	-65
id	-66
▁S	-67
ow	-68
ay	-69
us	-70
ce	-71
▁A	-72
▁C	-73
ig	-74
im	-75
ra	-76
ch	-77
ith	-78
ver	-79
il	-80
▁st	-81
ation	-82
▁that	-83
ol	-84
▁with	-85
ad	-86
am	-87
ir	-88
▁it	-89
se	-90
▁we	-91
▁M	-92
ill	-93
▁an	-94
▁pro	-95
▁as	-96
ers	-97
▁are	-98
▁he	-99
▁P	-100
▁wh	-101
un	-102
▁B	-103
if	-104
ke	-105
ge	-106
▁ha	-107
ter	-108
▁or	-109
▁con	-110
▁W	-111
▁of▁the	-112
oo	-113
ul	-114
ess	-115
▁com	-116
pp	-117
ate	-118
her	-119
▁your	-120
▁The	-121
est	-122
ab	-123
ld	-124
ment	-125
▁at	-126
▁de	-127
ck	-128
▁se	-129
▁H	-130
ore	-131
▁D	-132
ri	-133
▁ex	-134
▁ne	-135
rom	-136
▁F	-137
igh	-138
pe	-139
qu	-140
ort	-141
ure	-142
ist	-143
▁v	-144
ity	-145
ant	-146
▁R	-147
▁have	-148
ive	-149
▁can	-150
art	-151
ust	-152
um	-153
▁L	-154
▁was	-155
▁this	-156
op	-157
▁us	-158
▁from	-159
▁in▁the	-160
th	-161
▁G	-162
ain	-163
em	-164
▁al	-165
▁r	-166
▁(	-167
▁sh	-168
▁ch	-169
el	-170
▁E	-171
ies	-172
▁will	-173
os	-174
▁su	-175
▁by	-176
▁not	-177
nt	-178
and	-179
▁N	-180
all	-181
▁u	-182
ome	-183
s▁and	-184
ight	-185
ard	-186
▁le	-187
res	-188
▁O	-189
out	-190
ud	-191
ost	-192
our	-193
▁wor	-194
ie	-195
▁do	-196
▁ab	-197
▁all	-198
iv	-199
▁pl	-200
ial	-201
ide	-202
ould	-203
od	-204
te	-205
per	-206
gh	-207
rou	-208
ine	-209
ed▁to	-210
red	-211
▁j	-212
▁ma	-213
▁so	-214
ice	-215
ast	-216
age	-217
fe	-218
▁comp	-219
▁k	-220
▁has	-221
ear	-222
ally	-223
▁ad	-224
king	-225
pt	-226
ction	-227
▁whe	-228
ag	-229
able	-230
▁en	-231
ac	-232
▁me	-233
ind	-234
lo	-235
ther	-236
▁but	-237
ack	-238
▁out	-239
so	-240
▁our	-241
▁J	-242
ing▁the	-243
ip	-244
very	-245
ite	-246
are	-247
▁up	-248
ich	-249
The	-250
s▁to	-251
one	-252
s▁of	-253
ry	-254
▁more	-255
cc	-256
▁Th	-257
ime	-258
▁te	-259
▁lo	-260
▁U	-261
ood	-262
ong	-263
du	-264
iz	-265
reat	-266
▁im	-267
▁my	-268
▁they	-269
for	-270
▁one	-271
ous	-272
▁cont	-273
▁to▁the	-274
ance	-275
▁In	-276
▁fe	-277
ike	-278
▁on▁the	-279
ook	-280
▁cl	-281
ign	-282
ib	-283
▁man	-284
▁about	-285
ru	-286
▁un	-287
▁inc	-288
▁app	-289
▁res	-290
act	-291
▁Y	-292
ult	-293
▁qu	-294
ail	-295
ire	-296
ase	-297
▁which	-298
ition	-299
ated	-300
ace	-301
ans	-302
ia	-303
erv	-304
og	-305
▁also	-306
▁per	-307
▁go	-308
ree	-309
▁time	-310
ne	-311
▁any	-312
to	-313
▁who	-314
ame	-315
ap	-316
▁other	-317
ach	-318
ber	-319
▁for▁the	-320
▁K	-321
▁off	-322
▁work	-323
▁sp	-324
vel	-325
ep	-326
form	-327
▁get	-328
ile	-329
ak	-330
ass	-331
ven	-332
▁year	-333
▁It	-334
ary	-335
ical	-336
▁new	-337
ff	-338
▁dis	-339
▁is▁a	-340
▁like	-341
ount	-342
▁some	-343
▁and▁the	-344
ick	-345
ark	-346
ence	-347
▁sa	-348
ue	-349
pl	-350
▁part	-351
now	-352
▁tra	-353
ub	-354
▁V	-355
s▁a	-356
s▁in	-357
ing▁to	-358
▁We	-359
▁St	-360
▁his	-361
▁over	-362
ond	-363
cial	-364
▁spe	-365
ing▁a	-366
▁ro	-367
▁if	-368
▁when	-369
▁rec	-370
▁Ch	-371
▁been	-372
▁sc	-373
ations	-374
av	-375
▁co	-376
▁pe	-377
▁imp	-378
ild	-379
ress	-380
▁what	-381
▁pre	-382
▁ar	-383
ough	-384
▁with▁the	-385
▁would	-386
ays	-387
ake	-388
▁than	-389
int	-390
▁des	-391
wn	-392
ish	-393
ound	-394
▁just	-395
ions	-396
▁there	-397
ater	-398
▁This	-399
!
	-400
▁how	-401
▁know	-402
ed▁in	-403
▁“	-404
ren	-405
▁hel	-406
ens	-407
ents	-408
rough	-409
own	-410
▁their	-411
▁were	-412
ings	-413
ed▁by	-414
▁had	-415
nder	-416
▁bec	-417
▁prov	-418
▁acc	-419
▁help	-420
ord	-421
▁comm	-422
▁am	-423
ors	-424
▁"	-425
use	-426
irst	-427
lud	-428
▁make	-429
ang	-430
ink	-431
old	-432
▁serv	-433
ople	-434
▁the▁b	-435
lic	-436
▁add	-437
vers	-438
▁use	-439
▁no	-440
fter	-441
▁pr	-442
ory	-443
▁-	-444
▁the▁f	-445
ces	-446
ram	-447
▁bu	-448
▁may	-449
▁her	-450
itt	-451
ual	-452
rent	-453
▁a▁l	-454
▁ag	-455
▁produ	-456
?
	-457
▁em	-458
▁most	-459
▁its	-460
▁tw	-461
▁people	-462
ices	-463
les	-464
ft	-465
▁well	-466
oc	-467
▁every	-468
ose	-469
ull	-470
▁tr	-471
ect	-472
▁through	-473
▁He	-474
▁only	-475
▁includ	-476
we	-477
ates	-478
▁them	-479
hed	-480
ily	-481
ian	-482
tern	-483
end	-484
ious	-485
▁need	-486
▁the▁c	-487
round	-488
▁the▁s	-489
▁–	-490
ning	-491
ise	-492
▁ind	-493
▁bet	-494
ob	-495
▁cons	-496
▁into	-497
▁want	-498
ov	-499
▁exper	-500
hen	-501
fect	-502
▁ph	-503
▁po	-504
ities	-505
▁see	-506
s▁are	-507
▁You	-508
▁supp	-509
..	-510
ade	-511
ause	-512
ject	-513
▁very	-514
▁way	-515
iness	-516
▁under	-517
▁will▁be	-518
ove	-519
ons	-520
▁dif	-521
▁rep	-522
mer	-523
▁back	-524
ific	-525
urn	-526
oth	-527
iew	-528
day	-529
ph	-530
ful	-531
ict	-532
li	-533
ert	-534
▁to▁be	-535
cess	-536
amp	-537
▁col	-538
▁at▁the	-539
▁reg	-540
lect	-541
▁many	-542
▁ra	-543
xt	-544
▁with▁a	-545
ange	-546
▁stud	-547
any	-548
▁ke	-549
row	-550
yst	-551
▁two	-552
▁bus	-553
▁great	-554
▁good	-555
uch	-556
fore	-557
ible	-558
ife	-559
vent	-560
ank	-561
▁she	-562
ing▁and	-563
sel	-564
Th	-565
▁day	-566
▁rem	-567
ience	-568
▁act	-569
ool	-570
iss	-571
▁where	-572
▁even	-573
ility	-574
get	-575
▁sm	-576
▁dec	-577
eth	-578
oy	-579
erson	-580
▁from▁the	-581
▁could	-582
▁should	-583
▁ent	-584
ments	-585
▁loc	-586
▁high	-587
▁fl	-588
▁own	-589
▁pos	-590
ont	-591
▁Re	-592
▁you▁can	-593
ower	-594
bs	-595
▁start	-596
ational	-597
▁find	-598
ract	-599
olog	-600
aw	-601
pect	-602
▁now	-603
ular	-604
▁set	-605
ystem	-606
ating	-607
▁home	-608
▁design	-609
formation	-610
▁for▁a	-611
▁play	-612
ient	-613
ature	-614
ble	-615
ew	-616
▁first	-617
oll	-618
air	-619
▁in▁a	-620
es▁and	-621
▁of▁a	-622
ath	-623
▁If	-624
ward	-625
rit	-626
▁inst	-627
velop	-628
▁such	-629
▁right	-630
▁sec	-631
▁requ	-632
line	-633
▁much	-634
erm	-635
ty	-636
▁gu	-637
▁rel	-638
▁down	-639
▁inv	-640
▁Wh	-641
ork	-642
ced	-643
▁ins	-644
▁business	-645
ative	-646
▁car	-647
▁said	-648
▁as▁a	-649
▁don	-650
com	-651
▁after	-652
▁fin	-653
▁take	-654
▁min	-655
hip	-656
▁diffe	-657
▁att	-658
▁Un	-659
ident	-660
ased	-661
gan	-662
▁read	-663
arch	-664
▁the▁p	-665
ener	-666
ting	-667
▁mark	-668
s▁that	-669
▁because	-670
alth	-671
▁look	-672
▁can▁be	-673
▁product	-674
▁che	-675
▁&	-676
▁ac	-677
ek	-678
up	-679
),	-680
▁mod	-681
▁mon	-682
▁Com	-683
▁inte	-684
chn	-685
ality	-686
▁prog	-687
way	-688
ional	-689
▁vis	-690
ys	-691
▁made	-692
▁here	-693
ash	-694
ustom	-695
ec	-696
▁As	-697
und	-698
▁information	-699
▁bl	-700
ell	-701
▁Pro	-702
▁disc	-703
other	-704
▁provid	-705
▁sim	-706
▁is▁the	-707
▁develop	-708
▁does	-709
▁br	-710
s▁for	-711
▁show	-712
ric	-713
).	-714
chool	-715
▁before	-716
cy	-717
▁fam	-718
▁call	-719
▁person	-720
▁did	-721
s▁the	-722
io	-723
ed▁the	-724
▁world	-725
▁end	-726
ner	-727
▁eas	-728
▁bel	-729
ix	-730
▁those	-731
▁trans	-732
▁ass	-733
▁sur	-734
▁too	-735
▁And	-736
rib	-737
▁system	-738
ually	-739
▁comple	-740
rest	-741
▁it▁is	-742
▁$	-743
▁For	-744
▁art	-745
▁hand	-746
vail	-747
pen	-748
arn	-749
▁pres	-750
▁det	-751
▁support	-752
az	-753
▁An	-754
▁num	-755
ason	-756
gg	-757
In	-758
ouse	-759
▁each	-760
ffect	-761
riv	-762
▁life	-763
arm	-764
▁then	-765
ize	-766
▁form	-767
▁long	-768
▁med	-769
▁while	-770
▁mem	-771
ple	-772
ci	-773
▁sub	-774
▁different	-775
olut	-776
▁market	-777
▁love	-778
lease	-779
ros	-780
▁you▁are	-781
ince	-782
land	-783
ues	-784
▁Al	-785
ave	-786
▁really	-787
ale	-788
▁exp	-789
▁prof	-790
dition	-791
ata	-792
ng	-793
atch	-794
cept	-795
▁post	-796
▁and▁a	-797
▁last	-798
▁ret	-799
ather	-800
▁process	-801
▁cle	-802
▁inter	-803
der	-804
▁years	-805
▁team	-806
als	-807
▁custom	-808
ts	-809
▁sk	-810
ax	-811
▁str	-812
▁place	-813
ollow	-814
▁program	-815
self	-816
read	-817
ages	-818
▁gra	-819
▁lead	-820
vailable	-821
▁care	-822
▁plan	-823
▁ed	-824
▁child	-825
▁feel	-826
pr	-827
ever	-828
We	-829
unity	-830
▁a▁b	-831
▁cur	-832
▁techn	-833
ines	-834
▁free	-835
▁som	-836
hes	-837
ives	-838
ited	-839
ooking	-840
ef	-841
riend	-842
This	-843
▁these	-844
▁as▁well	-845
roup	-846
ness	-847
▁ext	-848
▁think	-849
irect	-850
▁best	-851
▁him	-852
led	-853
▁still	-854
ics	-855
▁both	-856
oun	-857
▁Sh	-858
▁being	-859
ten	-860
▁import	-861
▁pur	-862
▁ser	-863
ween	-864
y▁and	-865
▁again	-866
▁adv	-867
▁week	-868
▁dur	-869
au	-870
imes	-871
ied	-872
▁list	-873
▁though	-874
▁char	-875
▁opt	-876
▁service	-877
▁var	-878
▁fun	-879
its	-880
▁top	-881
▁found	-882
▁need▁to	-883
▁company	-884
ired	-885
de	-886
▁pub	-887
ivers	-888
▁project	-889
ways	-890
▁run	-891
▁val	-892
▁cour	-893
▁experience	-894
view	-895
▁New	-896
▁few	-897
ittle	-898
▁between	-899
▁has▁been	-900
ed▁a	-901
▁ide	-902
▁full	-903
▁to▁a	-904
▁They	-905
▁sign	-906
less	-907
▁keep	-908
▁ty	-909
▁creat	-910
iqu	-911
▁Se	-912
iet	-913
▁Ar	-914
alk	-915
▁cre	-916
▁bo	-917
▁happ	-918
▁main	-919
y▁to	-920
▁gener	-921
▁real	-922
aking	-923
ed▁with	-924
▁have▁a	-925
▁health	-926
▁But	-927
▁that▁the	-928
▁water	-929
▁result	-930
▁allow	-931
▁point	-932
aut	-933
▁book	-934
▁appro	-935
▁poss	-936
▁pol	-937
▁open	-938
▁count	-939
▁sl	-940
▁So	-941
ware	-942
ern	-943
▁Cl	-944
▁There	-945
atur	-946
▁ref	-947
▁De	-948
ital	-949
▁small	-950
▁services	-951
ah	-952
gin	-953
▁month	-954
ed▁and	-955
▁sure	-956
▁rest	-957
▁ev	-958
le▁to	-959
ton	-960
erg	-961
▁ob	-962
▁want▁to	-963
▁organ	-964
▁build	-965
▁offer	-966
ining	-967
▁partic	-968
▁provide	-969
▁Ad	-970
stand	-971
▁three	-972
orth	-973
uc	-974
▁stand	-975
ves	-976
ically	-977
▁come	-978
▁if▁you	-979
▁pay	-980
▁on▁a	-981
ing▁in	-982
▁.	-983
y▁of	-984
bers	-985
▁pat	-986
Wh	-987
▁Le	-988
co	-989
▁def	-990
▁iss	-991
▁follow	-992
▁aut	-993
ation▁of	-994
▁data	-995
▁have▁been	-996
blem	-997
ier	-998
ute	-999
▁always	-1000
▁number	-1001
▁without	-1002
ved	-1003
▁friend	-1004
▁important	-1005
▁try	-1006
▁How	-1007
▁say	-1008
ield	-1009
▁ve	-1010
plo	-1011
be	-1012
▁family	-1013
▁better	-1014
arly	-1015
ccess	-1016
▁must	-1017
▁cor	-1018
▁resp	-1019
▁Pl	-1020
▁online	-1021
ien	-1022
reen	-1023
▁special	-1024
▁interest	-1025
kes	-1026
▁quest	-1027
▁effect	-1028
).
	-1029
port	-1030
▁perform	-1031
▁the▁l	-1032
▁mus	-1033
▁cent	-1034
att	-1035
▁fil	-1036
▁school	-1037
ology	-1038
ished	-1039
▁rece	-1040
▁Be	-1041
man	-1042
sh	-1043
▁give	-1044
▁put	-1045
▁next	-1046
▁dist	-1047
▁problem	-1048
▁proper	-1049
▁conc	-1050
arge	-1051
▁class	-1052
▁cost	-1053
▁conf	-1054
▁level	-1055
▁group	-1056
▁someth	-1057
ger	-1058
▁one▁of▁the	-1059
meric	-1060
▁visit	-1061
ock	-1062
ploy	-1063
thing	-1064
▁feature	-1065
▁state	-1066
joy	-1067
▁webs	-1068
lection	-1069
▁area	-1070
▁contin	-1071
▁and▁I	-1072
ody	-1073
▁around	-1074
es▁to	-1075
me	-1076
▁On	-1077
▁spec	-1078
ures	-1079
ately	-1080
▁report	-1081
▁pass	-1082
▁opp	-1083
▁able▁to	-1084
ared	-1085
▁quality	-1086
oot	-1087
▁int	-1088
ral	-1089
ior	-1090
▁wr	-1091
▁hard	-1092
▁tri	-1093
▁another	-1094
▁room	-1095
It	-1096
▁incre	-1097
▁things	-1098
ump	-1099
▁Te	-1100
con	-1101
ider	-1102
▁might	-1103
▁i	-1104
▁let	-1105
ving	-1106
ins	-1107
▁grow	-1108
If	-1109
ertain	-1110
ision	-1111
▁such▁as	-1112
vern	-1113
▁since	-1114
▁phot	-1115
es▁of	-1116
rand	-1117
iving	-1118
▁meet	-1119
▁Ex	-1120
▁second	-1121
▁order	-1122
▁addition	-1123
▁head	-1124
▁oper	-1125
ized	-1126
▁rese	-1127
ential	-1128
▁old	-1129
▁is▁not	-1130
▁profess	-1131
▁direct	-1132
▁game	-1133
ug	-1134
▁gl	-1135
load	-1136
▁working	-1137
▁Americ	-1138
▁All	-1139
ator	-1140
uss	-1141
▁of▁your	-1142
cl	-1143
oney	-1144
▁access	-1145
▁Ind	-1146
work	-1147
▁eng	-1148
▁available	-1149
ames	-1150
rist	-1151
ruct	-1152
orm	-1153
ott	-1154
ffic	-1155
ed▁for	-1156
▁Q	-1157
omm	-1158
▁est	-1159
▁looking	-1160
▁She	-1161
▁event	-1162
pend	-1163
▁view	-1164
▁never	-1165
▁within	-1166
▁equ	-1167
▁something	-1168
▁fact	-1169
ER	-1170
anc	-1171
▁local	-1172
ivid	-1173
rol	-1174
go	-1175
▁enjoy	-1176
▁blo	-1177
inal	-1178
▁invest	-1179
ets	-1180
orn	-1181
▁inf	-1182
▁hour	-1183
"
	-1184
illion	-1185
room	-1186
rence	-1187
▁including	-1188
▁test	-1189
ants	-1190
▁applic	-1191
▁light	-1192
▁job	-1193
ism	-1194
▁have▁to	-1195
▁got	-1196
▁cr	-1197
here	-1198
iversity	-1199
▁expl	-1200
▁current	-1201
▁buy	-1202
▁it▁was	-1203
▁mov	-1204
▁food	-1205
iron	-1206
▁sit	-1207
▁el	-1208
▁treat	-1209
oint	-1210
▁making	-1211
ars	-1212
ium	-1213
rid	-1214
▁Sc	-1215
▁less	-1216
▁as▁well▁as	-1217
▁tak	-1218
ateg	-1219
▁dri	-1220
ration	-1221
▁win	-1222
ently	-1223
▁‘	-1224
▁'	-1225
▁website	-1226
▁that▁you	-1227
▁At	-1228
▁If▁you	-1229
▁site	-1230
▁more▁than	-1231
ients	-1232
!!	-1233
ote	-1234
ctions	-1235
por	-1236
▁complete	-1237
▁learn	-1238
▁using	-1239
▁power	-1240
▁understand	-1241
▁impro	-1242
ability	-1243
▁To	-1244
▁prote	-1245
ird	-1246
▁pop	-1247
let	-1248
▁indust	-1249
eng	-1250
▁met	-1251
▁fac	-1252
ron	-1253
▁unt	-1254
olution	-1255
ross	-1256
▁pract	-1257
atter	-1258
▁I▁was	-1259
ieve	-1260
▁turn	-1261
▁children	-1262
▁check	-1263
▁tru	-1264
ers▁and	-1265
▁sal	-1266
agement	-1267
aterial	-1268
▁change	-1269
▁success	-1270
▁prom	-1271
▁Z	-1272
ission	-1273
tain	-1274
▁chang	-1275
▁Ph	-1276
▁beaut	-1277
▁With	-1278
You	-1279
▁to▁get	-1280
ense	-1281
▁ann	-1282
pos	-1283
▁present	-1284
outh	-1285
fer	-1286
side	-1287
tend	-1288
▁const	-1289
▁Col	-1290
▁all▁the	-1291
ique	-1292
▁public	-1293
▁house	-1294
ode	-1295
ling	-1296
ush	-1297
▁Con	-1298
▁intern	-1299
▁bas	-1300
ret	-1301
▁US	-1302
aster	-1303
▁ben	-1304
ann	-1305
▁bro	-1306
▁bre	-1307
▁gr	-1308
▁employ	-1309
▁vide	-1310
▁they▁are	-1311
gether	-1312
ope	-1313
▁Is	-1314
▁the▁best	-1315
bo	-1316
▁along	-1317
the	-1318
▁seem	-1319
▁pain	-1320
ocus	-1321
▁ca	-1322
of	-1323
ify	-1324
ery	-1325
▁dev	-1326
▁ask	-1327
▁detail	-1328
▁the▁same	-1329
▁Bl	-1330
rop	-1331
ift	-1332
ably	-1333
▁until	-1334
▁name	-1335
▁by▁the	-1336
▁When	-1337
▁today	-1338
▁conne	-1339
▁possible	-1340
oss	-1341
▁thing	-1342
ention	-1343
part	-1344
▁used	-1345
▁professional	-1346
fort	-1347
▁create	-1348
ym	-1349
▁going▁to	-1350
▁air	-1351
lish	-1352
▁course	-1353
▁dem	-1354
▁perfect	-1355
ream	-1356
▁leg	-1357
ina	-1358
▁of▁our	-1359
▁for▁your	-1360
ists	-1361
▁material	-1362
▁What	-1363
▁to▁make	-1364
ogra	-1365
min	-1366
ories	-1367
▁term	-1368
▁contact	-1369
▁expect	-1370
▁community	-1371
ember	-1372
▁Our	-1373
ization	-1374
ered	-1375
ik	-1376
irm	-1377
▁Or	-1378
▁cap	-1379
...	-1380
▁pa	-1381
ases	-1382
ividual	-1383
lement	-1384
ex	-1385
ample	-1386
▁money	-1387
▁sing	-1388
▁research	-1389
▁why	-1390
els	-1391
ipp	-1392
▁a▁c	-1393
▁Sp	-1394
oh	-1395
icle	-1396
yle	-1397
,”	-1398
viron	-1399
ury	-1400
??	-1401
▁hist	-1402
iven	-1403
itive	-1404
▁Christ	-1405
▁personal	-1406
▁kind	-1407
▁beh	-1408
▁price	-1409
ront	-1410
pecial	-1411
▁Cent	-1412
▁as▁the	-1413
cent	-1414
▁page	-1415
▁and▁f	-1416
▁activ	-1417
▁often	-1418
▁big	-1419
▁Res	-1420
▁soft	-1421
▁would▁be	-1422
▁that▁is	-1423
▁you▁to	-1424
s▁on	-1425
▁I▁am	-1426
▁That	-1427
omen	-1428
▁Man	-1429
indow	-1430
ified	-1431
vernment	-1432
soci	-1433
▁opport	-1434
▁times	-1435
▁makes	-1436
▁hum	-1437
▁include	-1438
▁become	-1439
.,	-1440
▁require	-1441
▁law	-1442
app	-1443
▁is▁an	-1444
oose	-1445
▁students	-1446
▁dra	-1447
s▁with	-1448
ready	-1449
▁Comm	-1450
ead	-1451
IN	-1452
▁di	-1453
hor	-1454
▁short	-1455
ency	-1456
uck	-1457
▁night	-1458
▁mean	-1459
▁condition	-1460
ed▁on	-1461
s▁of▁the	-1462
▁a▁lot	-1463
jor	-1464
▁of▁this	-1465
▁move	-1466
▁record	-1467
▁social	-1468
▁Tr	-1469
oice	-1470
▁card	-1471
itc	-1472
▁done	-1473
ane	-1474
ries	-1475
▁writ	-1476
▁quick	-1477
▁account	-1478
▁music	-1479
▁es	-1480
▁may▁be	-1481
uro	-1482
ined	-1483
ney	-1484
▁side	-1485
aff	-1486
ation▁and	-1487
▁deal	-1488
▁about▁the	-1489
ley	-1490
▁enough	-1491
▁specific	-1492
▁sever	-1493
▁ens	-1494
▁fav	-1495
arent	-1496
ured	-1497
▁based	-1498
▁hot	-1499
▁already	-1500
ing▁your	-1501
vious	-1502
▁members	-1503
▁mult	-1504
▁development	-1505
▁control	-1506
▁elect	-1507
vironment	-1508
▁These	-1509
▁la	-1510
▁par	-1511
▁Co	-1512
▁word	-1513
▁—	-1514
▁clean	-1515
utes	-1516
anies	-1517
▁I▁have	-1518
▁God	-1519
▁review	-1520
▁individual	-1521
par	-1522
▁days	-1523
iful	-1524
▁Mar	-1525
▁four	-1526
ape	-1527
▁focus	-1528
uture	-1529
isk	-1530
▁non	-1531
▁vers	-1532
▁little	-1533
▁educ	-1534
▁several	-1535
▁mar	-1536
▁pot	-1537
▁sw	-1538
▁benef	-1539
▁net	-1540
▁ever	-1541
▁purch	-1542
er▁and	-1543
olid	-1544
▁below	-1545
▁share	-1546
▁clo	-1547
ption	-1548
▁typ	-1549
▁University	-1550
▁space	-1551
▁cover	-1552
▁Can	-1553
▁live	-1554
▁case	-1555
▁left	-1556
sc	-1557
▁consider	-1558
▁It▁is	-1559
▁Eng	-1560
▁tem	-1561
▁season	-1562
ances	-1563
ing▁for	-1564
ee	-1565
▁occ	-1566
ed▁by▁the	-1567
▁hig	-1568
▁You▁can	-1569
▁number▁of	-1570
ilt	-1571
cu	-1572
by	-1573
▁store	-1574
▁return	-1575
▁item	-1576
▁line	-1577
▁major	-1578
▁the▁first	-1579
alf	-1580
▁pack	-1581
augh	-1582
▁Su	-1583
▁was▁a	-1584
▁mind	-1585
ON	-1586
▁Am	-1587
▁compet	-1588
▁My	-1589
▁hold	-1590
▁range	-1591
s▁in▁the	-1592
▁Do	-1593
▁key	-1594
▁et	-1595
▁industry	-1596
light	-1597
▁has▁a	-1598
▁commun	-1599
▁No	-1600
▁offers	-1601
▁install	-1602
ither	-1603
lf	-1604
ully	-1605
ding	-1606
▁Car	-1607
▁reason	-1608
▁companies	-1609
▁you▁will	-1610
son	-1611
most	-1612
▁up▁to	-1613
▁redu	-1614
atic	-1615
▁imm	-1616
ES	-1617
▁there▁are	-1618
urance	-1619
▁recomm	-1620
▁land	-1621
▁large	-1622
ing▁on	-1623
▁orig	-1624
▁email	-1625
▁story	-1626
▁recommend	-1627
inc	-1628
▁away	-1629
aim	-1630
▁comb	-1631
▁lim	-1632
ograph	-1633
▁should▁be	-1634
▁step	-1635
▁deli	-1636
▁ce	-1637
▁against	-1638
▁we▁are	-1639
▁tell	-1640
▁past	-1641
ribut	-1642
ait	-1643
cell	-1644
ai	-1645
AT	-1646
▁thought	-1647
▁low	-1648
▁particular	-1649
ering	-1650
▁ess	-1651
urs	-1652
urther	-1653
ethod	-1654
▁certain	-1655
atural	-1656
▁video	-1657
▁million	-1658
▁contain	-1659
What	-1660
ilities	-1661
▁far	-1662
book	-1663
ing▁of	-1664
▁do▁not	-1665
rap	-1666
▁value	-1667
ed▁in▁the	-1668
cle	-1669
enn	-1670
yn	-1671
resent	-1672
▁please	-1673
▁dr	-1674
▁in▁your	-1675
sw	-1676
conom	-1677
▁standard	-1678
ask	-1679
▁means	-1680
▁environment	-1681
AN	-1682
s▁or	-1683
▁didn	-1684
▁App	-1685
▁priv	-1686
▁chall	-1687
▁how▁to	-1688
▁travel	-1689
▁anal	-1690
vert	-1691
▁Tra	-1692
▁lot	-1693
▁the▁m	-1694
▁bed	-1695
▁begin	-1696
ised	-1697
▁doesn	-1698
▁happen	-1699
▁fund	-1700
ino	-1701
▁a▁few	-1702
▁Pr	-1703
▁exc	-1704
ctor	-1705
▁jo	-1706
▁Serv	-1707
err	-1708
▁least	-1709
▁together	-1710
▁example	-1711
▁May	-1712
ising	-1713
▁ste	-1714
ources	-1715
For	-1716
urity	-1717
▁super	-1718
▁is▁to	-1719
▁heart	-1720
▁pie	-1721
rodu	-1722
▁camp	-1723
▁to▁your	-1724
▁beautiful	-1725
▁port	-1726
▁strong	-1727
not	-1728
bal	-1729
ination	-1730
ats	-1731
▁once	-1732
over	-1733
▁skill	-1734
▁ident	-1735
.
“	-1736
▁charact	-1737
ply	-1738
▁Intern	-1739
▁However	-1740
ference	-1741
▁X	-1742
▁tre	-1743
ford	-1744
▁provides	-1745
▁energ	-1746
▁remain	-1747
▁stay	-1748
ister	-1749
ource	-1750
▁kid	-1751
▁tax	-1752
▁you▁have	-1753
▁search	-1754
ok	-1755
▁Inst	-1756
fact	-1757
▁mil	-1758
▁content	-1759
▁yet	-1760
▁that▁I	-1761
iod	-1762
▁government	-1763
▁cut	-1764
▁respons	-1765
che	-1766
ruction	-1767
s▁from	-1768
ancial	-1769
▁young	-1770
▁above	-1771
▁En	-1772
br	-1773
ored	-1774
▁Fl	-1775
▁question	-1776
opp	-1777
▁rele	-1778
▁won	-1779
ledge	-1780
▁pict	-1781
▁z	-1782
▁One	-1783
AR	-1784
▁wond	-1785
▁known	-1786
eral	-1787
▁Des	-1788
▁body	-1789
pecially	-1790
▁Ro	-1791
▁close	-1792
▁given	-1793
He	-1794
▁enc	-1795
ental	-1796
ety	-1797
▁to▁see	-1798
▁which▁is	-1799
unch	-1800
▁ey	-1801
ural	-1802
▁early	-1803
uff	-1804
ides	-1805
▁fore	-1806
▁property	-1807
▁customers	-1808
une	-1809
ners	-1810
▁improve	-1811
resh	-1812
There	-1813
lished	-1814
▁men	-1815
▁Gu	-1816
ster	-1817
▁type	-1818
▁Comp	-1819
▁student	-1820
▁others	-1821
▁Euro	-1822
▁areas	-1823
tt	-1824
▁invol	-1825
▁the▁most	-1826
▁offic	-1827
▁upd	-1828
▁on▁your	-1829
▁amount	-1830
▁web	-1831
ww	-1832
▁Med	-1833
osp	-1834
▁tour	-1835
▁products	-1836
▁link	-1837
itor	-1838
▁at▁a	-1839
▁sell	-1840
▁American	-1841
▁brand	-1842
."
	-1843
▁plac	-1844
reet	-1845
▁vol	-1846
▁hope	-1847
▁various	-1848
▁same	-1849
arr	-1850
▁Che	-1851
▁repl	-1852
leg	-1853
idd	-1854
▁tool	-1855
▁came	-1856
▁flo	-1857
▁sound	-1858
▁sum	-1859
ensive	-1860
▁appear	-1861
▁idea	-1862
mber	-1863
▁color	-1864
▁simple	-1865
es▁are	-1866
OR	-1867
▁method	-1868
▁future	-1869
fic	-1870
▁ensure	-1871
ion▁of	-1872
▁of▁their	-1873
▁staff	-1874
▁experien	-1875
▁and▁we	-1876
▁cou	-1877
▁study	-1878
▁everything	-1879
▁due	-1880
▁table	-1881
wh	-1882
redit	-1883
▁single	-1884
▁field	-1885
▁position	-1886
▁required	-1887
es▁in	-1888
▁risk	-1889
▁management	-1890
▁minutes	-1891
,"	-1892
ox	-1893
▁near	-1894
▁over▁the	-1895
▁whole	-1896
▁dig	-1897
ed▁that	-1898
oid	-1899
▁cra	-1900
play	-1901
ung	-1902
▁address	-1903
▁unique	-1904
▁into▁the	-1905
fully	-1906
roll	-1907
▁issues	-1908
▁during▁the	-1909
▁someone	-1910
.
"	-1911
▁mom	-1912
ulation	-1913
astic	-1914
▁choose	-1915
▁Cont	-1916
▁out▁of	-1917
abor	-1918
▁says	-1919
ibility	-1920
An	-1921
idence	-1922
▁Your	-1923
ufact	-1924
▁country	-1925
▁during	-1926
▁whether	-1927
ohn	-1928
gr	-1929
▁Ne	-1930
aur	-1931
St	-1932
▁assist	-1933
ps	-1934
▁discuss	-1935
▁performance	-1936
▁taking	-1937
▁oil	-1938
irt	-1939
ogn	-1940
▁common	-1941
▁city	-1942
▁Ste	-1943
▁print	-1944
▁doing	-1945
▁manag	-1946
▁easy	-1947
▁way▁to	-1948
▁Fe	-1949
▁mot	-1950
itchen	-1951
s▁like	-1952
lege	-1953
▁period	-1954
▁Europe	-1955
▁through▁the	-1956
▁exam	-1957
▁download	-1958
▁track	-1959
▁prob	-1960
▁in▁this	-1961
▁model	-1962
▁particip	-1963
ggest	-1964
▁mach	-1965
arning	-1966
▁Fr	-1967
obile	-1968
ched	-1969
▁cal	-1970
▁,	-1971
▁seen	-1972
▁pri	-1973
come	-1974
ones	-1975
though	-1976
▁quite	-1977
▁went	-1978
nov	-1979
oon	-1980
▁a▁f	-1981
rict	-1982
How	-1983
lex	-1984
▁clos	-1985
▁wide	-1986
a▁and	-1987
▁cult	-1988
rew	-1989
aring	-1990
▁talk	-1991
▁took	-1992
urch	-1993
af	-1994
▁later	-1995
▁favor	-1996
▁wall	-1997
▁strateg	-1998
▁media	-1999
▁econom	-2000
▁City	-2001
▁bring	-2002
▁technology	-2003
cri	-2004
▁comfort	-2005
orld	-2006
▁bar	-2007
▁natural	-2008
irl	-2009
▁we▁can	-2010
ables	-2011
▁polic	-2012
▁women	-2013
▁extra	-2014
▁Rep	-2015
▁effective	-2016
ler	-2017
ume	-2018
As	-2019
▁select	-2020
▁phys	-2021
▁everyone	-2022
ED	-2023
▁especially	-2024
▁tot	-2025
▁either	-2026
▁function	-2027
imate	-2028
▁training	-2029
▁eff	-2030
▁host	-2031
▁break	-2032
▁actually	-2033
▁suggest	-2034
edi	-2035
▁press	-2036
▁when▁you	-2037
▁tradition	-2038
On	-2039
▁mess	-2040
▁Aust	-2041
omes	-2042
crib	-2043
▁percent	-2044
▁walk	-2045
inking	-2046
When	-2047
▁of▁these	-2048
▁and▁then	-2049
▁film	-2050
▁simply	-2051
▁comput	-2052
▁defin	-2053
▁human	-2054
▁entire	-2055
▁questions	-2056
pro	-2057
▁United	-2058
▁size	-2059
▁does▁not	-2060
▁help▁you	-2061
▁regard	-2062
▁meas	-2063
▁ant	-2064
▁software	-2065
IT	-2066
▁After	-2067
▁connect	-2068
uring	-2069
▁Thank	-2070
▁getting	-2071
do	-2072
▁white	-2073
▁office	-2074
▁necess	-2075
▁includes	-2076
▁option	-2077
▁effort	-2078
▁exist	-2079
▁energy	-2080
istic	-2081
▁used▁to	-2082
back	-2083
▁dam	-2084
▁spend	-2085
ficult	-2086
ene	-2087
▁text	-2088
▁almost	-2089
ment▁of	-2090
▁relations	-2091
gle	-2092
▁for▁you	-2093
▁history	-2094
elt	-2095
ed▁up	-2096
▁watch	-2097
gest	-2098
▁Me	-2099
ball	-2100
rain	-2101
wards	-2102
iver	-2103
▁pick	-2104
▁mag	-2105
ated▁to	-2106
▁to▁do	-2107
▁difficult	-2108
▁etc	-2109
▁knowledge	-2110
EN	-2111
xim	-2112
▁engine	-2113
▁a▁little	-2114
▁/	-2115
▁glo	-2116
▁I▁can	-2117
ilar	-2118
▁style	-2119
▁series	-2120
IS	-2121
▁and▁it	-2122
yl	-2123
ians	-2124
▁from▁a	-2125
▁thank	-2126
▁further	-2127
▁five	-2128
▁comes	-2129
▁claim	-2130
▁veh	-2131
▁called	-2132
▁dou	-2133
▁protect	-2134
▁half	-2135
ux	-2136
▁self	-2137
▁Min	-2138
▁phone	-2139
▁sol	-2140
▁of▁my	-2141
▁network	-2142
AS	-2143
▁clear	-2144
▁South	-2145
▁wait	-2146
▁request	-2147
new	-2148
umb	-2149
▁application	-2150
▁answ	-2151
rown	-2152
▁soon	-2153
itch	-2154
ived	-2155
▁popular	-2156
uge	-2157
▁docu	-2158
▁located	-2159
▁taken	-2160
▁ideas	-2161
▁School	-2162
selves	-2163
▁road	-2164
▁games	-2165
▁variet	-2166
AL	-2167
ief	-2168
ibr	-2169
▁throughout	-2170
▁John	-2171
▁miss	-2172
▁red	-2173
▁we▁have	-2174
▁This▁is	-2175
duct	-2176
▁signific	-2177
▁TH	-2178
ication	-2179
▁Cal	-2180
▁send	-2181
▁however	-2182
azing	-2183
▁coll	-2184
▁Not	-2185
▁North	-2186
▁manufact	-2187
▁front	-2188
time	-2189
▁represent	-2190
▁tal	-2191
▁a▁lot▁of	-2192
▁third	-2193
ires	-2194
▁building	-2195
ze	-2196
▁not▁be	-2197
▁blog	-2198
▁opportunity	-2199
▁news	-2200
▁safe	-2201
▁fill	-2202
▁needs	-2203
▁at▁least	-2204
▁financial	-2205
▁National	-2206
▁hy	-2207
ouch	-2208
enc	-2209
where	-2210
▁is▁that	-2211
apt	-2212
▁wood	-2213
▁issue	-2214
mit	-2215
▁deb	-2216
▁Count	-2217
So	-2218
▁goal	-2219
IC	-2220
▁aud	-2221
▁fre	-2222
ipment	-2223
▁pret	-2224
▁York	-2225
etimes	-2226
s▁not	-2227
▁customer	-2228
▁fit	-2229
gra	-2230
angu	-2231
▁black	-2232
▁wonder	-2233
▁receive	-2234
▁Inc	-2235
▁State	-2236
ing▁that	-2237
▁stop	-2238
▁window	-2239
▁increase	-2240
If▁you	-2241
▁among	-2242
▁believe	-2243
▁time▁to	-2244
▁currently	-2245
ers▁to	-2246
▁insurance	-2247
▁accord	-2248
▁age	-2249
▁impact	-2250
ublic	-2251
▁situ	-2252
▁subject	-2253
ison	-2254
reme	-2255
▁face	-2256
verage	-2257
▁abs	-2258
▁contract	-2259
▁having	-2260
▁Ag	-2261
ites	-2262
▁paper	-2263
▁parent	-2264
▁consum	-2265
▁regular	-2266
▁foot	-2267
ing▁with	-2268
acy	-2269
▁usually	-2270
amer	-2271
▁potential	-2272
▁author	-2273
▁security	-2274
▁jour	-2275
s▁to▁be	-2276
▁Im	-2277
▁relationship	-2278
RE	-2279
ed▁out	-2280
▁excell	-2281
atest	-2282
▁x	-2283
face	-2284
▁solution	-2285
oura	-2286
▁depend	-2287
▁else	-2288
▁there▁is	-2289
▁pretty	-2290
▁expert	-2291
▁previous	-2292
icro	-2293
mon	-2294
▁nice	-2295
▁determ	-2296
▁a▁new	-2297
ructure	-2298
▁rather	-2299
▁fall	-2300
▁[	-2301
▁additional	-2302
▁Go	-2303
ification	-2304
▁likely	-2305
action	-2306
▁probably	-2307
▁significant	-2308
▁init	-2309
acher	-2310
▁matter	-2311
▁Park	-2312
▁I▁had	-2313
▁concern	-2314
▁del	-2315
▁client	-2316
▁date	-2317
▁built	-2318
.”	-2319
▁ut	-2320
ted	-2321
▁sle	-2322
▁There▁are	-2323
ers▁are	-2324
▁higher	-2325
ival	-2326
ring	-2327
▁stat	-2328
bor	-2329
▁da	-2330
▁anything	-2331
▁choice	-2332
ges	-2333
▁with▁your	-2334
itten	-2335
▁prep	-2336
imal	-2337
▁insp	-2338
▁easily	-2339
▁collection	-2340
▁click	-2341
▁started	-2342
▁World	-2343
ing▁to▁the	-2344
--	-2345
▁famil	-2346
▁treatment	-2347
▁private	-2348
rect	-2349
▁original	-2350
er▁to	-2351
▁Per	-2352
▁outside	-2353
▁continue	-2354
▁estab	-2355
To	-2356
▁object	-2357
iple	-2358
▁mor	-2359
▁rate	-2360
▁takes	-2361
▁crit	-2362
▁recogn	-2363
▁Just	-2364
▁exact	-2365
head	-2366
▁Apr	-2367
▁apply	-2368
▁but▁I	-2369
▁Em	-2370
ises	-2371
dd	-2372
▁Dis	-2373
▁of▁M	-2374
▁skin	-2375
▁modern	-2376
▁tar	-2377
asing	-2378
minist	-2379
▁friends	-2380
▁sent	-2381
ese	-2382
▁pan	-2383
▁save	-2384
▁attend	-2385
▁inj	-2386
aps	-2387
▁associ	-2388
▁like▁to	-2389
▁options	-2390
▁Qu	-2391
▁swe	-2392
arden	-2393
▁collect	-2394
ots	-2395
▁drive	-2396
▁true	-2397
▁Sm	-2398
ffe	-2399
▁deg	-2400
▁and▁other	-2401
▁some▁of▁the	-2402
▁bit	-2403
▁in▁their	-2404
▁could▁be	-2405
▁plant	-2406
ed▁at	-2407
▁kitchen	-2408
▁via	-2409
▁Pres	-2410
lu	-2411
ing▁them	-2412
▁member	-2413
ing▁their	-2414
itut	-2415
▁polit	-2416
▁Some	-2417
▁Bo	-2418
hing	-2419
▁production	-2420
▁maintain	-2421
▁similar	-2422
▁fail	-2423
▁agree	-2424
rug	-2425
board	-2426
oman	-2427
▁floor	-2428
▁Ge	-2429
▁behind	-2430
▁effic	-2431
Ch	-2432
erc	-2433
▁ground	-2434
▁Cor	-2435
▁hair	-2436
▁part▁of▁the	-2437
▁leave	-2438
▁continu	-2439
▁image	-2440
ate▁the	-2441
oud	-2442
▁cir	-2443
▁Af	-2444
hib	-2445
▁quickly	-2446
oogle	-2447
▁announ	-2448
ies▁and	-2449
▁Pe	-2450
▁board	-2451
▁Part	-2452
▁general	-2453
▁growth	-2454
anced	-2455
▁accept	-2456
▁decid	-2457
▁Ke	-2458
icles	-2459
And	-2460
▁Mark	-2461
▁sport	-2462
atform	-2463
▁user	-2464
▁location	-2465
▁Jan	-2466
ole	-2467
▁door	-2468
cing	-2469
▁works	-2470
▁worth	-2471
▁approach	-2472
ged	-2473
▁His	-2474
▁box	-2475
▁this▁is	-2476
▁credit	-2477
▁display	-2478
▁train	-2479
▁saf	-2480
▁role	-2481
ipe	-2482
▁reach	-2483
▁events	-2484
▁High	-2485
▁Bu	-2486
▁cell	-2487
lin	-2488
▁lay	-2489
ana	-2490
put	-2491
▁caus	-2492
s▁to▁the	-2493
▁By	-2494
▁Tw	-2495
▁held	-2496
▁character	-2497
▁learning	-2498
reg	-2499
arth	-2500
▁Please	-2501
ray	-2502
▁hours	-2503
AC	-2504
amb	-2505
▁dom	-2506
▁six	-2507
▁dest	-2508
▁Stud	-2509
▁norm	-2510
▁rent	-2511
ed▁to▁the	-2512
ators	-2513
▁benefit	-2514
▁that▁are	-2515
▁medical	-2516
▁practice	-2517
▁recent	-2518
eter	-2519
▁party	-2520
▁Dr	-2521
▁cop	-2522
▁forward	-2523
▁living	-2524
▁range▁of	-2525
▁clients	-2526
▁is▁also	-2527
▁consist	-2528
▁vi	-2529
▁Sec	-2530
▁anyone	-2531
.▁"	-2532
▁UK	-2533
ground	-2534
Our	-2535
▁cas	-2536
oph	-2537
▁respect	-2538
▁weight	-2539
▁dog	-2540
▁purchase	-2541
▁hon	-2542
ing▁up	-2543
void	-2544
▁sat	-2545
▁Bar	-2546
ed▁into	-2547
▁version	-2548
▁bad	-2549
▁kind▁of	-2550
But	-2551
▁cool	-2552
▁favorite	-2553
ille	-2554
▁Dep	-2555
ed▁as	-2556
▁join	-2557
▁speak	-2558
▁months	-2559
▁Ab	-2560
▁April	-2561
▁Austral	-2562
//	-2563
▁official	-2564
right	-2565
▁prior	-2566
orage	-2567
Al	-2568
▁fast	-2569
▁Will	-2570
▁New▁York	-2571
iam	-2572
ada	-2573
▁equipment	-2574
▁firm	-2575
▁challeng	-2576
▁recently	-2577
▁neg	-2578
▁flow	-2579
irit	-2580
▁stock	-2581
▁screen	-2582
iting	-2583
usiness	-2584
▁but▁it	-2585
ips	-2586
olutions	-2587
▁introdu	-2588
ecut	-2589
▁excellent	-2590
hold	-2591
val	-2592
▁users	-2593
▁remov	-2594
▁town	-2595
▁shop	-2596
▁#	-2597
▁yourself	-2598
cer	-2599
▁Now	-2600
▁lar	-2601
▁prevent	-2602
▁mix	-2603
▁States	-2604
▁necessary	-2605
▁cele	-2606
▁trying▁to	-2607
▁deep	-2608
▁picture	-2609
empt	-2610
▁enter	-2611
▁that▁they	-2612
mas	-2613
▁education	-2614
▁highly	-2615
▁ill	-2616
ran	-2617
▁told	-2618
▁that▁we	-2619
▁bath	-2620
▁I▁would	-2621
pose	-2622
▁order▁to	-2623
▁activities	-2624
▁bal	-2625
ively	-2626
adem	-2627
hel	-2628
▁op	-2629
▁Off	-2630
▁Reg	-2631
▁decision	-2632
▁longer	-2633
▁Center	-2634
▁Ed	-2635
▁Pre	-2636
▁trust	-2637
my	-2638
▁Par	-2639
▁variety▁of	-2640
iture	-2641
▁round	-2642
na	-2643
ivity	-2644
▁resources	-2645
▁coun	-2646
▁total	-2647
▁inside	-2648
ches	-2649
▁fire	-2650
▁restaur	-2651
ees	-2652
year	-2653
▁action	-2654
▁he▁was	-2655
▁gain	-2656
▁song	-2657
ension	-2658
erve	-2659
▁Art	-2660
▁Don	-2661
ing▁it	-2662
▁target	-2663
iter	-2664
▁West	-2665
▁a▁great	-2666
▁results	-2667
eal	-2668
▁ability	-2669
▁must▁be	-2670
▁Us	-2671
just	-2672
▁to▁have	-2673
▁suit	-2674
▁Air	-2675
pri	-2676
▁features	-2677
▁code	-2678
▁sett	-2679
based	-2680
▁chance	-2681
▁digital	-2682
▁platform	-2683
▁that▁it	-2684
▁prim	-2685
▁in▁my	-2686
▁separ	-2687
.▁(	-2688
ached	-2689
▁writing	-2690
▁on▁this	-2691
▁and▁is	-2692
uary	-2693
▁article	-2694
▁trip	-2695
▁We▁are	-2696
▁squ	-2697
gu	-2698
▁with▁an	-2699
▁rad	-2700
lev	-2701
▁cook	-2702
▁national	-2703
ression	-2704
With	-2705
▁draw	-2706
▁file	-2707
OT	-2708
▁encoura	-2709
▁While	-2710
▁commer	-2711
▁I▁think	-2712
▁sens	-2713
▁in▁our	-2714
▁mobile	-2715
▁ple	-2716
▁rout	-2717
▁sche	-2718
▁teach	-2719
itely	-2720
iddle	-2721
▁Fin	-2722
▁prices	-2723
▁smo	-2724
▁autom	-2725
▁ded	-2726
▁moment	-2727
reng	-2728
▁international	-2729
▁tit	-2730
anguage	-2731
aper	-2732
▁From	-2733
▁computer	-2734
▁block	-2735
ysis	-2736
▁emb	-2737
atory	-2738
▁limit	-2739
▁explain	-2740
urg	-2741
ett	-2742
▁Aut	-2743
▁in▁M	-2744
▁repair	-2745
▁huge	-2746
irth	-2747
▁leav	-2748
▁leaders	-2749
▁organization	-2750
s▁at	-2751
▁immedi	-2752
▁furn	-2753
cription	-2754
▁to▁help	-2755
▁summer	-2756
▁hav	-2757
sy	-2758
udget	-2759
▁photos	-2760
▁daily	-2761
▁going	-2762
▁who▁are	-2763
OU	-2764
▁and▁M	-2765
▁legal	-2766
lock	-2767
▁stra	-2768
ountain	-2769
▁section	-2770
nal	-2771
▁base	-2772
▁lives	-2773
▁Day	-2774
▁fram	-2775
▁and▁S	-2776
▁touch	-2777
▁stri	-2778
▁running	-2779
aste	-2780
."	-2781
lier	-2782
mitt	-2783
bit	-2784
▁heat	-2785
ed▁to▁be	-2786
pper	-2787
cast	-2788
▁fig	-2789
▁qual	-2790
▁written	-2791
like	-2792
▁implement	-2793
earch	-2794
▁It▁was	-2795
▁Health	-2796
▁so▁much	-2797
▁Oct	-2798
▁sale	-2799
▁.
	-2800
▁write	-2801
urer	-2802
▁match	-2803
▁arch	-2804
▁Val	-2805
▁sales	-2806
▁traditional	-2807
▁feed	-2808
▁easy▁to	-2809
▁what▁you	-2810
aign	-2811
▁demand	-2812
▁directly	-2813
▁of▁his	-2814
▁changes	-2815
kend	-2816
://	-2817
▁completely	-2818
▁of▁an	-2819
▁hear	-2820
ault	-2821
cher	-2822
▁Act	-2823
▁organiz	-2824
▁of▁S	-2825
▁or▁a	-2826
su	-2827
▁dep	-2828
▁green	-2829
vey	-2830
▁regist	-2831
▁gen	-2832
▁itself	-2833
▁consult	-2834
▁extreme	-2835
▁teacher	-2836
▁Here	-2837
chieve	-2838
▁cause	-2839
▁deliver	-2840
▁gives	-2841
▁machine	-2842
▁global	-2843
▁gold	-2844
▁task	-2845
▁hit	-2846
▁roll	-2847
s▁were	-2848
▁County	-2849
▁device	-2850
▁remember	-2851
▁Ju	-2852
▁mention	-2853
▁commercial	-2854
▁El	-2855
,▁“	-2856
▁sense	-2857
▁document	-2858
ky	-2859
uel	-2860
▁Home	-2861
▁United▁States	-2862
▁to▁find	-2863
▁attention	-2864
cil	-2865
▁career	-2866
▁amazing	-2867
hern	-2868
s▁ago	-2869
▁final	-2870
▁except	-2871
▁Pol	-2872
▁Google	-2873
ession	-2874
ha	-2875
▁essential	-2876
▁Mc	-2877
▁the▁right	-2878
▁as▁an	-2879
▁and▁more	-2880
ondon	-2881
▁describ	-2882
▁House	-2883
mark	-2884
ruit	-2885
▁in▁S	-2886
ules	-2887
▁multiple	-2888
▁--	-2889
▁inde	-2890
▁death	-2891
▁across	-2892
▁and▁d	-2893
partment	-2894
▁ear	-2895
▁Design	-2896
▁bank	-2897
▁bi	-2898
▁mass	-2899
▁sun	-2900
edding	-2901
▁in▁B	-2902
arter	-2903
oe	-2904
▁wish	-2905
▁guest	-2906
ological	-2907
▁concept	-2908
▁imag	-2909
OS	-2910
▁piece	-2911
▁fully	-2912
▁for▁this	-2913
wood	-2914
ony	-2915
ekend	-2916
▁streng	-2917
▁of▁all	-2918
▁Associ	-2919
unities	-2920
▁hotel	-2921
onst	-2922
▁saw	-2923
▁cert	-2924
hest	-2925
lim	-2926
▁pers	-2927
ham	-2928
▁girl	-2929
ober	-2930
▁sym	-2931
▁warm	-2932
ought	-2933
▁fix	-2934
▁allows	-2935
▁ones	-2936
sp	-2937
▁eat	-2938
▁for▁all	-2939
ing▁is	-2940
▁lost	-2941
▁that▁will	-2942
aby	-2943
▁surpr	-2944
ing▁out	-2945
ed▁from	-2946
org	-2947
hood	-2948
oes	-2949
▁shall	-2950
▁gift	-2951
▁patients	-2952
▁innov	-2953
▁International	-2954
▁myself	-2955
▁Afric	-2956
▁commit	-2957
Thank	-2958
At	-2959
▁sn	-2960
avy	-2961
▁a▁good	-2962
▁the▁world	-2963
▁Sept	-2964
▁release	-2965
wise	-2966
▁in▁an	-2967
▁President	-2968
▁Acc	-2969
▁dise	-2970
▁unit	-2971
All	-2972
▁successful	-2973
oring	-2974
▁English	-2975
▁wel	-2976
▁obs	-2977
akes	-2978
inary	-2979
urb	-2980
zz	-2981
nes	-2982
▁More	-2983
AM	-2984
▁players	-2985
mission	-2986
▁Of	-2987
ming	-2988
▁affect	-2989
▁prem	-2990
▁marketing	-2991
▁upon	-2992
▁sil	-2993
▁TV	-2994
raft	-2995
▁but▁the	-2996
▁of▁them	-2997
▁bott	-2998
▁gradu	-2999
▁did▁not	-3000
▁construction	-3001
▁Germ	-3002
▁to▁take	-3003
▁storage	-3004
onse	-3005
▁and▁you	-3006
▁div	-3007
gy	-3008
▁Int	-3009
ude	-3010
▁rev	-3011
▁attack	-3012
▁fresh	-3013
▁AN	-3014
▁thinking	-3015
ma	-3016
ceed	-3017
▁problems	-3018
▁late	-3019
▁London	-3020
My	-3021
▁Aug	-3022
▁instead	-3023
▁Direct	-3024
▁America	-3025
▁countries	-3026
▁morning	-3027
ker	-3028
▁lower	-3029
▁for▁their	-3030
▁one▁of	-3031
ament	-3032
▁images	-3033
OM	-3034
▁driv	-3035
▁cand	-3036
▁Face	-3037
mb	-3038
enge	-3039
▁positive	-3040
▁comment	-3041
▁gar	-3042
▁began	-3043
unt	-3044
▁ep	-3045
ama	-3046
apan	-3047
▁June	-3048
,▁"	-3049
▁hous	-3050
ederal	-3051
ica	-3052
erous	-3053
▁holid	-3054
idered	-3055
▁answer	-3056
▁ge	-3057
▁became	-3058
▁finish	-3059
cul	-3060
▁definitely	-3061
▁Har	-3062
▁lic	-3063
▁advant	-3064
▁amount▁of	-3065
▁:	-3066
▁supply	-3067
▁Her	-3068
ences	-3069
ing▁an	-3070
▁celebr	-3071
s▁on▁the	-3072
▁the▁S	-3073
▁complex	-3074
ington	-3075
▁using▁the	-3076
ING	-3077
▁Black	-3078
▁serious	-3079
verse	-3080
▁tick	-3081
agn	-3082
arant	-3083
▁Then	-3084
▁Mr	-3085
▁isn	-3086
▁looking▁for	-3087
riday	-3088
▁wonderful	-3089
▁attempt	-3090
▁inform	-3091
▁cases	-3092
▁Every	-3093
ris	-3094
▁sometimes	-3095
▁wrong	-3096
▁and▁to	-3097
▁a▁long	-3098
▁kids	-3099
▁entry	-3100
▁systems	-3101
uth	-3102
▁this▁year	-3103
▁China	-3104
▁kill	-3105
▁of▁B	-3106
▁exactly	-3107
▁af	-3108
iant	-3109
▁opportunities	-3110
▁to▁use	-3111
▁Net	-3112
▁added	-3113
▁carry	-3114
▁Are	-3115
▁type▁of	-3116
itute	-3117
▁earn	-3118
▁India	-3119
▁Gl	-3120
▁drug	-3121
alt	-3122
▁Service	-3123
ET	-3124
ule	-3125
rel	-3126
▁Dav	-3127
reci	-3128
igation	-3129
ara	-3130
orge	-3131
▁nature	-3132
▁Christmas	-3133
▁load	-3134
▁weekend	-3135
▁into▁a	-3136
▁I▁don	-3137
key	-3138
atives	-3139
▁cy	-3140
▁dream	-3141
▁a▁bit	-3142
▁vehicle	-3143
ibly	-3144
aught	-3145
▁obtain	-3146
rought	-3147
▁policy	-3148
▁not▁only	-3149
▁emerg	-3150
▁speed	-3151
▁safety	-3152
▁cannot	-3153
▁had▁a	-3154
▁March	-3155
.▁“	-3156
▁note	-3157
▁bag	-3158
isf	-3159
▁log	-3160
fl	-3161
▁Coun	-3162
▁sleep	-3163
▁Red	-3164
▁goes	-3165
▁administ	-3166
▁rock	-3167
▁Ac	-3168
▁camer	-3169
▁Sw	-3170
▁garden	-3171
▁source	-3172
▁pull	-3173
▁eye	-3174
▁January	-3175
ID	-3176
▁lab	-3177
▁Window	-3178
gar	-3179
▁club	-3180
▁path	-3181
rast	-3182
▁guide	-3183
▁Most	-3184
▁sold	-3185
band	-3186
▁partners	-3187
▁measure	-3188
▁campaign	-3189
iring	-3190
ship	-3191
▁dry	-3192
fered	-3193
olute	-3194
iction	-3195
▁band	-3196
▁indic	-3197
iff	-3198
s▁and▁the	-3199
uk	-3200
▁ten	-3201
▁decor	-3202
▁easier	-3203
▁happy	-3204
EC	-3205
▁spot	-3206
▁when▁the	-3207
▁promot	-3208
itect	-3209
▁slow	-3210
▁sort	-3211
ester	-3212
▁subst	-3213
▁appropri	-3214
▁region	-3215
off	-3216
yond	-3217
▁when▁it	-3218
▁prec	-3219
▁photo	-3220
▁considered	-3221
▁Group	-3222
▁glass	-3223
chan	-3224
▁Depart	-3225
▁investment	-3226
▁physical	-3227
▁propos	-3228
▁you▁may	-3229
▁based▁on	-3230
▁average	-3231
▁have▁the	-3232
ills	-3233
▁hor	-3234
US	-3235
▁when▁I	-3236
EL	-3237
olf	-3238
▁Also	-3239
s▁into	-3240
ari	-3241
▁neigh	-3242
▁listen	-3243
Be	-3244
▁war	-3245
▁to▁you	-3246
▁guid	-3247
IL	-3248
▁THE	-3249
▁Feb	-3250
▁Gra	-3251
amic	-3252
▁latest	-3253
pre	-3254
▁devices	-3255
▁analysis	-3256
ly▁and	-3257
PS	-3258
vest	-3259
ville	-3260
▁Friday	-3261
▁stuff	-3262
▁was▁the	-3263
▁they▁were	-3264
ll▁be	-3265
aint	-3266
▁Gener	-3267
▁loss	-3268
ovember	-3269
▁Facebook	-3270
▁Sim	-3271
ague	-3272
▁Cour	-3273
▁wear	-3274
▁within▁the	-3275
▁ball	-3276
▁pred	-3277
▁published	-3278
▁Cons	-3279
▁gas	-3280
▁and▁that	-3281
▁cat	-3282
aul	-3283
▁Great	-3284
▁solutions	-3285
ospital	-3286
▁budget	-3287
asons	-3288
inner	-3289
▁October	-3290
One	-3291
▁Free	-3292
ing▁from	-3293
▁mother	-3294
▁altern	-3295
▁correct	-3296
rive	-3297
▁ing	-3298
ny	-3299
▁ult	-3300
▁Calif	-3301
▁conduct	-3302
▁pool	-3303
▁viol	-3304
▁mid	-3305
ed▁it	-3306
Re	-3307
▁War	-3308
▁details	-3309
▁fine	-3310
▁might▁be	-3311
▁vac	-3312
▁score	-3313
▁Brit	-3314
▁jud	-3315
▁September	-3316
▁appoint	-3317
alu	-3318
▁La	-3319
▁Mon	-3320
ustain	-3321
▁histor	-3322
▁Services	-3323
▁feet	-3324
ity▁of	-3325
▁reading	-3326
▁selection	-3327
▁advice	-3328
▁exerc	-3329
sych	-3330
ashion	-3331
▁are▁the	-3332
▁htt	-3333
▁use▁of	-3334
es▁the	-3335
▁difference	-3336
▁serve	-3337
▁Techn	-3338
attle	-3339
▁enh	-3340
eries	-3341
▁transfer	-3342
▁integr	-3343
gram	-3344
rench	-3345
▁former	-3346
rences	-3347
▁projects	-3348
set	-3349
▁Japan	-3350
▁replace	-3351
▁felt	-3352
▁you▁need▁to	-3353
clus	-3354
▁stru	-3355
▁as▁it	-3356
▁language	-3357
▁response	-3358
vis	-3359
bum	-3360
porate	-3361
ares	-3362
▁arm	-3363
error	-3364
ing▁on▁the	-3365
▁overall	-3366
ronic	-3367
▁smart	-3368
aturday	-3369
unday	-3370
ridge	-3371
▁court	-3372
ousand	-3373
ength	-3374
▁minim	-3375
▁spirit	-3376
▁paid	-3377
▁stage	-3378
cember	-3379
▁due▁to	-3380
gain	-3381
▁contribut	-3382
▁make▁sure	-3383
▁IN	-3384
ights	-3385
▁blood	-3386
▁paint	-3387
▁providing	-3388
place	-3389
▁dark	-3390
ani	-3391
▁degree	-3392
▁appreci	-3393
▁Gold	-3394
t▁be	-3395
▁bra	-3396
▁structure	-3397
ressive	-3398
After	-3399
▁temper	-3400
▁received	-3401
▁park	-3402
▁for▁me	-3403
▁ri	-3404
ales	-3405
itter	-3406
ornia	-3407
▁spent	-3408
▁meeting	-3409
▁following	-3410
door	-3411
▁influ	-3412
▁execut	-3413
▁assess	-3414
yd	-3415
▁proced	-3416
▁under▁the	-3417
pite	-3418
▁behav	-3419
useum	-3420
▁charge	-3421
▁culture	-3422
▁regul	-3423
▁center	-3424
wes	-3425
▁technolog	-3426
▁restaurant	-3427
▁li	-3428
road	-3429
▁Trans	-3430
▁tend	-3431
▁subs	-3432
▁double	-3433
▁adult	-3434
▁patient	-3435
▁capt	-3436
vant	-3437
▁Pat	-3438
▁reli	-3439
▁Jes	-3440
▁First	-3441
▁In▁the	-3442
▁Book	-3443
▁highest	-3444
▁those▁who	-3445
urt	-3446
▁guarant	-3447
▁truly	-3448
▁convers	-3449
oul	-3450
▁chair	-3451
mm	-3452
▁System	-3453
▁lock	-3454
ve▁been	-3455
▁payment	-3456
▁words	-3457
▁do▁you	-3458
▁transport	-3459
enior	-3460
▁planning	-3461
▁photograph	-3462
▁damage	-3463
wide	-3464
▁November	-3465
▁message	-3466
ffee	-3467
▁mat	-3468
▁rates	-3469
▁dire	-3470
ation▁of▁the	-3471
▁adjust	-3472
▁extend	-3473
▁nam	-3474
▁reduce	-3475
iar	-3476
▁Even	-3477
▁August	-3478
Sh	-3479
▁fab	-3480
ecause	-3481
▁and▁in	-3482
▁comfortable	-3483
▁surround	-3484
▁Mus	-3485
▁aware	-3486
▁back▁to	-3487
▁internet	-3488
ed▁on▁the	-3489
▁Let	-3490
▁requirements	-3491
▁tim	-3492
mat	-3493
ibrary	-3494
▁ideal	-3495
▁healthy	-3496
▁gave	-3497
▁Gr	-3498
▁colour	-3499
....	-3500
▁had▁been	-3501
▁purpose	-3502
ube	-3503
▁wanted▁to	-3504
rows	-3505
▁heard	-3506
isc	-3507
▁certainly	-3508
▁fair	-3509
▁helps	-3510
▁European	-3511
▁College	-3512
▁distribut	-3513
▁part▁of	-3514
▁pattern	-3515
▁ter	-3516
ira	-3517
ance▁of	-3518
aging	-3519
▁prefer	-3520
▁stories	-3521
▁dress	-3522
duc	-3523
▁California	-3524
ancy	-3525
▁Bra	-3526
antly	-3527
▁occur	-3528
▁satisf	-3529
▁farm	-3530
aces	-3531
▁nut	-3532
▁expand	-3533
abin	-3534
▁for▁an	-3535
porary	-3536
▁aspect	-3537
unk	-3538
▁useful	-3539
▁political	-3540
▁July	-3541
▁Out	-3542
EO	-3543
▁brought	-3544
▁maxim	-3545
rial	-3546
▁cash	-3547
▁years▁of	-3548
▁straight	-3549
▁between▁the	-3550
▁applications	-3551
▁stress	-3552
▁furniture	-3553
▁hop	-3554
▁delivery	-3555
tee	-3556
▁are▁not	-3557
▁weeks	-3558
▁collabor	-3559
▁sites	-3560
▁wedding	-3561
▁pressure	-3562
▁acqu	-3563
▁at▁all	-3564
▁annual	-3565
▁categ	-3566
het	-3567
▁Many	-3568
▁as▁you	-3569
▁advert	-3570
olk	-3571
▁items	-3572
oke	-3573
▁soci	-3574
▁to▁our	-3575
▁connection	-3576
▁los	-3577
urrent	-3578
▁coffee	-3579
umn	-3580
▁needed	-3581
Ph	-3582
▁respond	-3583
▁fish	-3584
▁button	-3585
????	-3586
▁leading	-3587
▁produce	-3588
sequ	-3589
▁extremely	-3590
▁interview	-3591
▁Internet	-3592
▁types▁of	-3593
oday	-3594
rig	-3595
▁frequ	-3596
▁or▁the	-3597
▁to▁keep	-3598
▁rid	-3599
ross▁the	-3600
▁Mod	-3601
▁ver	-3602
▁trend	-3603
que	-3604
t▁have	-3605
ams	-3606
etic	-3607
▁sus	-3608
▁Port	-3609
▁conditions	-3610
▁activity	-3611
▁time▁and	-3612
▁shopp	-3613
▁points	-3614
▁families	-3615
▁trade	-3616
change	-3617
house	-3618
▁dead	-3619
▁birth	-3620
▁Get	-3621
▁Australia	-3622
▁aim	-3623
▁Well	-3624
▁cove	-3625
▁if▁the	-3626
▁IT	-3627
▁weather	-3628
dom	-3629
▁King	-3630
▁December	-3631
AP	-3632
ried	-3633
▁circ	-3634
ades	-3635
word	-3636
▁responsible	-3637
▁arriv	-3638
▁explore	-3639
▁your▁own	-3640
ging	-3641
▁thousand	-3642
▁cross	-3643
▁we▁will	-3644
▁materials	-3645
well	-3646
▁kn	-3647
▁Char	-3648
▁states	-3649
▁protection	-3650
▁Company	-3651
▁fell	-3652
field	-3653
▁emot	-3654
▁so▁that	-3655
haps	-3656
shop	-3657
▁wal	-3658
AD	-3659
▁setting	-3660
▁themselves	-3661
omp	-3662
▁compon	-3663
▁attract	-3664
▁finally	-3665
arily	-3666
▁costs	-3667
▁pages	-3668
▁and▁there	-3669
▁East	-3670
▁Cle	-3671
▁Best	-3672
▁reve	-3673
istry	-3674
▁immediately	-3675
ilit	-3676
▁and▁your	-3677
▁Board	-3678
▁ability▁to	-3679
isions	-3680
▁£	-3681
▁drop	-3682
▁appropriate	-3683
That	-3684
▁wind	-3685
▁arr	-3686
reak	-3687
ties	-3688
▁pet	-3689
▁estate	-3690
▁album	-3691
▁Rem	-3692
▁trail	-3693
▁Street	-3694
▁lif	-3695
▁employees	-3696
▁a▁large	-3697
▁absolute	-3698
▁und	-3699
▁numbers	-3700
▁Ital	-3701
▁on▁their	-3702
▁|	-3703
▁plus	-3704
▁Law	-3705
▁vict	-3706
▁bedroom	-3707
▁also▁be	-3708
▁doll	-3709
▁movie	-3710
You▁can	-3711
▁to▁their	-3712
▁experienced	-3713
▁temperature	-3714
▁existing	-3715
ION	-3716
▁like▁a	-3717
▁in▁which	-3718
▁drink	-3719
▁as▁they	-3720
▁college	-3721
▁beyond	-3722
▁knew	-3723
ache	-3724
▁efficient	-3725
▁Jesus	-3726
▁to▁go	-3727
▁Indian	-3728
▁normal	-3729
▁with▁their	-3730
▁particularly	-3731
▁along▁with	-3732
▁active	-3733
▁dedic	-3734
▁fight	-3735
roid	-3736
▁sty	-3737
▁vill	-3738
▁Prof	-3739
▁offered	-3740
▁situation	-3741
▁to▁work	-3742
onday	-3743
▁economic	-3744
dule	-3745
▁Hot	-3746
ruary	-3747
iles	-3748
▁ready▁to	-3749
imin	-3750
▁hom	-3751
▁Sunday	-3752
▁challenge	-3753
▁giving	-3754
▁communic	-3755
▁skills	-3756
t▁know	-3757
▁interesting	-3758
▁coming	-3759
▁ble	-3760
▁Up	-3761
usion	-3762
aughter	-3763
OL	-3764
▁Any	-3765
▁player	-3766
__	-3767
more	-3768
hol	-3769
▁Saturday	-3770
▁instru	-3771
▁express	-3772
▁relax	-3773
▁basis	-3774
bert	-3775
▁grand	-3776
idential	-3777
▁Whe	-3778
atically	-3779
cel	-3780
▁I▁love	-3781
▁secure	-3782
▁with▁our	-3783
oices	-3784
▁valu	-3785
▁pieces	-3786
asc	-3787
▁creative	-3788
▁shot	-3789
ple▁of	-3790
▁I▁could	-3791
atever	-3792
Ex	-3793
▁bur	-3794
▁electric	-3795
aith	-3796
▁Dec	-3797
idents	-3798
There▁are	-3799
▁asked	-3800
ing▁in▁the	-3801
▁books	-3802
▁Work	-3803
▁of▁course	-3804
▁rather▁than	-3805
add	-3806
▁shows	-3807
▁businesses	-3808
log	-3809
hens	-3810
aches	-3811
▁uses	-3812
▁Inter	-3813
des	-3814
▁exhib	-3815
▁IS	-3816
er▁of	-3817
▁compared	-3818
▁nearly	-3819
▁plans	-3820
▁and▁they	-3821
▁reflect	-3822
▁provided	-3823
▁Russ	-3824
ald	-3825
body	-3826
▁defe	-3827
▁such▁a	-3828
▁delic	-3829
rote	-3830
▁and▁B	-3831
▁I▁will	-3832
ers▁in	-3833
▁programs	-3834
▁powerful	-3835
▁Green	-3836
▁Program	-3837
▁notice	-3838
▁initial	-3839
oly	-3840
bon	-3841
▁sweet	-3842
▁for▁our	-3843
▁holiday	-3844
▁that▁was	-3845
▁on▁my	-3846
▁covered	-3847
▁ingred	-3848
iation	-3849
rate	-3850
▁belie	-3851
▁conven	-3852
▁disease	-3853
venue	-3854
▁nation	-3855
▁Windows	-3856
lies	-3857
▁and▁t	-3858
▁award	-3859
icip	-3860
▁you▁know	-3861
▁out▁the	-3862
▁that▁he	-3863
▁but▁also	-3864
▁and▁he	-3865
▁maybe	-3866
▁Wash	-3867
▁Found	-3868
▁and▁also	-3869
▁for▁any	-3870
▁pow	-3871
▁confirm	-3872
▁liv	-3873
▁of▁its	-3874
ously	-3875
s▁have	-3876
kin	-3877
cut	-3878
force	-3879
undred	-3880
ing▁or	-3881
▁ways	-3882
▁occas	-3883
aries	-3884
ers▁of	-3885
▁util	-3886
▁wild	-3887
▁demonst	-3888
▁Good	-3889
▁associated	-3890
tenance	-3891
▁Each	-3892
▁race	-3893
▁and▁his	-3894
▁evalu	-3895
▁of▁us	-3896
▁manage	-3897
▁independ	-3898
▁beginning	-3899
▁technical	-3900
▁entertain	-3901
▁competition	-3902
▁Del	-3903
▁son	-3904
▁and▁C	-3905
▁income	-3906
ing▁this	-3907
▁Council	-3908
▁mis	-3909
▁street	-3910
▁experiences	-3911
ida	-3912
▁strength	-3913
▁Br	-3914
▁homes	-3915
IP	-3916
▁you▁should	-3917
unte	-3918
▁Pal	-3919
▁dat	-3920
▁clin	-3921
▁craft	-3922
▁accur	-3923
▁advantage	-3924
▁pleas	-3925
▁opportunity▁to	-3926
ifi	-3927
▁incred	-3928
▁released	-3929
▁science	-3930
amily	-3931
amm	-3932
▁places	-3933
estival	-3934
col	-3935
▁sustain	-3936
oos	-3937
▁Phil	-3938
▁matt	-3939
▁shown	-3940
▁like▁the	-3941
▁loved	-3942
▁Once	-3943
▁ready	-3944
▁They▁are	-3945
▁out▁of▁the	-3946
▁broad	-3947
▁driver	-3948
▁with▁you	-3949
▁mechan	-3950
▁by▁a	-3951
▁designed▁to	-3952
ulf	-3953
ed▁in▁a	-3954
▁background	-3955
phone	-3956
▁evidence	-3957
▁woman	-3958
inter	-3959
▁discount	-3960
s▁will	-3961
▁San	-3962
▁comes▁to	-3963
amin	-3964
▁growing	-3965
▁Club	-3966
▁years▁ago	-3967
order	-3968
▁people▁who	-3969
▁stream	-3970
▁Web	-3971
▁Read	-3972
▁Office	-3973
▁spread	-3974
▁us▁to	-3975
▁shoot	-3976
▁although	-3977
▁in▁order▁to	-3978
▁cru	-3979
▁remove	-3980
Cl	-3981
▁essay	-3982
▁Add	-3983
▁included	-3984
▁of▁C	-3985
▁in▁his	-3986
BC	-3987
nown	-3988
s▁after	-3989
▁finished	-3990
▁steel	-3991
▁appli	-3992
itting	-3993
▁lots▁of	-3994
▁February	-3995
iny	-3996
▁ton	-3997
▁Down	-3998
▁cold	-3999
▁Monday	-4000
▁there▁is▁a	-4001
▁make▁it	-4002
▁institut	-4003
▁bathroom	-4004
ples	-4005
▁Super	-4006
▁with▁this	-4007
▁liter	-4008
▁Play	-4009
▁established	-4010
ico	-4011
▁flav	-4012
▁monitor	-4013
▁loan	-4014
▁stick	-4015
▁diet	-4016
▁sand	-4017
▁Hall	-4018
atively	-4019
▁Canada	-4020
ellow	-4021
ate▁and	-4022
▁requires	-4023
▁blue	-4024
care	-4025
iling	-4026
".	-4027
▁strugg	-4028
oles	-4029
lements	-4030
▁earlier	-4031
▁reserv	-4032
ards	-4033
owl	-4034
▁Je	-4035
▁tip	-4036
inese	-4037
▁David	-4038
zy	-4039
▁scient	-4040
▁compos	-4041
▁decided▁to	-4042
top	-4043
term	-4044
▁graph	-4045
▁church	-4046
Pl	-4047
▁Educ	-4048
▁Mich	-4049
▁created	-4050
▁so▁many	-4051
▁artist	-4052
ken	-4053
orial	-4054
opt	-4055
ommod	-4056
▁Year	-4057
▁alone	-4058
▁If▁you▁are	-4059
▁Bank	-4060
wesome	-4061
▁Business	-4062
▁II	-4063
▁throughout▁the	-4064
▁peace	-4065
▁PC	-4066
▁retail	-4067
EM	-4068
▁opin	-4069
▁winter	-4070
fast	-4071
▁boy	-4072
▁give▁you	-4073
▁is▁available	-4074
bu	-4075
eria	-4076
▁map	-4077
▁owners	-4078
▁fat	-4079
▁star	-4080
▁shipp	-4081
▁nothing	-4082
▁Cr	-4083
usband	-4084
▁create▁a	-4085
▁which▁are	-4086
itiz	-4087
▁doub	-4088
ribute	-4089
▁princ	-4090
▁and▁an	-4091
▁traffic	-4092
▁oppos	-4093
iety	-4094
▁make▁a	-4095
ed▁by▁a	-4096
▁master	-4097
▁manufacturer	-4098
rapy	-4099
▁highlight	-4100
..
	-4101
▁identify	-4102
▁studies	-4103
▁after▁the	-4104
▁feeling	-4105
s▁is	-4106
▁plent	-4107
ael	-4108
▁University▁of	-4109
▁Sch	-4110
▁lack	-4111
▁and▁are	-4112
aged	-4113
iment	-4114
▁origin	-4115
omb	-4116
tra	-4117
izes	-4118
ivil	-4119
itude	-4120
▁batter	-4121
▁on▁our	-4122
orking	-4123
▁end▁of▁the	-4124
▁according▁to	-4125
▁smooth	-4126
roud	-4127
▁get▁a	-4128
▁solid	-4129
▁any▁other	-4130
rie	-4131
▁expos	-4132
ager	-4133
▁haven	-4134
ses	-4135
These	-4136
▁than▁the	-4137
▁talking	-4138
▁and▁their	-4139
▁where▁the	-4140
▁primary	-4141
▁billion	-4142
▁Market	-4143
▁I▁know	-4144
▁each▁other	-4145
▁Ass	-4146
▁AC	-4147
▁basic	-4148
▁Island	-4149
acity	-4150
▁movement	-4151
▁gets	-4152
▁In▁addition	-4153
▁pair	-4154
▁format	-4155
Do	-4156
▁Dist	-4157
s▁in▁a	-4158
▁statement	-4159
▁copy	-4160
za	-4161
▁schedule	-4162
▁Since	-4163
▁more▁about	-4164
While	-4165
▁Other	-4166
▁it▁will	-4167
▁metal	-4168
able▁to	-4169
▁hundred	-4170
sm	-4171
▁element	-4172
▁or▁other	-4173
agram	-4174
▁eyes	-4175
▁handle	-4176
▁Rec	-4177
▁complet	-4178
▁medic	-4179
pective	-4180
▁welcome	-4181
ing▁of▁the	-4182
▁increasing	-4183
▁vot	-4184
▁White	-4185
IM	-4186
▁fra	-4187
▁Post	-4188
No	-4189
▁mission	-4190
▁passion	-4191
▁reveal	-4192
Pro	-4193
▁Over	-4194
TS	-4195
▁threat	-4196
▁as▁possible	-4197
▁Bel	-4198
▁title	-4199
▁social▁media	-4200
unately	-4201
▁Develop	-4202
▁River	-4203
▁plann	-4204
ij	-4205
▁sy	-4206
▁er	-4207
orrow	-4208
pm	-4209
ios	-4210
▁Spr	-4211
▁session	-4212
coming	-4213
▁surface	-4214
ston	-4215
▁capital	-4216
rated	-4217
▁goals	-4218
▁partner	-4219
down	-4220
▁Tex	-4221
▁candid	-4222
▁+	-4223
▁actual	-4224
ightly	-4225
overed	-4226
see	-4227
▁so▁I	-4228
ae	-4229
iency	-4230
▁chem	-4231
▁Paul	-4232
imb	-4233
▁eight	-4234
▁exclus	-4235
icken	-4236
ixt	-4237
▁of▁it	-4238
vention	-4239
▁cast	-4240
▁harm	-4241
▁playing	-4242
ocal	-4243
▁himself	-4244
▁architect	-4245
annel	-4246
▁related▁to	-4247
▁resist	-4248
▁how▁much	-4249
▁announced	-4250
▁last▁year	-4251
cket	-4252
or▁of	-4253
▁access▁to	-4254
▁discover	-4255
icking	-4256
▁they▁can	-4257
▁fant	-4258
▁afford	-4259
▁generally	-4260
aj	-4261
ids	-4262
▁topic	-4263
▁server	-4264
▁voice	-4265
▁greater	-4266
▁all▁of▁the	-4267
▁shape	-4268
ili	-4269
free	-4270
inn	-4271
ating▁the	-4272
encies	-4273
▁doctor	-4274
▁shared	-4275
▁organis	-4276
▁the▁C	-4277
▁optim	-4278
▁suff	-4279
▁virt	-4280
▁prepared	-4281
▁rich	-4282
▁Ob	-4283
▁station	-4284
▁trou	-4285
▁Ins	-4286
▁ord	-4287
▁Spe	-4288
▁surv	-4289
▁Washington	-4290
▁conference	-4291
▁interested▁in	-4292
olic	-4293
▁classic	-4294
aker	-4295
▁husband	-4296
▁facilities	-4297
▁in▁the▁world	-4298
la	-4299
Now	-4300
▁born	-4301
▁Mac	-4302
▁increased	-4303
▁direction	-4304
s▁as	-4305
rief	-4306
▁See	-4307
▁wine	-4308
▁determine	-4309
▁Wed	-4310
▁journey	-4311
ademic	-4312
▁videos	-4313
▁update	-4314
▁We▁have	-4315
▁coach	-4316
▁Supp	-4317
▁poor	-4318
▁cheap	-4319
▁letter	-4320
▁that▁can	-4321
▁one▁of▁the▁most	-4322
▁is▁very	-4323
▁reasons	-4324
▁communication	-4325
▁har	-4326
osis	-4327
▁prepar	-4328
usher	-4329
▁of▁L	-4330
▁island	-4331
▁Ant	-4332
▁aff	-4333
▁what▁is	-4334
▁Ret	-4335
▁incor	-4336
▁Management	-4337
▁Plan	-4338
▁Check	-4339
▁motor	-4340
▁OF	-4341
▁sector	-4342
▁use▁the	-4343
▁Power	-4344
▁heavy	-4345
▁tree	-4346
ursday	-4347
▁maintenance	-4348
overy	-4349
arrant	-4350
▁gone	-4351
itar	-4352
▁force	-4353
”.	-4354
▁rare	-4355
▁analy	-4356
▁set▁up	-4357
▁cup	-4358
▁ran	-4359
▁lines	-4360
▁figure	-4361
▁and▁not	-4362
▁roof	-4363
oop	-4364
soft	-4365
▁parents	-4366
iber	-4367
▁gam	-4368
▁Why	-4369
▁AP	-4370
▁and▁L	-4371
▁advent	-4372
▁forget	-4373
▁den	-4374
▁remind	-4375
▁seven	-4376
▁British	-4377
ago	-4378
▁wife	-4379
azon	-4380
▁and▁p	-4381
www	-4382
chie	-4383
▁if▁you▁are	-4384
▁fee	-4385
itation	-4386
▁middle	-4387
▁before▁the	-4388
They	-4389
craft	-4390
▁bill	-4391
▁gett	-4392
ado	-4393
▁hang	-4394
s▁that▁are	-4395
▁expensive	-4396
box	-4397
▁files	-4398
s▁for▁the	-4399
▁French	-4400
▁General	-4401
izing	-4402
▁combin	-4403
vin	-4404
▁Make	-4405
▁reality	-4406
▁you▁need	-4407
▁techniqu	-4408
▁Jack	-4409
▁is▁no	-4410
▁Micro	-4411
▁but▁not	-4412
▁Research	-4413
▁Bro	-4414
▁sav	-4415
▁and▁will	-4416
inger	-4417
▁As▁a	-4418
s▁an	-4419
▁Ann	-4420
fit	-4421
▁bod	-4422
▁wat	-4423
▁luck	-4424
▁Church	-4425
mail	-4426
▁grant	-4427
▁outdoor	-4428
▁they▁have	-4429
Please	-4430
▁Court	-4431
▁less▁than	-4432
▁camera	-4433
▁assign	-4434
▁whose	-4435
▁accommod	-4436
▁wrote	-4437
▁largest	-4438
uce	-4439
▁ic	-4440
ed▁with▁the	-4441
▁helpful	-4442
▁audience	-4443
▁pray	-4444
▁initi	-4445
▁coverage	-4446
pet	-4447
uesday	-4448
▁to▁this	-4449
▁hands	-4450
▁cream	-4451
raw	-4452
▁compre	-4453
LE	-4454
▁flex	-4455
▁to▁provide	-4456
▁shar	-4457
▁sched	-4458
▁what▁I	-4459
RO	-4460
▁Flor	-4461
▁quarter	-4462
▁we▁were	-4463
▁pictures	-4464
▁Institute	-4465
▁pump	-4466
▁police	-4467
ingly	-4468
▁establish	-4469
ection	-4470
▁veget	-4471
▁disapp	-4472
▁cry	-4473
▁kept	-4474
▁scen	-4475
estern	-4476
▁Texas	-4477
▁much▁more	-4478
▁Met	-4479
lling	-4480
▁becomes	-4481
rupt	-4482
▁the▁way	-4483
active	-4484
▁casino	-4485
▁try▁to	-4486
▁and▁D	-4487
▁fashion	-4488
Is	-4489
udd	-4490
▁transl	-4491
▁becom	-4492
▁looks	-4493
umin	-4494
▁and▁how	-4495
▁critical	-4496
▁strategy	-4497
▁waste	-4498
rey	-4499
▁baby	-4500
s▁off	-4501
▁the▁count	-4502
bour	-4503
▁beach	-4504
▁fabric	-4505
▁fly	-4506
▁relevant	-4507
DA	-4508
▁Open	-4509
ero	-4510
▁neighbor	-4511
▁van	-4512
▁upgra	-4513
▁.▁.	-4514
ing▁you	-4515
▁length	-4516
▁plastic	-4517
▁dining	-4518
▁talent	-4519
▁landsc	-4520
▁communities	-4521
▁Mor	-4522
▁cancer	-4523
▁advance	-4524
▁the▁B	-4525
▁Chinese	-4526
▁truck	-4527
▁recipe	-4528
ated▁by	-4529
text	-4530
▁pen	-4531
▁dang	-4532
▁Class	-4533
▁father	-4534
▁status	-4535
▁Thursday	-4536
▁decide	-4537
▁separate	-4538
able▁and	-4539
▁exercise	-4540
▁practices	-4541
▁flat	-4542
▁sports	-4543
▁Call	-4544
▁Road	-4545
▁meal	-4546
▁Care	-4547
▁miles	-4548
zen	-4549
itary	-4550
isher	-4551
▁with▁my	-4552
nesday	-4553
▁and▁m	-4554
gen	-4555
▁brain	-4556
▁intend	-4557
ximately	-4558
▁friendly	-4559
▁investig	-4560
▁level▁of	-4561
ech	-4562
▁ir	-4563
▁joint	-4564
▁workshop	-4565
▁Rock	-4566
▁Sur	-4567
▁carri	-4568
▁or▁not	-4569
ters	-4570
▁snow	-4571
met	-4572
▁it▁to	-4573
▁older	-4574
▁egg	-4575
▁benefits	-4576
▁dinner	-4577
▁Association	-4578
▁values	-4579
▁parties	-4580
odes	-4581
▁ice	-4582
ocr	-4583
▁anim	-4584
▁Bay	-4585
▁Mem	-4586
m▁not	-4587
▁is▁in	-4588
▁ship	-4589
▁numerous	-4590
▁tur	-4591
▁related	-4592
▁that▁has	-4593
▁seat	-4594
▁panel	-4595
▁truth	-4596
I▁am	-4597
ST	-4598
▁rat	-4599
emporary	-4600
▁Find	-4601
▁relig	-4602
▁Vis	-4603
▁and▁P	-4604
▁breat	-4605
▁recip	-4606
▁and▁was	-4607
▁wire	-4608
▁Tuesday	-4609
▁package	-4610
▁their▁own	-4611
▁gall	-4612
▁operation	-4613
▁properties	-4614
▁profit	-4615
▁look▁at	-4616
abilities	-4617
▁This▁is▁a	-4618
▁Love	-4619
▁progress	-4620
▁the▁other	-4621
▁http	-4622
▁lose	-4623
▁proud	-4624
▁flight	-4625
▁achieve	-4626
anta	-4627
ternal	-4628
▁rain	-4629
unction	-4630
▁bought	-4631
▁controll	-4632
▁fan	-4633
▁...	-4634
▁memory	-4635
onus	-4636
▁helped	-4637
▁TO	-4638
pped	-4639
▁Ben	-4640
▁advanced	-4641
bl	-4642
▁fear	-4643
▁volunte	-4644
semb	-4645
s▁can	-4646
erry	-4647
▁Fore	-4648
▁issu	-4649
▁In▁this	-4650
▁William	-4651
▁and▁its	-4652
▁Water	-4653
▁brows	-4654
▁…	-4655
ordin	-4656
):	-4657
itness	-4658
▁visual	-4659
▁AND	-4660
▁Phot	-4661
▁stone	-4662
▁push	-4663
ocol	-4664
▁about▁it	-4665
▁encourage	-4666
▁the▁M	-4667
▁cloud	-4668
▁for▁my	-4669
▁minute	-4670
sey	-4671
▁dro	-4672
▁owner	-4673
gment	-4674
▁the▁new	-4675
▁century	-4676
▁repe	-4677
▁interior	-4678
mp	-4679
▁tag	-4680
▁jump	-4681
▁Although	-4682
isl	-4683
▁medium	-4684
ona	-4685
▁and▁even	-4686
▁to▁ensure	-4687
▁if▁it	-4688
▁across▁the	-4689
ript	-4690
ka	-4691
▁multi	-4692
▁going▁to▁be	-4693
▁Use	-4694
▁compar	-4695
▁vari	-4696
▁menu	-4697
▁for▁more	-4698
▁vehicles	-4699
▁Sub	-4700
rete	-4701
▁as▁much	-4702
net	-4703
▁rob	-4704
”,	-4705
Un	-4706
▁hospital	-4707
▁Christian	-4708
▁pros	-4709
▁meant	-4710
▁Soc	-4711
▁as▁I	-4712
▁whatever	-4713
ror	-4714
ugg	-4715
▁command	-4716
▁sources	-4717
▁Wednesday	-4718
▁absolutely	-4719
IV	-4720
▁ban	-4721
▁Lear	-4722
▁plenty▁of	-4723
▁for▁them	-4724
▁dump	-4725
yp	-4726
▁obvious	-4727
▁when▁they	-4728
unning	-4729
▁Trump	-4730
▁worry	-4731
.)	-4732
▁eth	-4733
▁refer	-4734
ows	-4735
ing▁at	-4736
▁avoid	-4737
▁sea	-4738
▁adapt	-4739
RA	-4740
▁rules	-4741
▁ways▁to	-4742
▁operating	-4743
▁ST	-4744
▁Star	-4745
▁department	-4746
rust	-4747
IG	-4748
We▁are	-4749
▁groups	-4750
▁Word	-4751
ing▁our	-4752
▁in▁H	-4753
▁faith	-4754
▁spect	-4755
outhern	-4756
▁Apple	-4757
▁ahead	-4758
▁up▁the	-4759
oor	-4760
inct	-4761
nect	-4762
▁taste	-4763
▁from▁your	-4764
▁Dem	-4765
s▁of▁a	-4766
▁a▁big	-4767
▁procedure	-4768
▁secret	-4769
▁the▁fact	-4770
▁cabin	-4771
ception	-4772
▁that▁this	-4773
▁senior	-4774
istics	-4775
▁novel	-4776
▁valid	-4777
▁launch	-4778
▁society	-4779
▁Beach	-4780
▁observ	-4781
▁impl	-4782
▁config	-4783
▁vision	-4784
▁balance	-4785
▁counter	-4786
▁as▁we	-4787
▁estim	-4788
▁mer	-4789
▁sugar	-4790
standing	-4791
▁extensive	-4792
▁which▁was	-4793
▁Click	-4794
▁rental	-4795
▁Jo	-4796
▁Ve	-4797
icy	-4798
▁Ange	-4799
▁Top	-4800
▁thus	-4801
ferences	-4802
▁catch	-4803
▁Because	-4804
▁trad	-4805
▁that▁a	-4806
enses	-4807
▁alternative	-4808
ptom	-4809
Ad	-4810
ette	-4811
ician	-4812
▁Wall	-4813
▁limited	-4814
▁walking	-4815
▁to▁me	-4816
▁maximum	-4817
▁including▁the	-4818
▁mist	-4819
▁spring	-4820
apter	-4821
▁onto	-4822
▁Oh	-4823
▁ticket	-4824
OW	-4825
▁USA	-4826
▁guess	-4827
▁offering	-4828
▁need▁to▁be	-4829
!!!!	-4830
▁of▁P	-4831
▁appeal	-4832
▁For▁example	-4833
!!
	-4834
▁smaller	-4835
▁Engine	-4836
▁transform	-4837
▁pric	-4838
▁rights	-4839
Your	-4840
▁is▁now	-4841
▁Rich	-4842
▁names	-4843
▁psych	-4844
▁Thank▁you	-4845
▁scale	-4846
Here	-4847
▁leadership	-4848
mar	-4849
▁laun	-4850
▁them▁to	-4851
▁organizations	-4852
▁Profess	-4853
▁not▁to	-4854
▁minimum	-4855
▁having▁a	-4856
▁diagn	-4857
▁she▁was	-4858
▁Mag	-4859
▁chain	-4860
▁error	-4861
▁cities	-4862
▁bright	-4863
▁warrant	-4864
vere	-4865
hensive	-4866
▁compl	-4867
CH	-4868
▁a▁cou	-4869
▁You▁will	-4870
▁www	-4871
▁Online	-4872
MS	-4873
ENT	-4874
opy	-4875
▁and▁so	-4876
yer	-4877
▁because▁it	-4878
▁trial	-4879
▁daughter	-4880
IA	-4881
rt	-4882
aven	-4883
▁datab	-4884
▁had▁to	-4885
▁micro	-4886
▁involved	-4887
▁receiv	-4888
▁assistance	-4889
▁real▁estate	-4890
▁of▁any	-4891
used	-4892
▁Life	-4893
▁ride	-4894
▁leader	-4895
isco	-4896
▁Wood	-4897
▁decl	-4898
▁People	-4899
▁committ	-4900
▁expertise	-4901
It▁is	-4902
aving	-4903
pping	-4904
▁scene	-4905
▁levels	-4906
▁experts	-4907
▁Africa	-4908
▁anti	-4909
▁vent	-4910
antic	-4911
▁lux	-4912
▁toward	-4913
In▁the	-4914
td	-4915
▁▁	-4916
▁schedul	-4917
▁environmental	-4918
▁dram	-4919
▁edge	-4920
gery	-4921
▁factor	-4922
▁perhaps	-4923
▁central	-4924
▁enough▁to	-4925
▁Som	-4926
▁if▁they	-4927
▁desk	-4928
ity▁and	-4929
▁in▁L	-4930
▁advis	-4931
▁larger	-4932
▁lovely	-4933
▁challenges	-4934
ss	-4935
state	-4936
rd	-4937
▁stopp	-4938
ooper	-4939
▁favour	-4940
▁population	-4941
rab	-4942
rian	-4943
▁brother	-4944
▁district	-4945
▁involv	-4946
▁driving	-4947
▁comments	-4948
▁arrange	-4949
LC	-4950
▁corporate	-4951
ota	-4952
▁Mill	-4953
▁continue▁to	-4954
▁princip	-4955
rowd	-4956
▁earth	-4957
▁Hel	-4958
▁Child	-4959
s▁and▁a	-4960
▁what▁we	-4961
▁just▁a	-4962
▁sem	-4963
She	-4964
night	-4965
▁and▁have	-4966
s▁around	-4967
▁or▁even	-4968
▁and▁all	-4969
▁list▁of	-4970
ompl	-4971
apers	-4972
rical	-4973
▁he▁said	-4974
▁distance	-4975
▁approximately	-4976
▁Color	-4977
▁AS	-4978
▁Today	-4979
itors	-4980
▁installation	-4981
▁stain	-4982
ampions	-4983
▁famous	-4984
▁models	-4985
▁using▁a	-4986
▁continues	-4987
▁around▁the	-4988
▁Download	-4989
▁director	-4990
s▁available	-4991
▁would▁have	-4992
estic	-4993
▁seek	-4994
▁completed	-4995
▁typically	-4996
This▁is	-4997
▁frame	-4998
life	-4999
▁mill	-5000
mal	-5001
osen	-5002
▁throw	-5003
▁square	-5004
ed▁or	-5005
▁prot	-5006
▁get▁the	-5007
point	-5008
rael	-5009
▁clearly	-5010
▁south	-5011
De	-5012
▁sch	-5013
paper	-5014
▁argu	-5015
▁cleaning	-5016
▁individuals	-5017
▁journal	-5018
▁Roy	-5019
▁of▁H	-5020
▁Android	-5021
▁at▁home	-5022
ula	-5023
ulture	-5024
ment▁and	-5025
▁suitable	-5026
ga	-5027
▁shopping	-5028
▁spl	-5029
azine	-5030
▁inspir	-5031
▁Science	-5032
▁prepare	-5033
cles	-5034
▁Sum	-5035
▁capacity	-5036
▁the▁same▁time	-5037
▁used▁in	-5038
▁Commission	-5039
med	-5040
▁vs	-5041
▁theme	-5042
▁du	-5043
▁mo	-5044
▁there▁was	-5045
osh	-5046
reed	-5047
▁set▁of	-5048
▁Amazon	-5049
▁of▁that	-5050
▁updated	-5051
▁anywhere	-5052
Ne	-5053
oost	-5054
pher	-5055
s▁ac	-5056
▁parking	-5057
▁this▁time	-5058
nel	-5059
▁and▁T	-5060
▁of▁her	-5061
▁and▁has	-5062
▁in▁C	-5063
ionally	-5064
▁switch	-5065
▁Education	-5066
▁will▁not	-5067
▁fuel	-5068
▁animal	-5069
▁the▁country	-5070
▁honest	-5071
s▁out	-5072
▁Sl	-5073
▁fold	-5074
▁struct	-5075
▁to▁be▁a	-5076
▁characters	-5077
▁who▁is	-5078
▁Community	-5079
:▁"	-5080
▁Florida	-5081
ilm	-5082
▁Project	-5083
▁sharing	-5084
ording▁to	-5085
ya	-5086
▁resear	-5087
bol	-5088
▁tea	-5089
▁independent	-5090
▁election	-5091
▁for▁example	-5092
▁injury	-5093
BA	-5094
omin	-5095
▁fruit	-5096
fortunately	-5097
▁Det	-5098
▁England	-5099
▁being▁a	-5100
▁register	-5101
▁north	-5102
▁delicious	-5103
men	-5104
▁military	-5105
▁parts	-5106
▁domain	-5107
▁opinion	-5108
aid	-5109
▁Central	-5110
▁worked	-5111
▁focus▁on	-5112
▁choices	-5113
▁mountain	-5114
▁restrict	-5115
▁every▁day	-5116
UR	-5117
▁manner	-5118
▁enhance	-5119
▁info	-5120
▁see▁the	-5121
▁cart	-5122
",	-5123
den	-5124
▁Sal	-5125
▁chart	-5126
▁Foundation	-5127
s▁also	-5128
how	-5129
uries	-5130
▁changed	-5131
▁football	-5132
▁Pet	-5133
water	-5134
▁Have	-5135
▁slightly	-5136
▁guy	-5137
▁rub	-5138
s▁all	-5139
ivered	-5140
▁no▁longer	-5141
▁rap	-5142
▁reference	-5143
PA	-5144
▁bird	-5145
▁up▁and	-5146
uman	-5147
▁debt	-5148
▁to▁my	-5149
asy	-5150
▁concent	-5151
▁competitive	-5152
with	-5153
▁Arch	-5154
▁that▁your	-5155
cean	-5156
omet	-5157
▁Their	-5158
▁named	-5159
▁meaning	-5160
▁Lake	-5161
▁James	-5162
▁economy	-5163
▁factors	-5164
▁off▁the	-5165
▁emergency	-5166
▁requirement	-5167
▁Sun	-5168
ollowing	-5169
▁dyn	-5170
▁swim	-5171
gl	-5172
orney	-5173
▁epis	-5174
▁Big	-5175
▁suppli	-5176
▁busy	-5177
▁Grand	-5178
▁dut	-5179
▁used▁for	-5180
een	-5181
▁OR	-5182
gn	-5183
▁Blue	-5184
▁*	-5185
oma	-5186
noon	-5187
▁Like	-5188
▁Republic	-5189
hent	-5190
▁the▁past	-5191
▁Ev	-5192
cript	-5193
▁unless	-5194
▁was▁not	-5195
BS	-5196
By	-5197
umber	-5198
▁colors	-5199
list	-5200
ancing	-5201
▁Elect	-5202
▁confidence	-5203
reek	-5204
▁properly	-5205
▁tast	-5206
▁Light	-5207
▁spons	-5208
▁moving	-5209
▁discussion	-5210
▁Sil	-5211
aling	-5212
▁through▁a	-5213
lor	-5214
▁do▁it	-5215
▁way▁of	-5216
▁eventually	-5217
▁AM	-5218
▁foreign	-5219
alm	-5220
ini	-5221
▁volume	-5222
▁known▁as	-5223
▁core	-5224
▁Director	-5225
othing	-5226
▁and▁H	-5227
▁Whether	-5228
▁agreement	-5229
Some	-5230
▁and▁b	-5231
▁Commit	-5232
▁you▁want▁to	-5233
▁fees	-5234
▁and▁R	-5235
▁specifically	-5236
igence	-5237
▁cris	-5238
▁Germany	-5239
▁Que	-5240
▁decisions	-5241
▁resolution	-5242
Don	-5243
▁couldn	-5244
▁important▁to	-5245
▁rise	-5246
▁Jer	-5247
▁Lord	-5248
▁group▁of	-5249
friend	-5250
▁We▁will	-5251
er▁is	-5252
but	-5253
▁what▁they	-5254
▁AL	-5255
▁Fort	-5256
ocolate	-5257
fficient	-5258
▁accident	-5259
terest	-5260
▁context	-5261
▁exchange	-5262
cious	-5263
lines	-5264
▁govern	-5265
▁hyd	-5266
atin	-5267
▁me▁to	-5268
▁Twitter	-5269
▁would▁like▁to	-5270
ve▁got	-5271
▁promote	-5272
▁previously	-5273
ying	-5274
ography	-5275
▁rank	-5276
orthern	-5277
▁Hill	-5278
s▁about	-5279
cont	-5280
cient	-5281
▁Hotel	-5282
uring▁the	-5283
no	-5284
▁of▁D	-5285
▁guarantee	-5286
▁disp	-5287
▁Custom	-5288
▁exciting	-5289
▁Ser	-5290
▁profile	-5291
▁Ltd	-5292
▁Tor	-5293
▁in▁all	-5294
▁negative	-5295
CC	-5296
▁practical	-5297
ras	-5298
▁responsibility	-5299
▁mostly	-5300
▁predict	-5301
▁Food	-5302
miss	-5303
▁rul	-5304
▁fantastic	-5305
▁facility	-5306
ki	-5307
▁Cong	-5308
▁dial	-5309
▁thick	-5310
▁thousands▁of	-5311
▁>	-5312
Con	-5313
▁Glo	-5314
▁templ	-5315
▁Department▁of	-5316
▁with▁his	-5317
ye	-5318
Can	-5319
▁partnership	-5320
▁flu	-5321
▁comprehensive	-5322
▁citiz	-5323
▁depos	-5324
▁fans	-5325
s▁by	-5326
▁Jour	-5327
▁bottom	-5328
▁feedback	-5329
SS	-5330
▁delivered	-5331
▁Ide	-5332
▁illust	-5333
▁Mot	-5334
going	-5335
▁Camp	-5336
▁behavior	-5337
press	-5338
▁Team	-5339
▁rail	-5340
▁Chic	-5341
▁tele	-5342
ence▁of	-5343
▁fem	-5344
prise	-5345
▁evening	-5346
▁manager	-5347
▁appointment	-5348
orough	-5349
▁when▁we	-5350
▁regarding	-5351
cohol	-5352
▁elimin	-5353
▁dish	-5354
▁News	-5355
▁to▁say	-5356
▁teaching	-5357
▁quot	-5358
▁Sa	-5359
s▁you	-5360
▁spr	-5361
▁ven	-5362
▁Mary	-5363
▁classes	-5364
Not	-5365
▁premium	-5366
▁to▁an	-5367
▁despite	-5368
▁innovative	-5369
▁Cap	-5370
▁lunch	-5371
ous▁and	-5372
▁who▁have	-5373
ctors	-5374
▁the▁case	-5375
▁Plus	-5376
▁labor	-5377
ed▁with▁a	-5378
▁Information	-5379
▁Vol	-5380
▁the▁next	-5381
▁strategies	-5382
▁Rob	-5383
▁tun	-5384
▁Take	-5385
▁centre	-5386
▁produc	-5387
▁launched	-5388
▁right▁now	-5389
rip	-5390
▁replac	-5391
▁workers	-5392
▁operations	-5393
▁in▁any	-5394
▁reached	-5395
▁tow	-5396
▁accompl	-5397
▁Development	-5398
▁Sing	-5399
▁saving	-5400
Phone	-5401
s▁and▁other	-5402
▁terms▁of	-5403
airs	-5404
▁climate	-5405
▁convert	-5406
▁Under	-5407
▁survey	-5408
▁visitors	-5409
▁Mal	-5410
▁shap	-5411
estyle	-5412
▁creating	-5413
▁root	-5414
▁German	-5415
▁shut	-5416
TH	-5417
DF	-5418
▁beauty	-5419
illa	-5420
▁your▁home	-5421
▁Government	-5422
▁form▁of	-5423
ownt	-5424
▁a▁very	-5425
▁series▁of	-5426
IR	-5427
▁registered	-5428
what	-5429
never	-5430
▁and▁our	-5431
▁employee	-5432
▁familiar	-5433
win	-5434
▁Nor	-5435
▁Rad	-5436
▁Time	-5437
▁Award	-5438
▁possibly	-5439
Des	-5440
▁purpos	-5441
▁blend	-5442
▁coast	-5443
▁schools	-5444
▁bul	-5445
▁phil	-5446
ander	-5447
rastructure	-5448
al▁and	-5449
ola	-5450
othe	-5451
▁esc	-5452
▁Israel	-5453
hab	-5454
▁Pan	-5455
▁deck	-5456
▁seed	-5457
▁District	-5458
▁needed▁to	-5459
▁based▁on▁the	-5460
▁reput	-5461
▁it▁has	-5462
New	-5463
edly	-5464
▁mode	-5465
▁Valley	-5466
▁resource	-5467
▁mort	-5468
▁Sport	-5469
▁remote	-5470
▁Room	-5471
rees	-5472
▁Tur	-5473
▁a▁year	-5474
▁eating	-5475
▁Special	-5476
▁the▁only	-5477
▁improvement	-5478
▁Fire	-5479
▁Tour	-5480
▁der	-5481
▁ign	-5482
▁quant	-5483
▁courses	-5484
rome	-5485
▁YOU	-5486
▁plants	-5487
▁for▁his	-5488
▁and▁be	-5489
▁sauce	-5490
rag	-5491
▁hire	-5492
▁technologies	-5493
▁tools	-5494
Why	-5495
eless	-5496
.
•	-5497
▁Real	-5498
▁Town	-5499
▁Ma	-5500
eared	-5501
▁Build	-5502
▁ingredients	-5503
▁nav	-5504
irgin	-5505
▁corner	-5506
prene	-5507
▁poll	-5508
▁It▁is▁a	-5509
▁Pay	-5510
▁Mart	-5511
▁adopt	-5512
▁I▁just	-5513
▁even▁more	-5514
▁emp	-5515
▁quiet	-5516
▁asking	-5517
olve	-5518
▁wheel	-5519
▁cheese	-5520
▁shower	-5521
▁instance	-5522
equ	-5523
while	-5524
▁reliable	-5525
▁an▁un	-5526
▁was▁post	-5527
▁ju	-5528
onic	-5529
▁neck	-5530
▁tail	-5531
▁wouldn	-5532
▁helping	-5533
reprene	-5534
athe	-5535
▁NOT	-5536
▁Rel	-5537
▁with▁us	-5538
▁is▁still	-5539
▁leaves	-5540
▁articles	-5541
▁chemical	-5542
▁perfectly	-5543
▁Gar	-5544
known	-5545
▁gather	-5546
▁updates	-5547
▁George	-5548
▁Michael	-5549
▁Land	-5550
▁legisl	-5551
ation▁to	-5552
▁high▁quality	-5553
roy	-5554
resp	-5555
▁elements	-5556
▁route	-5557
▁desire	-5558
▁federal	-5559
ano	-5560
rat	-5561
▁UN	-5562
iest	-5563
▁Sam	-5564
▁and▁re	-5565
▁inspired	-5566
▁Bill	-5567
ixture	-5568
▁announce	-5569
▁otherwise	-5570
▁therefore	-5571
ate▁to	-5572
▁president	-5573
▁industrial	-5574
▁mail	-5575
▁a▁look	-5576
▁fellow	-5577
▁with▁them	-5578
▁contemporary	-5579
idden	-5580
▁motiv	-5581
▁academic	-5582
▁policies	-5583
▁produced	-5584
zer	-5585
▁the▁company	-5586
▁=	-5587
▁cards	-5588
▁civil	-5589
rs	-5590
agra	-5591
▁vary	-5592
icians	-5593
▁sure▁to	-5594
▁you▁have▁to	-5595
urban	-5596
▁calcul	-5597
▁you▁get	-5598
▁category	-5599
▁faster	-5600
▁tank	-5601
▁agency	-5602
▁Committee	-5603
▁developed	-5604
From	-5605
▁Lou	-5606
▁radio	-5607
▁take▁a	-5608
▁chicken	-5609
asis	-5610
▁Tem	-5611
▁stret	-5612
yal	-5613
▁breakfast	-5614
▁about▁this	-5615
▁most▁of▁the	-5616
nam	-5617
▁Hist	-5618
▁Public	-5619
▁documents	-5620
▁Two	-5621
▁detect	-5622
▁there▁is▁no	-5623
eper	-5624
▁meat	-5625
▁go▁to	-5626
omas	-5627
▁Franc	-5628
▁symptom	-5629
▁butter	-5630
ario	-5631
▁educational	-5632
▁to▁know	-5633
▁contains	-5634
▁cultural	-5635
ening	-5636
▁raise	-5637
ersonal	-5638
▁have▁an	-5639
▁electronic	-5640
ultural	-5641
▁with▁her	-5642
▁realize	-5643
▁construct	-5644
▁university	-5645
iner	-5646
essions	-5647
▁channel	-5648
▁afternoon	-5649
▁rule	-5650
▁HD	-5651
▁marri	-5652
▁Museum	-5653
▁become▁a	-5654
▁in▁its	-5655
▁IP	-5656
▁Atl	-5657
▁enable	-5658
▁airport	-5659
▁conserv	-5660
▁CD	-5661
▁Microsoft	-5662
gend	-5663
▁Att	-5664
▁rapid	-5665
▁this▁week	-5666
ulated	-5667
▁teeth	-5668
actions	-5669
▁saying	-5670
▁database	-5671
▁He▁was	-5672
▁regularly	-5673
fol	-5674
▁Gal	-5675
▁glad	-5676
▁Exper	-5677
▁Social	-5678
ius	-5679
aser	-5680
ctually	-5681
ations▁and	-5682
▁Enter	-5683
esterday	-5684
hi	-5685
gage	-5686
▁Bet	-5687
ation▁for	-5688
▁convenient	-5689
Le	-5690
▁makes▁it	-5691
▁you▁want	-5692
If▁you▁are	-5693
▁EU	-5694
▁France	-5695
tered	-5696
▁techniques	-5697
s▁been	-5698
▁of▁those	-5699
ing▁around	-5700
which	-5701
▁in▁mind	-5702
▁sense▁of	-5703
.
-	-5704
▁complic	-5705
▁Set	-5706
▁Canad	-5707
▁like▁this	-5708
▁work▁with	-5709
▁die	-5710
▁rot	-5711
▁bonus	-5712
▁monthly	-5713
▁to▁create	-5714
▁that▁you▁can	-5715
pon	-5716
▁occup	-5717
anish	-5718
▁gun	-5719
▁and▁s	-5720
However	-5721
ondition	-5722
▁make▁the	-5723
CA	-5724
atre	-5725
▁conv	-5726
▁ID	-5727
TA	-5728
▁sheet	-5729
▁manual	-5730
Se	-5731
anch	-5732
olar	-5733
pret	-5734
▁visitor	-5735
▁due▁to▁the	-5736
rim	-5737
▁magn	-5738
▁efficiency	-5739
▁if▁I	-5740
ato	-5741
▁teams	-5742
▁upload	-5743
▁your▁business	-5744
▁recovery	-5745
▁residents	-5746
▁Matt	-5747
▁choos	-5748
▁valuable	-5749
▁Pri	-5750
▁to▁learn	-5751
▁you▁could	-5752
▁instead▁of	-5753
▁and▁for	-5754
ita	-5755
orry	-5756
▁mount	-5757
▁websites	-5758
▁Who	-5759
▁Back	-5760
▁defend	-5761
look	-5762
▁iron	-5763
▁you▁don	-5764
▁Dig	-5765
hetic	-5766
▁trick	-5767
spe	-5768
▁tab	-5769
▁mental	-5770
▁or▁more	-5771
s▁no	-5772
▁down▁the	-5773
apos	-5774
▁doubt	-5775
▁chosen	-5776
▁African	-5777
▁Head	-5778
▁biggest	-5779
▁Music	-5780
▁grade	-5781
▁joy	-5782
I▁have	-5783
▁tables	-5784
▁when▁he	-5785
utom	-5786
rition	-5787
▁Centre	-5788
▁seeking	-5789
▁species	-5790
ed▁his	-5791
▁brown	-5792
otic	-5793
▁with▁it	-5794
▁incredible	-5795
▁Both	-5796
▁administr	-5797
▁purchased	-5798
▁effectively	-5799
umst	-5800
▁thread	-5801
▁happens	-5802
OD	-5803
▁researcher	-5804
s▁C	-5805
▁rang	-5806
▁Carol	-5807
▁Scott	-5808
▁the▁cor	-5809
▁milk	-5810
▁brid	-5811
▁agent	-5812
▁away▁from	-5813
▁Chicago	-5814
▁discovered	-5815
▁and▁get	-5816
▁full▁of	-5817
rill	-5818
▁salt	-5819
uality	-5820
▁decre	-5821
.
*	-5822
▁Yes	-5823
▁minor	-5824
▁Master	-5825
▁find▁a	-5826
▁folk	-5827
re▁not	-5828
▁greatest	-5829
▁played	-5830
▁village	-5831
▁protein	-5832
▁cooking	-5833
etime	-5834
▁Product	-5835
▁Technology	-5836
▁neighborhood	-5837
Once	-5838
▁the▁F	-5839
▁In▁fact	-5840
▁leather	-5841
▁they▁will	-5842
▁Mex	-5843
▁Union	-5844
▁is▁one▁of▁the	-5845
mond	-5846
▁weak	-5847
▁administration	-5848
mosp	-5849
▁river	-5850
▁iPhone	-5851
▁registration	-5852
ste	-5853
▁Data	-5854
▁mine	-5855
▁the▁P	-5856
▁which▁will	-5857
▁Sk	-5858
iance	-5859
▁and▁can	-5860
▁you▁will▁be	-5861
▁delight	-5862
▁processes	-5863
▁automatically	-5864
ottom	-5865
▁victim	-5866
▁towards	-5867
ibilities	-5868
▁the▁latest	-5869
t▁get	-5870
▁Miss	-5871
▁and▁my	-5872
▁insight	-5873
▁the▁big	-5874
▁for▁sale	-5875
▁internal	-5876
▁first▁time	-5877
▁participate	-5878
▁kick	-5879
▁@	-5880
▁excess	-5881
▁Network	-5882
▁Const	-5883
▁renew	-5884
rum	-5885
olars	-5886
▁about▁a	-5887
▁household	-5888
▁battery	-5889
orter	-5890
▁Asia	-5891
▁Vict	-5892
▁revenue	-5893
▁starting	-5894
▁Alex	-5895
▁lot▁of	-5896
▁consequ	-5897
▁pu	-5898
iquid	-5899
▁Thanks	-5900
▁output	-5901
s▁up	-5902
▁to▁all	-5903
▁happy▁to	-5904
▁ec	-5905
▁nurs	-5906
▁commitment	-5907
LA	-5908
Just	-5909
ushed	-5910
▁Stand	-5911
▁clinical	-5912
ed▁this	-5913
ed▁to▁a	-5914
working	-5915
▁and▁un	-5916
ilst	-5917
▁Family	-5918
▁Its	-5919
▁studio	-5920
▁sort▁of	-5921
▁is▁a▁great	-5922
alog	-5923
amil	-5924
▁lik	-5925
▁Start	-5926
▁of▁you	-5927
▁check▁out	-5928
GB	-5929
▁NY	-5930
Com	-5931
▁nor	-5932
▁the▁time	-5933
▁sole	-5934
ographer	-5935
▁generation	-5936
bb	-5937
▁Old	-5938
▁of▁R	-5939
▁Women	-5940
▁script	-5941
▁chance▁to	-5942
othes	-5943
▁the▁D	-5944
▁to▁avoid	-5945
▁Earth	-5946
▁and▁what	-5947
IF	-5948
▁obl	-5949
▁trees	-5950
▁trading	-5951
hand	-5952
Acc	-5953
▁library	-5954
▁the▁city	-5955
▁successfully	-5956
reens	-5957
▁Review	-5958
▁place▁to	-5959
▁emph	-5960
▁for▁some	-5961
▁When▁you	-5962
▁is▁located	-5963
▁Cas	-5964
dered	-5965
▁Security	-5966
west	-5967
▁Indust	-5968
ms	-5969
hus	-5970
▁silver	-5971
▁edition	-5972
▁with▁its	-5973
▁gear	-5974
▁piece▁of	-5975
s▁just	-5976
▁Organ	-5977
▁as▁he	-5978
t▁want▁to	-5979
▁Japanese	-5980
Yes	-5981
▁Ener	-5982
▁sequ	-5983
ion▁of▁the	-5984
▁awesome	-5985
▁component	-5986
▁amb	-5987
▁brings	-5988
▁for▁each	-5989
aly	-5990
▁vote	-5991
appy	-5992
▁fo	-5993
▁Keep	-5994
▁belong	-5995
▁can▁help	-5996
▁may▁have	-5997
▁cred	-5998
▁destination	-5999
▁Tom	-6000
▁Lead	-6001
▁Main	-6002
▁Only	-6003
▁retain	-6004
▁shel	-6005
s▁most	-6006
▁dance	-6007
▁professionals	-6008
▁shift	-6009
▁Card	-6010
▁covers	-6011
▁depart	-6012
▁forg	-6013
▁Wel	-6014
▁in▁P	-6015
race	-6016
▁at▁any	-6017
▁filter	-6018
▁everyday	-6019
▁adventure	-6020
▁organic	-6021
▁testing	-6022
▁consumer	-6023
▁about▁your	-6024
ighter	-6025
▁submit	-6026
▁conflic	-6027
ation▁is	-6028
▁I▁do	-6029
▁Soft	-6030
▁bowl	-6031
▁the▁cour	-6032
▁too▁much	-6033
▁AT	-6034
imately	-6035
▁elig	-6036
▁wasn	-6037
▁I▁also	-6038
▁opening	-6039
▁worldwide	-6040
App	-6041
▁whom	-6042
▁so▁it	-6043
▁relatively	-6044
▁locations	-6045
▁PM	-6046
▁hall	-6047
▁the▁col	-6048
▁ON	-6049
▁Smith	-6050
▁intell	-6051
▁Italian	-6052
▁machines	-6053
SA	-6054
Me	-6055
▁Medical	-6056
▁thorough	-6057
▁so▁you▁can	-6058
:▁“	-6059
van	-6060
▁Oper	-6061
levision	-6062
▁surgery	-6063
▁fort	-6064
▁simpl	-6065
▁developing	-6066
ucle	-6067
ulous	-6068
▁licens	-6069
ampionship	-6070
▁end▁of	-6071
▁wants▁to	-6072
▁Lim	-6073
▁Tre	-6074
▁univers	-6075
▁up▁with	-6076
ady	-6077
▁mini	-6078
ishing	-6079
▁guys	-6080
▁for▁its	-6081
▁exhibition	-6082
loc	-6083
▁Last	-6084
iveness	-6085
▁reviews	-6086
fection	-6087
▁impressive	-6088
▁Leg	-6089
▁you▁might	-6090
ed▁an	-6091
▁styles	-6092
olly	-6093
▁Press	-6094
▁cutting	-6095
▁from▁our	-6096
OC	-6097
vi	-6098
ion▁and	-6099
▁back▁to▁the	-6100
▁League	-6101
▁alcohol	-6102
edy	-6103
berg	-6104
iding	-6105
▁Through	-6106
▁submitt	-6107
▁certific	-6108
▁for▁those	-6109
▁replacement	-6110
▁a▁small	-6111
▁hardware	-6112
▁Department	-6113
burg	-6114
▁appearance	-6115
asp	-6116
ype	-6117
”.
	-6118
▁significantly	-6119
pass	-6120
ework	-6121
▁surf	-6122
▁free▁to	-6123
azz	-6124
▁yes	-6125
▁processing	-6126
away	-6127
▁garage	-6128
▁and▁her	-6129
▁totally	-6130
▁Str	-6131
▁compli	-6132
▁of▁time	-6133
▁Inf	-6134
▁Div	-6135
▁ment	-6136
arian	-6137
▁yard	-6138
▁concrete	-6139
▁kinds▁of	-6140
va	-6141
▁Aud	-6142
▁jobs	-6143
▁who▁has	-6144
NA	-6145
▁license	-6146
▁exclusive	-6147
Che	-6148
inding	-6149
▁may▁not	-6150
▁because▁the	-6151
▁tut	-6152
▁Media	-6153
▁doors	-6154
▁tough	-6155
▁looked	-6156
▁wid	-6157
▁Offic	-6158
▁notic	-6159
▁invent	-6160
▁high▁school	-6161
En	-6162
▁eleg	-6163
▁apart	-6164
Thank▁you	-6165
urd	-6166
▁crew	-6167
▁perman	-6168
▁the▁cost	-6169
▁loves	-6170
▁shares	-6171
▁provider	-6172
▁at▁the▁time	-6173
▁boost	-6174
▁Journal	-6175
▁Addition	-6176
▁Test	-6177
▁diss	-6178
▁the▁following	-6179
▁Buy	-6180
▁dim	-6181
▁solar	-6182
ited▁to	-6183
▁reward	-6184
▁out▁there	-6185
▁constantly	-6186
UT	-6187
xy	-6188
▁kit	-6189
▁on▁his	-6190
cks	-6191
▁NE	-6192
▁RE	-6193
▁poly	-6194
▁specialist	-6195
▁Lo	-6196
▁Show	-6197
▁soil	-6198
▁bound	-6199
▁Sen	-6200
▁of▁F	-6201
▁editor	-6202
▁default	-6203
▁caught	-6204
▁what▁the	-6205
▁on▁an	-6206
aren	-6207
▁rom	-6208
akers	-6209
▁chocolate	-6210
▁expected	-6211
▁crusher	-6212
▁for▁that	-6213
▁products▁and	-6214
▁with▁no	-6215
▁reb	-6216
▁knows	-6217
▁detailed	-6218
▁youth	-6219
▁for▁it	-6220
ing▁these	-6221
edd	-6222
▁agg	-6223
▁ease	-6224
oration	-6225
▁find▁out	-6226
clos	-6227
▁sam	-6228
▁I▁didn	-6229
▁for▁us	-6230
▁Contact	-6231
▁Western	-6232
▁golf	-6233
▁windows	-6234
▁and▁this	-6235
▁shipping	-6236
▁the▁last	-6237
▁people▁are	-6238
▁input	-6239
▁selected	-6240
she	-6241
gainst	-6242
▁perspective	-6243
▁ago	-6244
secut	-6245
weight	-6246
▁Medic	-6247
▁readers	-6248
▁couple▁of	-6249
▁grown	-6250
▁discip	-6251
▁birthday	-6252
rad	-6253
▁Frank	-6254
▁sample	-6255
OP	-6256
oga	-6257
▁components	-6258
iers	-6259
▁odd	-6260
▁contact▁us	-6261
▁boat	-6262
▁Virgin	-6263
▁wis	-6264
▁artists	-6265
▁to▁give	-6266
▁against▁the	-6267
Every	-6268
▁Hand	-6269
▁and▁l	-6270
MA	-6271
▁Series	-6272
▁aw	-6273
▁burn	-6274
▁diam	-6275
related	-6276
▁mentioned	-6277
▁died	-6278
unting	-6279
▁asset	-6280
▁gro	-6281
▁in▁D	-6282
ounter	-6283
▁Brown	-6284
▁historical	-6285
▁Jew	-6286
▁improved	-6287
▁the▁back	-6288
▁rooms	-6289
Any	-6290
nament	-6291
mong	-6292
▁Full	-6293
▁forum	-6294
▁The▁first	-6295
Are	-6296
fall	-6297
▁tight	-6298
▁reports	-6299
▁painting	-6300
▁favourite	-6301
▁pil	-6302
▁with▁all	-6303
iche	-6304
▁programme	-6305
▁bask	-6306
▁hard▁to	-6307
▁spending	-6308
▁label	-6309
▁height	-6310
▁CA	-6311
es▁a	-6312
▁influence	-6313
▁is▁just	-6314
▁transition	-6315
▁Prov	-6316
▁guitar	-6317
▁so▁far	-6318
▁distinct	-6319
▁bike	-6320
▁stunning	-6321
▁description	-6322
ua	-6323
ed▁as▁a	-6324
▁winning	-6325
CT	-6326
▁native	-6327
husi	-6328
igan	-6329
▁coordin	-6330
▁selling	-6331
▁circumst	-6332
▁thoughts	-6333
);	-6334
can	-6335
▁Way	-6336
▁twice	-6337
▁carefully	-6338
▁provide▁a	-6339
▁Royal	-6340
▁seconds	-6341
▁rest▁of▁the	-6342
▁Sto	-6343
▁Mach	-6344
▁assum	-6345
▁member▁of▁the	-6346
▁slot	-6347
▁but▁we	-6348
▁facilit	-6349
▁changing	-6350
▁purposes	-6351
▁settings	-6352
▁because▁they	-6353
▁List	-6354
▁bread	-6355
▁proceed	-6356
▁supplies	-6357
▁Cert	-6358
▁resident	-6359
▁expected▁to	-6360
you	-6361
▁Wil	-6362
▁it▁all	-6363
▁removal	-6364
▁who▁was	-6365
Cont	-6366
ifying	-6367
▁emotional	-6368
▁forward▁to	-6369
".
	-6370
chang	-6371
▁conversation	-6372
▁alway	-6373
▁Australian	-6374
▁Bur	-6375
▁Dou	-6376
▁unc	-6377
poration	-6378
▁Administ	-6379
▁in▁that	-6380
▁putting	-6381
▁contrast	-6382
▁Equ	-6383
icial	-6384
▁alleg	-6385
VE	-6386
▁vend	-6387
ed▁about	-6388
▁healthcare	-6389
osoph	-6390
▁Sand	-6391
▁he▁has	-6392
lla	-6393
▁Where	-6394
lete	-6395
uthor	-6396
▁bond	-6397
▁nine	-6398
▁horse	-6399
▁featur	-6400
▁how▁the	-6401
▁atmosp	-6402
▁enthusi	-6403
▁MS	-6404
▁Mad	-6405
▁trig	-6406
▁and▁J	-6407
▁dedicated	-6408
▁vital	-6409
▁pure	-6410
▁veter	-6411
achel	-6412
▁and▁F	-6413
▁entreprene	-6414
▁scientific	-6415
ala	-6416
▁ath	-6417
▁nar	-6418
▁belief	-6419
▁dollar	-6420
▁drivers	-6421
▁appeared	-6422
▁tell▁you	-6423
▁Society	-6424
▁presence	-6425
▁executive	-6426
▁depth	-6427
▁severe	-6428
▁is▁made	-6429
▁reasonable	-6430
▁concert	-6431
▁for▁her	-6432
ulate	-6433
▁campus	-6434
▁selection▁of	-6435
▁poker	-6436
ora	-6437
▁suppos	-6438
▁residential	-6439
▁Ver	-6440
▁Kore	-6441
▁Minister	-6442
▁Cru	-6443
▁Trust	-6444
▁proof	-6445
▁units	-6446
▁featured	-6447
▁infrastructure	-6448
▁looking▁for▁a	-6449
▁process▁of	-6450
▁pin	-6451
▁spac	-6452
▁consumers	-6453
ht	-6454
▁teen	-6455
▁Ir	-6456
▁Instead	-6457
▁speaking	-6458
▁beat	-6459
hentic	-6460
intage	-6461
▁know▁that	-6462
▁technique	-6463
▁oven	-6464
I▁think	-6465
▁the▁fl	-6466
▁at▁this	-6467
▁witness	-6468
▁regional	-6469
▁in▁one	-6470
▁imagine	-6471
▁will▁have	-6472
▁uns	-6473
▁Global	-6474
VD	-6475
edia	-6476
ounds	-6477
Another	-6478
▁participants	-6479
▁Pack	-6480
▁Maybe	-6481
▁appreciate	-6482
bur	-6483
iece	-6484
▁Invest	-6485
inder	-6486
▁delay	-6487
▁pregn	-6488
CE	-6489
onom	-6490
t▁think	-6491
▁external	-6492
▁Mer	-6493
ed▁me	-6494
▁usual	-6495
istan	-6496
ria	-6497
▁rough	-6498
▁broken	-6499
▁equipp	-6500
▁engineering	-6501
▁row	-6502
▁Long	-6503
▁diverse	-6504
▁Mountain	-6505
▁frequently	-6506
▁entertainment	-6507
berry	-6508
Us	-6509
ban	-6510
▁failure	-6511
▁apartment	-6512
eed	-6513
igr	-6514
▁pal	-6515
▁deals	-6516
▁Lu	-6517
ores	-6518
▁edit	-6519
▁remark	-6520
▁compared▁to	-6521
car	-6522
▁Mont	-6523
▁guests	-6524
▁publish	-6525
REE	-6526
made	-6527
endar	-6528
▁Table	-6529
▁with▁other	-6530
▁hundreds▁of	-6531
▁Mil	-6532
▁downt	-6533
▁to▁meet	-6534
▁disappoint	-6535
▁Da	-6536
▁Creat	-6537
orgeous	-6538
▁contest	-6539
ened	-6540
respond	-6541
aturally	-6542
▁advoc	-6543
▁notes	-6544
▁stated	-6545
▁of▁which	-6546
▁better▁than	-6547
▁its▁own	-6548
▁to▁them	-6549
▁landscape	-6550
▁il	-6551
Pre	-6552
▁AR	-6553
anda	-6554
▁End	-6555
▁infl	-6556
▁assemb	-6557
▁listed	-6558
▁prompt	-6559
▁trouble	-6560
▁side▁of▁the	-6561
ops	-6562
oti	-6563
abet	-6564
▁fle	-6565
orable	-6566
ossible	-6567
▁of▁what	-6568
▁routine	-6569
▁wide▁range▁of	-6570
▁buying	-6571
▁lifestyle	-6572
▁there▁were	-6573
▁resort	-6574
▁engage	-6575
▁wealth	-6576
▁Festival	-6577
Since	-6578
anche	-6579
▁Report	-6580
▁after▁a	-6581
▁spiritual	-6582
▁syn	-6583
ially	-6584
▁crowd	-6585
▁forest	-6586
▁closely	-6587
▁that▁would	-6588
fa	-6589
▁pm	-6590
▁Lab	-6591
▁vit	-6592
uction	-6593
▁raised	-6594
mes	-6595
lose	-6596
abled	-6597
▁cars	-6598
▁fulf	-6599
▁find▁the	-6600
▁lit	-6601
▁of▁N	-6602
▁audio	-6603
▁brief	-6604
▁he▁is	-6605
itage	-6606
▁habit	-6607
▁it▁is▁a	-6608
▁to▁start	-6609
▁You▁are	-6610
▁typical	-6611
▁Ul	-6612
▁use▁a	-6613
▁Russian	-6614
▁capture	-6615
▁standards	-6616
▁with▁some	-6617
▁mal	-6618
▁Paris	-6619
▁pharm	-6620
▁ourselves	-6621
▁Adv	-6622
▁and▁K	-6623
▁plate	-6624
▁over▁a	-6625
▁offers▁a	-6626
▁can▁be▁found	-6627
ifts	-6628
First	-6629
▁ring	-6630
▁in▁some	-6631
▁tried▁to	-6632
▁a▁couple▁of	-6633
rency	-6634
▁weap	-6635
▁retire	-6636
▁manufacturing	-6637
▁risk▁of	-6638
▁required▁to	-6639
Get	-6640
▁climb	-6641
▁taught	-6642
irty	-6643
▁FOR	-6644
iminal	-6645
▁Party	-6646
▁Victor	-6647
▁making▁it	-6648
▁commission	-6649
yard	-6650
▁houses	-6651
▁buildings	-6652
▁Conference	-6653
▁candidates	-6654
."
"	-6655
▁mouth	-6656
▁medicine	-6657
illed	-6658
▁charges	-6659
▁Tim	-6660
▁nearby	-6661
cknow	-6662
▁Gall	-6663
elines	-6664
ls	-6665
rick	-6666
▁Energy	-6667
weet	-6668
▁Bas	-6669
front	-6670
red▁to	-6671
▁surprise	-6672
▁Step	-6673
▁housing	-6674
Su	-6675
UL	-6676
▁wa	-6677
▁View	-6678
uration	-6679
▁yellow	-6680
▁AD	-6681
UN	-6682
utch	-6683
▁Cost	-6684
▁acid	-6685
▁needs▁to	-6686
▁providers	-6687
yan	-6688
▁Ext	-6689
▁jack	-6690
▁will▁also	-6691
▁I▁hope	-6692
▁associated▁with	-6693
▁domin	-6694
▁rand	-6695
▁vast	-6696
▁bless	-6697
▁flowers	-6698
▁musical	-6699
▁chat	-6700
▁Those	-6701
▁Academ	-6702
▁the▁cent	-6703
▁Therefore	-6704
▁will▁take	-6705
▁Wild	-6706
▁Robert	-6707
▁virtual	-6708
▁iP	-6709
▁to▁buy	-6710
ing▁for▁the	-6711
▁but▁they	-6712
vol	-6713
▁Sy	-6714
▁to▁achieve	-6715
wo	-6716
Ste	-6717
ize▁the	-6718
▁Prote	-6719
▁instruction	-6720
▁the▁current	-6721
hy	-6722
uine	-6723
▁lift	-6724
TC	-6725
▁Mass	-6726
▁Coast	-6727
▁serving	-6728
▁classroom	-6729
▁Mo	-6730
Sp	-6731
itu	-6732
Many	-6733
▁muscle	-6734
▁entirely	-6735
▁in▁front	-6736
ideo	-6737
▁and▁N	-6738
▁may▁not▁be	-6739
▁markets	-6740
PR	-6741
----	-6742
aves	-6743
▁normally	-6744
▁Before	-6745
▁Russia	-6746
▁Canadian	-6747
▁messages	-6748
▁flag	-6749
▁urban	-6750
▁substant	-6751
▁attached	-6752
▁Game	-6753
▁cake	-6754
▁and▁g	-6755
▁here▁to	-6756
▁and▁some	-6757
▁top▁of▁the	-6758
▁shad	-6759
▁trave	-6760
▁precise	-6761
▁responsible▁for	-6762
▁unf	-6763
▁personally	-6764
under	-6765
▁crack	-6766
I▁was	-6767
eline	-6768
▁integ	-6769
▁the▁t	-6770
sec	-6771
▁the▁bl	-6772
▁entered	-6773
vailability	-6774
▁membership	-6775
SE	-6776
▁CH	-6777
▁mainly	-6778
▁and▁many	-6779
▁most▁important	-6780
acific	-6781
▁designs	-6782
▁couple	-6783
▁massive	-6784
▁affordable	-6785
▁Clean	-6786
▁sight	-6787
▁animals	-6788
▁wet	-6789
▁It▁also	-6790
▁methods	-6791
▁that▁you▁are	-6792
▁fro	-6793
raction	-6794
▁Control	-6795
▁willing▁to	-6796
▁cere	-6797
▁allowed	-6798
▁vacation	-6799
rich	-6800
▁accurate	-6801
▁ur	-6802
▁closed	-6803
▁has▁an	-6804
▁can▁also	-6805
ity▁of▁the	-6806
▁yesterday	-6807
▁definition	-6808
▁integrated	-6809
,▁'	-6810
▁random	-6811
▁impress	-6812
▁since▁the	-6813
ranch	-6814
▁posts	-6815
▁Thomas	-6816
▁dental	-6817
▁said▁that	-6818
▁while▁the	-6819
▁Wal	-6820
▁recy	-6821
▁on▁it	-6822
▁likely▁to	-6823
▁equal	-6824
ks	-6825
oup	-6826
▁Di	-6827
kins	-6828
▁episode	-6829
▁designed	-6830
▁domestic	-6831
dden	-6832
▁adding	-6833
▁dynamic	-6834
▁matters	-6835
▁cannot▁be	-6836
▁thanks▁to	-6837
lands	-6838
▁MP	-6839
rance	-6840
▁storm	-6841
▁reported	-6842
▁addition▁to	-6843
▁ok	-6844
writ	-6845
▁expans	-6846
▁team▁of	-6847
▁situations	-6848
▁Squ	-6849
▁hyp	-6850
▁logo	-6851
▁mir	-6852
merce	-6853
terior	-6854
▁If▁the	-6855
▁Mel	-6856
▁mut	-6857
▁seal	-6858
▁dates	-6859
ors▁and	-6860
▁defense	-6861
▁advertising	-6862
▁and▁E	-6863
▁I▁thought	-6864
▁Commun	-6865
▁for▁many	-6866
▁that▁can▁be	-6867
Ke	-6868
▁soul	-6869
▁sister	-6870
▁symbol	-6871
▁becoming	-6872
▁to▁make▁sure	-6873
pack	-6874
▁Look	-6875
▁none	-6876
Let	-6877
stone	-6878
▁I▁got	-6879
▁upcoming	-6880
▁engagement	-6881
ils	-6882
gas	-6883
iano	-6884
▁effects	-6885
illiant	-6886
▁involve	-6887
ena	-6888
profit	-6889
▁before▁you	-6890
▁Arab	-6891
▁interface	-6892
▁is▁it	-6893
▁Another	-6894
▁Def	-6895
▁draft	-6896
▁sad	-6897
▁rely	-6898
▁Proper	-6899
▁speech	-6900
▁as▁soon	-6901
mary	-6902
▁The▁B	-6903
▁charg	-6904
▁the▁g	-6905
▁operate	-6906
▁sessions	-6907
▁circumstances	-6908
!!!	-6909
▁deploy	-6910
▁television	-6911
▁if▁you▁have	-6912
Most	-6913
ails	-6914
▁shock	-6915
▁will▁help	-6916
GE	-6917
▁tub	-6918
▁wash	-6919
▁girls	-6920
.
(	-6921
▁Second	-6922
▁last▁week	-6923
▁accessories	-6924
AY	-6925
▁signal	-6926
▁enjoyed	-6927
▁rein	-6928
▁moist	-6929
▁generate	-6930
▁outstanding	-6931
▁solve	-6932
▁views	-6933
ographic	-6934
t▁have▁to	-6935
ican	-6936
folio	-6937
▁rear	-6938
▁sudden	-6939
▁deposit	-6940
s▁your	-6941
▁and▁c	-6942
ation▁in	-6943
▁desired	-6944
▁remaining	-6945
▁employment	-6946
▁needs▁to▁be	-6947
orb	-6948
s▁it	-6949
pected	-6950
▁interpret	-6951
esides	-6952
▁cycle	-6953
▁you▁a	-6954
▁Insurance	-6955
▁Haw	-6956
oston	-6957
▁bigger	-6958
▁Manager	-6959
▁come▁to	-6960
▁undert	-6961
▁writer	-6962
▁finding	-6963
▁Children	-6964
▁quote	-6965
▁learned	-6966
▁as▁well▁as▁the	-6967
▁Wi	-6968
▁elev	-6969
▁and▁st	-6970
▁transaction	-6971
stall	-6972
bi	-6973
Well	-6974
▁Gen	-6975
▁Log	-6976
ether	-6977
▁Sign	-6978
▁Webs	-6979
▁Bi	-6980
▁winner	-6981
▁PR	-6982
▁grew	-6983
▁worse	-6984
▁export	-6985
ava	-6986
▁compens	-6987
▁excited	-6988
los	-6989
cuit	-6990
▁luxury	-6991
ulations	-6992
iences	-6993
s▁more	-6994
▁phase	-6995
▁reduced	-6996
SP	-6997
vit	-6998
case	-6999
s▁first	-7000
▁behavi	-7001
▁the▁car	-7002
ele	-7003
▁fif	-7004
▁Arts	-7005
▁auto	-7006
▁counsel	-7007
▁historic	-7008
▁even▁though	-7009
▁are▁available	-7010
▁Den	-7011
▁Account	-7012
s▁too	-7013
▁west	-7014
▁strategic	-7015
odel	-7016
▁enem	-7017
▁battle	-7018
▁attorney	-7019
▁feel▁like	-7020
▁working▁with	-7021
▁Fall	-7022
▁museum	-7023
▁stretch	-7024
▁Bre	-7025
▁Fund	-7026
▁Kitchen	-7027
▁destroy	-7028
▁basket	-7029
▁I▁found	-7030
▁increases	-7031
▁difficult▁to	-7032
hew	-7033
▁ap	-7034
▁therapy	-7035
▁instrument	-7036
▁a▁number▁of	-7037
izz	-7038
▁confident	-7039
▁the▁bottom	-7040
bar	-7041
”▁(	-7042
▁tou	-7043
build	-7044
▁it▁is▁not	-7045
LY	-7046
hem	-7047
▁Code	-7048
ensions	-7049
▁in▁her	-7050
▁has▁the	-7051
▁need▁a	-7052
▁to▁his	-7053
▁hearing	-7054
▁shall▁be	-7055
▁thank▁you	-7056
▁assessment	-7057
▁for▁you▁to	-7058
▁Ari	-7059
▁proven	-7060
▁the▁book	-7061
▁mechanism	-7062
iti	-7063
▁Ill	-7064
ospit	-7065
▁qualified	-7066
▁until▁the	-7067
▁one▁of▁our	-7068
▁Support	-7069
▁We▁also	-7070
enty	-7071
▁formal	-7072
▁guidance	-7073
▁contribute	-7074
▁impossible	-7075
▁lin	-7076
▁I▁did	-7077
▁terms	-7078
▁planet	-7079
igration	-7080
▁compare	-7081
▁incorpor	-7082
▁Sometimes	-7083
▁dedicated▁to	-7084
▁hero	-7085
▁pill	-7086
▁going▁on	-7087
▁design▁and	-7088
▁architecture	-7089
▁combined	-7090
▁whenever	-7091
shire	-7092
ing▁my	-7093
▁Louis	-7094
▁judge	-7095
▁it▁can	-7096
▁dumpster	-7097
▁presentation	-7098
▁steps	-7099
▁movies	-7100
▁Angeles	-7101
▁consistent	-7102
asure	-7103
▁Rest	-7104
▁tiss	-7105
▁unlike	-7106
▁Digital	-7107
▁agencies	-7108
▁graduate	-7109
Res	-7110
then	-7111
ced▁to	-7112
▁if▁we	-7113
▁wooden	-7114
ress▁and	-7115
▁SP	-7116
lets	-7117
▁Learn	-7118
▁pun	-7119
enger	-7120
▁sac	-7121
▁dent	-7122
▁upper	-7123
▁answers	-7124
▁lack▁of	-7125
▁aid	-7126
▁no▁matter	-7127
comm	-7128
▁Cat	-7129
s▁why	-7130
SC	-7131
vy	-7132
▁Ber	-7133
▁param	-7134
▁Travel	-7135
▁end▁up	-7136
▁of▁God	-7137
▁Instagram	-7138
▁peak	-7139
▁tips	-7140
▁made▁a	-7141
▁flexible	-7142
▁instruct	-7143
▁to▁offer	-7144
▁guard	-7145
▁relief	-7146
▁all▁your	-7147
▁for▁free	-7148
▁functions	-7149
▁seems	-7150
▁Jim	-7151
▁Los	-7152
otton	-7153
▁pipe	-7154
▁browser	-7155
▁mic	-7156
▁mere	-7157
▁blogg	-7158
EE	-7159
▁thin	-7160
▁has▁not	-7161
Also	-7162
▁of▁T	-7163
▁the▁G	-7164
▁in▁the▁past	-7165
Bl	-7166
▁tiny	-7167
▁charm	-7168
▁flash	-7169
ers▁who	-7170
▁per▁cent	-7171
▁extension	-7172
▁reduction	-7173
▁spin	-7174
▁column	-7175
▁flavor	-7176
▁password	-7177
▁ang	-7178
▁clar	-7179
▁Access	-7180
▁dating	-7181
▁apparent	-7182
▁One▁of▁the	-7183
▁?	-7184
oral	-7185
▁prop	-7186
▁complain	-7187
▁accessible	-7188
eds	-7189
astern	-7190
▁flood	-7191
▁and▁see	-7192
▁as▁long	-7193
▁lead▁to	-7194
▁originally	-7195
▁allows▁you▁to	-7196
▁collaboration	-7197
As▁a	-7198
▁tap	-7199
▁is▁so	-7200
▁teachers	-7201
▁Kh	-7202
ed▁at▁the	-7203
▁atmosphere	-7204
▁Farm	-7205
amsung	-7206
▁Peter	-7207
▁Spanish	-7208
olit	-7209
quality	-7210
agon	-7211
▁Democr	-7212
▁arrest	-7213
▁Cup	-7214
▁where▁you	-7215
▁combination▁of	-7216
▁enables	-7217
▁that▁have	-7218
▁Pub	-7219
▁decades	-7220
▁to▁play	-7221
▁recommended	-7222
▁because▁of▁the	-7223
▁Hope	-7224
▁so▁we	-7225
aken	-7226
▁Men	-7227
▁compat	-7228
Add	-7229
ATION	-7230
▁and▁G	-7231
▁minut	-7232
▁sides	-7233
▁the▁full	-7234
▁information▁on	-7235
▁DC	-7236
▁je	-7237
▁tech	-7238
▁Author	-7239
▁You▁may	-7240
▁tickets	-7241
▁Colorado	-7242
▁having▁to	-7243
▁the▁power	-7244
▁understanding	-7245
cover	-7246
▁rice	-7247
▁the▁sm	-7248
icit	-7249
▁suc	-7250
▁Prem	-7251
▁extract	-7252
▁identity	-7253
▁years▁and	-7254
rivate	-7255
▁looks▁like	-7256
▁Scot	-7257
▁scan	-7258
▁a▁list	-7259
▁no▁one	-7260
▁serves	-7261
▁the▁sur	-7262
▁committee	-7263
▁make▁your	-7264
▁in▁the▁first	-7265
▁in▁the▁future	-7266
pel	-7267
▁sizes	-7268
▁the▁H	-7269
▁superior	-7270
lymp	-7271
▁Small	-7272
▁attractive	-7273
ulner	-7274
▁stores	-7275
▁at▁your	-7276
▁rig	-7277
▁do▁this	-7278
ads	-7279
ancer	-7280
▁Mult	-7281
▁smile	-7282
▁determin	-7283
▁ultimate	-7284
t▁even	-7285
▁pursu	-7286
▁describe	-7287
▁debut	-7288
▁types	-7289
▁ordered	-7290
▁electrical	-7291
FL	-7292
enef	-7293
quir	-7294
▁possibility	-7295
▁Econom	-7296
▁close▁to	-7297
▁levels▁of	-7298
▁entry▁was▁post	-7299
rates	-7300
▁Inte	-7301
▁in▁N	-7302
▁male	-7303
▁stim	-7304
▁booking	-7305
▁inch	-7306
▁We▁can	-7307
▁it▁out	-7308
▁exposure	-7309
▁compliance	-7310
ML	-7311
EST	-7312
nic	-7313
▁Professional	-7314
▁vibr	-7315
▁hidden	-7316
▁finance	-7317
▁division	-7318
▁Of▁course	-7319
MC	-7320
ipl	-7321
▁Beaut	-7322
ness▁and	-7323
▁deal▁with	-7324
▁years▁old	-7325
▁friends▁and	-7326
▁Place	-7327
▁experiment	-7328
▁empt	-7329
olarship	-7330
ogue	-7331
▁loans	-7332
▁take▁the	-7333
celer	-7334
a▁is	-7335
uclear	-7336
▁cooper	-7337
▁both▁the	-7338
▁restaurants	-7339
PC	-7340
alle	-7341
rans	-7342
reland	-7343
▁Obama	-7344
▁shoes	-7345
▁distribution	-7346
HS	-7347
▁Tru	-7348
▁kne	-7349
inally	-7350
lessly	-7351
▁Chris	-7352
pic	-7353
lusion	-7354
ologist	-7355
▁carbon	-7356
▁Library	-7357
▁allowing	-7358
▁are▁also	-7359
▁eligible	-7360
▁people▁to	-7361
ed▁from▁the	-7362
Last	-7363
▁capable	-7364
▁constant	-7365
▁USB	-7366
▁Van	-7367
▁carpet	-7368
▁Ken	-7369
▁Opt	-7370
ated▁in	-7371
▁wish▁to	-7372
▁approval	-7373
▁proposal	-7374
Qu	-7375
▁tack	-7376
▁records	-7377
▁collection▁of	-7378
ours	-7379
▁anx	-7380
plete	-7381
▁I▁really	-7382
▁this▁one	-7383
▁along▁the	-7384
oil	-7385
long	-7386
▁widely	-7387
▁are▁you	-7388
▁cabinet	-7389
Sc	-7390
date	-7391
oard	-7392
▁spaces	-7393
II	-7394
ing▁his	-7395
▁down▁to	-7396
▁but▁that	-7397
▁at▁our	-7398
▁causes	-7399
osm	-7400
bles	-7401
▁heav	-7402
▁whilst	-7403
▁into▁your	-7404
▁involved▁in	-7405
riger	-7406
▁Disc	-7407
▁Chair	-7408
▁freed	-7409
osa	-7410
illy	-7411
▁as▁to	-7412
▁grass	-7413
isition	-7414
▁conflict	-7415
uses	-7416
▁runs	-7417
▁cells	-7418
▁et▁al	-7419
▁vegetables	-7420
unior	-7421
▁the▁bu	-7422
▁crucial	-7423
▁offices	-7424
▁designer	-7425
▁resistance	-7426
▁Fair	-7427
▁out▁to	-7428
▁immediate	-7429
ali	-7430
More	-7431
▁dust	-7432
▁east	-7433
▁If▁you▁have	-7434
▁as▁a▁result	-7435
ugh	-7436
▁and▁enjoy	-7437
▁philosoph	-7438
▁Spirit	-7439
▁flower	-7440
▁he▁had	-7441
▁differences	-7442
izza	-7443
▁About	-7444
▁usage	-7445
▁layout	-7446
ca	-7447
rowse	-7448
▁or▁two	-7449
▁measures	-7450
▁Americans	-7451
▁Hy	-7452
comes	-7453
▁the▁whole	-7454
▁arrive	-7455
requ	-7456
▁transp	-7457
▁You▁can▁also	-7458
▁investigation	-7459
▁bug	-7460
▁Assist	-7461
▁Execut	-7462
▁decade	-7463
▁anticip	-7464
▁made▁it	-7465
▁warranty	-7466
Or	-7467
▁Bob	-7468
▁san	-7469
▁rais	-7470
▁chose	-7471
▁that▁she	-7472
▁accomplish	-7473
____	-7474
onto	-7475
lisher	-7476
▁Richard	-7477
▁lend	-7478
▁Search	-7479
▁criminal	-7480
▁violence	-7481
▁basically	-7482
▁km	-7483
Over	-7484
▁Ideas	-7485
ed▁her	-7486
luding	-7487
▁religious	-7488
▁tall	-7489
▁Italy	-7490
▁or▁to	-7491
▁prove	-7492
ers▁for	-7493
▁Applic	-7494
▁is▁your	-7495
▁remains	-7496
▁Sea	-7497
▁Spring	-7498
▁comparison	-7499
▁creating▁a	-7500
ere	-7501
▁and▁one	-7502
▁ultimately	-7503
▁Rev	-7504
▁jew	-7505
▁Charl	-7506
▁The▁C	-7507
▁overw	-7508
▁Columb	-7509
▁crisis	-7510
▁my▁own	-7511
Tra	-7512
ications	-7513
MP	-7514
ugin	-7515
▁Secret	-7516
s▁so	-7517
▁Jose	-7518
▁Next	-7519
▁colle	-7520
▁the▁N	-7521
▁exceed	-7522
▁protest	-7523
Dr	-7524
,▁(	-7525
oster	-7526
▁to▁support	-7527
ulty	-7528
▁illeg	-7529
▁weekly	-7530
▁happened	-7531
▁in▁place	-7532
▁surrounding	-7533
▁negoti	-7534
▁clothes	-7535
▁if▁your	-7536
▁lighting	-7537
▁expectations	-7538
BI	-7539
alse	-7540
host	-7541
ership	-7542
▁chief	-7543
▁sustainable	-7544
flow	-7545
▁Olymp	-7546
▁dispos	-7547
▁pocket	-7548
▁prison	-7549
▁in▁T	-7550
▁phen	-7551
▁Georg	-7552
▁meetings	-7553
ifications	-7554
▁chances	-7555
▁genuine	-7556
ati	-7557
site	-7558
▁Site	-7559
▁us▁a	-7560
▁Jeff	-7561
▁Note	-7562
▁sink	-7563
▁Garden	-7564
ed▁of	-7565
level	-7566
▁to▁it	-7567
Although	-7568
▁the▁fin	-7569
▁said▁the	-7570
▁combination	-7571
▁Box	-7572
I▁love	-7573
▁satisfaction	-7574
May	-7575
▁Week	-7576
▁Hospital	-7577
▁concerns	-7578
▁High▁School	-7579
▁recognition	-7580
▁mile	-7581
▁narrow	-7582
▁rating	-7583
▁Website	-7584
class	-7585
icket	-7586
▁Times	-7587
▁https	-7588
▁tried	-7589
▁adults	-7590
▁understand▁the	-7591
Oh	-7592
▁Bath	-7593
▁Live	-7594
▁blind	-7595
▁incident	-7596
▁permanent	-7597
▁regulations	-7598
▁Er	-7599
entle	-7600
reement	-7601
▁Virginia	-7602
▁has▁also	-7603
▁it▁would	-7604
▁investors	-7605
▁nutrition	-7606
DS	-7607
friendly	-7608
▁ongoing	-7609
s▁of▁this	-7610
ingu	-7611
▁Dev	-7612
proof	-7613
▁attach	-7614
▁critic	-7615
▁motion	-7616
▁find▁it	-7617
▁is▁being	-7618
▁need▁for	-7619
▁committed▁to	-7620
roph	-7621
oured	-7622
▁citizens	-7623
▁the▁system	-7624
iki	-7625
chant	-7626
▁Form	-7627
▁Hard	-7628
▁Phys	-7629
▁calls	-7630
ennis	-7631
▁engag	-7632
▁powder	-7633
▁where▁he	-7634
▁this▁is▁a	-7635
ura	-7636
▁id	-7637
▁cro	-7638
▁align	-7639
▁a▁day	-7640
s▁in▁your	-7641
▁the▁more	-7642
▁about▁how	-7643
▁alongside	-7644
▁correspond	-7645
▁Point	-7646
ventional	-7647
▁Carolina	-7648
▁seems▁to	-7649
▁introduced	-7650
Fi	-7651
stal	-7652
▁freedom	-7653
▁magazine	-7654
▁Bed	-7655
s▁are▁not	-7656
▁Financial	-7657
▁members▁of▁the	-7658
▁cable	-7659
▁the▁final	-7660
sell	-7661
aniel	-7662
▁in▁touch	-7663
▁naturally	-7664
▁identified	-7665
▁photography	-7666
▁SC	-7667
▁Mike	-7668
▁king	-7669
▁mone	-7670
▁sufficient	-7671
po	-7672
▁Win	-7673
▁lapt	-7674
▁fixed	-7675
▁enroll	-7676
▁Airport	-7677
s▁of▁your	-7678
▁Software	-7679
▁Francisco	-7680
▁incredibly	-7681
uls	-7682
▁Key	-7683
▁Max	-7684
ions▁and	-7685
▁showing	-7686
▁and▁support	-7687
We▁have	-7688
▁increasingly	-7689
▁Cy	-7690
▁Store	-7691
▁degrees	-7692
▁possess	-7693
▁from▁this	-7694
▁capabilities	-7695
▁relationships	-7696
▁the▁R	-7697
uct	-7698
▁CEO	-7699
▁Does	-7700
▁Watch	-7701
▁setup	-7702
es▁on	-7703
▁Know	-7704
▁accomp	-7705
▁primarily	-7706
▁provides▁a	-7707
▁mold	-7708
▁female	-7709
▁vulner	-7710
▁Federal	-7711
▁offer▁a	-7712
▁memories	-7713
?”	-7714
RC	-7715
▁Ok	-7716
▁renov	-7717
▁Brand	-7718
▁achie	-7719
▁recruit	-7720
brid	-7721
▁Loc	-7722
▁Nov	-7723
morrow	-7724
▁gorgeous	-7725
▁payments	-7726
▁lesson	-7727
▁ingredient	-7728
▁LED	-7729
fford	-7730
ument	-7731
▁Chief	-7732
▁Ball	-7733
▁stored	-7734
▁festival	-7735
Press	-7736
▁plays	-7737
▁injuries	-7738
▁you▁must	-7739
▁MA	-7740
hors	-7741
▁Saf	-7742
▁spray	-7743
▁liquid	-7744
▁scheme	-7745
▁use▁it	-7746
▁portfolio	-7747
▁behind▁the	-7748
zil	-7749
ardens	-7750
ellect	-7751
ivities	-7752
▁subsequ	-7753
▁innovation	-7754
▁principles	-7755
▁which▁means	-7756
afe	-7757
onym	-7758
illing	-7759
▁Which	-7760
▁upgrade	-7761
▁exceptional	-7762
pat	-7763
sue	-7764
tle	-7765
▁split	-7766
▁and▁now	-7767
▁how▁many	-7768
▁brilliant	-7769
▁Guide	-7770
▁Es	-7771
▁Boy	-7772
▁Very	-7773
▁stake	-7774
▁fourth	-7775
▁combine	-7776
▁to▁come	-7777
▁looking▁to	-7778
coin	-7779
cons	-7780
▁raw	-7781
▁vir	-7782
▁Pass	-7783
▁bear	-7784
▁Middle	-7785
▁ancient	-7786
lus	-7787
▁err	-7788
▁twe	-7789
ensity	-7790
▁provide▁you	-7791
eder	-7792
▁enforce	-7793
▁everywhere	-7794
inem	-7795
▁index	-7796
▁roles	-7797
▁reaction	-7798
One▁of▁the	-7799
lder	-7800
▁beer	-7801
▁cond	-7802
▁back▁in	-7803
▁justice	-7804
inity	-7805
print	-7806
▁magic	-7807
▁behalf	-7808
▁Further	-7809
▁which▁has	-7810
s▁ar	-7811
▁Term	-7812
▁health▁care	-7813
▁Mid	-7814
ealand	-7815
ushing	-7816
▁Games	-7817
▁Price	-7818
▁increas	-7819
▁blank	-7820
oir	-7821
ed▁my	-7822
▁interact	-7823
▁dangerous	-7824
▁categories	-7825
Ar	-7826
▁as▁many	-7827
’,	-7828
▁Jud	-7829
▁LLC	-7830
▁gym	-7831
▁Ohio	-7832
▁of▁life	-7833
th▁century	-7834
▁texture	-7835
▁enterprise	-7836
▁supplement	-7837
▁credit▁card	-7838
▁rose	-7839
▁noise	-7840
▁and▁she	-7841
▁minimal	-7842
elly	-7843
icture	-7844
Ind	-7845
▁Jul	-7846
▁mur	-7847
▁age▁of	-7848
▁involves	-7849
▁consumption	-7850
▁hook	-7851
▁slowly	-7852
▁gallery	-7853
▁recipes	-7854
ba	-7855
▁Ut	-7856
real	-7857
▁Sky	-7858
▁Cast	-7859
▁Shop	-7860
▁transportation	-7861
AA	-7862
▁compr	-7863
pection	-7864
▁is▁more	-7865
▁OS	-7866
ages▁and	-7867
▁certified	-7868
loor	-7869
▁cute	-7870
▁honor	-7871
▁careful	-7872
▁missing	-7873
▁possible▁to	-7874
Whe	-7875
Play	-7876
ogether	-7877
▁and▁let	-7878
▁expenses	-7879
TR	-7880
▁Id	-7881
▁Try	-7882
ifies	-7883
iances	-7884
ers▁can	-7885
▁athlet	-7886
▁funding	-7887
▁extended	-7888
ulum	-7889
▁aside	-7890
▁Living	-7891
▁thrill	-7892
▁seriously	-7893
▁Cir	-7894
ishes	-7895
▁Vill	-7896
▁because▁of	-7897
Hi	-7898
▁sin	-7899
amber	-7900
▁bottle	-7901
▁forces	-7902
▁victory	-7903
▁drinking	-7904
▁prior▁to	-7905
▁installed	-7906
Have	-7907
▁Tri	-7908
▁fitt	-7909
▁efforts	-7910
▁approved	-7911
▁framework	-7912
▁Sn	-7913
▁was▁an	-7914
▁zone	-7915
▁features▁a	-7916
▁will▁be▁able▁to	-7917
!)	-7918
bel	-7919
▁Mic	-7920
▁Sar	-7921
▁Young	-7922
▁elegant	-7923
▁These▁are	-7924
▁version▁of	-7925
stead	-7926
▁believes	-7927
▁authorities	-7928
▁venue	-7929
och	-7930
ilet	-7931
▁hurt	-7932
▁extent	-7933
▁fairly	-7934
▁the▁pot	-7935
▁marriage	-7936
▁liability	-7937
▁is▁one	-7938
▁in▁terms▁of	-7939
Tube	-7940
inch	-7941
inent	-7942
▁FREE	-7943
▁graphic	-7944
▁visible	-7945
▁the▁perfect	-7946
!!!
	-7947
cend	-7948
▁orders	-7949
▁savings	-7950
▁very▁much	-7951
▁photographer	-7952
HA	-7953
▁breath	-7954
s▁acc	-7955
▁lect	-7956
▁worst	-7957
▁seeing	-7958
▁idea▁of	-7959
▁somewhere	-7960
▁health▁and	-7961
▁potentially	-7962
Then	-7963
lying	-7964
tocol	-7965
▁pink	-7966
▁dozen	-7967
▁recognize	-7968
anna	-7969
▁conclud	-7970
▁illness	-7971
▁overwhel	-7972
CD	-7973
▁in▁K	-7974
▁Zealand	-7975
▁mortgage	-7976
▁introduction	-7977
▁Human	-7978
▁claims	-7979
▁commonly	-7980
▁sail	-7981
▁to▁share	-7982
▁know▁what	-7983
▁you▁would	-7984
▁applicable	-7985
that	-7986
▁Students	-7987
▁receiving	-7988
VER	-7989
▁actions	-7990
▁Environment	-7991
▁in▁the▁same	-7992
▁instructions	-7993
▁mattress	-7994
oof	-7995
▁ru	-7996
▁Ireland	-7997
▁in▁case	-7998
▁revolution	-7999
▁challenging	-8000
▁coal	-8001
▁sounds	-8002
t▁really	-8003
▁privacy	-8004
▁pod	-8005
Click	-8006
emark	-8007
er▁for	-8008
▁forever	-8009
▁regardless	-8010
▁inspiration	-8011
esh	-8012
law	-8013
xic	-8014
s▁new	-8015
▁things▁to	-8016
▁This▁is▁the	-8017
essel	-8018
▁coat	-8019
▁frust	-8020
▁and▁it▁is	-8021
▁is▁currently	-8022
PM	-8023
▁everyth	-8024
▁packages	-8025
▁giv	-8026
▁crime	-8027
▁instant	-8028
Im	-8029
▁DVD	-8030
▁jewel	-8031
▁the▁site	-8032
▁Mexico	-8033
ii	-8034
making	-8035
amental	-8036
▁refund	-8037
▁sensitive	-8038
Te	-8039
gent	-8040
▁Cur	-8041
▁Enjoy	-8042
▁Print	-8043
▁synt	-8044
When▁you	-8045
ed▁that▁the	-8046
▁development▁of	-8047
orne	-8048
▁alg	-8049
▁cameras	-8050
re▁going▁to	-8051
Bu	-8052
iana	-8053
▁links	-8054
▁papers	-8055
Man	-8056
▁array	-8057
▁anyway	-8058
▁it▁would▁be	-8059
oli	-8060
outs	-8061
▁hole	-8062
▁of▁each	-8063
▁is▁about	-8064
▁template	-8065
ed▁for▁the	-8066
▁because▁I	-8067
AB	-8068
df	-8069
char	-8070
ione	-8071
▁Ref	-8072
▁Cath	-8073
▁smell	-8074
▁with▁me	-8075
ations▁of	-8076
▁provision	-8077
▁use▁of▁the	-8078
ording▁to▁the	-8079
▁cann	-8080
▁Drive	-8081
▁joined	-8082
▁Executive	-8083
etary	-8084
▁screw	-8085
▁part▁of▁a	-8086
iat	-8087
rem	-8088
▁?
	-8089
▁Tax	-8090
cling	-8091
▁Little	-8092
▁insert	-8093
▁recall	-8094
ated▁and	-8095
▁talk▁about	-8096
▁institutions	-8097
aze	-8098
ummer	-8099
▁stamp	-8100
ificial	-8101
▁Do▁you	-8102
▁strict	-8103
▁suffer	-8104
▁Expl	-8105
▁Turn	-8106
▁realized	-8107
▁percentage	-8108
▁procedures	-8109
▁SU	-8110
▁Lee	-8111
▁flour	-8112
▁on▁to	-8113
▁and▁make	-8114
▁stainless	-8115
rais	-8116
uter	-8117
▁Hen	-8118
ansas	-8119
ate▁a	-8120
▁it▁a	-8121
▁entit	-8122
▁Police	-8123
ed▁their	-8124
▁mixture	-8125
FC	-8126
Of	-8127
▁sex	-8128
apore	-8129
▁of▁G	-8130
t▁wait	-8131
▁on▁top	-8132
▁downtown	-8133
▁with▁any	-8134
▁and▁you▁can	-8135
▁filled▁with	-8136
itz	-8137
inos	-8138
▁Low	-8139
▁watching	-8140
▁focused▁on	-8141
▁from▁their	-8142
▁treatments	-8143
▁EN	-8144
▁ped	-8145
▁hack	-8146
vas	-8147
▁do▁I	-8148
acular	-8149
RS	-8150
nce	-8151
avor	-8152
▁Jon	-8153
▁scr	-8154
▁Ford	-8155
uminum	-8156
▁chapter	-8157
▁occasion	-8158
▁mining	-8159
▁officer	-8160
▁priority	-8161
▁ol	-8162
▁when▁a	-8163
▁Congress	-8164
▁without▁the	-8165
▁Mov	-8166
▁to▁us	-8167
hap	-8168
I▁don	-8169
haust	-8170
▁spoke	-8171
▁bodies	-8172
▁to▁any	-8173
pan	-8174
rier	-8175
▁Cook	-8176
▁Page	-8177
ed▁over	-8178
formance	-8179
▁and▁most	-8180
▁industries	-8181
▁contribution	-8182
▁????	-8183
▁be▁a	-8184
▁mand	-8185
▁we▁had	-8186
▁younger	-8187
▁permission	-8188
▁interactive	-8189
▁Right	-8190
▁league	-8191
▁aircraft	-8192
axy	-8193
▁out▁and	-8194
▁think▁about	-8195
TER	-8196
gun	-8197
▁ocean	-8198
▁Mobile	-8199
▁theory	-8200
iversary	-8201
▁preserv	-8202
▁not▁just	-8203
▁proposed	-8204
born	-8205
▁without▁a	-8206
▁Stone	-8207
▁It▁has	-8208
▁wanted	-8209
▁love▁to	-8210
▁during▁a	-8211
s▁from▁the	-8212
ta	-8213
▁Steve	-8214
▁point▁of	-8215
▁believe▁that	-8216
EA	-8217
Go	-8218
urse	-8219
Great	-8220
▁up▁a	-8221
▁snack	-8222
▁Jersey	-8223
urniture	-8224
▁utility	-8225
▁functional	-8226
Ab	-8227
agues	-8228
▁spark	-8229
▁withd	-8230
▁him▁to	-8231
▁awareness	-8232
oom	-8233
Where	-8234
▁agre	-8235
▁inches	-8236
▁tablet	-8237
"▁(	-8238
eah	-8239
Check	-8240
▁buff	-8241
▁seam	-8242
▁soph	-8243
ers▁have	-8244
▁dollars	-8245
▁fitness	-8246
▁Did	-8247
▁led	-8248
▁alert	-8249
▁With▁the	-8250
▁Queen	-8251
▁looking▁at	-8252
▁and▁A	-8253
▁vintage	-8254
uis	-8255
▁Meet	-8256
▁leak	-8257
▁suffering	-8258
▁which▁is▁a	-8259
Per	-8260
ates▁the	-8261
▁New▁Zealand	-8262
▁hat	-8263
atell	-8264
▁Link	-8265
▁runn	-8266
▁stuck	-8267
▁legend	-8268
▁to▁change	-8269
izer	-8270
otal	-8271
wall	-8272
▁Ash	-8273
▁Pin	-8274
▁Andrew	-8275
▁plugin	-8276
▁scored	-8277
▁YouTube	-8278
▁guidelines	-8279
Today	-8280
ive▁and	-8281
▁brands	-8282
▁in▁and	-8283
▁outcome	-8284
ml	-8285
▁of▁K	-8286
▁Smart	-8287
▁promise	-8288
▁Penn	-8289
▁alarm	-8290
ate▁your	-8291
▁to▁build	-8292
▁will▁not▁be	-8293
Pe	-8294
▁Disney	-8295
▁Record	-8296
**	-8297
elf	-8298
▁kil	-8299
▁wave	-8300
▁strip	-8301
▁from▁an	-8302
▁only▁one	-8303
Americ	-8304
▁cloth	-8305
▁assets	-8306
▁breast	-8307
▁continued	-8308
ESS	-8309
osc	-8310
ings▁are	-8311
▁fasc	-8312
iously	-8313
▁songs	-8314
▁making▁a	-8315
▁including▁a	-8316
▁in▁R	-8317
▁Video	-8318
▁margin	-8319
▁reform	-8320
▁complim	-8321
htt	-8322
low	-8323
▁the▁one	-8324
▁in▁these	-8325
▁to▁make▁a	-8326
’.	-8327
bed	-8328
Each	-8329
▁Sports	-8330
▁driven	-8331
▁entrance	-8332
▁standing	-8333
▁Job	-8334
worth	-8335
▁Auto	-8336
▁factory	-8337
▁refresh	-8338
▁was▁also	-8339
▁Fun	-8340
▁Lin	-8341
duate	-8342
▁vert	-8343
s▁best	-8344
▁will▁be▁a	-8345
▁you▁do	-8346
▁very▁good	-8347
▁Wat	-8348
▁He▁has	-8349
▁Pacific	-8350
▁to▁show	-8351
▁following▁the	-8352
▁talking▁about	-8353
stream	-8354
▁literally	-8355
▁very▁well	-8356
iled	-8357
tense	-8358
▁at▁an	-8359
▁twist	-8360
▁yield	-8361
▁residence	-8362
▁functionality	-8363
stra	-8364
umes	-8365
▁look▁for	-8366
Even	-8367
▁obst	-8368
▁trim	-8369
▁moder	-8370
▁navig	-8371
▁Should	-8372
▁segment	-8373
s▁in▁this	-8374
▁Du	-8375
▁Run	-8376
igure	-8377
isation	-8378
▁Welcome	-8379
▁greatly	-8380
▁calendar	-8381
▁Condition	-8382
▁to▁help▁you	-8383
▁<	-8384
asm	-8385
lyn	-8386
▁PA	-8387
▁sharp	-8388
▁terror	-8389
▁wireless	-8390
Note	-8391
▁Tit	-8392
▁Modern	-8393
▁defined	-8394
RL	-8395
teen	-8396
▁Die	-8397
▁sew	-8398
s▁B	-8399
▁Ariz	-8400
iverse	-8401
holders	-8402
▁secondary	-8403
acon	-8404
▁Oil	-8405
▁or▁in	-8406
▁Clin	-8407
▁bell	-8408
▁decent	-8409
▁for▁every	-8410
▁that▁time	-8411
bre	-8412
▁hospit	-8413
▁History	-8414
▁in▁the▁UK	-8415
etry	-8416
▁sky	-8417
pense	-8418
orders	-8419
▁The▁H	-8420
▁stars	-8421
▁underst	-8422
▁visiting	-8423
▁was▁born	-8424
▁beneficial	-8425
▁convenience	-8426
Mar	-8427
ulpt	-8428
▁Night	-8429
▁brush	-8430
▁was▁to	-8431
▁For▁more	-8432
▁mac	-8433
▁bare	-8434
▁what▁it	-8435
▁I▁want▁to	-8436
▁candidate	-8437
▁preferred	-8438
▁which▁can	-8439
This▁is▁a	-8440
er▁of▁the	-8441
▁prospect	-8442
ations▁are	-8443
▁communicate	-8444
ucky	-8445
▁swimming	-8446
▁electricity	-8447
ih	-8448
CO	-8449
▁Mur	-8450
ic▁and	-8451
▁and▁over	-8452
▁supports	-8453
▁signature	-8454
▁found▁that	-8455
llo	-8456
▁Lic	-8457
▁gap	-8458
▁pride	-8459
▁placed	-8460
▁forecast	-8461
ups	-8462
odge	-8463
▁CON	-8464
▁Far	-8465
ydney	-8466
▁unex	-8467
▁lessons	-8468
RI	-8469
▁Joe	-8470
ant▁to	-8471
▁likes	-8472
ruption	-8473
▁module	-8474
▁topics	-8475
▁the▁sun	-8476
ed▁in▁this	-8477
▁available▁for	-8478
lace	-8479
▁empty	-8480
▁foods	-8481
▁Silver	-8482
▁had▁the	-8483
▁hi	-8484
ateful	-8485
▁giant	-8486
▁has▁been▁a	-8487
▁unw	-8488
▁laptop	-8489
▁working▁on	-8490
▁on▁Saturday	-8491
▁Ep	-8492
▁wra	-8493
▁nerv	-8494
▁funds	-8495
▁paying	-8496
▁managed▁to	-8497
▁the▁future	-8498
….	-8499
oin	-8500
umni	-8501
▁mel	-8502
▁mob	-8503
▁Quality	-8504
▁Toronto	-8505
▁an▁hour	-8506
▁the▁public	-8507
▁institution	-8508
▁such▁as▁the	-8509
uma	-8510
rite	-8511
▁Pot	-8512
▁zero	-8513
▁territ	-8514
▁from▁my	-8515
page	-8516
▁Jac	-8517
▁alt	-8518
▁laugh	-8519
▁taxes	-8520
ed▁away	-8521
▁recover	-8522
▁There▁is▁a	-8523
▁retirement	-8524
▁surve	-8525
s▁across	-8526
▁Are▁you	-8527
▁personality	-8528
▁organisation	-8529
▁to▁be▁able▁to	-8530
ja	-8531
orse	-8532
▁Iran	-8533
▁agric	-8534
ologies	-8535
▁Kingdom	-8536
▁Training	-8537
▁I▁have▁been	-8538
▁resid	-8539
▁Martin	-8540
▁Though	-8541
▁sick	-8542
▁gaming	-8543
▁work▁and	-8544
▁Ap	-8545
▁SS	-8546
▁Girl	-8547
▁hill	-8548
▁champ	-8549
▁ratio	-8550
▁necessarily	-8551
Read	-8552
▁Area	-8553
▁Never	-8554
▁Pract	-8555
▁plain	-8556
▁suffe	-8557
▁for▁both	-8558
▁recognized	-8559
▁in▁the▁area	-8560
▁where▁you▁can	-8561
▁Follow	-8562
▁access▁to▁the	-8563
▁bab	-8564
▁ham	-8565
▁Coll	-8566
▁tear	-8567
▁divid	-8568
▁Forest	-8569
s▁ind	-8570
▁narr	-8571
▁assume	-8572
▁orange	-8573
▁importance▁of	-8574
▁por	-8575
▁dogs	-8576
▁recre	-8577
itution	-8578
▁opposite	-8579
▁Unfortunately	-8580
Sm	-8581
bury	-8582
tail	-8583
▁Ent	-8584
▁sets	-8585
▁forms	-8586
▁trained	-8587
▁is▁not▁a	-8588
▁the▁game	-8589
▁where▁they	-8590
FF	-8591
raid	-8592
▁moments	-8593
▁students▁to	-8594
▁consultation	-8595
ila	-8596
rus	-8597
▁Av	-8598
ashed	-8599
▁agents	-8600
▁for▁one	-8601
▁his▁own	-8602
▁in▁order	-8603
▁where▁we	-8604
aming	-8605
▁shirt	-8606
ating▁a	-8607
ivalent	-8608
▁in▁fact	-8609
▁leaving	-8610
▁broadcast	-8611
▁that▁it▁is	-8612
▁lets	-8613
▁twin	-8614
▁from▁all	-8615
▁subscrib	-8616
▁expression	-8617
holder	-8618
▁Three	-8619
▁analyt	-8620
▁ceremon	-8621
▁it▁can▁be	-8622
▁Additionally	-8623
▁intelligence	-8624
Find	-8625
aver	-8626
▁Lib	-8627
▁hur	-8628
▁inn	-8629
▁aren	-8630
urrently	-8631
▁keyboard	-8632
▁Son	-8633
▁cod	-8634
▁que	-8635
▁argument	-8636
▁is▁the▁most	-8637
▁productivity	-8638
rics	-8639
▁pleasure	-8640
▁objective	-8641
kel	-8642
▁era	-8643
▁Cloud	-8644
▁juice	-8645
▁very▁best	-8646
▁Oak	-8647
aylor	-8648
s▁to▁a	-8649
▁visited	-8650
ed▁within	-8651
▁satisfied	-8652
aine	-8653
▁bridge	-8654
▁indeed	-8655
▁is▁always	-8656
▁the▁benef	-8657
ing▁together	-8658
▁something▁that	-8659
▁Line	-8660
▁tests	-8661
ics▁and	-8662
▁Connect	-8663
▁homeown	-8664
s▁for▁your	-8665
▁telephone	-8666
▁SEO	-8667
missions	-8668
ellectual	-8669
▁appl	-8670
▁cock	-8671
The▁first	-8672
▁celebrate	-8673
foot	-8674
ooth	-8675
▁Him	-8676
▁plot	-8677
asters	-8678
▁Asian	-8679
▁Cross	-8680
bration	-8681
▁started▁to	-8682
oto	-8683
ayer	-8684
▁Film	-8685
or▁and	-8686
▁Heart	-8687
▁Prime	-8688
▁rural	-8689
liament	-8690
▁featuring	-8691
▁tournament	-8692
▁suggestions	-8693
Next	-8694
star	-8695
▁Arm	-8696
▁god	-8697
▁Such	-8698
▁getting▁a	-8699
Int	-8700
▁Isl	-8701
▁Yet	-8702
▁releas	-8703
▁somewhat	-8704
▁approach▁to	-8705
▁tu	-8706
iors	-8707
roke	-8708
▁Ell	-8709
▁lights	-8710
▁Johnson	-8711
▁without▁any	-8712
▁in▁the▁middle	-8713
▁HT	-8714
▁drag	-8715
▁fault	-8716
▁Studies	-8717
▁the▁pat	-8718
▁container	-8719
▁importance	-8720
▁PDF	-8721
s▁offer	-8722
▁resume	-8723
▁Georgia	-8724
▁Kar	-8725
iform	-8726
pport	-8727
▁Help	-8728
▁Rose	-8729
▁the▁T	-8730
▁other▁than	-8731
▁the▁entire	-8732
▁the▁person	-8733
▁to▁improve	-8734
▁icon	-8735
▁inner	-8736
▁That▁is	-8737
▁shouldn	-8738
▁Property	-8739
▁refriger	-8740
▁fib	-8741
es▁that	-8742
▁tutorial	-8743
▁correctly	-8744
▁SH	-8745
rame	-8746
▁warn	-8747
rating	-8748
▁Event	-8749
▁are▁a	-8750
▁vessel	-8751
▁Systems	-8752
▁herself	-8753
▁Engineering	-8754
▁Put	-8755
▁ski	-8756
comfort	-8757
▁in▁many	-8758
▁nuclear	-8759
▁seems▁to▁be	-8760
aked	-8761
igent	-8762
▁like▁that	-8763
▁unable▁to	-8764
▁information▁and	-8765
▁Brad	-8766
▁Thus	-8767
▁laws	-8768
▁married	-8769
▁Administration	-8770
GA	-8771
▁Ray	-8772
▁chip	-8773
▁solo	-8774
riculum	-8775
▁At▁the	-8776
▁tend▁to	-8777
▁surprising	-8778
▁majority▁of	-8779
▁bull	-8780
▁till	-8781
▁exhaust	-8782
▁to▁begin	-8783
▁Marketing	-8784
▁the▁business	-8785
▁..	-8786
It▁was	-8787
▁time▁of	-8788
▁Division	-8789
▁in▁the▁country	-8790
imp	-8791
Make	-8792
herry	-8793
rible	-8794
▁Roman	-8795
▁twenty	-8796
▁anymore	-8797
▁is▁only	-8798
▁went▁to	-8799
▁depression	-8800
▁with▁these	-8801
Am	-8802
usual	-8803
ouston	-8804
▁convey	-8805
s▁together	-8806
▁adm	-8807
erman	-8808
▁Bell	-8809
▁Spain	-8810
ing▁to▁do	-8811
%,	-8812
ERS	-8813
▁cm	-8814
amel	-8815
▁Aff	-8816
anger	-8817
ed▁off	-8818
▁tissue	-8819
▁to▁its	-8820
▁muscles	-8821
▁Personal	-8822
asic	-8823
▁pra	-8824
▁in▁it	-8825
▁hosting	-8826
▁that▁all	-8827
▁supporting	-8828
OO	-8829
Rem	-8830
step	-8831
▁Cra	-8832
▁ages	-8833
▁Again	-8834
▁a▁week	-8835
▁plans▁to	-8836
▁BE	-8837
▁Ter	-8838
▁Roll	-8839
▁temporary	-8840
▁with▁that	-8841
▁adj	-8842
▁Jackson	-8843
▁hours▁of	-8844
▁Ur	-8845
or▁to	-8846
ifully	-8847
▁adequ	-8848
▁crazy	-8849
▁starts	-8850
▁on▁that	-8851
anes	-8852
cies	-8853
▁Map	-8854
letter	-8855
▁Jones	-8856
▁golden	-8857
▁creates	-8858
▁Not▁only	-8859
▁Southern	-8860
▁as▁well▁as▁a	-8861
▁if▁you▁want▁to	-8862
FA	-8863
▁Sol	-8864
quart	-8865
▁Friend	-8866
▁or▁any	-8867
▁Process	-8868
▁I▁have▁a	-8869
▁tor	-8870
ipping	-8871
▁suite	-8872
▁reader	-8873
▁accounts	-8874
▁trademark	-8875
▁recommendations	-8876
▁Ha	-8877
onder	-8878
▁bench	-8879
▁pair▁of	-8880
iger	-8881
▁Four	-8882
▁heal	-8883
▁neut	-8884
▁scar	-8885
▁During	-8886
▁Estate	-8887
▁define	-8888
▁depending▁on	-8889
▁Army	-8890
▁Vegas	-8891
▁deeper	-8892
ers▁of▁the	-8893
▁literature	-8894
▁strengthen	-8895
▁rug	-8896
▁grace	-8897
In▁this	-8898
▁watched	-8899
ipt	-8900
▁voc	-8901
▁gamb	-8902
▁tasks	-8903
▁trash	-8904
▁fulfill	-8905
s▁against	-8906
▁state▁of	-8907
▁acquisition	-8908
%.	-8909
▁WH	-8910
Book	-8911
this	-8912
▁keeps	-8913
▁langu	-8914
▁clicking	-8915
▁the▁body	-8916
ing▁system	-8917
▁estimated	-8918
atile	-8919
▁Bible	-8920
▁authors	-8921
▁days▁of	-8922
▁largely	-8923
▁the▁top	-8924
▁handling	-8925
▁holidays	-8926
▁every▁time	-8927
▁networking	-8928
▁certification	-8929
cific	-8930
stract	-8931
▁abuse	-8932
▁county	-8933
▁heating	-8934
▁like▁it	-8935
▁Orig	-8936
urious	-8937
ed▁around	-8938
▁Ol	-8939
▁ram	-8940
ating▁to	-8941
▁Academy	-8942
cue	-8943
▁Fac	-8944
▁Pop	-8945
▁In▁a	-8946
▁arts	-8947
essert	-8948
▁Order	-8949
▁drain	-8950
▁debate	-8951
▁forgot	-8952
▁means▁that	-8953
PL	-8954
UM	-8955
▁Ram	-8956
▁Sound	-8957
▁stack	-8958
▁tooth	-8959
ing▁for▁a	-8960
▁can▁be▁a	-8961
▁Los▁Angeles	-8962
▁communications	-8963
pir	-8964
▁Kn	-8965
▁LA	-8966
▁McC	-8967
▁termin	-8968
▁to▁add	-8969
▁turning	-8970
▁relative	-8971
▁say▁that	-8972
▁capable▁of	-8973
▁perfect▁for	-8974
▁FL	-8975
keep	-8976
▁Conc	-8977
▁funny	-8978
▁it▁in	-8979
▁patio	-8980
▁saved	-8981
▁fields	-8982
▁on▁all	-8983
▁If▁your	-8984
▁sitting	-8985
▁Mah	-8986
▁codes	-8987
resents	-8988
▁affili	-8989
▁is▁for	-8990
▁to▁pay	-8991
▁strongly	-8992
▁the▁front	-8993
▁volunteer	-8994
s▁and▁their	-8995
▁a▁little▁bit	-8996
▁designed▁for	-8997
▁parts▁of▁the	-8998
atal	-8999
bell	-9000
▁Bal	-9001
ounge	-9002
asting	-9003
▁I▁feel	-9004
▁Repair	-9005
▁printing	-9006
▁certificate	-9007
wan	-9008
▁CB	-9009
▁Tech	-9010
charge	-9011
▁newly	-9012
anwhile	-9013
looking	-9014
▁border	-9015
▁just▁as	-9016
ing▁to▁be	-9017
▁creativity	-9018
▁Conf	-9019
▁pace	-9020
▁stem	-9021
▁Arizona	-9022
▁They▁were	-9023
▁it▁will▁be	-9024
▁According▁to	-9025
cm	-9026
ded	-9027
▁hes	-9028
ifier	-9029
▁Walk	-9030
▁iPad	-9031
▁He▁is	-9032
▁Casino	-9033
▁Common	-9034
▁removed	-9035
▁stylish	-9036
▁personnel	-9037
▁compatible	-9038
▁DI	-9039
athy	-9040
ogen	-9041
▁Dub	-9042
▁Ham	-9043
▁lov	-9044
▁Members	-9045
▁letters	-9046
▁travell	-9047
▁based▁in	-9048
▁obviously	-9049
▁family▁and	-9050
▁the▁custom	-9051
▁the▁first▁time	-9052
▁stainless▁steel	-9053
otive	-9054
▁dual	-9055
▁hyper	-9056
▁closer	-9057
▁let▁me	-9058
▁introduce	-9059
▁allowed▁to	-9060
▁New▁York▁City	-9061
▁av	-9062
▁Stan	-9063
▁apps	-9064
▁calm	-9065
▁but▁he	-9066
▁Scotland	-9067
▁criteria	-9068
▁landscap	-9069
sis	-9070
Will	-9071
cular	-9072
▁mood	-9073
▁steam	-9074
▁improv	-9075
▁employe	-9076
▁illegal	-9077
▁used▁by	-9078
▁knowledge▁and	-9079
TP	-9080
▁boot	-9081
▁plane	-9082
▁examples	-9083
▁always▁been	-9084
▁complicated	-9085
▁interaction	-9086
▁research▁and	-9087
▁experience▁in	-9088
:▁'	-9089
▁EX	-9090
ctive	-9091
▁Force	-9092
▁Local	-9093
▁Golden	-9094
▁Agreement	-9095
▁authority	-9096
▁protected	-9097
▁considering	-9098
▁tape	-9099
▁feels	-9100
▁dishes	-9101
▁to▁put	-9102
▁cost▁of	-9103
▁reprodu	-9104
▁evol	-9105
▁isol	-9106
▁tone	-9107
▁Justice	-9108
▁versions	-9109
▁improving	-9110
▁referred▁to	-9111
ols	-9112
▁walls	-9113
t▁forget	-9114
▁many▁people	-9115
andon	-9116
▁Stat	-9117
▁wrap	-9118
▁drawn	-9119
▁stead	-9120
▁loving	-9121
▁our▁own	-9122
▁pick▁up	-9123
▁initiative	-9124
▁the▁school	-9125
▁spectacular	-9126
raq	-9127
▁DO	-9128
inson	-9129
▁we▁do	-9130
▁gentle	-9131
▁the▁lar	-9132
▁occurred	-9133
▁over▁time	-9134
▁a▁long▁time	-9135
▁Championship	-9136
▁alive	-9137
▁safet	-9138
▁passed	-9139
▁fishing	-9140
▁keeping	-9141
d▁like▁to	-9142
▁could▁not	-9143
▁could▁have	-9144
▁consequences	-9145
ANT	-9146
empl	-9147
leep	-9148
▁Boston	-9149
▁permit	-9150
▁equally	-9151
olt	-9152
▁Vi	-9153
▁hub	-9154
s▁Day	-9155
▁blow	-9156
▁I▁get	-9157
▁the▁two	-9158
▁This▁will	-9159
▁is▁in▁the	-9160
▁workplace	-9161
GO	-9162
▁Dan	-9163
etter	-9164
market	-9165
urning	-9166
▁allerg	-9167
ordinary	-9168
▁acceler	-9169
▁includes▁a	-9170
▁fing	-9171
itable	-9172
▁loyal	-9173
▁inspection	-9174
▁Corporation	-9175
run	-9176
yers	-9177
zzle	-9178
▁meals	-9179
▁Summer	-9180
▁locally	-9181
▁continues▁to	-9182
Fe	-9183
reets	-9184
ureau	-9185
▁Produ	-9186
▁Machine	-9187
▁rate▁of	-9188
omy	-9189
rog	-9190
▁Level	-9191
▁arrang	-9192
▁escape	-9193
▁stable	-9194
▁durable	-9195
▁equivalent	-9196
▁ast	-9197
▁scal	-9198
▁Stock	-9199
▁Would	-9200
▁gender	-9201
▁mirror	-9202
ollywood	-9203
▁Medicine	-9204
▁There▁is▁no	-9205
DP	-9206
▁lib	-9207
iders	-9208
▁alter	-9209
▁and▁no	-9210
▁attempt▁to	-9211
▁smartphone	-9212
▁The▁company	-9213
▁the▁number▁of	-9214
▁Santa	-9215
▁Select	-9216
▁errors	-9217
▁humans	-9218
▁succeed	-9219
See	-9220
arry	-9221
▁Non	-9222
heast	-9223
▁hydro	-9224
▁abroad	-9225
▁faculty	-9226
▁only▁be	-9227
▁web▁site	-9228
▁next▁year	-9229
▁which▁the	-9230
▁should▁have	-9231
▁HP	-9232
adium	-9233
style	-9234
▁Writ	-9235
▁lens	-9236
▁lies	-9237
▁Steel	-9238
▁pitch	-9239
▁stopped	-9240
▁WordPress	-9241
▁respectively	-9242
BM	-9243
▁Lot	-9244
Other	-9245
▁crop	-9246
aching	-9247
▁Plant	-9248
▁imper	-9249
▁indoor	-9250
▁posted	-9251
▁source▁of	-9252
▁Collection	-9253
olis	-9254
▁served	-9255
▁subsid	-9256
▁venture	-9257
itis	-9258
okes	-9259
▁lie	-9260
▁breaking	-9261
▁estimate	-9262
▁limited▁to	-9263
▁things▁that	-9264
Ed	-9265
una	-9266
▁CP	-9267
sole	-9268
cycle	-9269
orith	-9270
▁clip	-9271
▁acknow	-9272
▁foundation	-9273
CS	-9274
enny	-9275
uster	-9276
athered	-9277
▁baking	-9278
▁presents	-9279
▁stronger	-9280
▁you▁can▁see	-9281
gypt	-9282
▁Cre	-9283
▁Sci	-9284
ensus	-9285
person	-9286
unicip	-9287
▁fraud	-9288
▁Annual	-9289
▁to▁her	-9290
▁Samsung	-9291
▁chronic	-9292
▁on▁Friday	-9293
Love	-9294
pool	-9295
▁Est	-9296
▁invite	-9297
▁ranking	-9298
▁work▁in	-9299
▁conscious	-9300
▁mm	-9301
oper	-9302
▁Prom	-9303
▁being▁the	-9304
▁people▁with	-9305
swe	-9306
▁wise	-9307
t▁want	-9308
▁admit	-9309
▁deeply	-9310
▁sculpt	-9311
▁Looking	-9312
ing▁a▁new	-9313
▁creation	-9314
▁behaviour	-9315
▁the▁course	-9316
▁allow▁you▁to	-9317
hour	-9318
▁lad	-9319
oming	-9320
▁patent	-9321
▁keep▁your	-9322
▁is▁the▁best	-9323
▁preparation	-9324
▁conventional	-9325
▁in▁the▁field	-9326
Use	-9327
▁Exam	-9328
▁phones	-9329
▁strange	-9330
▁CR	-9331
▁grab	-9332
▁rubber	-9333
▁Student	-9334
▁suspect	-9335
▁along▁with▁the	-9336
▁wide▁variety▁of	-9337
TV	-9338
gel	-9339
bage	-9340
rypt	-9341
▁urg	-9342
▁Autom	-9343
▁a▁more	-9344
▁it▁and	-9345
▁Theatre	-9346
▁wondering	-9347
▁advantages	-9348
▁performances	-9349
PN	-9350
▁ther	-9351
▁Happy	-9352
▁the▁d	-9353
▁explan	-9354
▁Remember	-9355
▁for▁over	-9356
▁authentic	-9357
▁appliances	-9358
sen	-9359
▁Sus	-9360
▁therap	-9361
▁titles	-9362
▁comprom	-9363
▁Standard	-9364
▁in▁the▁U	-9365
▁dealing▁with	-9366
▁consideration	-9367
▁duty	-9368
Before	-9369
screen	-9370
▁layer	-9371
▁string	-9372
▁two▁years	-9373
▁lucky	-9374
▁When▁I	-9375
▁she▁is	-9376
▁compact	-9377
▁operator	-9378
▁compliment	-9379
▁Li	-9380
▁wake	-9381
▁goods	-9382
▁pricing	-9383
▁a▁single	-9384
▁protocol	-9385
▁mg	-9386
utter	-9387
▁cheaper	-9388
▁at▁any▁time	-9389
geon	-9390
orce	-9391
▁Ban	-9392
▁in▁G	-9393
▁Limited	-9394
▁participating	-9395
agen	-9396
uten	-9397
▁ward	-9398
▁a▁low	-9399
▁diseases	-9400
▁continuous	-9401
▁batt	-9402
▁amend	-9403
▁closet	-9404
▁receive▁a	-9405
▁would▁not	-9406
▁has▁become	-9407
ly▁to	-9408
▁Made	-9409
▁in▁W	-9410
▁boxes	-9411
opyright	-9412
▁Consult	-9413
▁copyright	-9414
▁officials	-9415
acc	-9416
iami	-9417
kers	-9418
▁Golf	-9419
▁Still	-9420
▁or▁so	-9421
▁react	-9422
▁spell	-9423
jection	-9424
▁Charles	-9425
▁experim	-9426
▁that▁our	-9427
▁the▁main	-9428
▁up▁to▁the	-9429
▁composition	-9430
▁tact	-9431
▁knock	-9432
▁newspaper	-9433
▁your▁child	-9434
war	-9435
▁Ren	-9436
ylvan	-9437
orship	-9438
▁false	-9439
▁excited▁to	-9440
▁living▁room	-9441
▁of▁the▁year	-9442
Up	-9443
ao	-9444
ading	-9445
▁persons	-9446
▁where▁I	-9447
▁followed▁by	-9448
▁bact	-9449
▁tomat	-9450
▁orient	-9451
▁showed	-9452
▁Install	-9453
▁abilities	-9454
▁represents	-9455
estion	-9456
▁Model	-9457
▁and▁V	-9458
▁diabet	-9459
ing▁they	-9460
▁substantial	-9461
earn	-9462
sect	-9463
amera	-9464
▁Come	-9465
For▁more	-9466
▁applies	-9467
▁value▁of	-9468
▁would▁like	-9469
According▁to	-9470
alo	-9471
from	-9472
▁dos	-9473
inton	-9474
▁Hold	-9475
▁amen	-9476
▁gate	-9477
▁facing	-9478
▁worship	-9479
▁Board▁of	-9480
▁the▁pres	-9481
▁passionate	-9482
ERE	-9483
▁figures	-9484
▁one▁day	-9485
▁grateful	-9486
unn	-9487
▁Bit	-9488
▁phr	-9489
▁tro	-9490
▁lamp	-9491
isters	-9492
▁drugs	-9493
Whether	-9494
cing▁the	-9495
▁electron	-9496
▁repeated	-9497
▁figure▁out	-9498
▁nail	-9499
▁Radio	-9500
▁doctors	-9501
▁engines	-9502
▁There▁is	-9503
▁assistant	-9504
TE	-9505
Take	-9506
▁spa	-9507
▁Tool	-9508
s▁only	-9509
▁horiz	-9510
▁weren	-9511
▁diagram	-9512
▁tourist	-9513
▁Sav	-9514
▁Space	-9515
▁conce	-9516
mercial	-9517
▁and▁on	-9518
▁borrow	-9519
▁keyword	-9520
▁screens	-9521
▁attitude	-9522
▁a▁person	-9523
▁networks	-9524
▁mechanical	-9525
"
"	-9526
Good	-9527
pons	-9528
▁Eth	-9529
▁belt	-9530
annels	-9531
▁backup	-9532
▁Williams	-9533
▁the▁second	-9534
▁NO	-9535
▁ALL	-9536
▁Ice	-9537
▁foam	-9538
▁of▁A	-9539
▁tells	-9540
▁tired	-9541
▁the▁work	-9542
▁similar▁to	-9543
ige	-9544
oken	-9545
wich	-9546
▁Dog	-9547
▁Give	-9548
▁Decor	-9549
▁prime	-9550
limited	-9551
▁intent	-9552
▁generic	-9553
▁plan▁to	-9554
▁gives▁you	-9555
ment▁of▁the	-9556
▁millions▁of	-9557
▁can▁help▁you	-9558
lend	-9559
power	-9560
vision	-9561
▁ensuring	-9562
▁objectives	-9563
ART	-9564
▁can▁you	-9565
▁charity	-9566
ated▁with	-9567
▁time▁for	-9568
▁medication	-9569
▁the▁potential	-9570
▁one▁of▁the▁best	-9571
Col	-9572
giving	-9573
▁broke	-9574
▁missed	-9575
▁asked▁to	-9576
call	-9577
▁Sale	-9578
▁a▁full	-9579
▁Finally	-9580
▁were▁not	-9581
▁carried▁out	-9582
▁many▁of▁the	-9583
▁stages	-9584
▁representative	-9585
▁CO	-9586
nell	-9587
ught	-9588
▁API	-9589
▁Tar	-9590
▁pic	-9591
▁admitt	-9592
▁resolve	-9593
▁any▁of▁the	-9594
▁aspects▁of	-9595
▁regarding▁the	-9596
iac	-9597
iju	-9598
▁Fact	-9599
▁Foot	-9600
▁sought	-9601
▁diamond	-9602
▁generated	-9603
▁and▁it▁was	-9604
▁getting▁the	-9605
▁transformation	-9606
edge	-9607
mble	-9608
ass▁of	-9609
▁smoke	-9610
▁sorry	-9611
▁disaster	-9612
▁hunt	-9613
rieved	-9614
▁Field	-9615
▁admin	-9616
▁refuge	-9617
▁intense	-9618
▁practic	-9619
▁regions	-9620
▁and▁work	-9621
If▁you▁have	-9622
▁an▁important	-9623
▁availability	-9624
▁Hon	-9625
ervice	-9626
▁Image	-9627
▁it▁up	-9628
▁applied	-9629
▁desktop	-9630
▁drawing	-9631
▁how▁you	-9632
▁employer	-9633
▁engineer	-9634
▁informed	-9635
▁regulation	-9636
▁that▁you▁have	-9637
rif	-9638
▁GM	-9639
piece	-9640
▁couch	-9641
ious▁and	-9642
LS	-9643
ies▁are	-9644
▁pollut	-9645
▁among▁the	-9646
▁PRO	-9647
▁boast	-9648
▁Rights	-9649
ers▁from	-9650
▁years▁to	-9651
ability▁and	-9652
▁consists▁of	-9653
▁in▁the▁market	-9654
t▁see	-9655
▁Kong	-9656
s▁work	-9657
▁explor	-9658
▁calling	-9659
▁listing	-9660
▁one▁of▁my	-9661
▁Cam	-9662
▁hors	-9663
▁Glass	-9664
▁salad	-9665
ives▁and	-9666
▁consent	-9667
▁symptoms	-9668
▁specializ	-9669
▁be▁able▁to	-9670
▁to▁develop	-9671
isa	-9672
produ	-9673
▁User	-9674
▁semi	-9675
▁Irish	-9676
▁the▁L	-9677
urities	-9678
▁artwork	-9679
▁how▁they	-9680
▁contractor	-9681
▁officially	-9682
▁once▁again	-9683
nut	-9684
▁haz	-9685
▁lease	-9686
▁encourag	-9687
▁look▁like	-9688
▁consistently	-9689
vo	-9690
ATE	-9691
inyl	-9692
eness	-9693
icate	-9694
▁rarely	-9695
▁Learning	-9696
▁a▁better	-9697
▁decrease	-9698
▁for▁everyone	-9699
str	-9700
adel	-9701
umer	-9702
▁Ess	-9703
angle	-9704
▁amaz	-9705
▁Treat	-9706
▁pilot	-9707
pendent	-9708
▁casual	-9709
▁encounter	-9710
Sim	-9711
bra	-9712
oween	-9713
▁plug	-9714
▁Employ	-9715
ers▁will	-9716
▁suffered	-9717
▁caused▁by	-9718
▁understood	-9719
ko	-9720
ccer	-9721
ifer	-9722
▁the▁U	-9723
▁cancell	-9724
▁for▁a▁few	-9725
▁reputation	-9726
▁hung	-9727
Because	-9728
▁clothing	-9729
▁people▁and	-9730
▁experience▁and	-9731
ums	-9732
▁lip	-9733
▁tum	-9734
▁displ	-9735
▁pound	-9736
akistan	-9737
▁of▁The	-9738
▁shooting	-9739
▁start▁to	-9740
▁use▁this	-9741
▁accordance	-9742
sized	-9743
▁evil	-9744
▁laid	-9745
▁stir	-9746
▁Avenue	-9747
▁jewelry	-9748
▁at▁a▁time	-9749
▁look▁at▁the	-9750
▁bid	-9751
▁corn	-9752
▁and▁W	-9753
rection	-9754
▁the▁day	-9755
▁algorith	-9756
▁overview	-9757
▁air▁condition	-9758
.;	-9759
▁ly	-9760
mates	-9761
ormal	-9762
ffective	-9763
▁rapidly	-9764
▁acquired	-9765
▁withdraw	-9766
▁intention	-9767
▁which▁can▁be	-9768
ias	-9769
igen	-9770
▁Join	-9771
▁strike	-9772
▁all▁about	-9773
▁integration	-9774
regon	-9775
▁compete	-9776
▁to▁read	-9777
▁each▁year	-9778
▁transmission	-9779
▁Daniel	-9780
▁massage	-9781
▁graphics	-9782
▁total▁of	-9783
icks	-9784
▁weapon	-9785
▁Toy	-9786
erning	-9787
▁loose	-9788
▁Senior	-9789
▁absorb	-9790
▁we▁all	-9791
▁does▁it	-9792
▁injured	-9793
▁trigger	-9794
▁year▁old	-9795
▁of▁the▁world	-9796
ami	-9797
▁worn	-9798
▁Ocean	-9799
▁damaged	-9800
▁within▁a	-9801
▁living▁in	-9802
Mr	-9803
ador	-9804
▁Sym	-9805
rovers	-9806
s▁today	-9807
vironments	-9808
▁that▁could	-9809
▁demonstrate	-9810
▁on▁the▁other	-9811
▁when▁you▁are	-9812
▁Bang	-9813
▁shoe	-9814
▁or▁an	-9815
▁MD	-9816
▁cush	-9817
▁gram	-9818
▁honey	-9819
▁Agency	-9820
▁on▁her	-9821
inations	-9822
▁Eastern	-9823
▁or▁just	-9824
▁Catholic	-9825
▁ended▁up	-9826
▁moved▁to	-9827
▁automatic	-9828
▁ownership	-9829
AV	-9830
aska	-9831
▁Ven	-9832
reedom	-9833
▁Studio	-9834
▁cotton	-9835
▁currency	-9836
▁evolution	-9837
▁can▁also▁be	-9838
Reg	-9839
ppy	-9840
uty	-9841
▁Ba	-9842
owers	-9843
▁brew	-9844
▁rack	-9845
▁Without	-9846
▁and▁add	-9847
▁objects	-9848
▁the▁per	-9849
▁areas▁of	-9850
▁to▁other	-9851
▁colleagues	-9852
da	-9853
▁Own	-9854
smith	-9855
▁coin	-9856
▁oppon	-9857
▁shell	-9858
▁acquire	-9859
▁Northern	-9860
▁childhood	-9861
har	-9862
▁sofa	-9863
▁lemon	-9864
Are▁you	-9865
atellite	-9866
▁Section	-9867
▁arrival	-9868
▁the▁size	-9869
Pr	-9870
rot	-9871
▁Dar	-9872
▁Pur	-9873
▁if▁he	-9874
▁on▁its	-9875
▁rising	-9876
▁neither	-9877
▁who▁had	-9878
▁workout	-9879
▁began▁to	-9880
▁outcomes	-9881
▁anniversary	-9882
▁scholarship	-9883
▁Rub	-9884
▁Mini	-9885
▁refus	-9886
ylvania	-9887
▁branch	-9888
▁Philipp	-9889
▁increase▁in	-9890
▁possibilities	-9891
Sec	-9892
aza	-9893
bourne	-9894
▁Share	-9895
▁choice▁of	-9896
▁reception	-9897
▁you▁have▁a	-9898
andy	-9899
icon	-9900
▁chest	-9901
▁overse	-9902
▁The▁new	-9903
▁about▁their	-9904
EP	-9905
was	-9906
▁dad	-9907
▁fascin	-9908
▁reject	-9909
▁Columbia	-9910
▁ordinary	-9911
▁directory	-9912
▁frequency	-9913
AND	-9914
Car	-9915
gers	-9916
▁Kim	-9917
▁scope	-9918
▁wearing	-9919
ems	-9920
stery	-9921
▁leaf	-9922
ass▁and	-9923
▁Natural	-9924
ed▁through	-9925
▁percent▁of	-9926
UI	-9927
home	-9928
iary	-9929
rend	-9930
▁Sales	-9931
▁globe	-9932
▁The▁only	-9933
▁wildlife	-9934
etch	-9935
rage	-9936
acing	-9937
ijuana	-9938
ll▁find	-9939
▁pursue	-9940
▁happening	-9941
▁called▁the	-9942
Gu	-9943
inf	-9944
▁ine	-9945
▁who▁can	-9946
▁as▁it▁is	-9947
▁initially	-9948
▁accommodation	-9949
aug	-9950
inu	-9951
▁Ak	-9952
▁prize	-9953
▁shops	-9954
▁vibrant	-9955
▁essentially	-9956
Spe	-9957
lean	-9958
▁rou	-9959
employ	-9960
▁Visit	-9961
▁abandon	-9962
▁struggle	-9963
▁participant	-9964
▁programming	-9965
▁Ang	-9966
sters	-9967
unter	-9968
▁at▁B	-9969
theless	-9970
▁advertise	-9971
▁producing	-9972
▁sophistic	-9973
▁association	-9974
▁is▁actually	-9975
ided	-9976
▁Jewish	-9977
▁Crusher	-9978
▁restore	-9979
▁my▁first	-9980
▁she▁said	-9981
▁surprised	-9982
▁operational	-9983
▁version▁of▁the	-9984
dep	-9985
▁rod	-9986
s▁to▁help	-9987
▁on▁Monday	-9988
▁Republican	-9989
▁history▁of	-9990
▁OK	-9991
iffe	-9992
eding	-9993
▁sear	-9994
▁buyers	-9995
▁repeat	-9996
▁healing	-9997
▁to▁get▁a	-9998
▁the▁found	-9999
▁choose▁from	-10000
▁arg	-10001
▁Anth	-10002
▁fits	-10003
▁environments	-10004
ns	-10005
Rec	-10006
In▁a	-10007
▁yoga	-10008
▁forth	-10009
s▁of▁our	-10010
▁ministry	-10011
▁reporting	-10012
▁the▁right▁to	-10013
aka	-10014
▁Po	-10015
dale	-10016
▁cater	-10017
▁oblig	-10018
▁attention▁to	-10019
▁universities	-10020
ghan	-10021
▁chef	-10022
▁The▁F	-10023
▁hybrid	-10024
▁council	-10025
▁knowing	-10026
▁western	-10027
▁officers	-10028
▁complaint	-10029
▁provided▁by	-10030
▁services▁and	-10031
def	-10032
udi	-10033
ften	-10034
rape	-10035
aired	-10036
▁Despite	-10037
▁expense	-10038
▁heavily	-10039
▁purchasing	-10040
▁fundamental	-10041
▁Iraq	-10042
▁shed	-10043
▁Creek	-10044
▁the▁che	-10045
▁and▁every	-10046
aux	-10047
▁Gro	-10048
▁mixed	-10049
▁wound	-10050
▁Brazil	-10051
▁divide	-10052
▁exterior	-10053
▁managers	-10054
▁addresses	-10055
▁choose▁to	-10056
▁happiness	-10057
▁on▁Sunday	-10058
ated▁in▁the	-10059
▁During▁the	-10060
laim	-10061
rait	-10062
ribe	-10063
▁Pen	-10064
▁Credit	-10065
▁Country	-10066
▁come▁in	-10067
▁disclos	-10068
▁beautifully	-10069
▁the▁biggest	-10070
Co	-10071
je	-10072
abeth	-10073
burgh	-10074
▁legit	-10075
▁emphas	-10076
▁live▁in	-10077
▁but▁it▁is	-10078
▁recording	-10079
▁skills▁and	-10080
▁legislation	-10081
obe	-10082
▁LO	-10083
onial	-10084
▁Holy	-10085
▁clock	-10086
▁wider	-10087
▁warning	-10088
▁infection	-10089
▁complement	-10090
▁entrepreneur	-10091
sk	-10092
bow	-10093
abis	-10094
ordan	-10095
organ	-10096
▁Break	-10097
ing▁away	-10098
▁and▁just	-10099
▁phenomen	-10100
▁fact▁that	-10101
▁feel▁free▁to	-10102
Stud	-10103
jack	-10104
lers	-10105
child	-10106
inois	-10107
▁Kent	-10108
Thanks	-10109
itched	-10110
▁pizza	-10111
▁afraid	-10112
▁coupon	-10113
▁superb	-10114
▁and▁help	-10115
▁majority	-10116
▁physician	-10117
▁the▁fact▁that	-10118
Two	-10119
▁ele	-10120
athan	-10121
stein	-10122
▁or▁by	-10123
▁opened	-10124
▁unlock	-10125
▁and▁take	-10126
▁suddenly	-10127
▁reflection	-10128
▁look▁forward▁to	-10129
vet	-10130
▁Village	-10131
▁Ministry	-10132
▁for▁these	-10133
Hz	-10134
ori	-10135
intend	-10136
▁Psych	-10137
▁gifts	-10138
▁heaven	-10139
▁decided	-10140
s▁that▁the	-10141
▁diversity	-10142
▁languages	-10143
▁any▁questions	-10144
▁on▁the▁market	-10145
▁Need	-10146
▁and▁two	-10147
▁examine	-10148
▁reserve	-10149
oust	-10150
eters	-10151
phones	-10152
▁Motor	-10153
▁devot	-10154
▁shade	-10155
▁area▁of	-10156
▁are▁all	-10157
▁inspire	-10158
▁matches	-10159
▁new▁and	-10160
▁Secretary	-10161
▁some▁time	-10162
irk	-10163
ockey	-10164
▁enab	-10165
▁sour	-10166
▁Bridge	-10167
▁purchas	-10168
▁is▁often	-10169
▁northern	-10170
▁vertical	-10171
▁who▁will	-10172
▁structures	-10173
].	-10174
▁III	-10175
ragon	-10176
▁Govern	-10177
s▁to▁your	-10178
▁channels	-10179
▁speakers	-10180
▁performed	-10181
▁conclusion	-10182
Who	-10183
▁hol	-10184
▁Youth	-10185
▁hesit	-10186
issions	-10187
▁Muslim	-10188
▁Exchange	-10189
▁to▁protect	-10190
aya	-10191
▁lett	-10192
▁Egypt	-10193
▁seats	-10194
▁joining	-10195
▁Everyone	-10196
▁near▁the	-10197
▁positions	-10198
ed▁into▁the	-10199
▁training▁and	-10200
)▁(	-10201
zes	-10202
gree	-10203
▁Camb	-10204
alysis	-10205
▁Resort	-10206
▁dessert	-10207
▁planned	-10208
▁are▁some	-10209
CL	-10210
ji	-10211
▁PS	-10212
medi	-10213
owered	-10214
▁and▁as	-10215
▁how▁it	-10216
▁safely	-10217
ology▁and	-10218
▁it▁was▁a	-10219
▁minister	-10220
▁because▁we	-10221
▁the▁highest	-10222
hyd	-10223
aire	-10224
athon	-10225
erver	-10226
▁soup	-10227
ies▁of	-10228
t▁just	-10229
ing▁too	-10230
▁proport	-10231
▁the▁cap	-10232
▁Architect	-10233
▁products▁are	-10234
▁subscription	-10235
bro	-10236
▁hide	-10237
s▁still	-10238
▁equity	-10239
▁permitt	-10240
▁speaker	-10241
▁Manufact	-10242
▁programm	-10243
▁interest▁in	-10244
▁quality▁and	-10245
▁Ont	-10246
grade	-10247
riving	-10248
▁catalog	-10249
▁This▁was	-10250
▁discovery	-10251
▁impression	-10252
▁pretty▁much	-10253
abil	-10254
▁hate	-10255
rations	-10256
▁life▁and	-10257
▁presented	-10258
▁one▁of▁those	-10259
▁administrative	-10260
hot	-10261
card	-10262
cest	-10263
racy	-10264
▁Mat	-10265
orous	-10266
▁in▁F	-10267
▁vine	-10268
▁but▁this	-10269
▁platforms	-10270
▁suppliers	-10271
▁Protection	-10272
▁Emer	-10273
▁Innov	-10274
▁Awards	-10275
▁begins	-10276
▁Building	-10277
▁always▁a	-10278
HP	-10279
MW	-10280
.▁-	-10281
ITH	-10282
cor	-10283
wear	-10284
▁nom	-10285
▁Base	-10286
▁Sher	-10287
ing▁act	-10288
▁Season	-10289
▁Square	-10290
▁mineral	-10291
▁hopefully	-10292
▁CL	-10293
▁ft	-10294
asty	-10295
▁Has	-10296
▁Capital	-10297
▁printer	-10298
▁in▁every	-10299
▁characteristic	-10300
iler	-10301
after	-10302
gency	-10303
undry	-10304
▁if▁a	-10305
▁abund	-10306
ve▁seen	-10307
▁Prince	-10308
including	-10309
▁statements	-10310
▁connections	-10311
▁prescription	-10312
iser	-10313
world	-10314
▁dies	-10315
▁sensor	-10316
▁so▁the	-10317
▁flooring	-10318
▁portable	-10319
▁religion	-10320
m▁going▁to	-10321
▁neighbour	-10322
▁to▁make▁it	-10323
▁this▁season	-10324
airy	-10325
▁cab	-10326
▁mit	-10327
amous	-10328
ifting	-10329
▁enemy	-10330
▁grain	-10331
▁conver	-10332
▁incent	-10333
▁let▁us	-10334
▁or▁her	-10335
▁sign▁up	-10336
▁($	-10337
rank	-10338
▁jur	-10339
icide	-10340
rival	-10341
▁streets	-10342
▁overcome	-10343
▁admission	-10344
▁that▁were	-10345
▁celebration	-10346
▁flexibility	-10347
▁researchers	-10348
iel	-10349
iot	-10350
pire	-10351
ouver	-10352
▁do▁is	-10353
▁not▁a	-10354
▁Galaxy	-10355
▁With▁a	-10356
▁and▁at	-10357
▁franch	-10358
▁seemed	-10359
sylvania	-10360
▁Private	-10361
▁can▁get	-10362
▁compass	-10363
▁passeng	-10364
▁survive	-10365
▁New▁Year	-10366
▁when▁she	-10367
▁They▁have	-10368
▁about▁what	-10369
▁on▁Tuesday	-10370
▁configuration	-10371
▁extraordinary	-10372
roit	-10373
▁opens	-10374
▁Oregon	-10375
▁stimul	-10376
s▁to▁get	-10377
▁holding	-10378
▁washing	-10379
▁Check▁out	-10380
▁diagnosis	-10381
In▁addition	-10382
▁controvers	-10383
▁Jr	-10384
suit	-10385
▁pad	-10386
ingle	-10387
▁crash	-10388
▁Station	-10389
▁amongst	-10390
▁decline	-10391
▁Michigan	-10392
▁The▁best	-10393
▁I▁believe	-10394
▁all▁the▁time	-10395
▁easier▁to	-10396
▁thoroughly	-10397
▁intellectual	-10398
mg	-10399
)▁-	-10400
mend	-10401
m▁sure	-10402
▁fewer	-10403
ves▁and	-10404
▁floors	-10405
▁merely	-10406
▁do▁that	-10407
▁made▁of	-10408
ating▁and	-10409
▁consolid	-10410
▁with▁one	-10411
▁inventory	-10412
▁Uk	-10413
hyth	-10414
▁pul	-10415
▁sitt	-10416
▁tent	-10417
You▁are	-10418
▁waiting▁for	-10419
▁Construction	-10420
UD	-10421
▁bow	-10422
bered	-10423
▁Band	-10424
▁Choose	-10425
▁writers	-10426
▁Interior	-10427
▁make▁you	-10428
▁existence	-10429
▁that▁makes	-10430
?"	-10431
Rep	-10432
▁SO	-10433
estone	-10434
▁spare	-10435
▁Austin	-10436
▁I▁want	-10437
▁On▁the	-10438
▁Policy	-10439
▁Simply	-10440
▁politics	-10441
▁to▁bring	-10442
▁picked▁up	-10443
▁basketball	-10444
▁you▁can▁get	-10445
KE	-10446
onna	-10447
tery	-10448
▁Dri	-10449
▁lob	-10450
month	-10451
▁cord	-10452
ditional	-10453
▁Univers	-10454
▁samples	-10455
▁utilize	-10456
▁many▁other	-10457
▁more▁and▁more	-10458
hh	-10459
Part	-10460
d▁be	-10461
▁Blu	-10462
▁Strateg	-10463
▁printed	-10464
▁tomorrow	-10465
▁who▁were	-10466
▁is▁required	-10467
▁the▁problem	-10468
ima	-10469
rup	-10470
irts	-10471
▁dose	-10472
▁stood	-10473
Finally	-10474
▁dramatic	-10475
▁virtually	-10476
▁references	-10477
▁to▁find▁out	-10478
▁rib	-10479
andid	-10480
enced	-10481
ed▁him	-10482
ples▁of	-10483
viously	-10484
▁Cruise	-10485
▁exchang	-10486
▁food▁and	-10487
▁expansion	-10488
inds	-10489
▁':▁'	-10490
▁exit	-10491
▁has▁no	-10492
▁Edition	-10493
▁emphasis	-10494
▁Halloween	-10495
▁amenities	-10496
▁to▁have▁a	-10497
robe	-10498
▁Ros	-10499
▁hint	-10500
ous▁to	-10501
▁Brook	-10502
▁The▁S	-10503
▁alike	-10504
▁moves	-10505
▁He▁also	-10506
▁Transport	-10507
▁every▁year	-10508
fee	-10509
anny	-10510
▁Was	-10511
using	-10512
▁nutri	-10513
▁approv	-10514
▁Gallery	-10515
▁mistake	-10516
s▁will▁be	-10517
▁precious	-10518
aced	-10519
aret	-10520
visor	-10521
▁Mount	-10522
▁crypt	-10523
▁as▁your	-10524
▁exhibit	-10525
▁all▁that	-10526
▁is▁a▁good	-10527
▁specified	-10528
CP	-10529
verty	-10530
▁Everything	-10531
▁Front	-10532
▁copper	-10533
▁is▁our	-10534
▁prayer	-10535
▁I▁guess	-10536
▁made▁by	-10537
▁bringing	-10538
▁romantic	-10539
pton	-10540
▁tie	-10541
▁Harr	-10542
▁pend	-10543
▁ware	-10544
▁Photo	-10545
▁do▁so	-10546
▁quart	-10547
▁garlic	-10548
▁than▁a	-10549
▁Express	-10550
▁role▁in	-10551
▁created▁a	-10552
▁water▁and	-10553
▁respective	-10554
▁is▁going▁to	-10555
Post	-10556
▁bes	-10557
▁gran	-10558
▁can▁I	-10559
▁skilled	-10560
▁effects▁of	-10561
▁just▁a▁few	-10562
sea	-10563
Like	-10564
chain	-10565
▁Fred	-10566
▁Taylor	-10567
▁robust	-10568
▁in▁love	-10569
▁from▁his	-10570
▁was▁very	-10571
▁students▁and	-10572
uum	-10573
▁Ly	-10574
re▁a	-10575
▁Cro	-10576
▁Nav	-10577
▁Rom	-10578
▁siz	-10579
rator	-10580
th▁and	-10581
▁Labor	-10582
ancouver	-10583
▁came▁to	-10584
▁ceiling	-10585
▁harvest	-10586
ffordable	-10587
▁aluminum	-10588
▁managing	-10589
▁computers	-10590
▁connected	-10591
▁elsewhere	-10592
▁just▁like	-10593
▁artificial	-10594
▁representatives	-10595
ICE	-10596
▁Rod	-10597
les▁and	-10598
olesale	-10599
▁banking	-10600
▁Moreover	-10601
▁on▁how▁to	-10602
ilty	-10603
▁Kids	-10604
▁ends	-10605
▁Guard	-10606
▁prohib	-10607
▁Britain	-10608
▁poverty	-10609
▁scratch	-10610
▁the▁small	-10611
▁was▁found	-10612
▁implementation	-10613
ILL	-10614
▁slee	-10615
incess	-10616
▁Korea	-10617
▁see▁a	-10618
▁Safety	-10619
▁a▁book	-10620
▁if▁not	-10621
▁losing	-10622
▁Conserv	-10623
▁servers	-10624
▁practition	-10625
▁compensation	-10626
▁necessary▁to	-10627
nda	-10628
uan	-10629
s▁own	-10630
▁fest	-10631
▁me▁a	-10632
▁handy	-10633
▁damages	-10634
s▁largest	-10635
▁South▁Africa	-10636
▁Corp	-10637
▁eggs	-10638
▁union	-10639
▁Mother	-10640
▁surely	-10641
........	-10642
▁It▁was▁a	-10643
▁pleasant	-10644
▁needs▁and	-10645
▁conversion	-10646
▁remarkable	-10647
▁available▁to	-10648
alty	-10649
osit	-10650
▁ink	-10651
▁rust	-10652
ify▁the	-10653
ributes	-10654
▁advise	-10655
▁reverse	-10656
▁forms▁of	-10657
▁consultant	-10658
▁meaningful	-10659
▁Mess	-10660
iamond	-10661
igious	-10662
▁deserv	-10663
▁toilet	-10664
American	-10665
▁produces	-10666
▁publication	-10667
▁’	-10668
ags	-10669
aus	-10670
▁Sat	-10671
▁hasn	-10672
▁ster	-10673
through	-10674
▁assured	-10675
▁seasons	-10676
ationally	-10677
▁added▁to	-10678
▁know▁the	-10679
▁is▁really	-10680
▁curriculum	-10681
▁third▁party	-10682
ECT	-10683
▁Cut	-10684
▁jaw	-10685
gener	-10686
izabeth	-10687
▁alumni	-10688
ated▁the	-10689
▁Atlanta	-10690
izing▁the	-10691
▁and▁with	-10692
▁supplier	-10693
▁will▁get	-10694
▁wallpaper	-10695
▁Thanks▁for	-10696
▁difficulty	-10697
▁regulatory	-10698
▁settlement	-10699
▁is▁the▁only	-10700
▁click▁on▁the	-10701
range	-10702
▁Adam	-10703
▁oral	-10704
ilarly	-10705
ing▁ar	-10706
▁merch	-10707
▁set▁to	-10708
▁an▁email	-10709
▁talented	-10710
▁;	-10711
▁AB	-10712
▁of▁W	-10713
closure	-10714
▁Easter	-10715
▁Regist	-10716
▁on▁any	-10717
▁centers	-10718
▁picking	-10719
▁the▁law	-10720
▁overnight	-10721
▁when▁I▁was	-10722
ITY	-10723
iate	-10724
▁Las	-10725
▁lawyer	-10726
▁interests	-10727
▁monitoring	-10728
ME	-10729
▁conj	-10730
▁Henry	-10731
ance▁and	-10732
ong▁Kong	-10733
▁I▁still	-10734
▁always▁be	-10735
▁performing	-10736
▁quality▁of	-10737
iy	-10738
bits	-10739
erial	-10740
minute	-10741
▁cocon	-10742
▁remem	-10743
▁tender	-10744
▁Memorial	-10745
▁patterns	-10746
▁sections	-10747
▁organized	-10748
▁the▁build	-10749
▁CN	-10750
▁Fil	-10751
opher	-10752
▁Rail	-10753
▁Victoria	-10754
▁We▁offer	-10755
▁examination	-10756
▁on▁Thursday	-10757
▁you▁will▁find	-10758
awa	-10759
han	-10760
▁Hol	-10761
▁Nic	-10762
I▁can	-10763
anted	-10764
arest	-10765
t▁work	-10766
ultane	-10767
▁weigh	-10768
▁coconut	-10769
▁feelings	-10770
▁please▁contact	-10771
DR	-10772
▁Rh	-10773
▁at▁work	-10774
▁result▁in	-10775
▁You▁should	-10776
▁manufacturers	-10777
▁toy	-10778
s▁of▁all	-10779
▁portion	-10780
▁powered	-10781
LO	-10782
s▁D	-10783
s▁P	-10784
walk	-10785
▁sed	-10786
▁Viet	-10787
s▁away	-10788
▁ultra	-10789
ing▁to▁a	-10790
▁gambling	-10791
▁heritage	-10792
▁meet▁the	-10793
▁scheduled	-10794
▁if▁you▁don	-10795
xid	-10796
lined	-10797
attery	-10798
▁Chall	-10799
▁metab	-10800
s▁invol	-10801
▁Excell	-10802
▁excite	-10803
▁racing	-10804
▁We▁were	-10805
▁fabulous	-10806
▁and▁after	-10807
▁ske	-10808
scale	-10809
▁lean	-10810
led▁to	-10811
▁but▁a	-10812
▁Donald	-10813
▁cruise	-10814
▁do▁the	-10815
▁empower	-10816
▁in▁both	-10817
▁principal	-10818
▁assist▁you	-10819
MI	-10820
IGH	-10821
pay	-10822
ista	-10823
▁Lux	-10824
allas	-10825
▁firms	-10826
▁holds	-10827
▁reply	-10828
▁Joseph	-10829
▁chairs	-10830
▁Perfect	-10831
▁formula	-10832
▁passing	-10833
▁uniform	-10834
▁unusual	-10835
▁tracking	-10836
▁is▁also▁a	-10837
▁on▁Wednesday	-10838
CR	-10839
sl	-10840
high	-10841
▁URL	-10842
bound	-10843
ospel	-10844
▁Seattle	-10845
▁qualify	-10846
▁shoulder	-10847
▁and▁others	-10848
▁FA	-10849
eramic	-10850
▁scrap	-10851
▁hotels	-10852
▁citizen	-10853
▁trailer	-10854
▁coloring	-10855
▁Available	-10856
▁organisations	-10857
zing	-10858
unate	-10859
▁moved	-10860
▁semin	-10861
▁salary	-10862
▁marijuana	-10863
▁service▁and	-10864
▁business▁and	-10865
▁Budd	-10866
▁okay	-10867
▁vice	-10868
▁scientists	-10869
▁young▁people	-10870
▁that▁has▁been	-10871
don	-10872
▁nest	-10873
section	-10874
▁wisdom	-10875
▁even▁if	-10876
▁spacious	-10877
▁the▁ball	-10878
▁reduce▁the	-10879
IVE	-10880
occ	-10881
open	-10882
scape	-10883
▁terr	-10884
agraph	-10885
everal	-10886
▁Trade	-10887
▁Includ	-10888
▁cookies	-10889
▁deserve	-10890
▁satisfy	-10891
▁studied	-10892
▁the▁sign	-10893
▁located▁in	-10894
▁Type	-10895
▁grid	-10896
▁loud	-10897
ing▁ac	-10898
▁compe	-10899
forward	-10900
ve▁never	-10901
▁all▁over	-10902
▁excellence	-10903
▁If▁you▁want▁to	-10904
▁)	-10905
▁Core	-10906
▁Insp	-10907
▁bone	-10908
▁slip	-10909
▁films	-10910
s▁often	-10911
s▁in▁our	-10912
▁scenario	-10913
▁estimates	-10914
▁concerning	-10915
oda	-10916
heim	-10917
http	-10918
break	-10919
▁Kevin	-10920
▁Short	-10921
▁Think	-10922
▁shelf	-10923
▁wants	-10924
▁made▁the	-10925
▁As▁a▁result	-10926
▁initiatives	-10927
▁refe	-10928
ingham	-10929
▁patch	-10930
▁shadow	-10931
▁emotions	-10932
▁variable	-10933
▁these▁are	-10934
▁click▁here	-10935
▁cong	-10936
▁spir	-10937
ve▁had	-10938
▁defect	-10939
▁But▁the	-10940
▁Stephen	-10941
▁Illinois	-10942
▁back▁and	-10943
▁to▁become	-10944
▁close▁to▁the	-10945
WS	-10946
▁dil	-10947
▁hip	-10948
▁finger	-10949
▁sexual	-10950
!!!!!!!!	-10951
▁measured	-10952
▁southern	-10953
▁to▁get▁the	-10954
▁the▁largest	-10955
▁•	-10956
bec	-10957
▁Dyn	-10958
season	-10959
▁finest	-10960
▁endless	-10961
▁my▁life	-10962
▁baseball	-10963
▁compound	-10964
▁Make▁sure	-10965
mann	-10966
unes	-10967
▁pig	-10968
▁Prim	-10969
▁Broad	-10970
▁purchases	-10971
▁the▁benefit	-10972
▁weight▁loss	-10973
rer	-10974
▁bars	-10975
▁horm	-10976
▁lawn	-10977
mazing	-10978
▁coupl	-10979
▁risks	-10980
▁width	-10981
▁a▁huge	-10982
▁combat	-10983
▁artistic	-10984
▁frequent	-10985
▁think▁that	-10986
era	-10987
▁Swed	-10988
▁antib	-10989
▁I▁knew	-10990
▁plates	-10991
▁loss▁of	-10992
▁privile	-10993
▁unknown	-10994
▁to▁prevent	-10995
hr	-10996
.▁.	-10997
ixed	-10998
▁Ast	-10999
▁amp	-11000
▁vib	-11001
quest	-11002
▁Ryan	-11003
▁lived	-11004
▁viagra	-11005
▁Indiana	-11006
▁vitamin	-11007
▁that▁may	-11008
▁enjoy▁the	-11009
▁enforcement	-11010
ckets	-11011
▁bold	-11012
▁putt	-11013
▁elder	-11014
▁nomin	-11015
▁to▁try	-11016
▁promotion	-11017
▁and▁therefore	-11018
Under	-11019
allel	-11020
▁melt	-11021
▁banks	-11022
osystem	-11023
aa	-11024
”)	-11025
▁(“	-11026
▁Pu	-11027
rett	-11028
▁Cli	-11029
oliday	-11030
t▁been	-11031
▁Computer	-11032
▁publisher	-11033
▁other▁words	-11034
aki	-11035
aron	-11036
wart	-11037
es▁for	-11038
▁enorm	-11039
▁folks	-11040
▁makeup	-11041
▁of▁how	-11042
ractions	-11043
▁neutral	-11044
▁winners	-11045
Of▁course	-11046
Som	-11047
link	-11048
▁Kat	-11049
▁Sup	-11050
▁gal	-11051
omach	-11052
▁Chem	-11053
▁journe	-11054
▁killed	-11055
▁telling	-11056
▁array▁of	-11057
▁generous	-11058
▁judgment	-11059
▁recorded	-11060
▁Retrieved	-11061
ibl	-11062
rix	-11063
Does	-11064
best	-11065
▁iOS	-11066
▁Guys	-11067
ing▁acc	-11068
graduate	-11069
▁charged	-11070
▁nursing	-11071
▁go▁to▁the	-11072
▁in▁Europe	-11073
▁opposition	-11074
▁gre	-11075
arger	-11076
▁mild	-11077
▁tile	-11078
▁drill	-11079
▁holes	-11080
▁Father	-11081
▁oldest	-11082
ize▁your	-11083
▁show▁you	-11084
▁visit▁the	-11085
▁the▁result	-11086
Sub	-11087
aton	-11088
▁ANY	-11089
▁lake	-11090
▁compan	-11091
▁comply	-11092
▁occurs	-11093
▁up▁your	-11094
▁which▁I	-11095
▁advertis	-11096
▁pregnant	-11097
▁Experience	-11098
▁apparently	-11099
???	-11100
▁Ult	-11101
ifest	-11102
▁bags	-11103
▁us▁at	-11104
▁Server	-11105
▁turned	-11106
▁circuit	-11107
▁Partners	-11108
▁that▁they▁are	-11109
FT	-11110
hou	-11111
▁Ah	-11112
▁Do▁not	-11113
▁line▁of	-11114
▁remodel	-11115
▁returns	-11116
▁told▁me	-11117
ed▁into▁a	-11118
▁operates	-11119
▁inside▁the	-11120
▁subsequent	-11121
▁increase▁the	-11122
▁transactions	-11123
▁you▁can▁find	-11124
▁San▁Francisco	-11125
▁being▁able▁to	-11126
ALL	-11127
▁Ox	-11128
▁rac	-11129
▁knee	-11130
▁logg	-11131
▁sees	-11132
swered	-11133
itative	-11134
▁Advent	-11135
▁Ontario	-11136
▁the▁skin	-11137
▁concerned	-11138
AG	-11139
▁uk	-11140
▁keen	-11141
▁ought	-11142
▁slide	-11143
▁outfit	-11144
▁what▁he	-11145
▁mistakes	-11146
▁physically	-11147
▁more▁than▁a	-11148
IE	-11149
▁SD	-11150
reach	-11151
▁rehab	-11152
▁roast	-11153
▁surviv	-11154
▁or▁your	-11155
▁trusted	-11156
▁where▁it	-11157
▁chance▁of	-11158
▁newsletter	-11159
odd	-11160
▁Ron	-11161
istent	-11162
▁alloc	-11163
▁Histor	-11164
▁multip	-11165
▁such▁an	-11166
▁diabetes	-11167
▁indicate	-11168
▁include▁a	-11169
▁for▁a▁while	-11170
▁Cub	-11171
unch▁of	-11172
▁It▁will	-11173
▁roughly	-11174
▁made▁from	-11175
▁supported	-11176
▁There▁were	-11177
▁someone▁else	-11178
▁North▁America	-11179
▁Hi	-11180
▁it▁be	-11181
▁tempt	-11182
ropical	-11183
▁analyst	-11184
▁retreat	-11185
▁Solutions	-11186
▁accounting	-11187
▁specialists	-11188
▁announcement	-11189
imm	-11190
lee	-11191
Work	-11192
ello	-11193
▁Fox	-11194
▁pip	-11195
▁guides	-11196
▁tonight	-11197
▁and▁in▁the	-11198
▁controlled	-11199
▁just▁about	-11200
▁Save	-11201
▁math	-11202
▁Number	-11203
▁Content	-11204
▁Perhaps	-11205
▁to▁that	-11206
▁declared	-11207
▁gathered	-11208
▁world▁of	-11209
▁instantly	-11210
▁from▁other	-11211
▁discussions	-11212
abel	-11213
mont	-11214
▁loop	-11215
▁Quick	-11216
▁accum	-11217
▁deleg	-11218
▁knife	-11219
▁How▁to	-11220
▁strive	-11221
▁displays	-11222
▁follow▁the	-11223
▁is▁that▁the	-11224
cho	-11225
ethe	-11226
iley	-11227
udio	-11228
▁Dam	-11229
▁annoy	-11230
▁is▁my	-11231
▁at▁The	-11232
▁gotten	-11233
s▁really	-11234
▁anxiety	-11235
▁prosecut	-11236
▁in▁London	-11237
▁long▁term	-11238
▁developers	-11239
▁making▁the	-11240
▁manufactured	-11241
ho	-11242
phia	-11243
▁Tal	-11244
▁Unit	-11245
▁Greek	-11246
▁Story	-11247
▁beginn	-11248
▁your▁body	-11249
▁statistics	-11250
ing▁with▁the	-11251
EX	-11252
km	-11253
inery	-11254
isure	-11255
▁cosm	-11256
▁nose	-11257
ritten	-11258
▁apple	-11259
▁drama	-11260
▁fiber	-11261
▁out▁a	-11262
▁inspect	-11263
▁so▁they	-11264
▁waiting	-11265
▁interested	-11266
Cons	-11267
John	-11268
lass	-11269
lord	-11270
▁beef	-11271
umbing	-11272
▁Cabin	-11273
▁Finance	-11274
▁optimal	-11275
▁receipt	-11276
▁employers	-11277
▁exclusively	-11278
▁Environmental	-11279
uto	-11280
days	-11281
ediat	-11282
oment	-11283
▁got▁a	-11284
▁neuro	-11285
▁As▁the	-11286
commerce	-11287
▁she▁has	-11288
▁come▁from	-11289
▁take▁care	-11290
▁all▁of▁your	-11291
▁someone▁who	-11292
hire	-11293
▁Kind	-11294
▁Based	-11295
▁resol	-11296
▁attain	-11297
▁and▁use	-11298
▁ceremony	-11299
▁distingu	-11300
▁competitors	-11301
gate	-11302
▁▁▁▁	-11303
▁Blog	-11304
▁snap	-11305
▁laser	-11306
▁Sciences	-11307
▁headquart	-11308
▁put▁together	-11309
xygen	-11310
▁login	-11311
▁panels	-11312
▁Vancouver	-11313
▁this▁month	-11314
▁efficiently	-11315
PT	-11316
▁cow	-11317
▁rum	-11318
hythm	-11319
onsin	-11320
▁mole	-11321
▁crisp	-11322
▁do▁we	-11323
▁faces	-11324
▁to▁stay	-11325
▁and▁white	-11326
▁templates	-11327
▁something▁to	-11328
▁development▁and	-11329
Comp	-11330
▁sen	-11331
▁grat	-11332
herent	-11333
ocracy	-11334
▁societ	-11335
▁welcom	-11336
isconsin	-11337
▁but▁you	-11338
▁startup	-11339
▁about▁our	-11340
▁addiction	-11341
▁',▁'	-11342
▁Bear	-11343
▁Dream	-11344
▁Money	-11345
▁of▁one	-11346
▁hunting	-11347
anchester	-11348
oz	-11349
▁FR	-11350
▁HR	-11351
▁ore	-11352
▁Diego	-11353
▁Minnes	-11354
▁pepper	-11355
▁smoking	-11356
▁Customer	-11357
▁other▁people	-11358
▁volt	-11359
▁anyth	-11360
▁filed	-11361
antastic	-11362
▁Magazine	-11363
▁from▁you	-11364
▁not▁been	-11365
▁Beautiful	-11366
▁Singapore	-11367
▁described	-11368
▁such▁as▁a	-11369
▁in▁the▁city	-11370
▁over▁the▁past	-11371
▁able	-11372
▁tang	-11373
▁reven	-11374
▁led▁to	-11375
ries▁and	-11376
▁have▁to▁be	-11377
▁occasionally	-11378
',	-11379
ito	-11380
ref	-11381
store	-11382
▁dash	-11383
rapeut	-11384
▁perce	-11385
▁I▁like	-11386
▁Regard	-11387
▁we▁don	-11388
adelphia	-11389
▁Advanced	-11390
▁investor	-11391
▁I▁have▁to	-11392
▁School▁of	-11393
▁would▁you	-11394
▁in▁the▁last	-11395
▁entrepreneurs	-11396
▁SE	-11397
▁font	-11398
▁what▁was	-11399
ization▁of	-11400
▁pregnancy	-11401
▁arrangement	-11402
▁to▁the▁next	-11403
wl	-11404
yes	-11405
Keep	-11406
cope	-11407
lope	-11408
▁pix	-11409
amics	-11410
doors	-11411
▁rush	-11412
itches	-11413
▁desert	-11414
▁lowest	-11415
▁solely	-11416
▁versus	-11417
▁waters	-11418
▁Explore	-11419
▁causing	-11420
▁optional	-11421
▁the▁link	-11422
▁universe	-11423
▁packaging	-11424
▁versatile	-11425
▁received▁a	-11426
▁support▁for	-11427
DC	-11428
alyt	-11429
▁fert	-11430
▁crown	-11431
▁Working	-11432
▁tremend	-11433
▁and▁only	-11434
▁it▁doesn	-11435
▁reducing	-11436
▁in▁the▁US	-11437
▁volunteers	-11438
▁Furthermore	-11439
▁one▁of▁these	-11440
oret	-11441
▁hob	-11442
▁boss	-11443
▁discus	-11444
▁seller	-11445
▁Brother	-11446
▁She▁was	-11447
▁said▁he	-11448
▁in▁India	-11449
▁Az	-11450
acent	-11451
ighth	-11452
▁Barb	-11453
▁had▁an	-11454
▁calories	-11455
▁prescrib	-11456
▁we▁offer	-11457
yr	-11458
erk	-11459
mod	-11460
s▁very	-11461
ing▁art	-11462
▁guilty	-11463
▁via▁the	-11464
▁actively	-11465
▁recogniz	-11466
▁everybody	-11467
▁and▁can▁be	-11468
▁questions▁and	-11469
▁there▁will▁be	-11470
lar	-11471
▁Ask	-11472
▁Lew	-11473
▁bund	-11474
▁is▁on	-11475
▁settle	-11476
▁strain	-11477
▁World▁War	-11478
▁a▁certain	-11479
▁terms▁and	-11480
rior	-11481
▁gig	-11482
▁Dark	-11483
▁Daily	-11484
▁dough	-11485
▁ended	-11486
▁Wilson	-11487
▁desper	-11488
▁propri	-11489
▁wiring	-11490
▁may▁also	-11491
▁pleased▁to	-11492
cin	-11493
▁cul	-11494
raine	-11495
▁Door	-11496
▁cuis	-11497
▁flaw	-11498
semble	-11499
▁Forum	-11500
▁fluid	-11501
▁Within	-11502
▁made▁me	-11503
▁trip▁to	-11504
▁Atlantic	-11505
▁spectrum	-11506
▁intervention	-11507
▁technology▁and	-11508
PP	-11509
▁AI	-11510
acle	-11511
▁Cover	-11512
▁explo	-11513
▁outlet	-11514
▁pushed	-11515
▁quotes	-11516
esthetic	-11517
t▁have▁a	-11518
▁and▁keep	-11519
▁moisture	-11520
▁determined	-11521
▁evaluation	-11522
▁measurement	-11523
▁on▁the▁road	-11524
▁suitable▁for	-11525
▁Bul	-11526
ersion	-11527
itions	-11528
urchase	-11529
▁whereas	-11530
▁New▁Jersey	-11531
▁might▁have	-11532
▁philosophy	-11533
fish	-11534
▁pup	-11535
▁Cool	-11536
▁boys	-11537
▁rated	-11538
▁from▁one	-11539
▁producer	-11540
▁they▁had	-11541
▁above▁the	-11542
▁exception	-11543
▁championship	-11544
▁complete▁the	-11545
▁or▁any▁other	-11546
▁would▁have▁been	-11547
aha	-11548
auc	-11549
▁Ms	-11550
Step	-11551
ounce	-11552
▁Delhi	-11553
▁angle	-11554
▁marine	-11555
▁renown	-11556
▁seem▁to	-11557
▁means▁of	-11558
▁simultane	-11559
▁I▁wanted▁to	-11560
▁worry▁about	-11561
▁thinking▁about	-11562
lix	-11563
cure	-11564
▁Case	-11565
▁sized	-11566
▁encount	-11567
▁somehow	-11568
▁each▁day	-11569
▁indicates	-11570
▁participation	-11571
Vis	-11572
isd	-11573
▁Ten	-11574
▁I▁saw	-11575
▁Action	-11576
▁Contract	-11577
▁captured	-11578
▁per▁year	-11579
▁failed▁to	-11580
▁there▁was▁a	-11581
▁ranging▁from	-11582
▁materials▁and	-11583
loom	-11584
week	-11585
▁Inde	-11586
▁hits	-11587
▁Large	-11588
▁summary	-11589
▁safe▁and	-11590
▁realistic	-11591
▁specialty	-11592
▁will▁help▁you	-11593
▁Tenn	-11594
▁tire	-11595
▁brick	-11596
▁delete	-11597
▁suspend	-11598
▁designers	-11599
ternational	-11600
VA	-11601
oln	-11602
bean	-11603
rary	-11604
Learn	-11605
▁Grow	-11606
▁Tree	-11607
ced▁in	-11608
ll▁get	-11609
onymous	-11610
▁Having	-11611
▁as▁she	-11612
▁losses	-11613
▁magical	-11614
▁combines	-11615
▁delivers	-11616
▁prominent	-11617
▁from▁the▁f	-11618
▁continued▁to	-11619
▁!	-11620
Out	-11621
▁Rs	-11622
Down	-11623
fire	-11624
inth	-11625
▁Fre	-11626
▁ISO	-11627
s▁what	-11628
acy▁and	-11629
▁flying	-11630
▁inclus	-11631
s▁can▁be	-11632
▁bottles	-11633
▁pleased	-11634
▁variety	-11635
▁a▁couple	-11636
▁stations	-11637
▁wherever	-11638
▁the▁light	-11639
▁obligation	-11640
▁personalized	-11641
QL	-11642
,▁‘	-11643
edic	-11644
even	-11645
ller	-11646
pres	-11647
t▁go	-11648
vity	-11649
achus	-11650
▁The▁P	-11651
▁olive	-11652
achelor	-11653
▁I▁went	-11654
▁cultiv	-11655
▁one▁is	-11656
▁worker	-11657
▁What▁is	-11658
▁for▁about	-11659
▁given▁the	-11660
▁enthusiast	-11661
ing▁the▁best	-11662
▁three▁years	-11663
NT	-11664
SW	-11665
Mark	-11666
onda	-11667
▁Bad	-11668
▁Due	-11669
▁oak	-11670
▁Block	-11671
▁hired	-11672
▁Jordan	-11673
▁scenes	-11674
▁struck	-11675
▁temple	-11676
▁timely	-11677
▁with▁two	-11678
▁ideal▁for	-11679
re▁looking▁for	-11680
cery	-11681
agged	-11682
aware	-11683
found	-11684
ed▁upon	-11685
▁Cancer	-11686
▁Dining	-11687
▁I▁felt	-11688
▁differ	-11689
▁diagnos	-11690
▁to▁save	-11691
▁opinions	-11692
▁contractors	-11693
▁manufacture	-11694
!”	-11695
Free	-11696
quire	-11697
▁Desk	-11698
People	-11699
ed▁them	-11700
▁Method	-11701
▁a▁list▁of	-11702
▁at▁the▁end	-11703
▁supposed▁to	-11704
▁available▁in	-11705
UE	-11706
Back	-11707
▁Fab	-11708
party	-11709
▁maker	-11710
▁Sydney	-11711
▁meters	-11712
▁spokes	-11713
unicipal	-11714
▁divorce	-11715
▁dropped	-11716
▁assembly	-11717
▁Professor	-11718
▁subject▁to	-11719
▁unexpected	-11720
▁all▁over▁the	-11721
▁for▁the▁next	-11722
▁effectiveness	-11723
tons	-11724
▁Sche	-11725
▁Latin	-11726
▁reloc	-11727
▁Double	-11728
▁as▁far	-11729
▁dreams	-11730
▁subtle	-11731
▁trends	-11732
▁is▁what	-11733
▁posting	-11734
▁commitment▁to	-11735
▁BB	-11736
▁Sem	-11737
▁gem	-11738
▁ende	-11739
▁Saint	-11740
▁I▁am▁not	-11741
▁and▁I▁am	-11742
▁at▁night	-11743
▁coaching	-11744
▁algorithm	-11745
▁should▁not▁be	-11746
agu	-11747
akh	-11748
ourse	-11749
▁Track	-11750
▁day▁of	-11751
▁betting	-11752
▁to▁hear	-11753
▁emerging	-11754
▁Furniture	-11755
▁becoming▁a	-11756
▁providing▁a	-11757
▁an▁excellent	-11758
LD	-11759
wa	-11760
▁Flo	-11761
being	-11762
loved	-11763
▁Greg	-11764
ottage	-11765
▁piano	-11766
ism▁and	-11767
▁Feature	-11768
▁genetic	-11769
▁deadline	-11770
▁is▁a▁very	-11771
▁attraction	-11772
▁the▁correct	-11773
▁known▁as▁the	-11774
tal	-11775
▁Bush	-11776
▁The▁M	-11777
▁hardly	-11778
▁Bookmark	-11779
▁became▁a	-11780
▁sentence	-11781
▁situated	-11782
▁developer	-11783
▁stability	-11784
▁turned▁out	-11785
tes	-11786
agle	-11787
ante	-11788
▁Luc	-11789
▁Hawai	-11790
▁shots	-11791
ritical	-11792
▁awards	-11793
▁secured	-11794
▁enhanced	-11795
VC	-11796
.
>	-11797
rep	-11798
rub	-11799
▁Nut	-11800
▁Doctor	-11801
▁noticed	-11802
▁just▁one	-11803
▁with▁him	-11804
▁discussed	-11805
▁starting▁to	-11806
jo	-11807
His	-11808
▁CS	-11809
▁GP	-11810
▁COM	-11811
t▁mean	-11812
▁prest	-11813
ategory	-11814
▁Change	-11815
▁have▁no	-11816
▁podcast	-11817
▁down▁and	-11818
▁needs▁of	-11819
▁memorable	-11820
ing▁the▁right	-11821
▁improvements	-11822
boy	-11823
▁libr	-11824
▁noth	-11825
▁pour	-11826
▁Pharm	-11827
▁home▁to	-11828
▁The▁most	-11829
▁few▁years	-11830
▁submission	-11831
cal	-11832
▁drives	-11833
▁recept	-11834
▁Storage	-11835
▁gardens	-11836
▁work▁on	-11837
▁this▁page	-11838
▁efforts▁to	-11839
▁dining▁room	-11840
▁more▁than▁one	-11841
ey	-11842
View	-11843
▁Dun	-11844
▁ads	-11845
▁legs	-11846
ifetime	-11847
▁Portug	-11848
▁Detroit	-11849
▁peaceful	-11850
▁this▁was	-11851
▁all▁these	-11852
▁territory	-11853
ated▁by▁the	-11854
▁It▁is▁also	-11855
▁returned▁to	-11856
▁in▁addition▁to	-11857
Eng	-11858
Look	-11859
plus	-11860
▁Doc	-11861
claim	-11862
ipped	-11863
▁Nick	-11864
▁Course	-11865
ognitive	-11866
▁fiction	-11867
criptions	-11868
▁accepted	-11869
▁magnific	-11870
▁preserve	-11871
▁Minnesota	-11872
▁qualities	-11873
▁the▁family	-11874
▁most▁people	-11875
▁Os	-11876
aped	-11877
s▁top	-11878
▁caut	-11879
▁Senate	-11880
▁how▁we	-11881
▁carries	-11882
▁for▁two	-11883
▁in▁turn	-11884
▁precisely	-11885
s▁S	-11886
▁pp	-11887
unct	-11888
uros	-11889
▁Ever	-11890
covery	-11891
▁Albert	-11892
▁the▁sk	-11893
ifferent	-11894
ists▁and	-11895
▁Officer	-11896
▁batteries	-11897
▁our▁customers	-11898
▁North▁Carolina	-11899
ctic	-11900
uous	-11901
orient	-11902
▁cyber	-11903
▁closing	-11904
▁is▁this	-11905
▁is▁well	-11906
▁reduces	-11907
▁price▁of	-11908
▁subjects	-11909
▁Resources	-11910
▁dimension	-11911
▁must▁have	-11912
▁all▁the▁way	-11913
▁Philadelphia	-11914
▁over▁the▁years	-11915
▁TR	-11916
olen	-11917
elebr	-11918
table	-11919
▁Comb	-11920
Looking	-11921
hes▁and	-11922
▁circle	-11923
▁tracks	-11924
▁Regional	-11925
▁modified	-11926
▁the▁food	-11927
▁the▁team	-11928
▁containing	-11929
▁this▁is▁the	-11930
▁exactly▁what	-11931
m▁a	-11932
whe	-11933
elve	-11934
inda	-11935
agine	-11936
▁adop	-11937
▁Agric	-11938
▁Linux	-11939
▁fifth	-11940
▁browse	-11941
▁folder	-11942
▁only▁a	-11943
▁is▁good	-11944
▁sophisticated	-11945
dri	-11946
▁GA	-11947
▁Pa	-11948
ieces	-11949
gments	-11950
▁impos	-11951
ascular	-11952
▁exclud	-11953
▁put▁it	-11954
▁Indones	-11955
▁confront	-11956
▁donation	-11957
s▁interest	-11958
▁include▁the	-11959
▁many▁different	-11960
▁whether▁or▁not	-11961
▁Much	-11962
▁steep	-11963
Despite	-11964
▁murder	-11965
▁fun▁and	-11966
▁sectors	-11967
ing▁there	-11968
▁principle	-11969
▁uncertain	-11970
▁documentation	-11971
▁family▁members	-11972
MB	-11973
▁Op	-11974
▁Inn	-11975
▁Fast	-11976
How▁to	-11977
malink	-11978
pension	-11979
winning	-11980
▁Manual	-11981
▁Planning	-11982
ulation▁of	-11983
▁disappear	-11984
▁period▁of	-11985
▁professor	-11986
Did	-11987
▁Bh	-11988
Best	-11989
phan	-11990
▁believ	-11991
▁on▁one	-11992
▁servic	-11993
▁it▁with	-11994
▁found▁in	-11995
▁influenc	-11996
▁way▁that	-11997
▁additionally	-11998
▁mental▁health	-11999
▁included▁in▁the	-12000
%)	-12001
exp	-12002
▁NC	-12003
▁Ra	-12004
itud	-12005
aysia	-12006
iscal	-12007
▁hike	-12008
▁Trail	-12009
▁dropp	-12010
▁is▁un	-12011
▁shore	-12012
▁stair	-12013
▁Steven	-12014
▁tackle	-12015
▁vendor	-12016
s▁to▁make	-12017
▁at▁their	-12018
▁while▁you	-12019
▁and▁social	-12020
▁comes▁with	-12021
▁outside▁the	-12022
▁difficulties	-12023
▁the▁other▁hand	-12024
Inc	-12025
▁pdf	-12026
anned	-12027
itzer	-12028
owing	-12029
▁Dead	-12030
apolis	-12031
irable	-12032
utical	-12033
▁Round	-12034
▁weird	-12035
▁note▁that	-12036
▁suggested	-12037
▁this▁book	-12038
▁created▁by	-12039
▁five▁years	-12040
▁is▁another	-12041
▁services▁to	-12042
▁Ze	-12043
olice	-12044
Do▁you	-12045
ack▁of	-12046
iology	-12047
▁receives	-12048
▁productive	-12049
▁specialized	-12050
fin	-12051
iah	-12052
guard	-12053
▁YOUR	-12054
▁grey	-12055
▁rescue	-12056
▁for▁him	-12057
▁harmful	-12058
▁the▁sim	-12059
▁the▁film	-12060
▁too▁many	-12061
▁to▁watch	-12062
▁improve▁the	-12063
▁in▁the▁morning	-12064
▁SA	-12065
▁TX	-12066
▁gut	-12067
necess	-12068
▁races	-12069
▁slots	-12070
▁broker	-12071
ers▁with	-12072
▁disrupt	-12073
▁name▁is	-12074
▁tons▁of	-12075
▁to▁reach	-12076
▁alternatives	-12077
▁restrictions	-12078
▁oz	-12079
itty	-12080
▁drum	-12081
▁myth	-12082
▁Using	-12083
▁a▁bad	-12084
▁toler	-12085
▁duties	-12086
▁so▁you	-12087
▁Wedding	-12088
▁entries	-12089
▁affected	-12090
▁one▁that	-12091
▁to▁these	-12092
▁if▁you▁can	-12093
▁Performance	-12094
▁searching▁for	-12095
……	-12096
)▁–	-12097
ORE	-12098
cop	-12099
▁BC	-12100
▁EP	-12101
Comm	-12102
▁cha	-12103
▁Hous	-12104
▁Clark	-12105
▁Davis	-12106
▁emails	-12107
▁myster	-12108
▁hanging	-12109
▁retired	-12110
▁dependent	-12111
▁customized	-12112
▁is▁designed▁to	-12113
IB	-12114
▁Dom	-12115
▁bay	-12116
▁at▁C	-12117
▁Teacher	-12118
▁we▁know	-12119
▁changes▁in	-12120
zo	-12121
▁zip	-12122
▁WITH	-12123
▁keys	-12124
▁acres	-12125
▁showc	-12126
▁corpor	-12127
▁hiking	-12128
▁iconic	-12129
▁immune	-12130
▁a▁month	-12131
ividually	-12132
▁Attorney	-12133
▁Electric	-12134
▁bedrooms	-12135
▁great▁for	-12136
▁worked▁with	-12137
▁in▁particular	-12138
▁climate▁change	-12139
▁Dur	-12140
▁Jam	-12141
▁fur	-12142
lette	-12143
lieve	-12144
▁leads	-12145
▁depict	-12146
▁stomach	-12147
▁answered	-12148
▁home▁and	-12149
▁the▁base	-12150
▁the▁four	-12151
s▁and▁more	-12152
▁Elizabeth	-12153
▁Equipment	-12154
▁incorporate	-12155
▁planning▁to	-12156
▁experience▁of	-12157
owa	-12158
▁outs	-12159
▁Winter	-12160
▁preced	-12161
▁attorne	-12162
▁through▁our	-12163
▁knowledgeable	-12164
fly	-12165
▁PL	-12166
ains	-12167
▁bin	-12168
raint	-12169
▁Eric	-12170
imited	-12171
▁sweat	-12172
▁exists	-12173
ing▁after	-12174
▁releases	-12175
▁reserves	-12176
▁Industrial	-12177
▁in▁advance	-12178
▁children▁and	-12179
▁the▁permalink	-12180
makers	-12181
on▁and	-12182
▁.▁.▁.	-12183
▁cours	-12184
▁manip	-12185
The▁new	-12186
▁bit▁of	-12187
▁junior	-12188
▁burning	-12189
▁into▁an	-12190
▁Complete	-12191
s▁into▁the	-12192
▁that▁you▁will	-12193
Fl	-12194
▁actor	-12195
ine▁and	-12196
▁Altern	-12197
▁digest	-12198
--------	-12199
▁aims▁to	-12200
▁free▁of	-12201
▁nervous	-12202
▁per▁day	-12203
▁adequate	-12204
▁but▁still	-12205
▁substance	-12206
▁ensure▁that	-12207
▁Aqu	-12208
▁Bon	-12209
▁Sep	-12210
isite	-12211
▁at▁M	-12212
At▁the	-12213
▁referr	-12214
▁shortly	-12215
▁Industry	-12216
lay	-12217
such	-12218
▁Pra	-12219
▁Laure	-12220
▁chips	-12221
▁drinks	-12222
▁inquir	-12223
▁dismiss	-12224
▁garbage	-12225
▁treated	-12226
▁read▁the	-12227
▁They▁also	-12228
▁collected	-12229
▁demonstrated	-12230
▁away▁from▁the	-12231
oen	-12232
▁sid	-12233
▁Vice	-12234
▁Whit	-12235
▁royal	-12236
ishment	-12237
▁nicely	-12238
▁For▁the	-12239
▁striking	-12240
▁change▁the	-12241
s▁M	-12242
▁EC	-12243
Call	-12244
test	-12245
▁Hor	-12246
ashes	-12247
▁Easy	-12248
▁Song	-12249
▁up▁in	-12250
s▁right	-12251
▁Olympic	-12252
▁build▁a	-12253
▁enabled	-12254
▁vendors	-12255
▁covering	-12256
▁followed	-12257
▁the▁fore	-12258
▁Assistant	-12259
▁decorative	-12260
▁down▁to▁the	-12261
▁for▁another	-12262
▁support▁and	-12263
▁take▁a▁look	-12264
▁AG	-12265
▁bub	-12266
▁Pers	-12267
▁padd	-12268
papers	-12269
▁Flash	-12270
▁danger	-12271
▁gained	-12272
▁immigr	-12273
▁testim	-12274
▁analyze	-12275
▁painted	-12276
▁the▁bar	-12277
▁of▁other	-12278
▁ecosystem	-12279
▁pieces▁of	-12280
▁a▁lot▁more	-12281
▁disability	-12282
▁takes▁place	-12283
FS	-12284
beat	-12285
etts	-12286
▁Iron	-12287
▁dirt	-12288
urpose	-12289
▁Polit	-12290
▁and▁do	-12291
▁copies	-12292
▁and▁when	-12293
▁disorder	-12294
▁us▁a▁call	-12295
▁This▁means	-12296
IO	-12297
▁LE	-12298
▁hell	-12299
▁buyer	-12300
▁straw	-12301
▁had▁no	-12302
▁sevent	-12303
▁slight	-12304
ing▁in▁a	-12305
▁airline	-12306
▁colours	-12307
▁operators	-12308
▁is▁usually	-12309
▁structural	-12310
▁we▁need▁to	-12311
▁provide▁the	-12312
t▁a	-12313
kind	-12314
▁bat	-12315
ppers	-12316
there	-12317
▁Princ	-12318
▁birds	-12319
▁jacket	-12320
▁on▁how	-12321
▁we▁would	-12322
▁matter▁of	-12323
▁assignment	-12324
▁friendship	-12325
▁accommodate	-12326
▁has▁already	-12327
▁lightweight	-12328
▁will▁also▁be	-12329
▁technological	-12330
about	-12331
racle	-12332
▁I▁always	-12333
▁colorful	-12334
▁Christians	-12335
▁seems▁like	-12336
▁want▁to▁be	-12337
▁Pennsylvania	-12338
▁considerable	-12339
acht	-12340
ialis	-12341
ressed	-12342
▁greet	-12343
▁oxygen	-12344
▁tennis	-12345
▁Scottish	-12346
edu	-12347
ela	-12348
ika	-12349
Start	-12350
i▁and	-12351
▁capac	-12352
▁Nether	-12353
▁of▁new	-12354
▁You▁don	-12355
▁a▁light	-12356
▁dentist	-12357
aceutical	-12358
▁Certified	-12359
▁eliminate	-12360
▁delivering	-12361
UST	-12362
▁DE	-12363
▁WE	-12364
erge	-12365
fers	-12366
▁Miller	-12367
▁vacuum	-12368
▁to▁move	-12369
▁annually	-12370
▁exercises	-12371
▁fireplace	-12372
▁has▁to▁be	-12373
▁one▁thing	-12374
▁for▁yourself	-12375
HD	-12376
▁Sell	-12377
▁Jacob	-12378
▁in▁each	-12379
▁veteran	-12380
▁Interest	-12381
▁findings	-12382
▁exploring	-12383
▁Democratic	-12384
▁goal▁is▁to	-12385
▁on▁Facebook	-12386
isan	-12387
rack	-12388
▁Exp	-12389
▁Imp	-12390
▁tort	-12391
▁Fresh	-12392
▁beans	-12393
▁limits	-12394
▁managed	-12395
▁earnings	-12396
▁leads▁to	-12397
▁the▁situ	-12398
▁satellite	-12399
▁confidential	-12400
▁in▁the▁industry	-12401
ede	-12402
▁!
	-12403
▁exec	-12404
ised▁to	-12405
▁aggreg	-12406
▁detection	-12407
▁collective	-12408
▁cit	-12409
▁Bern	-12410
▁bass	-12411
incoln	-12412
▁vocal	-12413
I▁would	-12414
▁disturb	-12415
▁bacteria	-12416
▁at▁the▁top	-12417
▁your▁needs	-12418
▁on▁the▁right	-12419
RP	-12420
ASE	-12421
aga	-12422
pert	-12423
▁gel	-12424
▁Lock	-12425
▁disk	-12426
▁rect	-12427
▁Harry	-12428
▁ignore	-12429
▁Products	-12430
▁believed	-12431
▁survival	-12432
▁brand▁new	-12433
▁specially	-12434
▁as▁much▁as	-12435
▁differently	-12436
▁which▁includes	-12437
adow	-12438
▁mask	-12439
ing▁by	-12440
▁Paper	-12441
▁Templ	-12442
▁thanks	-12443
▁profits	-12444
▁that▁my	-12445
▁to▁join	-12446
▁attribut	-12447
▁returned	-12448
▁think▁of	-12449
▁never▁been	-12450
enth	-12451
▁NFL	-12452
ropri	-12453
▁adds	-12454
▁intu	-12455
ailand	-12456
▁chill	-12457
▁lists	-12458
▁was▁in	-12459
ines▁and	-12460
▁accuracy	-12461
▁listings	-12462
ed▁together	-12463
SL	-12464
aft	-12465
track	-12466
▁Sure	-12467
▁arms	-12468
▁surg	-12469
▁Valent	-12470
▁essays	-12471
▁attacks	-12472
▁universal	-12473
▁into▁account	-12474
▁on▁this▁site	-12475
▁you▁and▁your	-12476
abb	-12477
s▁T	-12478
Both	-12479
disc	-12480
▁Bird	-12481
▁pest	-12482
icious	-12483
▁mouse	-12484
▁poetry	-12485
▁render	-12486
▁effort▁to	-12487
▁nationwide	-12488
▁Der	-12489
Those	-12490
agers	-12491
asket	-12492
▁Bull	-12493
▁Jane	-12494
▁rend	-12495
ia▁and	-12496
▁Sarah	-12497
▁I▁never	-12498
▁Material	-12499
▁far▁more	-12500
▁consulting	-12501
▁investments	-12502
▁restoration	-12503
▁education▁and	-12504
▁between▁the▁two	-12505
Bel	-12506
logg	-12507
omer	-12508
▁Bow	-12509
vents	-12510
▁Jenn	-12511
▁tube	-12512
▁excit	-12513
▁at▁its	-12514
▁did▁you	-12515
▁cannabis	-12516
▁champion	-12517
▁overlook	-12518
▁still▁be	-12519
▁terrible	-12520
▁Authority	-12521
▁Bry	-12522
▁letting	-12523
▁Bathroom	-12524
▁parts▁of	-12525
▁make▁this	-12526
▁occasions	-12527
▁processor	-12528
▁is▁the▁perfect	-12529
pg	-12530
tech	-12531
plant	-12532
arency	-12533
linary	-12534
▁parad	-12535
▁colored	-12536
▁laundry	-12537
▁reserved	-12538
▁next▁week	-12539
▁in▁general	-12540
▁seem▁to▁be	-12541
▁should▁not	-12542
▁wanting▁to	-12543
▁email▁address	-12544
arl	-12545
▁DIY	-12546
▁Lyn	-12547
▁Hart	-12548
▁gene	-12549
▁jail	-12550
▁of▁E	-12551
prises	-12552
▁Grant	-12553
ificate	-12554
▁caused	-12555
▁When▁the	-12556
▁are▁very	-12557
▁tailored	-12558
▁we▁have▁a	-12559
nie	-12560
▁NEW	-12561
▁Rid	-12562
▁appet	-12563
▁dwell	-12564
▁clinic	-12565
▁perhap	-12566
▁and▁new	-12567
▁I▁couldn	-12568
▁matching	-12569
▁troubles	-12570
▁associate	-12571
▁refrigerator	-12572
▁IL	-12573
arer	-12574
erest	-12575
▁Host	-12576
▁add▁a	-12577
▁helps▁to	-12578
▁directions	-12579
▁to▁make▁the	-12580
▁that▁will▁be	-12581
▁Name	-12582
▁Size	-12583
▁maps	-12584
▁span	-12585
as▁and	-12586
orious	-12587
ussion	-12588
▁Champ	-12589
▁resil	-12590
▁Things	-12591
▁frozen	-12592
▁key▁to	-12593
▁keep▁the	-12594
▁paragraph	-12595
▁of▁the▁city	-12596
▁United▁Kingdom	-12597
El	-12598
burn	-12599
Point	-12600
▁bomb	-12601
▁neat	-12602
anship	-12603
aptain	-12604
author	-12605
▁embrace	-12606
▁hit▁the	-12607
▁repairs	-12608
▁tourism	-12609
▁The▁main	-12610
▁province	-12611
▁enjoyable	-12612
▁recipient	-12613
▁returning	-12614
▁guaranteed	-12615
▁UP	-12616
chestra	-12617
▁acting	-12618
▁follows	-12619
▁them▁in	-12620
▁controls	-12621
▁then▁the	-12622
▁used▁the	-12623
▁having▁the	-12624
▁they▁would	-12625
▁appreciated	-12626
▁you▁can▁use	-12627
▁recommendation	-12628
▁VA	-12629
▁Hair	-12630
▁Jean	-12631
▁deem	-12632
▁grad	-12633
▁jazz	-12634
▁Jason	-12635
▁Speed	-12636
▁robot	-12637
▁virus	-12638
▁mature	-12639
▁out▁for	-12640
achusetts	-12641
▁built▁in	-12642
▁parallel	-12643
▁they▁don	-12644
▁coming▁to	-12645
IAL	-12646
iva	-12647
▁Age	-12648
▁din	-12649
istical	-12650
▁Fellow	-12651
▁divers	-12652
▁mix▁of	-12653
t▁need▁to	-12654
▁dialogue	-12655
▁manifest	-12656
▁money▁to	-12657
▁to▁do▁so	-12658
▁and▁we▁are	-12659
▁most▁likely	-12660
▁is▁important	-12661
prof	-12662
▁Mix	-12663
▁nic	-12664
otted	-12665
▁Barn	-12666
▁Among	-12667
▁The▁R	-12668
▁edges	-12669
etition	-12670
▁Edward	-12671
▁Result	-12672
▁earned	-12673
▁nights	-12674
▁Classic	-12675
ated▁from	-12676
▁you▁were	-12677
▁instances	-12678
▁return▁to	-12679
▁sponsored	-12680
▁aggressive	-12681
▁separately	-12682
▁to▁create▁a	-12683
▁Thanksgiving	-12684
▁recent▁years	-12685
▁concentration	-12686
irop	-12687
they	-12688
▁Guy	-12689
▁Past	-12690
ll▁see	-12691
▁grill	-12692
▁Member	-12693
▁and▁by	-12694
▁explos	-12695
▁vanity	-12696
▁applicant	-12697
▁instruments	-12698
ummy	-12699
mount	-12700
offee	-12701
▁soap	-12702
▁thumb	-12703
▁vinyl	-12704
▁voices	-12705
ologists	-12706
▁shelves	-12707
▁the▁name	-12708
▁with▁more	-12709
▁some▁other	-12710
▁For▁instance	-12711
▁there▁are▁many	-12712
GR	-12713
a▁R	-12714
who	-12715
▁DJ	-12716
neath	-12717
ostic	-12718
▁Body	-12719
irtual	-12720
s▁life	-12721
▁Is▁it	-12722
▁I▁see	-12723
▁fleet	-12724
▁invit	-12725
▁trips	-12726
▁jurisd	-12727
▁took▁a	-12728
▁abstract	-12729
▁a▁larger	-12730
▁explains	-12731
▁surfaces	-12732
▁we▁could	-12733
▁explained	-12734
▁narrative	-12735
▁to▁another	-12736
▁preferences	-12737
▁experiencing	-12738
cia	-12739
High	-12740
▁Poly	-12741
▁Stay	-12742
▁stitch	-12743
▁to▁win	-12744
▁attended	-12745
▁in▁other	-12746
▁Commercial	-12747
▁but▁it▁was	-12748
▁to▁see▁the	-12749
▁much▁better	-12750
WE	-12751
IST	-12752
oub	-12753
ruce	-12754
▁Baby	-12755
▁and▁if	-12756
▁horses	-12757
▁tagged	-12758
▁varied	-12759
▁painful	-12760
▁worried	-12761
▁comes▁in	-12762
▁a▁variety▁of	-12763
▁an▁appointment	-12764
!"	-12765
gal	-12766
s▁me	-12767
▁jar	-12768
▁Ship	-12769
▁taxi	-12770
apping	-12771
ething	-12772
sembly	-12773
▁liked	-12774
▁owned	-12775
▁Reserv	-12776
▁of▁two	-12777
With▁the	-12778
▁of▁the▁new	-12779
▁it▁comes▁to	-12780
▁make▁sure▁you	-12781
▁together▁with	-12782
Off	-12783
▁MO	-12784
▁Hay	-12785
▁aged	-12786
called	-12787
igeria	-12788
▁begun	-12789
▁entity	-12790
▁led▁by	-12791
▁visits	-12792
▁farmers	-12793
▁for▁use	-12794
▁weapons	-12795
▁data▁and	-12796
▁remained	-12797
▁that▁one	-12798
▁the▁bank	-12799
▁consistency	-12800
▁advantage▁of	-12801
MO	-12802
UB	-12803
,▁$	-12804
rec	-12805
▁Jun	-12806
▁Var	-12807
▁slic	-12808
▁Anton	-12809
▁Hills	-12810
▁Miami	-12811
▁men▁and	-12812
▁Creative	-12813
▁classical	-12814
▁franchise	-12815
▁ice▁cream	-12816
▁right▁away	-12817
▁Association▁of	-12818
ez	-12819
▁Bowl	-12820
▁Dave	-12821
▁stere	-12822
▁Orange	-12823
▁it▁for	-12824
iropract	-12825
▁enormous	-12826
▁relaxing	-12827
▁defensive	-12828
▁network▁of	-12829
▁intended▁to	-12830
▁promotional	-12831
ed▁information	-12832
▁more▁about▁the	-12833
emn	-12834
olph	-12835
acles	-12836
depth	-12837
inkle	-12838
▁Java	-12839
▁beds	-12840
▁bills	-12841
▁threaten	-12842
Net	-12843
pot	-12844
uru	-12845
aded	-12846
ntil	-12847
plic	-12848
▁Hur	-12849
essee	-12850
▁Cell	-12851
▁The▁G	-12852
▁fragr	-12853
▁arrived	-12854
▁tension	-12855
▁Football	-12856
▁disposal	-12857
▁wellness	-12858
▁collaborative	-12859
ouri	-12860
▁Typ	-12861
s▁act	-12862
▁spots	-12863
▁cancel	-12864
▁has▁to	-12865
▁and▁had	-12866
▁crystal	-12867
▁by▁using	-12868
▁once▁you	-12869
▁I▁need▁to	-12870
▁adjustable	-12871
▁search▁for	-12872
▁Real▁Estate	-12873
▁and▁we▁will	-12874
▁IC	-12875
▁NJ	-12876
▁sq	-12877
eman	-12878
oore	-12879
shirt	-12880
▁bout	-12881
▁tune	-12882
▁Early	-12883
▁irrit	-12884
▁signs	-12885
age▁and	-12886
▁assert	-12887
▁passes	-12888
s▁office	-12889
▁all▁day	-12890
▁and▁non	-12891
▁are▁now	-12892
▁dissert	-12893
▁of▁water	-12894
▁the▁land	-12895
▁Entertain	-12896
▁movements	-12897
▁seemed▁to	-12898
▁Convention	-12899
ui	-12900
apse	-12901
rint	-12902
▁Hav	-12903
Gener	-12904
encil	-12905
s▁who	-12906
▁Alab	-12907
▁Josh	-12908
▁THIS	-12909
▁waves	-12910
▁by▁our	-12911
▁intake	-12912
▁Houston	-12913
▁come▁up	-12914
▁Economic	-12915
▁and▁feel	-12916
▁in▁China	-12917
▁inspiring	-12918
▁passenger	-12919
▁your▁favorite	-12920
sub	-12921
Time	-12922
▁Kit	-12923
▁SER	-12924
▁jam	-12925
Which	-12926
▁Pick	-12927
▁Below	-12928
▁Cooper	-12929
▁Empire	-12930
▁harder	-12931
▁hazard	-12932
▁hiring	-12933
▁Matthew	-12934
▁Restaur	-12935
s▁a▁great	-12936
▁thing▁to	-12937
▁you▁just	-12938
reme▁Court	-12939
▁than▁ever	-12940
▁amounts▁of	-12941
▁profession	-12942
▁there▁are▁no	-12943
▁patients▁with	-12944
▁surrounded▁by	-12945
Home	-12946
only	-12947
valu	-12948
▁Pool	-12949
▁Tony	-12950
▁Brian	-12951
▁Korean	-12952
▁dealer	-12953
▁thrown	-12954
itutional	-12955
m▁not▁sure	-12956
▁discipline	-12957
▁last▁night	-12958
▁examples▁of	-12959
▁continuously	-12960
▁over▁the▁last	-12961
sle	-12962
Very	-12963
quet	-12964
▁Eve	-12965
▁sne	-12966
▁indu	-12967
oucher	-12968
▁Carib	-12969
▁Phone	-12970
▁delet	-12971
▁strap	-12972
▁kilomet	-12973
▁engaging	-12974
s▁are▁also	-12975
▁excessive	-12976
▁the▁field	-12977
▁Application	-12978
▁Even▁though	-12979
▁technicians	-12980
▁search▁engine	-12981
▁understand▁that	-12982
iev	-12983
▁Ce	-12984
agan	-12985
agger	-12986
▁chur	-12987
▁synd	-12988
▁I▁haven	-12989
▁console	-12990
▁leave▁a	-12991
▁sending	-12992
▁tablets	-12993
▁Have▁you	-12994
▁at▁first	-12995
▁years▁in	-12996
▁precision	-12997
MD	-12998
cs	-12999
erty	-13000
▁fru	-13001
atoes	-13002
▁bulk	-13003
health	-13004
rystal	-13005
▁disag	-13006
▁roads	-13007
▁costly	-13008
▁intrig	-13009
▁modify	-13010
▁his▁first	-13011
▁involving	-13012
▁seemingly	-13013
▁Center▁for	-13014
▁suggestion	-13015
▁small▁business	-13016
▁characteristics	-13017
dam	-13018
shot	-13019
▁Mos	-13020
o▁and	-13021
▁lady	-13022
▁moon	-13023
▁reson	-13024
ed▁down	-13025
▁can▁do	-13026
▁lasting	-13027
▁the▁basic	-13028
▁workforce	-13029
▁applied▁to	-13030
▁to▁receive	-13031
▁underlying	-13032
▁conservation	-13033
▁phone▁number	-13034
▁compared▁to▁the	-13035
▁Nob	-13036
▁USD	-13037
▁jet	-13038
emade	-13039
ented	-13040
enter	-13041
ports	-13042
▁pets	-13043
ors▁are	-13044
otherapy	-13045
▁electro	-13046
▁which▁we	-13047
▁forced▁to	-13048
▁sounds▁like	-13049
▁or▁otherwise	-13050
'.	-13051
SN	-13052
igned	-13053
▁Buff	-13054
▁Cart	-13055
▁barri	-13056
▁Turkey	-13057
▁babies	-13058
▁colleg	-13059
▁dispute	-13060
▁or▁less	-13061
▁hope▁you	-13062
▁used▁as▁a	-13063
▁Parliament	-13064
▁invitation	-13065
▁importantly	-13066
▁prospective	-13067
s▁are▁available	-13068
ITE	-13069
full	-13070
plex	-13071
usic	-13072
▁Moon	-13073
▁Email	-13074
▁pione	-13075
▁sweep	-13076
▁tweet	-13077
▁nearest	-13078
▁can▁take	-13079
▁took▁the	-13080
▁before▁they	-13081
▁at▁least▁one	-13082
▁conversations	-13083
iov	-13084
conf	-13085
hill	-13086
▁Anne	-13087
Follow	-13088
▁cinem	-13089
s▁are▁a	-13090
s▁a▁lot	-13091
▁Summit	-13092
▁compil	-13093
▁singer	-13094
▁Diamond	-13095
▁anytime	-13096
▁rolling	-13097
▁a▁bit▁of	-13098
▁from▁that	-13099
▁took▁place	-13100
▁as▁part▁of▁the	-13101
lah	-13102
▁CT	-13103
rets	-13104
▁sup	-13105
rooms	-13106
▁Study	-13107
▁signed	-13108
▁themes	-13109
▁balanced	-13110
▁the▁post	-13111
▁to▁allow	-13112
▁hard▁work	-13113
▁the▁sound	-13114
▁safety▁and	-13115
gs	-13116
rine	-13117
▁hal	-13118
▁max	-13119
▁ris	-13120
▁merg	-13121
andise	-13122
▁Dutch	-13123
▁Can▁you	-13124
▁Chapter	-13125
▁easiest	-13126
▁leisure	-13127
▁nations	-13128
▁railway	-13129
▁taking▁a	-13130
▁months▁of	-13131
▁up▁to▁date	-13132
▁used▁in▁the	-13133
▁management▁and	-13134
▁Kenn	-13135
▁Along	-13136
▁niche	-13137
▁up▁on	-13138
▁Dental	-13139
▁Nature	-13140
▁analys	-13141
necessary	-13142
s▁website	-13143
▁Heritage	-13144
▁operated	-13145
▁sleeping	-13146
ers▁in▁the	-13147
▁countless	-13148
▁have▁some	-13149
▁underneath	-13150
▁you▁can▁do	-13151
▁entertaining	-13152
adget	-13153
maker	-13154
▁Wars	-13155
▁winn	-13156
etooth	-13157
▁of▁mind	-13158
▁sponsor	-13159
▁get▁your	-13160
▁is▁there	-13161
▁This▁year	-13162
▁musicians	-13163
▁laboratory	-13164
▁our▁clients	-13165
dem	-13166
post	-13167
wick	-13168
▁cub	-13169
bally	-13170
▁radi	-13171
▁Appro	-13172
▁regime	-13173
s▁a▁good	-13174
▁Holiday	-13175
▁seating	-13176
▁transparent	-13177
’.
	-13178
▁Mu	-13179
dated	-13180
heart	-13181
▁bump	-13182
▁thro	-13183
mother	-13184
olitan	-13185
▁Staff	-13186
▁suits	-13187
▁insist	-13188
You▁will	-13189
▁Besides	-13190
▁on▁them	-13191
▁and▁easy	-13192
▁easy▁and	-13193
During▁the	-13194
▁building▁a	-13195
▁cooperation	-13196
▁every▁single	-13197
▁straightforward	-13198
Em	-13199
ACT	-13200
▁IV	-13201
otta	-13202
▁Bus	-13203
▁Mrs	-13204
▁Magn	-13205
▁Shel	-13206
ateral	-13207
▁Could	-13208
▁moral	-13209
▁doing▁so	-13210
▁overseas	-13211
▁Currently	-13212
▁blog▁post	-13213
▁for▁other	-13214
▁identical	-13215
▁tools▁and	-13216
▁where▁she	-13217
▁your▁life	-13218
enz	-13219
uke	-13220
ingo	-13221
▁sli	-13222
check	-13223
▁wins	-13224
▁Civil	-13225
▁pasta	-13226
ing▁her	-13227
reshold	-13228
▁rhythm	-13229
▁spoken	-13230
▁a▁break	-13231
▁closest	-13232
▁homeless	-13233
▁bring▁the	-13234
▁people▁in	-13235
▁adjustment	-13236
▁do▁not▁have	-13237
Ob	-13238
▁Ty	-13239
▁UV	-13240
th▁of	-13241
▁File	-13242
ve▁ever	-13243
▁I▁made	-13244
▁for▁new	-13245
▁handles	-13246
▁of▁some	-13247
▁contents	-13248
▁manually	-13249
▁wardrobe	-13250
▁weakness	-13251
▁and▁start	-13252
ing▁process	-13253
▁capability	-13254
▁million▁in	-13255
▁immigration	-13256
▁one▁another	-13257
▁will▁be▁held	-13258
oker	-13259
vard	-13260
▁bicy	-13261
▁peer	-13262
▁recon	-13263
▁accent	-13264
▁tested	-13265
▁figured	-13266
▁focused	-13267
▁seasonal	-13268
▁generator	-13269
grad	-13270
▁Mom	-13271
shine	-13272
▁Navy	-13273
▁cust	-13274
▁mush	-13275
t▁like	-13276
▁Marsh	-13277
▁marks	-13278
▁Afghan	-13279
▁falling	-13280
▁is▁open	-13281
▁of▁being	-13282
▁last▁month	-13283
▁the▁picture	-13284
▁focus▁on▁the	-13285
▁most▁popular	-13286
▁blood▁pressure	-13287
built	-13288
umbers	-13289
▁Impro	-13290
▁addict	-13291
▁titled	-13292
▁ethical	-13293
▁Discover	-13294
▁to▁believe	-13295
itche	-13296
odium	-13297
shore	-13298
▁Rent	-13299
▁Sant	-13300
If▁the	-13301
We▁will	-13302
amilton	-13303
▁I▁mean	-13304
▁curious	-13305
▁why▁not	-13306
▁entities	-13307
▁steps▁to	-13308
▁to▁check	-13309
▁degree▁in	-13310
▁that▁their	-13311
▁accomplished	-13312
▁is▁the▁first	-13313
oft	-13314
pha	-13315
sex	-13316
onge	-13317
ucks	-13318
▁cam	-13319
▁grip	-13320
▁Craft	-13321
▁Societ	-13322
▁to▁run	-13323
▁shorter	-13324
▁resistant	-13325
▁these▁days	-13326
s▁across▁the	-13327
▁magnificent	-13328
▁really▁good	-13329
▁Institute▁of	-13330
DI	-13331
▁Py	-13332
bris	-13333
otte	-13334
ishop	-13335
▁Carl	-13336
▁gray	-13337
▁wool	-13338
ichael	-13339
▁Advis	-13340
▁Clear	-13341
▁finds	-13342
▁Source	-13343
▁barely	-13344
▁She▁has	-13345
▁evident	-13346
▁Alliance	-13347
▁Chairman	-13348
▁Consider	-13349
▁concepts	-13350
▁publicly	-13351
▁sorts▁of	-13352
▁to▁enjoy	-13353
▁is▁on▁the	-13354
▁anyone▁who	-13355
▁minutes▁to	-13356
▁taking▁the	-13357
▁by▁clicking	-13358
Mon	-13359
anth	-13360
ulent	-13361
▁harsh	-13362
▁was▁so	-13363
▁editing	-13364
▁neglect	-13365
▁on▁both	-13366
▁ratings	-13367
▁Pakistan	-13368
▁diameter	-13369
▁traveling	-13370
▁The▁result	-13371
▁passengers	-13372
▁results▁in	-13373
▁shows▁that	-13374
▁Description	-13375
▁of▁the▁same	-13376
fend	-13377
game	-13378
▁Hig	-13379
▁army	-13380
d▁like	-13381
ulator	-13382
▁But▁it	-13383
▁Kansas	-13384
▁gluten	-13385
▁Patrick	-13386
▁time▁in	-13387
▁licensed	-13388
▁that▁way	-13389
▁incorrect	-13390
▁money▁and	-13391
▁comes▁from	-13392
▁designated	-13393
▁developments	-13394
▁HE	-13395
avid	-13396
inar	-13397
town	-13398
▁Les	-13399
▁Cape	-13400
▁an▁in	-13401
▁deter	-13402
▁shine	-13403
▁phrase	-13404
▁thirty	-13405
▁Premier	-13406
▁viewing	-13407
▁is▁quite	-13408
▁means▁to	-13409
▁to▁write	-13410
▁and▁still	-13411
▁can▁cause	-13412
▁an▁individual	-13413
▁architectural	-13414
▁swimming▁pool	-13415
UC	-13416
anz	-13417
gov	-13418
mind	-13419
▁Occ	-13420
andal	-13421
ivery	-13422
▁HERE	-13423
t▁take	-13424
▁and▁go	-13425
▁thesis	-13426
▁the▁story	-13427
▁agricultural	-13428
▁benefit▁from	-13429
ju	-13430
wid	-13431
oria	-13432
▁Jay	-13433
▁Rog	-13434
▁Vit	-13435
▁Cash	-13436
▁Snow	-13437
irthday	-13438
▁Springs	-13439
▁case▁of	-13440
t▁believe	-13441
▁Anderson	-13442
▁placement	-13443
▁parameters	-13444
▁Some▁of▁the	-13445
▁knowledge▁of	-13446
▁overwhelming	-13447
▁at▁the▁bottom	-13448
▁for▁those▁who	-13449
good	-13450
will	-13451
▁pit	-13452
▁digit	-13453
▁convin	-13454
▁potato	-13455
▁have▁you	-13456
▁to▁visit	-13457
▁and▁so▁on	-13458
▁contracts	-13459
▁Enterprise	-13460
▁in▁the▁early	-13461
▁Chang	-13462
▁Metal	-13463
Contact	-13464
▁Yellow	-13465
▁gently	-13466
▁lounge	-13467
▁up▁for	-13468
▁Clinton	-13469
▁Pinterest	-13470
mi	-13471
aks	-13472
ocur	-13473
omic	-13474
▁Ott	-13475
ortion	-13476
▁to▁re	-13477
▁Oracle	-13478
▁ranked	-13479
Download	-13480
▁buttons	-13481
▁just▁the	-13482
▁beyond▁the	-13483
▁tremendous	-13484
▁distinctive	-13485
▁imagination	-13486
▁the▁customer	-13487
▁along▁the▁way	-13488
▁specifications	-13489
Her	-13490
via	-13491
indu	-13492
books	-13493
▁Gift	-13494
▁sits	-13495
▁wing	-13496
Christ	-13497
▁recru	-13498
verages	-13499
▁Palest	-13500
▁cleans	-13501
▁flavour	-13502
▁won▁the	-13503
▁to▁those	-13504
▁be▁sure▁to	-13505
▁view▁of▁the	-13506
▁whether▁the	-13507
▁for▁more▁than	-13508
?!	-13509
Art	-13510
Dep	-13511
OME	-13512
ella	-13513
▁skip	-13514
▁brace	-13515
s▁again	-13516
▁premier	-13517
▁and▁give	-13518
▁grinding	-13519
▁on▁these	-13520
▁After▁all	-13521
▁Wisconsin	-13522
▁this▁will	-13523
▁relating▁to	-13524
▁at▁the▁moment	-13525
inge	-13526
▁gau	-13527
attan	-13528
phant	-13529
▁bene	-13530
▁License	-13531
▁rely▁on	-13532
▁can▁make	-13533
▁requests	-13534
▁showcase	-13535
▁time▁you	-13536
▁gradually	-13537
▁with▁many	-13538
▁part▁of▁our	-13539
▁for▁instance	-13540
SM	-13541
ateur	-13542
count	-13543
▁Utah	-13544
▁ampl	-13545
▁dipl	-13546
▁poem	-13547
matics	-13548
▁genre	-13549
▁I▁wasn	-13550
▁stands	-13551
▁as▁their	-13552
▁links▁to	-13553
▁studying	-13554
▁It▁is▁not	-13555
▁invited▁to	-13556
▁protective	-13557
▁this▁morning	-13558
▁your▁personal	-13559
%.
	-13560
▁RA	-13561
lift	-13562
size	-13563
▁Amb	-13564
▁Ath	-13565
▁Raj	-13566
oline	-13567
trans	-13568
▁pant	-13569
▁tale	-13570
ful▁of	-13571
▁Prize	-13572
▁a▁law	-13573
▁humid	-13574
▁sampl	-13575
Through	-13576
ulating	-13577
▁Mexican	-13578
▁discret	-13579
▁is▁here	-13580
▁penalty	-13581
▁Thailand	-13582
▁the▁word	-13583
▁and▁learn	-13584
s▁important	-13585
s▁that▁will	-13586
▁range▁from	-13587
▁half▁of▁the	-13588
PG	-13589
cat	-13590
▁GPS	-13591
▁Lat	-13592
▁cycl	-13593
▁Homes	-13594
▁cheer	-13595
▁a▁high	-13596
▁Reserve	-13597
▁theatre	-13598
▁the▁fund	-13599
▁Represent	-13600
▁to▁deliver	-13601
▁reliability	-13602
▁I▁decided▁to	-13603
▁involved▁in▁the	-13604
ni	-13605
Only	-13606
oked	-13607
rell	-13608
yles	-13609
▁DNA	-13610
▁unp	-13611
amine	-13612
opping	-13613
▁at▁my	-13614
▁Unlike	-13615
▁canvas	-13616
▁observe	-13617
▁role▁of	-13618
▁tell▁me	-13619
▁and▁well	-13620
▁fighting	-13621
▁because▁he	-13622
▁in▁January	-13623
mers	-13624
name	-13625
▁caf	-13626
▁bron	-13627
▁pond	-13628
▁Guest	-13629
▁embra	-13630
▁retro	-13631
install	-13632
s▁a▁day	-13633
▁Temple	-13634
▁inflamm	-13635
▁oil▁and	-13636
▁????????	-13637
▁Hollywood	-13638
▁I▁started	-13639
▁doing▁the	-13640
▁method▁of	-13641
▁depends▁on	-13642
▁durability	-13643
▁focuses▁on	-13644
▁explore▁the	-13645
▁National▁Park	-13646
flix	-13647
▁Mir	-13648
▁Tel	-13649
▁pron	-13650
▁Veter	-13651
▁by▁an	-13652
▁auction	-13653
▁expanded	-13654
▁create▁an	-13655
▁our▁website	-13656
▁conservative	-13657
▁complimentary	-13658
▁interior▁design	-13659
Cor	-13660
earl	-13661
▁NAS	-13662
chron	-13663
▁Date	-13664
▁If▁a	-13665
▁Marc	-13666
onomic	-13667
rowave	-13668
▁is▁at	-13669
▁lobby	-13670
▁toxic	-13671
itivity	-13672
▁facial	-13673
▁Highway	-13674
▁at▁some	-13675
▁eastern	-13676
▁outline	-13677
▁consecut	-13678
▁targeted	-13679
▁was▁that	-13680
▁approaches	-13681
▁destruction	-13682
▁to▁determine	-13683
m▁so	-13684
pring	-13685
▁do▁a	-13686
elcome	-13687
▁Month	-13688
▁Style	-13689
▁outer	-13690
wareness	-13691
▁Success	-13692
▁grocery	-13693
▁is▁known	-13694
▁linked▁to	-13695
▁energy▁and	-13696
▁facilitate	-13697
▁in▁the▁event	-13698
olin	-13699
▁Cab	-13700
ustral	-13701
▁Quest	-13702
▁acros	-13703
▁arbit	-13704
▁stall	-13705
▁riding	-13706
▁Alabama	-13707
▁she▁had	-13708
▁appointed	-13709
▁variation	-13710
▁focusing▁on	-13711
ll▁be▁able▁to	-13712
IES	-13713
fare	-13714
hous	-13715
▁Turk	-13716
issipp	-13717
▁argue	-13718
▁seeds	-13719
ocratic	-13720
s▁great	-13721
▁volunt	-13722
▁are▁more	-13723
▁surgical	-13724
▁on▁Twitter	-13725
▁photographs	-13726
▁support▁the	-13727
▁towards▁the	-13728
▁Qual	-13729
▁Roof	-13730
▁danc	-13731
ictures	-13732
▁Chrome	-13733
▁scroll	-13734
▁and▁don	-13735
▁assault	-13736
▁we▁also	-13737
▁cocktail	-13738
▁users▁to	-13739
▁you▁with	-13740
▁attending	-13741
▁ready▁for	-13742
s▁that▁have	-13743
▁for▁several	-13744
▁connected▁to	-13745
▁they▁are▁not	-13746
▁Prime▁Minister	-13747
▁period▁of▁time	-13748
▁Beh	-13749
▁Text	-13750
▁fired	-13751
connect	-13752
ilitary	-13753
itarian	-13754
raising	-13755
▁heater	-13756
▁delicate	-13757
▁from▁its	-13758
ing▁forward	-13759
▁responsive	-13760
▁comes▁with▁a	-13761
▁treatment▁of	-13762
▁an▁additional	-13763
iro	-13764
ruptcy	-13765
▁Audio	-13766
▁burst	-13767
▁Intell	-13768
▁Rather	-13769
▁shapes	-13770
▁and▁very	-13771
▁approache	-13772
▁compassion	-13773
ARE	-13774
Hel	-13775
Loc	-13776
quer	-13777
▁bio	-13778
▁jer	-13779
▁facts	-13780
▁fence	-13781
▁hopes	-13782
fulness	-13783
ized▁by	-13784
▁and▁The	-13785
▁and▁put	-13786
▁in▁need	-13787
▁on▁what	-13788
▁ways▁of	-13789
▁and▁share	-13790
▁forgotten	-13791
▁for▁years	-13792
▁and▁around	-13793
▁completion	-13794
▁intelligent	-13795
aco	-13796
arp	-13797
▁ax	-13798
held	-13799
pace	-13800
rish	-13801
thod	-13802
▁Must	-13803
age▁of	-13804
t▁need	-13805
▁If▁it	-13806
▁balcon	-13807
▁comedy	-13808
▁powers	-13809
▁beloved	-13810
ing▁about	-13811
▁love▁the	-13812
▁leave▁the	-13813
▁vegetable	-13814
▁from▁the▁c	-13815
▁the▁better	-13816
▁of▁the▁Year	-13817
▁out▁of▁your	-13818
▁combined▁with	-13819
▁on▁the▁ground	-13820
▁epic	-13821
▁wedd	-13822
▁Index	-13823
▁Lewis	-13824
▁Better	-13825
▁lately	-13826
etheless	-13827
ing▁tool	-13828
▁he▁says	-13829
s▁with▁the	-13830
▁events▁and	-13831
▁Most▁of▁the	-13832
▁benefits▁of	-13833
NE	-13834
INE	-13835
Set	-13836
hist	-13837
▁Pain	-13838
acy▁of	-13839
▁Panel	-13840
▁glory	-13841
▁swing	-13842
ches▁and	-13843
▁glasses	-13844
▁in▁life	-13845
▁sequence	-13846
▁this▁post	-13847
utomatically	-13848
▁notification	-13849
VP	-13850
Trans	-13851
ringe	-13852
▁Stop	-13853
▁Chart	-13854
▁Palace	-13855
▁ending	-13856
▁fallen	-13857
▁disabled	-13858
▁on▁April	-13859
▁Companies	-13860
▁gathering	-13861
▁the▁court	-13862
drop	-13863
otyp	-13864
green	-13865
▁Alan	-13866
▁Nort	-13867
▁dont	-13868
▁fake	-13869
▁lung	-13870
arring	-13871
▁aspir	-13872
▁paste	-13873
▁doing▁a	-13874
▁you▁see	-13875
▁Caribbean	-13876
▁Challenge	-13877
▁It▁is▁the	-13878
▁responses	-13879
▁joined▁the	-13880
▁prior▁to▁the	-13881
▁solutions▁to	-13882
▁the▁ability▁to	-13883
mo	-13884
▁Ark	-13885
elson	-13886
leans	-13887
▁Gate	-13888
▁hood	-13889
▁trib	-13890
▁Liter	-13891
clusive	-13892
▁And▁it	-13893
▁blocks	-13894
▁stroke	-13895
▁to▁him	-13896
▁casinos	-13897
▁lecture	-13898
▁and▁play	-13899
▁them▁all	-13900
▁us▁today	-13901
Thanks▁for	-13902
▁navigation	-13903
▁of▁the▁day	-13904
▁Philippines	-13905
▁Whether▁you	-13906
▁people▁who▁are	-13907
▁simultaneously	-13908
s▁F	-13909
ongue	-13910
▁I▁use	-13911
▁The▁D	-13912
▁as▁if	-13913
▁fancy	-13914
▁quilt	-13915
▁rings	-13916
▁rival	-13917
ediatric	-13918
▁lawyers	-13919
▁tell▁us	-13920
▁describes	-13921
▁distributed	-13922
▁so▁that▁you▁can	-13923
uv	-13924
kee	-13925
▁UC	-13926
▁Ye	-13927
bors	-13928
▁Sir	-13929
▁tasty	-13930
▁wines	-13931
service	-13932
▁Bureau	-13933
▁Making	-13934
▁cabinets	-13935
▁intimate	-13936
▁There▁was	-13937
▁requested	-13938
▁excitement	-13939
▁continually	-13940
TO	-13941
▁Cou	-13942
▁Veh	-13943
apest	-13944
immer	-13945
▁heads	-13946
uscript	-13947
▁twelve	-13948
▁preview	-13949
▁Language	-13950
▁and▁fore	-13951
▁Technical	-13952
▁from▁the▁b	-13953
▁In▁order▁to	-13954
▁conferences	-13955
▁encouraging	-13956
▁supported▁by	-13957
▁anything▁else	-13958
IX	-13959
rant	-13960
▁Han	-13961
▁mad	-13962
ontal	-13963
▁Iowa	-13964
▁Wind	-13965
ricane	-13966
rivacy	-13967
umatic	-13968
▁Peace	-13969
▁wrapp	-13970
atility	-13971
▁portal	-13972
▁pounds	-13973
ers▁were	-13974
▁at▁that	-13975
▁raising	-13976
▁Maryland	-13977
▁adjacent	-13978
▁of▁the▁S	-13979
▁accidents	-13980
▁people▁have	-13981
▁GT	-13982
abad	-13983
▁PhD	-13984
otion	-13985
▁gonna	-13986
borough	-13987
lington	-13988
outheast	-13989
▁Chamber	-13990
▁best▁to	-13991
▁radical	-13992
▁profiles	-13993
There▁is▁a	-13994
▁indicated	-13995
▁luxurious	-13996
▁take▁place	-13997
▁and▁will▁be	-13998
▁one▁of▁them	-13999
▁supplements	-14000
▁transferred	-14001
Hot	-14002
▁ME	-14003
List	-14004
acco	-14005
bank	-14006
▁Multi	-14007
▁Urban	-14008
▁debris	-14009
▁newest	-14010
▁scores	-14011
▁triple	-14012
▁verify	-14013
▁deliber	-14014
▁choosing	-14015
▁love▁and	-14016
▁outdoors	-14017
▁convinced	-14018
▁healthier	-14019
▁a▁different	-14020
▁for▁children	-14021
▁with▁all▁the	-14022
▁experience▁with	-14023
gien	-14024
▁arc	-14025
erals	-14026
I▁just	-14027
▁turns	-14028
▁clever	-14029
▁ethnic	-14030
ones▁and	-14031
▁engineers	-14032
▁threshold	-14033
▁substitute	-14034
▁know▁how▁to	-14035
▁because▁it▁is	-14036
▁the▁government	-14037
cr	-14038
:▁(	-14039
rous	-14040
▁Deep	-14041
▁Fram	-14042
▁blast	-14043
▁uncle	-14044
▁agenda	-14045
▁a▁life	-14046
▁courts	-14047
▁sacrif	-14048
▁elderly	-14049
▁basement	-14050
▁click▁the	-14051
▁graduates	-14052
▁to▁the▁right	-14053
eta	-14054
adays	-14055
▁Feel	-14056
▁Nice	-14057
▁Self	-14058
▁Junior	-14059
▁Screen	-14060
▁in▁New	-14061
▁an▁easy	-14062
▁and▁high	-14063
▁magnetic	-14064
▁musician	-14065
▁It▁can▁be	-14066
▁pollution	-14067
ACK	-14068
isp	-14069
▁Gh	-14070
some	-14071
▁cos	-14072
▁wax	-14073
oenix	-14074
▁Wire	-14075
▁pork	-14076
▁Often	-14077
▁Castle	-14078
▁issued	-14079
▁its▁in	-14080
▁earning	-14081
▁made▁to	-14082
▁the▁low	-14083
▁athletes	-14084
▁hardwood	-14085
▁of▁a▁new	-14086
▁I▁will▁be	-14087
▁favorites	-14088
▁locksmith	-14089
▁encourages	-14090
▁go▁through	-14091
▁instructor	-14092
▁progressive	-14093
▁oh	-14094
As▁the	-14095
▁gross	-14096
▁failed	-14097
▁get▁to	-14098
▁writes	-14099
Have▁you	-14100
▁cultures	-14101
▁meditation	-14102
▁leaving▁the	-14103
▁and▁you▁will	-14104
▁transparency	-14105
▁information▁is	-14106
NS	-14107
▁BMW	-14108
▁Spa	-14109
ritis	-14110
▁Rain	-14111
▁Talk	-14112
▁dict	-14113
I▁know	-14114
oustic	-14115
t▁help	-14116
veland	-14117
▁Resume	-14118
▁get▁it	-14119
▁purple	-14120
▁steady	-14121
▁stolen	-14122
▁valley	-14123
▁compress	-14124
▁identifi	-14125
▁departure	-14126
▁accurately	-14127
▁easy▁to▁use	-14128
▁my▁favorite	-14129
▁and▁the▁other	-14130
AST	-14131
Bay	-14132
▁comic	-14133
▁Scient	-14134
▁She▁is	-14135
▁barrel	-14136
▁wallet	-14137
▁and▁from	-14138
▁keep▁you	-14139
▁lifetime	-14140
▁I▁remember	-14141
▁the▁surface	-14142
▁disabilities	-14143
▁is▁expected▁to	-14144
alem	-14145
▁lat	-14146
▁Spot	-14147
▁dive	-14148
▁Major	-14149
▁of▁ac	-14150
▁Oxford	-14151
▁ancest	-14152
▁cialis	-14153
▁defeat	-14154
▁Century	-14155
▁in▁time	-14156
▁or▁email	-14157
▁after▁all	-14158
▁are▁still	-14159
▁attorneys	-14160
▁paintings	-14161
▁streaming	-14162
▁continuing	-14163
▁struggling	-14164
▁achievement	-14165
▁you▁can▁also	-14166
▁sustainability	-14167
▁SW	-14168
iere	-14169
stru	-14170
▁migr	-14171
father	-14172
▁blade	-14173
▁liver	-14174
▁safer	-14175
inction	-14176
issippi	-14177
▁Person	-14178
▁in▁two	-14179
▁it▁may	-14180
▁and▁why	-14181
▁invited	-14182
▁place▁of	-14183
▁preference	-14184
▁in▁the▁next	-14185
▁Communications	-14186
▁AV	-14187
▁Imm	-14188
▁Lad	-14189
▁hun	-14190
ipher	-14191
itual	-14192
▁demo	-14193
▁Phill	-14194
▁academ	-14195
▁habits	-14196
function	-14197
▁suicide	-14198
▁how▁long	-14199
▁organize	-14200
▁save▁you	-14201
▁Hong▁Kong	-14202
▁informative	-14203
▁the▁process	-14204
▁GO	-14205
urop	-14206
ocent	-14207
▁Chef	-14208
▁Nurs	-14209
▁cats	-14210
We▁also	-14211
ing▁all	-14212
▁liable	-14213
rapeutic	-14214
▁Nations	-14215
▁Vietnam	-14216
▁terminal	-14217
▁looked▁at	-14218
▁on▁behalf	-14219
▁produced▁by	-14220
▁translation	-14221
▁listening▁to	-14222
▁this▁weekend	-14223
gie	-14224
amon	-14225
▁THAT	-14226
▁anch	-14227
▁vacc	-14228
▁Single	-14229
▁Bitcoin	-14230
▁cuisine	-14231
▁curtain	-14232
▁it▁wasn	-14233
▁listen▁to	-14234
▁that▁we▁are	-14235
lad	-14236
amed	-14237
▁yog	-14238
ensed	-14239
umble	-14240
▁Deal	-14241
▁embro	-14242
▁vegan	-14243
▁formed	-14244
▁in▁San	-14245
ing▁over	-14246
▁ceramic	-14247
▁descend	-14248
▁which▁he	-14249
▁We▁have▁a	-14250
▁acknowled	-14251
▁indicator	-14252
▁for▁the▁best	-14253
▁individually	-14254
▁Joy	-14255
▁Nev	-14256
▁fut	-14257
lfare	-14258
lahoma	-14259
▁cookie	-14260
▁Anthony	-14261
▁Channel	-14262
▁readily	-14263
▁the▁pop	-14264
▁From▁the	-14265
▁and▁is▁a	-14266
▁centuries	-14267
▁emissions	-14268
▁shows▁the	-14269
▁Middle▁East	-14270
▁making▁sure	-14271
SD	-14272
▁ED	-14273
▁RF	-14274
cled	-14275
▁Pow	-14276
▁Six	-14277
storm	-14278
▁Gulf	-14279
▁Side	-14280
▁herb	-14281
▁noted	-14282
▁valve	-14283
s▁among	-14284
▁give▁a	-14285
▁tomato	-14286
ing▁into	-14287
▁to▁look	-14288
itzerland	-14289
▁from▁any	-14290
▁integral	-14291
▁makes▁me	-14292
▁profound	-14293
▁campaigns	-14294
▁workshops	-14295
▁using▁this	-14296
▁Technologies	-14297
▁equipped▁with	-14298
di	-14299
hard	-14300
▁junk	-14301
arents	-14302
around	-14303
icular	-14304
If▁your	-14305
▁Queens	-14306
▁achieved	-14307
▁portrait	-14308
▁financing	-14309
▁Additional	-14310
▁If▁you▁don	-14311
▁concept▁of	-14312
▁consecutive	-14313
▁prestigious	-14314
▁Entertainment	-14315
▁encouraged▁to	-14316
aro	-14317
ova	-14318
xit	-14319
▁od	-14320
t▁do	-14321
school	-14322
▁deduct	-14323
▁wheels	-14324
ers▁that	-14325
▁modules	-14326
▁you▁won	-14327
▁backyard	-14328
▁right▁to	-14329
▁before▁it	-14330
▁disorders	-14331
▁for▁a▁new	-14332
▁and▁beyond	-14333
▁maintained	-14334
▁hospitality	-14335
▁whether▁you	-14336
▁part▁of▁your	-14337
▁publications	-14338
raph	-14339
wind	-14340
▁CBD	-14341
allow	-14342
encing	-14343
essage	-14344
▁audit	-14345
attered	-14346
▁fridge	-14347
Sometimes	-14348
▁an▁extra	-14349
▁restored	-14350
▁generations	-14351
▁quickly▁and	-14352
▁There▁are▁many	-14353
▁percent▁of▁the	-14354
PER	-14355
logy	-14356
▁dear	-14357
Design	-14358
ed▁ind	-14359
s▁name	-14360
▁clubs	-14361
▁bother	-14362
▁evaluate	-14363
s▁actually	-14364
▁option▁to	-14365
▁legitimate	-14366
▁reason▁why	-14367
▁medications	-14368
▁Jesus▁Christ	-14369
▁dramatically	-14370
▁internationally	-14371
have	-14372
mate	-14373
▁mig	-14374
chair	-14375
▁Chel	-14376
▁diff	-14377
During	-14378
▁Solar	-14379
natural	-14380
ve▁done	-14381
▁Toyota	-14382
▁a▁free	-14383
▁infect	-14384
▁loyalty	-14385
▁Analysis	-14386
▁Whatever	-14387
▁No▁matter	-14388
▁a▁limited	-14389
▁below▁the	-14390
▁renewable	-14391
▁is▁nothing	-14392
▁as▁they▁are	-14393
▁in▁addition	-14394
▁of▁the▁game	-14395
▁dissertation	-14396
▁that▁provides	-14397
Ok	-14398
pes	-14399
▁ti	-14400
imum	-14401
inet	-14402
▁Ali	-14403
owned	-14404
▁Tell	-14405
▁yarn	-14406
ourage	-14407
[...]
