<pad>	0
</s>	0
<unk>	0
<mask>	0
<n>	0
<0x00>	0
<0x01>	0
<0x02>	0
<0x03>	0
<0x04>	0
<0x05>	0
<0x06>	0
<0x07>	0
<0x08>	0
<0x09>	0
<0x0A>	0
<0x0B>	0
<0x0C>	0
<0x0D>	0
<0x0E>	0
<0x0F>	0
<0x10>	0
<0x11>	0
<0x12>	0
<0x13>	0
<0x14>	0
<0x15>	0
<0x16>	0
<0x17>	0
<0x18>	0
<0x19>	0
<0x1A>	0
<0x1B>	0
<0x1C>	0
<0x1D>	0
<0x1E>	0
<0x1F>	0
<0x20>	0
<0x21>	0
<0x22>	0
<0x23>	0
<0x24>	0
<0x25>	0
<0x26>	0
<0x27>	0
<0x28>	0
<0x29>	0
<0x2A>	0
<0x2B>	0
<0x2C>	0
<0x2D>	0
<0x2E>	0
<0x2F>	0
<0x30>	0
<0x31>	0
<0x32>	0
<0x33>	0
<0x34>	0
<0x35>	0
<0x36>	0
<0x37>	0
<0x38>	0
<0x39>	0
<0x3A>	0
<0x3B>	0
<0x3C>	0
<0x3D>	0
<0x3E>	0
<0x3F>	0
<0x40>	0
<0x41>	0
<0x42>	0
<0x43>	0
<0x44>	0
<0x45>	0
<0x46>	0
<0x47>	0
<0x48>	0
<0x49>	0
<0x4A>	0
<0x4B>	0
<0x4C>	0
<0x4D>	0
<0x4E>	0
<0x4F>	0
<0x50>	0
<0x51>	0
<0x52>	0
<0x53>	0
<0x54>	0
<0x55>	0
<0x56>	0
<0x57>	0
<0x58>	0
<0x59>	0
<0x5A>	0
<0x5B>	0
<0x5C>	0
<0x5D>	0
<0x5E>	0
<0x5F>	0
<0x60>	0
<0x61>	0
<0x62>	0
<0x63>	0
<0x64>	0
<0x65>	0
<0x66>	0
<0x67>	0
<0x68>	0
<0x69>	0
<0x6A>	0
<0x6B>	0
<0x6C>	0
<0x6D>	0
<0x6E>	0
<0x6F>	0
<0x70>	0
<0x71>	0
<0x72>	0
<0x73>	0
<0x74>	0
<0x75>	0
<0x76>	0
<0x77>	0
<0x78>	0
<0x79>	0
<0x7A>	0
<0x7B>	0
<0x7C>	0
<0x7D>	0
<0x7E>	0
<0x7F>	0
<0x80>	0
<0x81>	0
<0x82>	0
<0x83>	0
<0x84>	0
<0x85>	0
<0x86>	0
<0x87>	0
<0x88>	0
<0x89>	0
<0x8A>	0
<0x8B>	0
<0x8C>	0
<0x8D>	0
<0x8E>	0
<0x8F>	0
<0x90>	0
<0x91>	0
<0x92>	0
<0x93>	0
<0x94>	0
<0x95>	0
<0x96>	0
<0x97>	0
<0x98>	0
<0x99>	0
<0x9A>	0
<0x9B>	0
<0x9C>	0
<0x9D>	0
<0x9E>	0
<0x9F>	0
<0xA0>	0
<0xA1>	0
<0xA2>	0
<0xA3>	0
<0xA4>	0
<0xA5>	0
<0xA6>	0
<0xA7>	0
<0xA8>	0
<0xA9>	0
<0xAA>	0
<0xAB>	0
<0xAC>	0
<0xAD>	0
<0xAE>	0
<0xAF>	0
<0xB0>	0
<0xB1>	0
<0xB2>	0
<0xB3>	0
<0xB4>	0
<0xB5>	0
<0xB6>	0
<0xB7>	0
<0xB8>	0
<0xB9>	0
<0xBA>	0
<0xBB>	0
<0xBC>	0
<0xBD>	0
<0xBE>	0
<0xBF>	0
<0xC0>	0
<0xC1>	0
<0xC2>	0
<0xC3>	0
<0xC4>	0
<0xC5>	0
<0xC6>	0
<0xC7>	0
<0xC8>	0
<0xC9>	0
<0xCA>	0
<0xCB>	0
<0xCC>	0
<0xCD>	0
<0xCE>	0
<0xCF>	0
<0xD0>	0
<0xD1>	0
<0xD2>	0
<0xD3>	0
<0xD4>	0
<0xD5>	0
<0xD6>	0
<0xD7>	0
<0xD8>	0
<0xD9>	0
<0xDA>	0
<0xDB>	0
<0xDC>	0
<0xDD>	0
<0xDE>	0
<0xDF>	0
<0xE0>	0
<0xE1>	0
<0xE2>	0
<0xE3>	0
<0xE4>	0
<0xE5>	0
<0xE6>	0
<0xE7>	0
<0xE8>	0
<0xE9>	0
<0xEA>	0
<0xEB>	0
<0xEC>	0
<0xED>	0
<0xEE>	0
<0xEF>	0
<0xF0>	0
<0xF1>	0
<0xF2>	0
<0xF3>	0
<0xF4>	0
<0xF5>	0
<0xF6>	0
<0xF7>	0
<0xF8>	0
<0xF9>	0
<0xFA>	0
<0xFB>	0
<0xFC>	0
<0xFD>	0
<0xFE>	0
<0xFF>	0
▁t	-0
▁a	-1
in	-2
he	-3
re	-4
on	-5
▁the	-6
er	-7
▁s	-8
▁w	-9
▁o	-10
at	-11
nd	-12
▁c	-13
it	-14
ou	-15
or	-16
es	-17
▁f	-18
is	-19
en	-20
ing	-21
▁b	-22
▁p	-23
an	-24
▁to	-25
al	-26
ed	-27
▁m	-28
▁and	-29
ar	-30
▁in	-31
▁of	-32
▁d	-33
ic	-34
le	-35
om	-36
▁h	-37
ion	-38
as	-39
▁th	-40
.
	-41
ll	-42
▁y	-43
▁l	-44
ent	-45
ve	-46
ro	-47
▁e	-48
▁re	-49
st	-50
▁you	-51
▁n	-52
ct	-53
▁g	-54
ly	-55
et	-56
▁I	-57
▁is	-58
▁T	-59
▁for	-60
▁be	-61
ut	-62
▁on	-63
ot	-64
id	-65
ur	-66
▁S	-67
ow	-68
ay	-69
us	-70
ce	-71
▁C	-72
ig	-73
▁A	-74
im	-75
ra	-76
ch	-77
ith	-78
ver	-79
il	-80
ation	-81
▁st	-82
▁that	-83
ol	-84
▁with	-85
ad	-86
am	-87
ir	-88
▁it	-89
se	-90
▁we	-91
▁M	-92
ill	-93
▁an	-94
▁pro	-95
▁as	-96
ers	-97
▁are	-98
▁he	-99
▁P	-100
▁wh	-101
un	-102
if	-103
▁B	-104
ke	-105
ge	-106
▁ha	-107
ter	-108
▁or	-109
▁con	-110
▁W	-111
oo	-112
ess	-113
ul	-114
▁com	-115
pp	-116
ate	-117
her	-118
▁your	-119
▁The	-120
est	-121
ment	-122
ab	-123
ld	-124
▁at	-125
▁de	-126
▁se	-127
ck	-128
▁mo	-129
▁H	-130
ri	-131
▁D	-132
▁ex	-133
▁ne	-134
rom	-135
igh	-136
▁F	-137
pe	-138
qu	-139
ort	-140
ure	-141
ist	-142
ant	-143
▁v	-144
ity	-145
▁R	-146
▁have	-147
ive	-148
▁can	-149
art	-150
ust	-151
um	-152
▁was	-153
▁L	-154
op	-155
▁us	-156
▁from	-157
▁this	-158
ain	-159
em	-160
th	-161
▁al	-162
▁r	-163
▁sh	-164
▁(	-165
▁G	-166
▁ch	-167
▁will	-168
ies	-169
el	-170
▁E	-171
os	-172
▁by	-173
nt	-174
▁su	-175
▁not	-176
and	-177
▁N	-178
▁u	-179
ome	-180
all	-181
ight	-182
res	-183
ard	-184
▁le	-185
ud	-186
out	-187
▁O	-188
▁wor	-189
ie	-190
our	-191
▁do	-192
▁ab	-193
iv	-194
▁pl	-195
ial	-196
▁all	-197
ide	-198
red	-199
ould	-200
te	-201
per	-202
rou	-203
gh	-204
ine	-205
▁so	-206
▁ma	-207
▁j	-208
age	-209
▁comp	-210
fe	-211
ice	-212
ast	-213
▁k	-214
ear	-215
ally	-216
▁has	-217
▁ad	-218
pt	-219
king	-220
lo	-221
ction	-222
▁whe	-223
ag	-224
able	-225
▁en	-226
ac	-227
▁me	-228
ind	-229
so	-230
ther	-231
▁but	-232
ack	-233
▁J	-234
▁our	-235
▁out	-236
ip	-237
ich	-238
▁up	-239
are	-240
od	-241
ite	-242
The	-243
very	-244
one	-245
▁lo	-246
ry	-247
▁more	-248
▁their	-249
cc	-250
ated	-251
▁Th	-252
ime	-253
▁te	-254
ood	-255
du	-256
▁U	-257
ong	-258
▁they	-259
▁im	-260
iz	-261
ore	-262
for	-263
ous	-264
▁my	-265
▁one	-266
ks	-267
▁cont	-268
ans	-269
ance	-270
▁In	-271
ike	-272
▁cl	-273
ib	-274
▁man	-275
▁fe	-276
ign	-277
ions	-278
ost	-279
▁un	-280
▁inc	-281
▁about	-282
ru	-283
act	-284
reat	-285
▁app	-286
▁res	-287
ire	-288
▁qu	-289
▁which	-290
ase	-291
ult	-292
▁Y	-293
ail	-294
ace	-295
ia	-296
erv	-297
ations	-298
▁per	-299
ree	-300
▁also	-301
▁off	-302
og	-303
▁time	-304
▁go	-305
▁any	-306
▁who	-307
ap	-308
to	-309
ne	-310
▁other	-311
ach	-312
ame	-313
ass	-314
▁K	-315
▁sp	-316
ber	-317
form	-318
ile	-319
vel	-320
..	-321
▁get	-322
ven	-323
ep	-324
▁year	-325
ays	-326
ical	-327
ary	-328
▁It	-329
ount	-330
▁some	-331
▁like	-332
ff	-333
▁dis	-334
ook	-335
▁part	-336
ue	-337
▁new	-338
ence	-339
▁sa	-340
ents	-341
now	-342
▁ta	-343
▁V	-344
▁them	-345
▁tra	-346
ition	-347
ub	-348
▁need	-349
ick	-350
▁We	-351
ings	-352
ors	-353
▁St	-354
▁his	-355
ress	-356
pl	-357
▁over	-358
ark	-359
ond	-360
▁ro	-361
▁spe	-362
▁ar	-363
cial	-364
▁Ch	-365
▁when	-366
▁if	-367
▁rec	-368
▁sc	-369
▁there	-370
▁been	-371
▁co	-372
▁pe	-373
▁imp	-374
ild	-375
av	-376
▁work	-377
▁pre	-378
▁what	-379
▁ag	-380
ens	-381
ough	-382
▁des	-383
▁than	-384
▁acc	-385
▁would	-386
wn	-387
ish	-388
int	-389
ound	-390
ater	-391
▁just	-392
▁am	-393
▁“	-394
▁know	-395
ren	-396
▁how	-397
▁This	-398
own	-399
rough	-400
lp	-401
!
	-402
▁were	-403
ord	-404
▁comm	-405
▁prov	-406
▁had	-407
nder	-408
▁into	-409
ak	-410
▁bec	-411
▁help	-412
use	-413
vers	-414
lud	-415
irst	-416
▁serv	-417
lic	-418
ople	-419
▁"	-420
▁make	-421
ning	-422
ang	-423
old	-424
ory	-425
▁its	-426
▁bu	-427
▁add	-428
▁no	-429
fter	-430
▁use	-431
▁may	-432
▁pr	-433
ram	-434
▁-	-435
ces	-436
▁her	-437
rent	-438
itt	-439
▁most	-440
▁produ	-441
▁em	-442
ual	-443
▁people	-444
we	-445
?
	-446
ments	-447
ious	-448
ft	-449
ose	-450
▁tr	-451
ices	-452
les	-453
▁well	-454
▁through	-455
oc	-456
▁ind	-457
▁includ	-458
▁only	-459
cts	-460
tern	-461
▁He	-462
ily	-463
ates	-464
▁tw	-465
ull	-466
ons	-467
hed	-468
ink	-469
▁first	-470
▁every	-471
end	-472
je	-473
round	-474
▁bet	-475
▁–	-476
▁cons	-477
ise	-478
ian	-479
▁want	-480
ating	-481
▁ph	-482
▁po	-483
▁these	-484
ities	-485
▁exper	-486
ause	-487
▁You	-488
▁back	-489
▁see	-490
ade	-491
bs	-492
▁supp	-493
hen	-494
▁under	-495
iness	-496
▁col	-497
▁very	-498
mer	-499
ific	-500
▁rep	-501
▁dif	-502
amp	-503
iew	-504
oth	-505
ful	-506
li	-507
ph	-508
▁sy	-509
▁many	-510
▁act	-511
ict	-512
▁bus	-513
cess	-514
xt	-515
day	-516
ange	-517
ert	-518
▁ra	-519
▁reg	-520
lect	-521
▁good	-522
ced	-523
▁stud	-524
▁ke	-525
urn	-526
row	-527
any	-528
▁two	-529
▁great	-530
ife	-531
▁fl	-532
uch	-533
▁way	-534
▁inv	-535
ible	-536
▁she	-537
ting	-538
fore	-539
ures	-540
als	-541
▁sm	-542
sel	-543
fect	-544
▁years	-545
ility	-546
▁best	-547
iss	-548
Th	-549
ving	-550
▁dec	-551
▁rem	-552
▁should	-553
▁even	-554
▁after	-555
erson	-556
▁where	-557
ience	-558
eth	-559
ool	-560
get	-561
oy	-562
▁could	-563
▁pos	-564
ower	-565
▁own	-566
▁ent	-567
▁ev	-568
▁Re	-569
▁find	-570
ased	-571
▁then	-572
▁inst	-573
ont	-574
▁inform	-575
▁ac	-576
▁high	-577
ational	-578
ular	-579
ew	-580
▁set	-581
stem	-582
▁loc	-583
ble	-584
▁start	-585
ved	-586
aw	-587
▁now	-588
▁fin	-589
velop	-590
olog	-591
▁home	-592
▁car	-593
oll	-594
▁design	-595
▁ins	-596
▁If	-597
ath	-598
uring	-599
ts	-600
rit	-601
air	-602
ward	-603
ract	-604
▁right	-605
▁down	-606
▁business	-607
▁sec	-608
line	-609
▁rel	-610
▁day	-611
▁requ	-612
▁such	-613
▁play	-614
▁much	-615
erm	-616
ics	-617
▁Wh	-618
▁gu	-619
der	-620
hes	-621
▁As	-622
its	-623
ty	-624
ative	-625
▁av	-626
ys	-627
▁don	-628
▁take	-629
▁said	-630
▁diffe	-631
▁inte	-632
gan	-633
▁att	-634
hip	-635
▁Un	-636
▁bl	-637
▁long	-638
com	-639
▁too	-640
▁che	-641
ient	-642
▁min	-643
ject	-644
pect	-645
▁read	-646
arch	-647
alth	-648
▁because	-649
ob	-650
▁exp	-651
ident	-652
arket	-653
),	-654
▁information	-655
ener	-656
▁fam	-657
▁person	-658
und	-659
up	-660
▁br	-661
ited	-662
▁used	-663
▁sim	-664
▁mon	-665
▁develop	-666
▁cre	-667
ustom	-668
▁&	-669
chn	-670
▁Com	-671
▁made	-672
▁vis	-673
▁here	-674
ec	-675
ality	-676
▁disc	-677
ell	-678
▁provid	-679
ove	-680
▁system	-681
cy	-682
io	-683
ash	-684
other	-685
▁prog	-686
▁sur	-687
chool	-688
▁Pro	-689
).	-690
▁bel	-691
▁before	-692
▁does	-693
▁ass	-694
▁show	-695
▁did	-696
▁pres	-697
▁call	-698
▁trans	-699
ied	-700
ner	-701
▁world	-702
▁being	-703
▁those	-704
ix	-705
▁wee	-706
▁end	-707
rib	-708
▁And	-709
▁comple	-710
▁eas	-711
ually	-712
ake	-713
▁life	-714
▁hand	-715
rest	-716
▁$	-717
▁For	-718
▁look	-719
▁An	-720
▁art	-721
▁each	-722
ork	-723
ric	-724
▁num	-725
▁det	-726
▁med	-727
ouse	-728
In	-729
ages	-730
way	-731
▁support	-732
▁cur	-733
▁sk	-734
arn	-735
ues	-736
▁op	-737
▁form	-738
az	-739
▁mem	-740
arm	-741
▁again	-742
kes	-743
led	-744
▁custom	-745
...	-746
▁adv	-747
ata	-748
ank	-749
ize	-750
gg	-751
ional	-752
▁different	-753
▁sub	-754
▁while	-755
ple	-756
▁around	-757
▁bo	-758
▁inter	-759
ros	-760
▁cle	-761
de	-762
ines	-763
land	-764
ci	-765
▁love	-766
▁post	-767
ives	-768
ince	-769
ather	-770
▁str	-771
▁market	-772
ason	-773
▁care	-774
ave	-775
lease	-776
▁free	-777
cept	-778
ng	-779
▁process	-780
olut	-781
▁loo	-782
▁avail	-783
▁last	-784
ale	-785
▁prof	-786
▁lead	-787
atch	-788
ves	-789
self	-790
▁really	-791
▁place	-792
▁child	-793
▁ed	-794
▁commun	-795
▁gra	-796
ctions	-797
ollow	-798
▁team	-799
▁ret	-800
▁aut	-801
ever	-802
ways	-803
ins	-804
▁techn	-805
▁program	-806
▁list	-807
ene	-808
▁ser	-809
▁Al	-810
read	-811
We	-812
▁som	-813
▁top	-814
pr	-815
▁Sh	-816
▁pur	-817
▁fun	-818
roup	-819
▁import	-820
imes	-821
▁count	-822
▁pub	-823
▁using	-824
▁cour	-825
ness	-826
irect	-827
ets	-828
▁feel	-829
riend	-830
▁him	-831
▁full	-832
▁De	-833
▁both	-834
▁lar	-835
▁think	-836
ween	-837
This	-838
▁same	-839
▁ext	-840
oun	-841
▁found	-842
ten	-843
▁available	-844
ining	-845
▁sign	-846
▁still	-847
▁service	-848
▁opt	-849
▁plan	-850
▁lot	-851
▁company	-852
view	-853
▁New	-854
ature	-855
▁though	-856
ivers	-857
▁var	-858
▁char	-859
▁going	-860
▁val	-861
ized	-862
▁between	-863
▁ide	-864
▁pol	-865
▁run	-866
▁few	-867
▁ty	-868
iqu	-869
ired	-870
ittle	-871
▁experience	-872
▁They	-873
less	-874
ars	-875
▁keep	-876
ety	-877
▁Se	-878
▁sl	-879
ov	-880
▁health	-881
ffect	-882
ants	-883
▁follow	-884
▁main	-885
▁build	-886
▁offer	-887
▁water	-888
▁small	-889
▁happ	-890
▁gener	-891
▁Ar	-892
uc	-893
ology	-894
iving	-895
▁But	-896
▁appro	-897
▁point	-898
▁cor	-899
▁poss	-900
▁allow	-901
▁month	-902
▁real	-903
▁There	-904
▁result	-905
▁pat	-906
▁So	-907
▁organ	-908
▁services	-909
▁Cl	-910
▁always	-911
ital	-912
▁open	-913
▁sure	-914
ware	-915
▁data	-916
▁ref	-917
▁partic	-918
ross	-919
▁provide	-920
aut	-921
ah	-922
▁dri	-923
▁including	-924
▁cent	-925
orth	-926
plo	-927
▁family	-928
ms	-929
▁things	-930
▁interest	-931
stand	-932
▁ob	-933
▁pri	-934
▁pay	-935
ton	-936
▁rest	-937
▁little	-938
thing	-939
erg	-940
ural	-941
▁cost	-942
▁school	-943
co	-944
▁during	-945
bers	-946
▁Ad	-947
▁come	-948
▁three	-949
▁stand	-950
▁fil	-951
▁better	-952
ically	-953
ug	-954
▁without	-955
▁must	-956
▁important	-957
▁Le	-958
ined	-959
▁.	-960
ody	-961
Wh	-962
▁friend	-963
▁iss	-964
▁int	-965
▁online	-966
▁number	-967
alk	-968
ething	-969
ists	-970
▁resp	-971
arly	-972
▁How	-973
be	-974
▁class	-975
▁def	-976
ery	-977
▁ve	-978
▁fact	-979
ield	-980
▁perform	-981
▁rece	-982
ute	-983
▁try	-984
ished	-985
▁able	-986
▁Be	-987
▁pass	-988
▁proper	-989
▁bra	-990
ling	-991
els	-992
▁say	-993
▁quest	-994
ients	-995
reen	-996
▁special	-997
▁area	-998
man	-999
▁webs	-1000
▁spec	-1001
▁contin	-1002
▁dist	-1003
ier	-1004
▁mod	-1005
▁conf	-1006
▁next	-1007
).
	-1008
▁Pl	-1009
▁proble	-1010
orts	-1011
▁level	-1012
▁conc	-1013
▁state	-1014
▁put	-1015
▁group	-1016
▁light	-1017
oney	-1018
▁give	-1019
con	-1020
▁something	-1021
ploy	-1022
au	-1023
ock	-1024
meric	-1025
▁opp	-1026
▁tri	-1027
▁access	-1028
▁big	-1029
ien	-1030
joy	-1031
att	-1032
▁On	-1033
▁Te	-1034
ared	-1035
ccess	-1036
It	-1037
▁mus	-1038
▁quality	-1039
ames	-1040
▁might	-1041
ately	-1042
▁incre	-1043
▁hard	-1044
dition	-1045
me	-1046
ertain	-1047
ention	-1048
▁another	-1049
▁room	-1050
uss	-1051
▁within	-1052
▁blo	-1053
ral	-1054
oot	-1055
ps	-1056
If	-1057
▁wr	-1058
▁let	-1059
▁eng	-1060
▁i	-1061
▁grow	-1062
▁current	-1063
▁since	-1064
ortun	-1065
▁order	-1066
ential	-1067
▁phot	-1068
▁cr	-1069
ider	-1070
▁inf	-1071
▁book	-1072
vern	-1073
▁direct	-1074
▁Ind	-1075
▁head	-1076
▁profess	-1077
ards	-1078
▁Ex	-1079
ior	-1080
▁second	-1081
▁visit	-1082
▁power	-1083
▁week	-1084
▁All	-1085
ours	-1086
▁rese	-1087
ffic	-1088
▁invest	-1089
▁old	-1090
load	-1091
▁gl	-1092
▁di	-1093
pend	-1094
▁days	-1095
▁less	-1096
eng	-1097
▁working	-1098
▁Americ	-1099
▁est	-1100
▁jo	-1101
▁addition	-1102
▁oper	-1103
rist	-1104
ruct	-1105
▁never	-1106
▁test	-1107
▁site	-1108
▁equ	-1109
▁Q	-1110
rol	-1111
rence	-1112
▁sit	-1113
▁bro	-1114
▁today	-1115
▁products	-1116
▁view	-1117
ision	-1118
ration	-1119
▁food	-1120
▁game	-1121
▁Sp	-1122
▁meet	-1123
room	-1124
ateg	-1125
▁looking	-1126
▁bre	-1127
ivid	-1128
▁She	-1129
ted	-1130
▁got	-1131
omm	-1132
orn	-1133
▁applic	-1134
oss	-1135
ium	-1136
here	-1137
gin	-1138
▁local	-1139
iversity	-1140
▁students	-1141
ense	-1142
▁enjoy	-1143
▁pract	-1144
▁intern	-1145
▁gr	-1146
▁making	-1147
▁Is	-1148
▁‘	-1149
iron	-1150
ems	-1151
▁fac	-1152
▁needs	-1153
ently	-1154
ains	-1155
▁el	-1156
▁indust	-1157
▁website	-1158
ump	-1159
pping	-1160
▁public	-1161
▁Sc	-1162
▁large	-1163
ats	-1164
▁pop	-1165
"
	-1166
ote	-1167
▁buy	-1168
ases	-1169
▁prom	-1170
▁check	-1171
agement	-1172
▁project	-1173
▁sal	-1174
▁understand	-1175
ator	-1176
▁prote	-1177
▁win	-1178
ified	-1179
cing	-1180
▁complete	-1181
▁fr	-1182
ieve	-1183
▁prev	-1184
▁To	-1185
▁children	-1186
▁impro	-1187
▁met	-1188
lection	-1189
ised	-1190
▁easy	-1191
▁product	-1192
ird	-1193
▁ca	-1194
por	-1195
ax	-1196
▁air	-1197
ability	-1198
▁event	-1199
▁At	-1200
▁present	-1201
▁unt	-1202
▁money	-1203
▁With	-1204
▁'	-1205
▁Z	-1206
orm	-1207
outh	-1208
▁change	-1209
▁creat	-1210
▁effect	-1211
▁cap	-1212
ills	-1213
▁learn	-1214
▁success	-1215
inal	-1216
illion	-1217
▁Con	-1218
ron	-1219
▁tru	-1220
▁chang	-1221
ique	-1222
▁const	-1223
▁Ph	-1224
port	-1225
ER	-1226
aterial	-1227
atter	-1228
▁course	-1229
ope	-1230
pos	-1231
▁Col	-1232
▁ann	-1233
You	-1234
▁house	-1235
▁Fr	-1236
cl	-1237
▁bas	-1238
ify	-1239
ism	-1240
▁activ	-1241
ush	-1242
ission	-1243
ott	-1244
▁turn	-1245
tend	-1246
ocus	-1247
▁away	-1248
▁case	-1249
▁law	-1250
▁conne	-1251
▁beaut	-1252
▁along	-1253
▁pain	-1254
ids	-1255
gether	-1256
▁together	-1257
ering	-1258
▁often	-1259
▁employ	-1260
bo	-1261
▁Man	-1262
ably	-1263
▁report	-1264
▁US	-1265
the	-1266
of	-1267
enef	-1268
ury	-1269
▁Bl	-1270
ode	-1271
▁When	-1272
work	-1273
itions	-1274
▁detail	-1275
▁pa	-1276
aster	-1277
▁possible	-1278
tain	-1279
▁until	-1280
pped	-1281
▁Jo	-1282
ample	-1283
ization	-1284
▁dem	-1285
▁name	-1286
utes	-1287
ret	-1288
▁create	-1289
aring	-1290
▁treat	-1291
▁sing	-1292
▁leg	-1293
▁Our	-1294
ann	-1295
▁term	-1296
let	-1297
▁par	-1298
▁vide	-1299
▁contact	-1300
med	-1301
ream	-1302
lish	-1303
ows	-1304
ina	-1305
ories	-1306
▁dev	-1307
ern	-1308
▁personal	-1309
ries	-1310
ogra	-1311
ember	-1312
▁why	-1313
cent	-1314
▁community	-1315
▁perfect	-1316
▁hist	-1317
part	-1318
icle	-1319
ex	-1320
▁dra	-1321
ered	-1322
▁beh	-1323
▁account	-1324
▁based	-1325
ising	-1326
▁times	-1327
ividual	-1328
▁material	-1329
▁hum	-1330
▁Res	-1331
▁past	-1332
▁Or	-1333
yle	-1334
side	-1335
▁la	-1336
▁benef	-1337
▁Christ	-1338
itive	-1339
▁pot	-1340
▁research	-1341
▁works	-1342
,”	-1343
min	-1344
▁having	-1345
▁Cent	-1346
▁page	-1347
iven	-1348
atures	-1349
ding	-1350
▁ask	-1351
▁kind	-1352
olution	-1353
▁include	-1354
viron	-1355
▁soft	-1356
▁What	-1357
▁four	-1358
▁side	-1359
▁mar	-1360
▁focus	-1361
ken	-1362
▁against	-1363
▁Can	-1364
▁writ	-1365
▁That	-1366
pecial	-1367
ley	-1368
▁expect	-1369
arent	-1370
ger	-1371
▁opportun	-1372
soci	-1373
aking	-1374
▁makes	-1375
▁become	-1376
ffe	-1377
▁wom	-1378
▁thing	-1379
▁sw	-1380
fer	-1381
▁night	-1382
ney	-1383
▁price	-1384
▁require	-1385
▁move	-1386
▁record	-1387
▁individual	-1388
▁done	-1389
ead	-1390
br	-1391
.,	-1392
▁line	-1393
▁clo	-1394
▁sever	-1395
ination	-1396
▁ens	-1397
▁comes	-1398
▁elect	-1399
▁tre	-1400
ived	-1401
▁means	-1402
oice	-1403
▁govern	-1404
uck	-1405
ency	-1406
ands	-1407
ready	-1408
▁mult	-1409
▁es	-1410
jor	-1411
▁Comm	-1412
ik	-1413
▁specific	-1414
▁members	-1415
hor	-1416
▁clean	-1417
▁short	-1418
▁development	-1419
▁cou	-1420
▁tem	-1421
▁quick	-1422
ured	-1423
iting	-1424
▁control	-1425
▁hot	-1426
▁live	-1427
▁review	-1428
lling	-1429
▁—	-1430
uro	-1431
As	-1432
▁word	-1433
cu	-1434
▁enough	-1435
▁educ	-1436
▁body	-1437
lement	-1438
▁lim	-1439
▁social	-1440
▁low	-1441
▁ce	-1442
▁Co	-1443
ane	-1444
anies	-1445
▁fav	-1446
▁others	-1447
▁job	-1448
▁several	-1449
▁These	-1450
▁Tr	-1451
▁God	-1452
ee	-1453
oring	-1454
▁occ	-1455
itc	-1456
uture	-1457
oint	-1458
▁across	-1459
▁certain	-1460
▁net	-1461
▁music	-1462
▁already	-1463
▁sol	-1464
aff	-1465
▁tool	-1466
▁non	-1467
▁space	-1468
!!	-1469
▁left	-1470
▁ever	-1471
▁vari	-1472
▁getting	-1473
ots	-1474
▁Eng	-1475
▁purch	-1476
vironment	-1477
▁typ	-1478
IN	-1479
▁No	-1480
▁key	-1481
▁University	-1482
▁vers	-1483
▁fund	-1484
▁install	-1485
▁My	-1486
by	-1487
▁below	-1488
▁country	-1489
▁bit	-1490
▁pack	-1491
anks	-1492
urs	-1493
▁mind	-1494
ript	-1495
▁cover	-1496
▁consider	-1497
▁Mar	-1498
rop	-1499
▁deal	-1500
▁offers	-1501
▁share	-1502
▁hig	-1503
▁hold	-1504
▁industry	-1505
▁range	-1506
conom	-1507
iful	-1508
▁major	-1509
▁redu	-1510
ances	-1511
▁Do	-1512
oose	-1513
wards	-1514
ither	-1515
ides	-1516
▁fore	-1517
alf	-1518
ged	-1519
ift	-1520
▁city	-1521
ully	-1522
urity	-1523
jects	-1524
▁far	-1525
▁compet	-1526
▁boo	-1527
aim	-1528
▁season	-1529
▁doing	-1530
inc	-1531
▁et	-1532
▁bring	-1533
▁orig	-1534
▁camp	-1535
▁companies	-1536
▁deli	-1537
▁future	-1538
▁wind	-1539
▁comb	-1540
▁Am	-1541
▁bed	-1542
▁particular	-1543
▁hours	-1544
▁expl	-1545
▁mean	-1546
▁Su	-1547
▁anal	-1548
ograph	-1549
lf	-1550
ording	-1551
▁story	-1552
urther	-1553
▁invol	-1554
ilt	-1555
▁step	-1556
▁priv	-1557
▁started	-1558
▁customers	-1559
▁Car	-1560
▁once	-1561
ai	-1562
▁recomm	-1563
▁called	-1564
most	-1565
ilities	-1566
▁pict	-1567
▁actually	-1568
▁recommend	-1569
ribut	-1570
aces	-1571
ethod	-1572
▁pie	-1573
▁problem	-1574
ners	-1575
▁brand	-1576
▁example	-1577
▁return	-1578
▁friends	-1579
urance	-1580
▁features	-1581
▁mil	-1582
ster	-1583
par	-1584
▁value	-1585
err	-1586
ctor	-1587
▁email	-1588
ape	-1589
atic	-1590
fort	-1591
▁least	-1592
ones	-1593
light	-1594
▁minutes	-1595
▁Tra	-1596
▁cut	-1597
▁ess	-1598
▁App	-1599
ino	-1600
rodu	-1601
cell	-1602
▁sum	-1603
cle	-1604
▁study	-1605
▁please	-1606
ON	-1607
▁Ro	-1608
▁technology	-1609
osed	-1610
ford	-1611
ES	-1612
▁dr	-1613
▁ris	-1614
enn	-1615
▁reason	-1616
▁didn	-1617
▁ident	-1618
▁chall	-1619
▁video	-1620
What	-1621
▁strong	-1622
▁professional	-1623
AT	-1624
bal	-1625
go	-1626
▁ste	-1627
▁super	-1628
▁amount	-1629
For	-1630
▁doesn	-1631
ply	-1632
▁exc	-1633
▁close	-1634
▁building	-1635
atural	-1636
▁field	-1637
▁begin	-1638
▁offic	-1639
▁wa	-1640
▁Intern	-1641
▁However	-1642
not	-1643
sh	-1644
▁flo	-1645
app	-1646
▁environment	-1647
▁May	-1648
▁everything	-1649
ancial	-1650
▁respons	-1651
.
“	-1652
fact	-1653
▁provides	-1654
▁results	-1655
▁stay	-1656
▁address	-1657
▁content	-1658
▁months	-1659
ource	-1660
▁cra	-1661
▁mom	-1662
▁search	-1663
arning	-1664
▁heart	-1665
▁above	-1666
▁won	-1667
▁port	-1668
▁questions	-1669
▁vol	-1670
▁Wor	-1671
▁X	-1672
▁Pr	-1673
▁discuss	-1674
ference	-1675
iod	-1676
ledge	-1677
ips	-1678
ources	-1679
▁charact	-1680
▁Serv	-1681
▁young	-1682
unch	-1683
ister	-1684
▁men	-1685
resent	-1686
▁enc	-1687
▁type	-1688
lished	-1689
osp	-1690
▁Inst	-1691
▁sound	-1692
sw	-1693
▁Sy	-1694
▁wond	-1695
▁rele	-1696
▁known	-1697
hn	-1698
idd	-1699
▁simple	-1700
cks	-1701
over	-1702
▁One	-1703
▁travel	-1704
▁training	-1705
ergy	-1706
ches	-1707
▁early	-1708
He	-1709
▁yet	-1710
▁ey	-1711
▁z	-1712
▁tax	-1713
▁property	-1714
pecially	-1715
▁tot	-1716
▁web	-1717
▁beautiful	-1718
icy	-1719
▁thought	-1720
AN	-1721
▁Comp	-1722
▁million	-1723
▁improve	-1724
ental	-1725
▁given	-1726
▁card	-1727
▁mot	-1728
▁came	-1729
ians	-1730
▁En	-1731
hers	-1732
▁Gu	-1733
resh	-1734
There	-1735
uff	-1736
▁management	-1737
▁issues	-1738
AR	-1739
▁method	-1740
▁hope	-1741
▁Med	-1742
▁cred	-1743
une	-1744
▁government	-1745
▁single	-1746
▁areas	-1747
,"	-1748
ges	-1749
iday	-1750
▁bar	-1751
ulation	-1752
▁news	-1753
ring	-1754
▁repl	-1755
▁upd	-1756
▁various	-1757
illed	-1758
▁appear	-1759
▁unique	-1760
▁took	-1761
ensive	-1762
▁econom	-1763
▁press	-1764
."
	-1765
▁cal	-1766
▁download	-1767
ibility	-1768
irm	-1769
▁due	-1770
fully	-1771
▁happen	-1772
▁experien	-1773
▁size	-1774
▁Fl	-1775
cted	-1776
book	-1777
▁Cont	-1778
ww	-1779
▁living	-1780
mber	-1781
wh	-1782
▁following	-1783
▁cult	-1784
▁says	-1785
▁whole	-1786
▁Des	-1787
.
"	-1788
asing	-1789
omes	-1790
▁required	-1791
augh	-1792
▁Euro	-1793
▁tell	-1794
rap	-1795
crib	-1796
▁,	-1797
St	-1798
eral	-1799
▁energy	-1800
▁table	-1801
▁American	-1802
ored	-1803
ufact	-1804
▁taking	-1805
▁later	-1806
ony	-1807
▁Che	-1808
▁someone	-1809
▁ant	-1810
▁idea	-1811
▁diff	-1812
▁manag	-1813
▁strateg	-1814
▁comput	-1815
▁mess	-1816
▁Ste	-1817
tt	-1818
▁front	-1819
▁aud	-1820
abor	-1821
▁common	-1822
▁whether	-1823
▁staff	-1824
acy	-1825
▁tas	-1826
▁performance	-1827
▁ele	-1828
▁dig	-1829
aps	-1830
▁tal	-1831
ests	-1832
▁period	-1833
▁media	-1834
ung	-1835
ume	-1836
▁wall	-1837
vert	-1838
▁assist	-1839
ruction	-1840
▁choose	-1841
▁designed	-1842
ogn	-1843
ler	-1844
reet	-1845
▁near	-1846
▁print	-1847
▁ensure	-1848
cer	-1849
astic	-1850
▁Ne	-1851
idence	-1852
ites	-1853
▁prob	-1854
▁exam	-1855
▁Your	-1856
urch	-1857
▁particip	-1858
ched	-1859
▁relations	-1860
▁percent	-1861
▁office	-1862
▁Fe	-1863
aur	-1864
▁among	-1865
gr	-1866
▁women	-1867
▁seen	-1868
though	-1869
lege	-1870
▁phys	-1871
▁age	-1872
▁went	-1873
An	-1874
▁select	-1875
▁effective	-1876
OR	-1877
▁customer	-1878
play	-1879
cript	-1880
irt	-1881
▁further	-1882
icult	-1883
ided	-1884
▁fre	-1885
▁five	-1886
▁extra	-1887
▁either	-1888
▁options	-1889
▁eff	-1890
▁quite	-1891
How	-1892
▁needed	-1893
imate	-1894
▁dam	-1895
▁tour	-1896
▁wide	-1897
▁break	-1898
che	-1899
lex	-1900
▁author	-1901
▁oil	-1902
▁ach	-1903
ls	-1904
▁human	-1905
▁history	-1906
▁mach	-1907
▁comfort	-1908
▁potential	-1909
▁entire	-1910
selves	-1911
rict	-1912
▁engine	-1913
▁Rep	-1914
▁necess	-1915
hing	-1916
▁host	-1917
▁believe	-1918
▁especially	-1919
come	-1920
rew	-1921
nam	-1922
▁text	-1923
▁simply	-1924
mb	-1925
▁meas	-1926
▁yourself	-1927
▁series	-1928
do	-1929
af	-1930
nov	-1931
ables	-1932
▁prep	-1933
When	-1934
▁favor	-1935
▁docu	-1936
▁United	-1937
▁City	-1938
gs	-1939
itted	-1940
▁software	-1941
▁After	-1942
inking	-1943
▁spend	-1944
▁includes	-1945
▁everyone	-1946
iously	-1947
▁financial	-1948
▁mag	-1949
▁land	-1950
▁provided	-1951
▁glo	-1952
gest	-1953
gle	-1954
pro	-1955
▁sugg	-1956
▁face	-1957
ators	-1958
▁Europe	-1959
azing	-1960
▁natural	-1961
▁popular	-1962
itchen	-1963
ication	-1964
▁style	-1965
▁ideas	-1966
▁clients	-1967
arr	-1968
▁games	-1969
ilar	-1970
On	-1971
▁miss	-1972
▁events	-1973
▁Bo	-1974
ops	-1975
aching	-1976
▁knowledge	-1977
▁claim	-1978
▁/	-1979
xim	-1980
▁color	-1981
▁question	-1982
▁moder	-1983
ille	-1984
ires	-1985
▁writing	-1986
▁white	-1987
▁systems	-1988
▁Me	-1989
▁anything	-1990
son	-1991
ball	-1992
▁fall	-1993
▁parent	-1994
▁function	-1995
▁ways	-1996
▁signific	-1997
▁black	-1998
▁clear	-1999
▁phone	-2000
▁situ	-2001
ili	-2002
▁Cal	-2003
▁etc	-2004
▁difficult	-2005
▁problems	-2006
▁half	-2007
ained	-2008
▁almost	-2009
ification	-2010
▁self	-2011
▁exist	-2012
back	-2013
ED	-2014
ze	-2015
▁soon	-2016
ued	-2017
▁John	-2018
▁init	-2019
▁Aust	-2020
▁South	-2021
▁pan	-2022
▁added	-2023
▁Count	-2024
gra	-2025
▁answ	-2026
AS	-2027
▁created	-2028
ises	-2029
▁application	-2030
roll	-2031
▁watch	-2032
▁dou	-2033
iver	-2034
▁cond	-2035
▁paper	-2036
▁sho	-2037
▁veh	-2038
yl	-2039
ief	-2040
▁foot	-2041
▁School	-2042
umb	-2043
▁details	-2044
▁likely	-2045
▁pick	-2046
▁mor	-2047
▁throughout	-2048
▁box	-2049
olutions	-2050
▁manufact	-2051
▁Min	-2052
ux	-2053
▁autom	-2054
▁however	-2055
▁seem	-2056
▁receive	-2057
pper	-2058
So	-2059
▁represent	-2060
▁road	-2061
itch	-2062
▁impact	-2063
ibr	-2064
angu	-2065
▁security	-2066
anced	-2067
▁third	-2068
▁safe	-2069
▁fit	-2070
▁red	-2071
▁send	-2072
ipment	-2073
atur	-2074
▁taken	-2075
▁deb	-2076
▁ready	-2077
▁cir	-2078
▁model	-2079
▁abs	-2080
▁feature	-2081
▁opportunity	-2082
ok	-2083
▁ago	-2084
▁regard	-2085
▁North	-2086
▁insurance	-2087
ees	-2088
▁hy	-2089
▁crit	-2090
▁wonder	-2091
time	-2092
▁fast	-2093
▁forward	-2094
vent	-2095
IS	-2096
▁consum	-2097
new	-2098
▁coll	-2099
oid	-2100
rown	-2101
▁Gra	-2102
▁relationship	-2103
▁learning	-2104
▁lat	-2105
▁Im	-2106
uge	-2107
▁track	-2108
▁Br	-2109
▁link	-2110
etimes	-2111
EN	-2112
▁position	-2113
▁accept	-2114
▁issue	-2115
▁Not	-2116
ights	-2117
elt	-2118
▁tradition	-2119
▁located	-2120
▁changes	-2121
▁National	-2122
▁users	-2123
▁bad	-2124
where	-2125
▁fail	-2126
.”	-2127
▁State	-2128
▁skin	-2129
▁risk	-2130
▁skills	-2131
▁tou	-2132
IT	-2133
▁defin	-2134
▁takes	-2135
face	-2136
▁wood	-2137
▁insp	-2138
▁determ	-2139
▁increase	-2140
▁pret	-2141
▁stra	-2142
▁mob	-2143
▁significant	-2144
▁walk	-2145
▁depend	-2146
▁party	-2147
▁treatment	-2148
▁regular	-2149
▁store	-2150
opy	-2151
▁talk	-2152
▁agree	-2153
verage	-2154
▁usually	-2155
oon	-2156
val	-2157
▁coming	-2158
▁happy	-2159
▁education	-2160
▁sales	-2161
▁estab	-2162
reme	-2163
▁currently	-2164
iple	-2165
ison	-2166
ried	-2167
▁jour	-2168
▁rather	-2169
▁kids	-2170
▁trying	-2171
▁da	-2172
▁probably	-2173
▁fire	-2174
▁else	-2175
▁film	-2176
▁outside	-2177
▁nice	-2178
▁Go	-2179
▁continue	-2180
AL	-2181
▁ut	-2182
▁del	-2183
To	-2184
▁date	-2185
▁activities	-2186
ival	-2187
▁blog	-2188
▁associ	-2189
▁matter	-2190
icro	-2191
oura	-2192
▁bott	-2193
era	-2194
▁attend	-2195
▁swe	-2196
▁cell	-2197
▁isn	-2198
▁projects	-2199
atform	-2200
▁easily	-2201
▁lay	-2202
▁sle	-2203
▁excell	-2204
▁pretty	-2205
▁struct	-2206
▁items	-2207
▁version	-2208
▁additional	-2209
▁wanted	-2210
airs	-2211
▁sent	-2212
inks	-2213
▁higher	-2214
▁built	-2215
istic	-2216
▁drive	-2217
used	-2218
▁inside	-2219
▁private	-2220
itting	-2221
▁rate	-2222
▁running	-2223
medi	-2224
▁points	-2225
▁hol	-2226
▁file	-2227
▁recogn	-2228
▁Qu	-2229
▁[	-2230
▁World	-2231
apt	-2232
▁original	-2233
▁polit	-2234
▁practice	-2235
▁user	-2236
▁infl	-2237
eter	-2238
arget	-2239
▁choice	-2240
ules	-2241
mit	-2242
▁York	-2243
▁role	-2244
head	-2245
▁image	-2246
itor	-2247
ha	-2248
IC	-2249
▁variety	-2250
▁Dis	-2251
▁Sm	-2252
▁similar	-2253
▁final	-2254
▁amazing	-2255
▁longer	-2256
aving	-2257
oud	-2258
▁Dr	-2259
▁Pe	-2260
idge	-2261
dd	-2262
▁af	-2263
AC	-2264
▁member	-2265
▁Per	-2266
▁save	-2267
▁Inc	-2268
itten	-2269
▁via	-2270
▁exact	-2271
ada	-2272
itut	-2273
▁suggest	-2274
▁action	-2275
▁growth	-2276
▁ground	-2277
▁effic	-2278
▁option	-2279
▁marketing	-2280
▁true	-2281
▁allows	-2282
▁Af	-2283
▁corre	-2284
▁stat	-2285
▁credit	-2286
▁Park	-2287
izing	-2288
▁worth	-2289
▁held	-2290
▁apply	-2291
▁Just	-2292
▁standard	-2293
▁Part	-2294
▁Ag	-2295
▁cannot	-2296
▁leave	-2297
▁character	-2298
▁received	-2299
▁modern	-2300
▁Jan	-2301
▁Some	-2302
▁total	-2303
▁official	-2304
▁cool	-2305
▁behind	-2306
▁town	-2307
rie	-2308
▁general	-2309
▁latest	-2310
▁base	-2311
▁mix	-2312
▁coun	-2313
na	-2314
▁told	-2315
▁collect	-2316
minist	-2317
▁Apr	-2318
empt	-2319
And	-2320
▁according	-2321
▁shows	-2322
▁Sec	-2323
▁loss	-2324
▁bal	-2325
▁concern	-2326
▁quickly	-2327
▁six	-2328
▁TH	-2329
ana	-2330
▁anim	-2331
▁weeks	-2332
hib	-2333
aced	-2334
▁hon	-2335
▁deg	-2336
▁x	-2337
▁prior	-2338
▁materials	-2339
oogle	-2340
▁announ	-2341
▁words	-2342
ground	-2343
action	-2344
▁stop	-2345
▁Ke	-2346
Ch	-2347
▁Tw	-2348
▁His	-2349
▁sun	-2350
▁production	-2351
put	-2352
▁providing	-2353
▁cele	-2354
erc	-2355
RE	-2356
▁Stud	-2357
▁High	-2358
▁By	-2359
▁location	-2360
▁dom	-2361
iring	-2362
▁Bar	-2363
▁recent	-2364
aging	-2365
▁bath	-2366
wor	-2367
▁included	-2368
▁neg	-2369
▁click	-2370
▁computer	-2371
▁introdu	-2372
Our	-2373
▁purchase	-2374
▁article	-2375
▁costs	-2376
▁sell	-2377
▁couple	-2378
▁Bu	-2379
▁medical	-2380
▁code	-2381
ression	-2382
ming	-2383
▁reading	-2384
pri	-2385
▁Please	-2386
▁looks	-2387
▁books	-2388
▁saf	-2389
▁kitchen	-2390
▁equipment	-2391
▁platform	-2392
▁stri	-2393
arden	-2394
▁anyone	-2395
▁respect	-2396
akes	-2397
▁worked	-2398
▁feed	-2399
▁patients	-2400
rem	-2401
▁Par	-2402
▁sens	-2403
▁Ab	-2404
▁related	-2405
ecut	-2406
aining	-2407
▁draw	-2408
▁network	-2409
▁sat	-2410
▁teac	-2411
ipe	-2412
icles	-2413
▁international	-2414
▁lives	-2415
▁States	-2416
▁request	-2417
▁programs	-2418
▁screen	-2419
▁summer	-2420
▁Center	-2421
But	-2422
▁rad	-2423
▁Pres	-2424
rs	-2425
▁ill	-2426
▁approach	-2427
▁maintain	-2428
▁Ge	-2429
▁Bra	-2430
arth	-2431
▁hair	-2432
▁upon	-2433
▁necessary	-2434
▁ability	-2435
▁Dep	-2436
▁lit	-2437
based	-2438
urg	-2439
▁langu	-2440
ese	-2441
▁recently	-2442
▁board	-2443
ublic	-2444
▁song	-2445
ox	-2446
▁Cor	-2447
just	-2448
ham	-2449
▁arri	-2450
▁#	-2451
▁tools	-2452
▁Reg	-2453
▁inde	-2454
reg	-2455
▁parts	-2456
cil	-2457
▁dest	-2458
▁stock	-2459
▁leaders	-2460
▁Now	-2461
▁fram	-2462
▁nothing	-2463
iam	-2464
▁seems	-2465
▁bud	-2466
ooking	-2467
▁rent	-2468
ceed	-2469
▁lower	-2470
▁challeng	-2471
pose	-2472
▁weight	-2473
▁policy	-2474
▁deep	-2475
▁goal	-2476
▁conditions	-2477
▁fresh	-2478
erve	-2479
▁cause	-2480
ray	-2481
▁flow	-2482
mas	-2483
▁solution	-2484
adem	-2485
▁fig	-2486
▁types	-2487
anc	-2488
▁norm	-2489
▁mov	-2490
atory	-2491
▁cam	-2492
nds	-2493
▁display	-2494
▁Air	-2495
▁UK	-2496
▁contract	-2497
hold	-2498
▁expert	-2499
orage	-2500
▁ones	-2501
▁Austral	-2502
▁Don	-2503
▁West	-2504
▁student	-2505
▁terms	-2506
▁Will	-2507
▁ple	-2508
oph	-2509
▁sche	-2510
▁favorite	-2511
▁plant	-2512
▁collection	-2513
▁cook	-2514
bor	-2515
▁highly	-2516
▁door	-2517
ky	-2518
▁meeting	-2519
▁sto	-2520
▁vi	-2521
Al	-2522
aby	-2523
▁bi	-2524
▁target	-2525
▁leading	-2526
▁sale	-2527
▁April	-2528
▁prim	-2529
▁mobile	-2530
ysis	-2531
▁solutions	-2532
▁excellent	-2533
....	-2534
▁tit	-2535
▁clos	-2536
▁While	-2537
▁cas	-2538
▁benefits	-2539
▁fa	-2540
ively	-2541
▁squ	-2542
▁County	-2543
▁moment	-2544
ters	-2545
▁trust	-2546
▁asked	-2547
▁inj	-2548
inary	-2549
sing	-2550
▁Mc	-2551
iddle	-2552
▁encoura	-2553
ached	-2554
▁match	-2555
▁arch	-2556
my	-2557
irth	-2558
▁round	-2559
▁Em	-2560
▁levels	-2561
icated	-2562
▁Off	-2563
▁plans	-2564
▁sett	-2565
lier	-2566
year	-2567
▁cand	-2568
▁chance	-2569
▁mass	-2570
▁speak	-2571
▁Wind	-2572
reng	-2573
▁helps	-2574
▁pers	-2575
▁explo	-2576
▁speed	-2577
▁gen	-2578
▁digital	-2579
▁subject	-2580
▁commer	-2581
▁gir	-2582
▁ball	-2583
iet	-2584
irit	-2585
▁sense	-2586
▁involved	-2587
//	-2588
▁national	-2589
▁Sw	-2590
ession	-2591
With	-2592
▁condition	-2593
▁cy	-2594
▁separ	-2595
▁safety	-2596
▁mount	-2597
▁itself	-2598
nal	-2599
▁immedi	-2600
▁emb	-2601
▁resources	-2602
▁...	-2603
▁smo	-2604
▁gives	-2605
▁decision	-2606
▁career	-2607
ishing	-2608
▁minim	-2609
▁daily	-2610
▁huge	-2611
ging	-2612
ension	-2613
▁morning	-2614
like	-2615
▁instead	-2616
▁rout	-2617
▁Ju	-2618
OT	-2619
▁Fin	-2620
uary	-2621
▁late	-2622
▁prices	-2623
▁piece	-2624
ples	-2625
ening	-2626
▁enter	-2627
▁Val	-2628
▁Day	-2629
itely	-2630
▁Oct	-2631
▁Art	-2632
ivity	-2633
iture	-2634
edding	-2635
▁write	-2636
sy	-2637
▁protect	-2638
▁Pol	-2639
▁directly	-2640
▁qual	-2641
cast	-2642
▁cases	-2643
▁themselves	-2644
▁lif	-2645
wood	-2646
▁restaur	-2647
▁countries	-2648
▁touch	-2649
ma	-2650
▁describ	-2651
▁Ed	-2652
▁Aut	-2653
▁furn	-2654
earch	-2655
??	-2656
▁ded	-2657
▁photos	-2658
▁images	-2659
arter	-2660
nes	-2661
▁players	-2662
▁floor	-2663
cription	-2664
▁planning	-2665
aign	-2666
▁fix	-2667
▁average	-2668
illing	-2669
hood	-2670
▁innov	-2671
▁hands	-2672
▁shall	-2673
eal	-2674
▁essential	-2675
▁ri	-2676
▁remember	-2677
▁attention	-2678
OS	-2679
▁March	-2680
▁center	-2681
▁multiple	-2682
▁written	-2683
▁cert	-2684
▁implement	-2685
gu	-2686
▁saw	-2687
▁Here	-2688
▁global	-2689
▁fully	-2690
▁legal	-2691
board	-2692
▁From	-2693
▁requirements	-2694
lim	-2695
ffects	-2696
asons	-2697
sc	-2698
▁source	-2699
▁aw	-2700
▁ear	-2701
▁except	-2702
▁interesting	-2703
OU	-2704
▁sil	-2705
▁Health	-2706
▁section	-2707
erous	-2708
▁traditional	-2709
▁parents	-2710
▁green	-2711
▁lic	-2712
▁America	-2713
▁commercial	-2714
▁Home	-2715
ondon	-2716
▁death	-2717
▁Pa	-2718
ker	-2719
▁organization	-2720
ological	-2721
avy	-2722
▁Google	-2723
▁Act	-2724
atives	-2725
▁House	-2726
://	-2727
▁document	-2728
▁trip	-2729
▁deliver	-2730
▁decided	-2731
▁Int	-2732
iding	-2733
▁regist	-2734
dule	-2735
▁completely	-2736
▁playing	-2737
▁surpr	-2738
▁extreme	-2739
▁lost	-2740
fl	-2741
▁myself	-2742
hern	-2743
▁achieve	-2744
."	-2745
▁streng	-2746
▁--	-2747
▁.
	-2748
itation	-2749
▁sn	-2750
▁reach	-2751
▁mention	-2752
▁commit	-2753
▁lab	-2754
▁consult	-2755
▁device	-2756
▁dise	-2757
▁giving	-2758
▁picture	-2759
mon	-2760
izes	-2761
▁goes	-2762
▁warm	-2763
▁glass	-2764
amb	-2765
▁obs	-2766
▁answer	-2767
▁machine	-2768
itable	-2769
onst	-2770
▁imm	-2771
▁sites	-2772
enty	-2773
AM	-2774
▁creating	-2775
aged	-2776
▁Afric	-2777
▁prevent	-2778
▁wel	-2779
hel	-2780
▁International	-2781
ude	-2782
▁client	-2783
All	-2784
▁groups	-2785
▁gradu	-2786
▁positive	-2787
▁dep	-2788
▁complex	-2789
▁prem	-2790
▁businesses	-2791
ole	-2792
vey	-2793
▁gold	-2794
ades	-2795
aves	-2796
▁attack	-2797
▁India	-2798
▁path	-2799
▁dry	-2800
▁aware	-2801
org	-2802
ought	-2803
bit	-2804
▁developed	-2805
aches	-2806
▁concept	-2807
▁Sept	-2808
▁celebr	-2809
▁Of	-2810
arant	-2811
idered	-2812
haps	-2813
▁Design	-2814
▁affect	-2815
▁More	-2816
▁successful	-2817
iff	-2818
▁bag	-2819
gy	-2820
▁English	-2821
▁interested	-2822
uel	-2823
▁condu	-2824
▁applications	-2825
verse	-2826
▁Associ	-2827
▁partners	-2828
▁profession	-2829
idents	-2830
ober	-2831
ama	-2832
▁El	-2833
▁release	-2834
su	-2835
▁June	-2836
▁Ac	-2837
wise	-2838
ilies	-2839
ties	-2840
▁TV	-2841
My	-2842
hest	-2843
ressed	-2844
▁wal	-2845
▁Her	-2846
▁cross	-2847
iction	-2848
iles	-2849
▁thinking	-2850
▁circ	-2851
▁cat	-2852
▁firm	-2853
▁Face	-2854
▁Gr	-2855
▁decor	-2856
▁budget	-2857
▁hear	-2858
▁connect	-2859
▁San	-2860
▁London	-2861
Re	-2862
▁hit	-2863
▁fine	-2864
▁Aug	-2865
▁became	-2866
▁employees	-2867
▁limited	-2868
▁towards	-2869
igation	-2870
ville	-2871
usiness	-2872
agn	-2873
enge	-2874
onse	-2875
▁correct	-2876
▁gar	-2877
▁:	-2878
ences	-2879
ara	-2880
▁places	-2881
▁sold	-2882
At	-2883
▁tick	-2884
▁consist	-2885
urb	-2886
▁avoid	-2887
▁Black	-2888
▁heat	-2889
▁campaign	-2890
isions	-2891
mission	-2892
▁Acc	-2893
▁storage	-2894
▁earn	-2895
▁vehicle	-2896
▁wish	-2897
▁wonderful	-2898
▁note	-2899
▁Christmas	-2900
--	-2901
▁fair	-2902
uses	-2903
▁block	-2904
▁offe	-2905
▁began	-2906
▁Har	-2907
▁nature	-2908
▁Mon	-2909
▁Then	-2910
▁China	-2911
▁language	-2912
▁instru	-2913
▁healthy	-2914
▁opportunities	-2915
▁dru	-2916
▁advant	-2917
▁Are	-2918
▁promot	-2919
▁fab	-2920
▁sometimes	-2921
▁construction	-2922
▁Direct	-2923
▁div	-2924
yond	-2925
▁expected	-2926
isf	-2927
▁posted	-2928
▁rev	-2929
ica	-2930
▁hour	-2931
artment	-2932
▁Mus	-2933
▁rights	-2934
▁hous	-2935
▁starting	-2936
▁depart	-2937
▁ep	-2938
▁attempt	-2939
ption	-2940
▁former	-2941
gar	-2942
▁aim	-2943
▁emerg	-2944
▁weeke	-2945
▁carry	-2946
▁copy	-2947
▁individuals	-2948
▁growing	-2949
rought	-2950
cies	-2951
▁definitely	-2952
▁organiz	-2953
▁physical	-2954
zz	-2955
ruit	-2956
▁mat	-2957
▁subst	-2958
lied	-2959
▁supply	-2960
ny	-2961
▁wrong	-2962
▁photo	-2963
▁dream	-2964
aly	-2965
▁load	-2966
isc	-2967
▁goals	-2968
▁moving	-2969
▁Germ	-2970
apan	-2971
▁Brit	-2972
▁hor	-2973
▁war	-2974
▁mother	-2975
▁Dav	-2976
▁exactly	-2977
usion	-2978
▁Feb	-2979
mm	-2980
ned	-2981
▁President	-2982
▁pictures	-2983
▁Group	-2984
▁Every	-2985
▁blood	-2986
▁considered	-2987
▁obtain	-2988
▁Net	-2989
ek	-2990
▁court	-2991
▁Red	-2992
ales	-2993
▁understanding	-2994
▁sleep	-2995
▁mid	-2996
▁cash	-2997
▁entry	-2998
▁Calif	-2999
off	-3000
▁Bro	-3001
reci	-3002
▁vac	-3003
▁farm	-3004
▁pred	-3005
EC	-3006
OM	-3007
▁prec	-3008
uth	-3009
ibly	-3010
▁object	-3011
▁Service	-3012
▁ge	-3013
▁propos	-3014
▁offering	-3015
▁eye	-3016
▁guide	-3017
▁Gl	-3018
ester	-3019
▁slow	-3020
▁gets	-3021
▁afford	-3022
vant	-3023
ashing	-3024
rast	-3025
▁purpose	-3026
▁investment	-3027
▁Sund	-3028
oming	-3029
▁influ	-3030
▁hotel	-3031
▁Coun	-3032
▁situation	-3033
▁dark	-3034
▁analysis	-3035
▁neigh	-3036
▁pattern	-3037
▁wait	-3038
▁administ	-3039
ari	-3040
▁effort	-3041
olute	-3042
▁capt	-3043
▁War	-3044
▁apart	-3045
▁Free	-3046
▁Sim	-3047
▁led	-3048
▁altern	-3049
▁spot	-3050
Be	-3051
itute	-3052
▁Also	-3053
▁January	-3054
▁exerc	-3055
▁previous	-3056
▁message	-3057
▁assess	-3058
▁convers	-3059
ornia	-3060
▁benefit	-3061
iling	-3062
▁uses	-3063
▁Ser	-3064
▁damage	-3065
▁published	-3066
pre	-3067
▁dire	-3068
▁club	-3069
orge	-3070
▁internet	-3071
▁appropri	-3072
key	-3073
raft	-3074
▁li	-3075
antly	-3076
▁Friday	-3077
▁eat	-3078
▁smart	-3079
ST	-3080
▁Most	-3081
ications	-3082
▁award	-3083
ulations	-3084
ague	-3085
ength	-3086
▁enh	-3087
alu	-3088
▁region	-3089
▁Mr	-3090
▁activity	-3091
▁ten	-3092
ederal	-3093
▁ult	-3094
▁difference	-3095
▁tele	-3096
▁birth	-3097
▁families	-3098
▁Let	-3099
▁replace	-3100
ET	-3101
▁Great	-3102
aries	-3103
▁temper	-3104
▁categ	-3105
▁bank	-3106
chan	-3107
right	-3108
▁bur	-3109
▁felt	-3110
▁easier	-3111
▁broad	-3112
One	-3113
▁Cons	-3114
▁Facebook	-3115
ography	-3116
gram	-3117
ING	-3118
pa	-3119
▁July	-3120
▁contain	-3121
▁integr	-3122
band	-3123
rences	-3124
▁shop	-3125
▁pull	-3126
▁AN	-3127
▁loved	-3128
▁analy	-3129
▁acqu	-3130
▁accom	-3131
▁serve	-3132
▁surround	-3133
▁experienced	-3134
▁roll	-3135
▁arr	-3136
▁nut	-3137
▁Char	-3138
Do	-3139
porate	-3140
▁stuff	-3141
▁pages	-3142
attle	-3143
▁Pre	-3144
ams	-3145
▁stru	-3146
▁October	-3147
cember	-3148
▁subs	-3149
▁September	-3150
▁histor	-3151
▁hosp	-3152
amed	-3153
ancy	-3154
▁Thanks	-3155
pects	-3156
▁schools	-3157
▁La	-3158
▁execut	-3159
▁fight	-3160
▁dog	-3161
▁Commun	-3162
aturday	-3163
ecause	-3164
▁offered	-3165
▁feeling	-3166
▁contribut	-3167
▁rates	-3168
ovember	-3169
zy	-3170
ett	-3171
uk	-3172
▁advice	-3173
After	-3174
▁guarant	-3175
▁sus	-3176
▁owners	-3177
▁wasn	-3178
▁paid	-3179
▁reduce	-3180
▁cab	-3181
▁Department	-3182
urt	-3183
▁behav	-3184
ded	-3185
lin	-3186
▁frequ	-3187
▁pressure	-3188
▁adult	-3189
▁California	-3190
▁King	-3191
▁spent	-3192
▁released	-3193
▁jud	-3194
▁Services	-3195
AP	-3196
EO	-3197
ato	-3198
rench	-3199
ses	-3200
▁homes	-3201
▁pool	-3202
▁stage	-3203
▁wedding	-3204
▁gift	-3205
▁response	-3206
▁viol	-3207
▁Techn	-3208
oms	-3209
oday	-3210
▁lots	-3211
word	-3212
▁political	-3213
ipping	-3214
▁Cour	-3215
▁Get	-3216
▁charge	-3217
▁Japan	-3218
▁delivery	-3219
ID	-3220
ashion	-3221
▁Gener	-3222
▁comment	-3223
▁devices	-3224
▁comfortable	-3225
place	-3226
Sh	-3227
anch	-3228
▁proced	-3229
▁active	-3230
▁overall	-3231
▁imag	-3232
error	-3233
▁gas	-3234
rial	-3235
▁gave	-3236
▁culture	-3237
▁garden	-3238
ares	-3239
ira	-3240
▁demand	-3241
▁transport	-3242
ils	-3243
▁Pat	-3244
▁adjust	-3245
ressive	-3246
▁truly	-3247
▁certainly	-3248
▁Mich	-3249
▁feet	-3250
▁basis	-3251
▁Jes	-3252
▁ing	-3253
▁mark	-3254
▁tried	-3255
▁appreci	-3256
▁IN	-3257
▁log	-3258
▁basic	-3259
LL	-3260
▁maxim	-3261
▁repair	-3262
inner	-3263
▁stories	-3264
ibrary	-3265
▁setting	-3266
▁transfer	-3267
▁regarding	-3268
pite	-3269
wide	-3270
▁compon	-3271
▁advert	-3272
ronic	-3273
▁optim	-3274
▁appoint	-3275
sp	-3276
▁Cr	-3277
▁System	-3278
house	-3279
tee	-3280
▁ver	-3281
▁join	-3282
door	-3283
▁defe	-3284
▁played	-3285
▁initial	-3286
▁First	-3287
▁trade	-3288
ffee	-3289
▁satisf	-3290
▁ter	-3291
▁manufacture	-3292
▁degree	-3293
icate	-3294
▁htt	-3295
▁baby	-3296
▁independ	-3297
▁files	-3298
arily	-3299
▁existing	-3300
▁Even	-3301
▁ideal	-3302
useum	-3303
olf	-3304
▁interview	-3305
▁effects	-3306
het	-3307
▁lack	-3308
▁highest	-3309
▁heard	-3310
formation	-3311
unt	-3312
icks	-3313
▁ble	-3314
▁weekend	-3315
itary	-3316
▁Sunday	-3317
▁beyond	-3318
aint	-3319
▁band	-3320
▁December	-3321
itect	-3322
▁distribut	-3323
PS	-3324
▁college	-3325
▁stress	-3326
▁eyes	-3327
▁aff	-3328
▁increasing	-3329
ube	-3330
▁blue	-3331
▁Prof	-3332
▁brought	-3333
▁prefer	-3334
des	-3335
▁weather	-3336
▁beginning	-3337
▁August	-3338
▁reve	-3339
▁finish	-3340
▁November	-3341
iced	-3342
vis	-3343
▁Business	-3344
▁£	-3345
▁double	-3346
asc	-3347
set	-3348
▁largest	-3349
sequ	-3350
▁boy	-3351
Ph	-3352
▁reported	-3353
▁Mod	-3354
▁Trans	-3355
▁helping	-3356
▁responsible	-3357
▁useful	-3358
change	-3359
lies	-3360
▁respond	-3361
▁Windows	-3362
▁Saturday	-3363
▁completed	-3364
ka	-3365
▁East	-3366
lock	-3367
ager	-3368
▁extend	-3369
rate	-3370
▁player	-3371
▁furniture	-3372
▁College	-3373
ida	-3374
▁Many	-3375
▁economic	-3376
▁Out	-3377
istry	-3378
idential	-3379
▁spirit	-3380
pen	-3381
▁meaning	-3382
▁creative	-3383
▁payment	-3384
▁occur	-3385
▁emot	-3386
vest	-3387
aks	-3388
▁surface	-3389
▁Whe	-3390
▁cold	-3391
oke	-3392
▁movie	-3393
▁thous	-3394
▁rock	-3395
TM	-3396
▁kn	-3397
▁unit	-3398
▁Cle	-3399
▁produce	-3400
▁Internet	-3401
▁collabor	-3402
▁accur	-3403
▁patient	-3404
umn	-3405
▁coffee	-3406
▁pet	-3407
dom	-3408
▁selection	-3409
▁dress	-3410
▁dy	-3411
iety	-3412
▁immediately	-3413
▁particularly	-3414
sych	-3415
▁annual	-3416
▁dead	-3417
That	-3418
ruary	-3419
alt	-3420
▁absolute	-3421
porary	-3422
▁straight	-3423
▁dro	-3424
▁Street	-3425
▁bedroom	-3426
▁sty	-3427
▁increased	-3428
mitted	-3429
▁finally	-3430
▁Port	-3431
▁son	-3432
enior	-3433
▁soci	-3434
▁European	-3435
▁efficient	-3436
▁strategy	-3437
▁reasons	-3438
ooks	-3439
▁reli	-3440
ault	-3441
▁relax	-3442
▁extremely	-3443
itter	-3444
▁sort	-3445
▁fell	-3446
▁bottom	-3447
▁thanks	-3448
▁cru	-3449
iques	-3450
field	-3451
▁und	-3452
▁Company	-3453
hens	-3454
body	-3455
ologies	-3456
rapy	-3457
ser	-3458
ipped	-3459
▁numbers	-3460
▁cards	-3461
▁Canada	-3462
▁associated	-3463
▁protection	-3464
▁train	-3465
▁THE	-3466
▁Law	-3467
▁brow	-3468
▁lines	-3469
etic	-3470
▁teams	-3471
hol	-3472
▁electric	-3473
▁challenge	-3474
ancing	-3475
roid	-3476
▁notice	-3477
▁Rem	-3478
erved	-3479
que	-3480
▁appropriate	-3481
▁pieces	-3482
▁hop	-3483
▁background	-3484
atically	-3485
▁Mond	-3486
▁powerful	-3487
▁clin	-3488
▁continu	-3489
▁fat	-3490
▁measure	-3491
▁Best	-3492
▁maybe	-3493
▁batter	-3494
▁candid	-3495
▁ru	-3496
bum	-3497
▁plus	-3498
▁sweet	-3499
undred	-3500
▁capital	-3501
more	-3502
▁pow	-3503
▁window	-3504
bon	-3505
▁estate	-3506
▁nation	-3507
anging	-3508
nded	-3509
ously	-3510
aling	-3511
▁cho	-3512
ened	-3513
▁changed	-3514
▁sust	-3515
▁|	-3516
▁Well	-3517
▁fant	-3518
▁normal	-3519
▁Jesus	-3520
▁doll	-3521
atever	-3522
▁states	-3523
▁cove	-3524
istics	-3525
▁turned	-3526
bert	-3527
▁disease	-3528
ris	-3529
▁nearly	-3530
▁util	-3531
▁models	-3532
usive	-3533
▁vict	-3534
tenance	-3535
▁Any	-3536
arc	-3537
▁pen	-3538
▁knew	-3539
▁church	-3540
ani	-3541
sec	-3542
▁conven	-3543
oul	-3544
▁thank	-3545
▁served	-3546
▁colle	-3547
▁structure	-3548
▁secure	-3549
▁IT	-3550
ulated	-3551
▁item	-3552
▁shown	-3553
▁demonst	-3554
venue	-3555
▁journey	-3556
oly	-3557
icip	-3558
▁button	-3559
inated	-3560
AD	-3561
Cl	-3562
▁bathroom	-3563
ders	-3564
iant	-3565
▁flav	-3566
iny	-3567
▁exhib	-3568
▁paint	-3569
▁grand	-3570
▁Up	-3571
▁steps	-3572
▁fra	-3573
▁lands	-3574
▁helped	-3575
▁Russ	-3576
aughter	-3577
estern	-3578
▁remain	-3579
▁Gold	-3580
Ex	-3581
▁evalu	-3582
▁belie	-3583
▁liter	-3584
▁vill	-3585
duc	-3586
▁Australia	-3587
coming	-3588
▁Market	-3589
▁craft	-3590
▁Indian	-3591
▁February	-3592
▁Del	-3593
▁sports	-3594
▁income	-3595
unte	-3596
▁length	-3597
▁dat	-3598
▁Pal	-3599
▁sharing	-3600
▁occas	-3601
▁science	-3602
force	-3603
inate	-3604
▁studies	-3605
▁manage	-3606
▁identify	-3607
▁wild	-3608
▁Je	-3609
esome	-3610
▁▁	-3611
▁Each	-3612
▁chem	-3613
icing	-3614
▁Good	-3615
▁methods	-3616
▁Program	-3617
▁Hot	-3618
▁expand	-3619
▁Bel	-3620
▁park	-3621
acity	-3622
▁traffic	-3623
▁rules	-3624
col	-3625
▁Inter	-3626
▁greater	-3627
▁larger	-3628
▁attract	-3629
▁princ	-3630
▁saying	-3631
▁alone	-3632
▁strength	-3633
▁established	-3634
▁institut	-3635
▁miles	-3636
▁incred	-3637
▁reports	-3638
▁requires	-3639
▁allowed	-3640
▁middle	-3641
▁remo	-3642
unk	-3643
▁wear	-3644
lands	-3645
▁wants	-3646
▁reviews	-3647
▁IS	-3648
Pro	-3649
▁ahead	-3650
▁Once	-3651
▁tips	-3652
▁advantage	-3653
ivil	-3654
▁PC	-3655
rel	-3656
▁announced	-3657
▁retail	-3658
▁Pri	-3659
▁experts	-3660
aker	-3661
▁woman	-3662
▁although	-3663
▁mill	-3664
▁Sch	-3665
▁compared	-3666
▁driving	-3667
▁race	-3668
▁title	-3669
▁bow	-3670
omen	-3671
▁professionals	-3672
▁scient	-3673
▁White	-3674
▁camera	-3675
odes	-3676
phone	-3677
inter	-3678
__	-3679
▁finished	-3680
▁Association	-3681
▁Green	-3682
▁fill	-3683
▁flex	-3684
▁jobs	-3685
order	-3686
▁peace	-3687
▁delic	-3688
▁views	-3689
▁spread	-3690
▁Spr	-3691
▁Council	-3692
eria	-3693
▁mis	-3694
▁serious	-3695
▁tag	-3696
Is	-3697
▁Web	-3698
▁aren	-3699
▁Monday	-3700
cape	-3701
rated	-3702
agram	-3703
▁Dec	-3704
▁Mac	-3705
▁graph	-3706
▁shoot	-3707
ald	-3708
▁wine	-3709
atively	-3710
▁entertain	-3711
▁organizations	-3712
▁Found	-3713
ulf	-3714
▁technical	-3715
eds	-3716
▁tur	-3717
▁moved	-3718
▁partner	-3719
▁schedule	-3720
▁connection	-3721
US	-3722
▁shopping	-3723
▁master	-3724
▁onto	-3725
▁tim	-3726
care	-3727
**	-3728
term	-3729
▁remove	-3730
ugh	-3731
▁experiences	-3732
IP	-3733
▁cleaning	-3734
well	-3735
▁Super	-3736
▁Dist	-3737
▁efforts	-3738
▁hundred	-3739
▁mechan	-3740
▁covered	-3741
".	-3742
▁strugg	-3743
▁looked	-3744
▁sand	-3745
▁owner	-3746
▁earlier	-3747
▁discount	-3748
ION	-3749
ulate	-3750
orrow	-3751
▁+	-3752
▁colors	-3753
fast	-3754
▁initi	-3755
▁slight	-3756
ounds	-3757
▁father	-3758
▁steel	-3759
ico	-3760
la	-3761
▁letter	-3762
▁Board	-3763
hips	-3764
▁standards	-3765
▁Read	-3766
▁holiday	-3767
▁born	-3768
pm	-3769
LE	-3770
▁Thank	-3771
▁evidence	-3772
These	-3773
▁roof	-3774
▁police	-3775
▁challenges	-3776
▁Since	-3777
▁Play	-3778
see	-3779
▁handle	-3780
▁friendly	-3781
▁doub	-3782
▁communication	-3783
▁Post	-3784
▁dedicated	-3785
▁task	-3786
▁update	-3787
▁stream	-3788
▁threat	-3789
itude	-3790
estival	-3791
vin	-3792
▁finding	-3793
▁Ma	-3794
▁cancer	-3795
▁vot	-3796
▁Hall	-3797
tra	-3798
▁cup	-3799
encies	-3800
▁progress	-3801
▁billion	-3802
▁surv	-3803
▁cheap	-3804
▁album	-3805
▁followed	-3806
icking	-3807
▁advanced	-3808
▁chann	-3809
▁Ir	-3810
▁heavy	-3811
▁Ass	-3812
▁critical	-3813
▁ingred	-3814
▁primary	-3815
▁excl	-3816
”,	-3817
▁Office	-3818
▁Rec	-3819
▁smooth	-3820
▁academ	-3821
▁Develop	-3822
▁Mo	-3823
reed	-3824
dy	-3825
▁cry	-3826
down	-3827
▁Other	-3828
ommod	-3829
rey	-3830
bu	-3831
▁Club	-3832
▁opening	-3833
▁guid	-3834
▁shared	-3835
ribute	-3836
▁generally	-3837
▁Educ	-3838
hy	-3839
▁explore	-3840
▁opin	-3841
▁star	-3842
▁solid	-3843
▁developing	-3844
ael	-3845
▁rooms	-3846
rig	-3847
▁matt	-3848
iment	-3849
▁winter	-3850
▁passion	-3851
▁harm	-3852
▁welcome	-3853
cel	-3854
▁perhaps	-3855
▁cast	-3856
Com	-3857
▁trou	-3858
ctors	-3859
roud	-3860
ashington	-3861
▁II	-3862
▁Tex	-3863
▁tree	-3864
▁actual	-3865
enture	-3866
mar	-3867
overed	-3868
lying	-3869
▁Down	-3870
▁hus	-3871
▁balance	-3872
▁Over	-3873
While	-3874
Now	-3875
▁teaching	-3876
▁highlight	-3877
▁contains	-3878
▁cars	-3879
enses	-3880
▁French	-3881
No	-3882
▁breat	-3883
▁ban	-3884
▁facilities	-3885
▁resist	-3886
ios	-3887
ixt	-3888
▁brain	-3889
▁loan	-3890
▁discover	-3891
▁talking	-3892
▁mission	-3893
acing	-3894
▁Govern	-3895
▁drop	-3896
▁listed	-3897
▁fear	-3898
vision	-3899
▁shape	-3900
▁seeing	-3901
orial	-3902
▁Class	-3903
▁pros	-3904
▁Year	-3905
▁himself	-3906
▁elements	-3907
▁Micro	-3908
▁guests	-3909
▁plenty	-3910
pective	-3911
▁session	-3912
▁determine	-3913
standing	-3914
▁parties	-3915
ying	-3916
▁tend	-3917
BC	-3918
MS	-3919
▁metal	-3920
▁Ant	-3921
othing	-3922
▁cit	-3923
inese	-3924
▁comments	-3925
▁audience	-3926
▁Produ	-3927
▁maintenance	-3928
▁rich	-3929
▁virt	-3930
mp	-3931
▁fashion	-3932
▁poor	-3933
▁Ins	-3934
▁incor	-3935
▁whose	-3936
aled	-3937
▁assign	-3938
▁wife	-3939
▁den	-3940
EL	-3941
imb	-3942
lines	-3943
▁haven	-3944
▁voice	-3945
▁fish	-3946
▁Management	-3947
▁Paul	-3948
▁motor	-3949
▁movement	-3950
▁keeping	-3951
”.	-3952
▁spring	-3953
▁adop	-3954
▁Church	-3955
▁values	-3956
▁refer	-3957
▁evening	-3958
▁plants	-3959
iency	-3960
▁Supp	-3961
▁learned	-3962
▁links	-3963
▁produced	-3964
▁Book	-3965
▁Why	-3966
▁buying	-3967
rote	-3968
▁shot	-3969
▁prepared	-3970
▁Research	-3971
▁therefore	-3972
▁Ob	-3973
▁testing	-3974
▁limit	-3975
ament	-3976
▁techniques	-3977
▁forms	-3978
ij	-3979
▁force	-3980
▁placed	-3981
iber	-3982
inger	-3983
▁names	-3984
▁forget	-3985
▁establish	-3986
osing	-3987
▁named	-3988
▁See	-3989
itors	-3990
▁classes	-3991
▁waste	-3992
▁statement	-3993
▁David	-3994
▁Plan	-3995
▁Flor	-3996
▁British	-3997
icine	-3998
▁fan	-3999
▁Spe	-4000
▁counter	-4001
ero	-4002
▁Washington	-4003
▁seven	-4004
ago	-4005
▁communities	-4006
▁couldn	-4007
▁properties	-4008
hop	-4009
▁quarter	-4010
azon	-4011
▁accommod	-4012
▁diet	-4013
raw	-4014
▁server	-4015
pet	-4016
▁Mor	-4017
free	-4018
▁luck	-4019
They	-4020
▁Road	-4021
▁Wed	-4022
▁presented	-4023
yn	-4024
▁designs	-4025
za	-4026
▁pray	-4027
▁biggest	-4028
▁driver	-4029
▁suff	-4030
ortunately	-4031
▁dang	-4032
▁Jack	-4033
▁eight	-4034
ston	-4035
▁population	-4036
▁Add	-4037
▁beach	-4038
▁adding	-4039
▁century	-4040
De	-4041
▁factors	-4042
inally	-4043
▁Make	-4044
▁kept	-4045
▁Court	-4046
▁competition	-4047
soft	-4048
▁station	-4049
▁relevant	-4050
▁installation	-4051
▁visitors	-4052
isation	-4053
mark	-4054
▁tom	-4055
gen	-4056
rief	-4057
rupt	-4058
using	-4059
▁Met	-4060
▁casino	-4061
▁memory	-4062
▁capacity	-4063
▁faith	-4064
ervation	-4065
▁architect	-4066
▁conference	-4067
▁gain	-4068
▁ir	-4069
▁fans	-4070
▁gone	-4071
Please	-4072
ellow	-4073
overy	-4074
▁fee	-4075
iation	-4076
▁selected	-4077
▁volunte	-4078
ado	-4079
▁cloud	-4080
▁River	-4081
▁lux	-4082
box	-4083
▁cream	-4084
icon	-4085
▁hom	-4086
▁restaurant	-4087
▁funds	-4088
CC	-4089
works	-4090
EM	-4091
▁classic	-4092
▁cabin	-4093
rehens	-4094
rael	-4095
▁wat	-4096
▁Texas	-4097
ula	-4098
▁wire	-4099
▁beauty	-4100
olate	-4101
▁advance	-4102
▁practices	-4103
▁husband	-4104
▁operations	-4105
▁remind	-4106
▁push	-4107
▁scen	-4108
▁Mem	-4109
sey	-4110
▁Bay	-4111
apter	-4112
▁smaller	-4113
ursday	-4114
OL	-4115
▁waiting	-4116
▁reflect	-4117
.)	-4118
▁status	-4119
▁bright	-4120
▁package	-4121
▁famous	-4122
▁figure	-4123
semb	-4124
▁exercise	-4125
rees	-4126
▁proud	-4127
▁workers	-4128
▁launch	-4129
nding	-4130
▁Ret	-4131
▁central	-4132
▁numerous	-4133
ym	-4134
▁helpful	-4135
▁older	-4136
top	-4137
▁gall	-4138
▁director	-4139
▁Lake	-4140
▁relig	-4141
▁ice	-4142
▁outdoor	-4143
▁transl	-4144
▁Sub	-4145
ught	-4146
..
	-4147
▁essay	-4148
▁snow	-4149
▁taste	-4150
▁unf	-4151
▁residents	-4152
▁decide	-4153
",	-4154
▁visual	-4155
text	-4156
▁coverage	-4157
▁bill	-4158
▁Dem	-4159
usher	-4160
▁mer	-4161
▁sector	-4162
unning	-4163
▁Care	-4164
▁direction	-4165
▁Sk	-4166
▁vision	-4167
▁dur	-4168
▁Mag	-4169
ails	-4170
▁expensive	-4171
▁Check	-4172
▁repe	-4173
apers	-4174
▁separate	-4175
▁economy	-4176
▁videos	-4177
▁sustain	-4178
▁score	-4179
amm	-4180
▁Institute	-4181
▁characters	-4182
▁reality	-4183
▁leader	-4184
▁dete	-4185
www	-4186
▁operating	-4187
IM	-4188
▁combination	-4189
▁micro	-4190
▁AP	-4191
ech	-4192
Pl	-4193
uesday	-4194
▁society	-4195
▁Ann	-4196
asy	-4197
▁changing	-4198
hem	-4199
fit	-4200
actions	-4201
ss	-4202
▁ran	-4203
▁passed	-4204
asure	-4205
eed	-4206
▁military	-4207
▁stick	-4208
▁colour	-4209
▁becomes	-4210
▁rare	-4211
▁sched	-4212
▁Water	-4213
▁flat	-4214
▁obv	-4215
omb	-4216
▁mist	-4217
▁artist	-4218
ocr	-4219
▁street	-4220
ads	-4221
▁investig	-4222
ocal	-4223
ented	-4224
▁becoming	-4225
▁Chinese	-4226
▁Apple	-4227
▁medium	-4228
▁beg	-4229
cket	-4230
▁arrange	-4231
▁rob	-4232
▁egg	-4233
▁fold	-4234
ota	-4235
osure	-4236
▁happens	-4237
▁valu	-4238
▁Africa	-4239
icken	-4240
▁thousands	-4241
▁drug	-4242
▁format	-4243
▁Mount	-4244
▁encourage	-4245
▁Bank	-4246
▁Sa	-4247
▁calc	-4248
▁General	-4249
▁happened	-4250
▁map	-4251
▁excited	-4252
▁Fore	-4253
▁temperature	-4254
▁veget	-4255
▁templ	-4256
▁Phot	-4257
isl	-4258
▁Av	-4259
aming	-4260
▁Vis	-4261
▁theme	-4262
▁recipe	-4263
abilities	-4264
▁core	-4265
▁multi	-4266
▁Because	-4267
▁calls	-4268
ga	-4269
▁mentioned	-4270
▁surg	-4271
▁trail	-4272
TS	-4273
ask	-4274
anta	-4275
▁Power	-4276
▁Us	-4277
▁wrote	-4278
▁disapp	-4279
ona	-4280
▁otherwise	-4281
▁Sur	-4282
RO	-4283
▁decisions	-4284
▁Sing	-4285
▁affordable	-4286
ishes	-4287
▁Find	-4288
▁processes	-4289
▁dining	-4290
▁truth	-4291
▁Cong	-4292
▁selling	-4293
▁Mart	-4294
▁Click	-4295
▁courses	-4296
▁Thursday	-4297
▁anti	-4298
▁runs	-4299
▁William	-4300
active	-4301
▁datab	-4302
nesday	-4303
▁grant	-4304
▁focused	-4305
▁Use	-4306
▁exciting	-4307
▁opened	-4308
):	-4309
▁Cam	-4310
▁plastic	-4311
▁fantastic	-4312
▁websites	-4313
▁Rock	-4314
▁fees	-4315
▁Love	-4316
▁Ange	-4317
▁connected	-4318
▁whatever	-4319
▁dinner	-4320
Un	-4321
▁doctor	-4322
itar	-4323
▁Life	-4324
▁flu	-4325
▁diagn	-4326
▁psych	-4327
▁upgra	-4328
▁maximum	-4329
▁fabric	-4330
ximately	-4331
▁sounds	-4332
▁Engine	-4333
▁Call	-4334
▁Jer	-4335
▁meant	-4336
iration	-4337
icies	-4338
▁Som	-4339
ception	-4340
gal	-4341
▁continued	-4342
▁lose	-4343
▁fem	-4344
▁documents	-4345
▁Director	-4346
▁worry	-4347
▁sea	-4348
▁bought	-4349
▁sets	-4350
▁corner	-4351
▁Although	-4352
▁menu	-4353
craft	-4354
▁chair	-4355
▁minute	-4356
▁earth	-4357
▁ST	-4358
▁desk	-4359
▁units	-4360
▁Ve	-4361
▁manager	-4362
▁rain	-4363
▁bul	-4364
▁dump	-4365
▁stone	-4366
rical	-4367
▁achie	-4368
▁Israel	-4369
▁sources	-4370
▁pair	-4371
ifts	-4372
▁recip	-4373
ternal	-4374
ship	-4375
▁remains	-4376
▁Word	-4377
▁lock	-4378
▁News	-4379
▁catch	-4380
▁markets	-4381
▁federal	-4382
▁enjoyed	-4383
▁Mary	-4384
▁windows	-4385
▁showing	-4386
▁rat	-4387
▁USA	-4388
▁Tuesday	-4389
▁artists	-4390
▁sav	-4391
▁independent	-4392
▁Christian	-4393
uce	-4394
▁spending	-4395
▁bird	-4396
ror	-4397
▁records	-4398
▁Sal	-4399
know	-4400
▁Lear	-4401
▁caused	-4402
▁president	-4403
▁absolutely	-4404
▁ingredients	-4405
▁spect	-4406
iliar	-4407
▁brother	-4408
▁agreement	-4409
▁Education	-4410
▁installed	-4411
▁Today	-4412
▁distance	-4413
▁facility	-4414
arge	-4415
▁estim	-4416
▁Trump	-4417
oman	-4418
▁novel	-4419
▁cells	-4420
▁sugar	-4421
▁Hy	-4422
Ad	-4423
▁brings	-4424
▁properly	-4425
▁Online	-4426
▁extensive	-4427
DA	-4428
▁alternative	-4429
▁frame	-4430
amily	-4431
▁daughter	-4432
emporary	-4433
▁tow	-4434
▁assistance	-4435
▁foreign	-4436
IG	-4437
▁awesome	-4438
net	-4439
uled	-4440
UR	-4441
▁knows	-4442
▁recommended	-4443
▁leadership	-4444
ferences	-4445
▁throw	-4446
▁ride	-4447
▁posts	-4448
▁south	-4449
iled	-4450
▁applied	-4451
▁Mal	-4452
▁Ty	-4453
▁OF	-4454
essions	-4455
▁Sl	-4456
▁du	-4457
▁Top	-4458
▁minimum	-4459
▁Sun	-4460
▁corporate	-4461
▁decl	-4462
▁switch	-4463
▁Island	-4464
ooper	-4465
▁adapt	-4466
▁teachers	-4467
▁animals	-4468
▁Florida	-4469
▁managed	-4470
▁panel	-4471
▁lovely	-4472
▁continues	-4473
▁impl	-4474
▁Sil	-4475
issions	-4476
ores	-4477
▁relationships	-4478
IL	-4479
obile	-4480
oe	-4481
▁princip	-4482
ructure	-4483
▁pal	-4484
▁comprehens	-4485
▁Wood	-4486
▁valid	-4487
▁majority	-4488
icians	-4489
aj	-4490
▁walking	-4491
▁sym	-4492
▁Soc	-4493
▁http	-4494
going	-4495
▁starts	-4496
▁injury	-4497
▁Child	-4498
oma	-4499
▁toward	-4500
ette	-4501
mail	-4502
▁James	-4503
▁thus	-4504
▁Lord	-4505
▁Wednesday	-4506
arrant	-4507
▁compl	-4508
▁leaves	-4509
▁Cur	-4510
▁wouldn	-4511
▁district	-4512
ocolate	-4513
▁Rich	-4514
▁config	-4515
▁express	-4516
▁transform	-4517
▁Arch	-4518
estic	-4519
▁guess	-4520
▁locations	-4521
▁updated	-4522
▁eating	-4523
▁stores	-4524
rete	-4525
▁www	-4526
▁ton	-4527
bl	-4528
▁concerns	-4529
▁fol	-4530
▁sch	-4531
▁allowing	-4532
▁detailed	-4533
▁trees	-4534
alls	-4535
▁Open	-4536
▁processing	-4537
▁leaving	-4538
▁expertise	-4539
▁dim	-4540
▁policies	-4541
Here	-4542
▁teacher	-4543
▁honest	-4544
▁operation	-4545
▁People	-4546
▁hospital	-4547
Your	-4548
vere	-4549
iers	-4550
▁Custom	-4551
tion	-4552
▁Big	-4553
inct	-4554
▁filled	-4555
▁Camp	-4556
▁automatically	-4557
▁joint	-4558
▁scale	-4559
OW	-4560
▁suitable	-4561
▁dram	-4562
yer	-4563
bed	-4564
▁thoughts	-4565
▁vehicles	-4566
leg	-4567
ampions	-4568
▁claims	-4569
outhern	-4570
▁sem	-4571
▁closed	-4572
osis	-4573
ifying	-4574
aven	-4575
▁Sum	-4576
▁presence	-4577
▁Science	-4578
▁Ev	-4579
▁seat	-4580
point	-4581
▁strategies	-4582
▁provider	-4583
▁topic	-4584
bour	-4585
▁cities	-4586
ront	-4587
▁department	-4588
▁England	-4589
▁senior	-4590
▁Vol	-4591
log	-4592
▁busy	-4593
gment	-4594
paper	-4595
▁shipping	-4596
men	-4597
▁serving	-4598
▁agency	-4599
▁football	-4600
IV	-4601
uries	-4602
reek	-4603
▁girl	-4604
▁debt	-4605
▁environmental	-4606
▁Star	-4607
▁mort	-4608
▁compar	-4609
▁typically	-4610
inating	-4611
hi	-4612
vention	-4613
▁willing	-4614
▁cart	-4615
▁funding	-4616
▁fuel	-4617
▁bon	-4618
▁van	-4619
▁crow	-4620
▁indic	-4621
▁ju	-4622
▁north	-4623
isco	-4624
▁clearly	-4625
▁Hel	-4626
▁centre	-4627
rd	-4628
▁edge	-4629
▁laun	-4630
night	-4631
▁Sol	-4632
▁favour	-4633
fol	-4634
!!
	-4635
Thanks	-4636
▁eth	-4637
rian	-4638
▁AC	-4639
▁slightly	-4640
▁rap	-4641
▁citiz	-4642
▁square	-4643
▁Foundation	-4644
state	-4645
▁practical	-4646
▁Republic	-4647
▁dial	-4648
▁Mill	-4649
▁Oh	-4650
life	-4651
▁performed	-4652
Don	-4653
▁Public	-4654
add	-4655
▁putting	-4656
PA	-4657
how	-4658
▁Elect	-4659
antic	-4660
hab	-4661
▁Amazon	-4662
▁ship	-4663
▁technologies	-4664
▁neighbor	-4665
▁drink	-4666
▁components	-4667
▁enhance	-4668
▁rid	-4669
▁prepare	-4670
▁secret	-4671
▁TO	-4672
▁Development	-4673
▁Light	-4674
▁Cap	-4675
▁responsibility	-4676
▁reliable	-4677
igence	-4678
▁generation	-4679
▁Profess	-4680
▁depending	-4681
▁interior	-4682
▁parking	-4683
▁previously	-4684
▁actions	-4685
▁approximately	-4686
fficient	-4687
ander	-4688
▁combined	-4689
azine	-4690
▁raised	-4691
▁trading	-4692
▁doors	-4693
aste	-4694
▁battery	-4695
▁accompl	-4696
▁photograph	-4697
She	-4698
▁spl	-4699
▁seek	-4700
▁Bre	-4701
▁Commission	-4702
▁delicious	-4703
uty	-4704
▁Mex	-4705
▁innovative	-4706
▁concent	-4707
illa	-4708
▁thick	-4709
▁aspects	-4710
▁importance	-4711
▁Its	-4712
▁guys	-4713
▁Sam	-4714
▁died	-4715
▁AM	-4716
osition	-4717
▁category	-4718
▁cris	-4719
▁watching	-4720
▁swim	-4721
▁internal	-4722
▁joined	-4723
▁Pet	-4724
▁lunch	-4725
osen	-4726
▁scene	-4727
ipl	-4728
▁choices	-4729
▁Whether	-4730
▁Glo	-4731
fin	-4732
▁restrict	-4733
▁sport	-4734
▁elim	-4735
▁accident	-4736
oration	-4737
rim	-4738
▁mental	-4739
▁info	-4740
▁listen	-4741
▁Rel	-4742
▁Fire	-4743
▁Beach	-4744
oles	-4745
RA	-4746
▁jump	-4747
ivered	-4748
▁deals	-4749
▁feedback	-4750
▁har	-4751
▁leads	-4752
▁quot	-4753
SS	-4754
▁Grand	-4755
▁industrial	-4756
▁fruit	-4757
▁showed	-4758
▁Hum	-4759
▁Lo	-4760
amin	-4761
▁Wall	-4762
▁ourselves	-4763
▁exchange	-4764
outs	-4765
▁Central	-4766
▁mostly	-4767
water	-4768
▁journal	-4769
rab	-4770
no	-4771
▁behavior	-4772
▁survey	-4773
rive	-4774
▁AND	-4775
▁Michael	-4776
inding	-4777
▁civil	-4778
▁error	-4779
▁depos	-4780
▁Blue	-4781
▁appears	-4782
▁Ben	-4783
▁specifically	-4784
cles	-4785
▁Jour	-4786
▁Pay	-4787
▁chemical	-4788
itness	-4789
▁Commit	-4790
▁register	-4791
▁predict	-4792
▁Their	-4793
ograp	-4794
▁brands	-4795
▁academic	-4796
▁tast	-4797
pan	-4798
▁discussion	-4799
▁manner	-4800
▁quant	-4801
nel	-4802
unction	-4803
▁Hist	-4804
▁seconds	-4805
▁described	-4806
▁anywhere	-4807
ya	-4808
▁Jew	-4809
rics	-4810
▁Have	-4811
▁laws	-4812
▁girls	-4813
.
•	-4814
▁unless	-4815
▁labor	-4816
▁reference	-4817
▁tickets	-4818
▁Mark	-4819
▁Community	-4820
LC	-4821
aser	-4822
ups	-4823
olic	-4824
▁songs	-4825
▁Music	-4826
▁committed	-4827
umin	-4828
▁species	-4829
▁prot	-4830
orthern	-4831
▁attor	-4832
mal	-4833
omet	-4834
Some	-4835
DF	-4836
▁Mot	-4837
▁articles	-4838
prise	-4839
▁controll	-4840
cean	-4841
▁anc	-4842
▁teach	-4843
▁suit	-4844
▁Roy	-4845
▁guarantee	-4846
▁Phil	-4847
poses	-4848
cohol	-4849
▁Bill	-4850
▁motiv	-4851
▁shower	-4852
▁Str	-4853
▁promote	-4854
▁Lou	-4855
▁rub	-4856
▁appeal	-4857
▁negative	-4858
▁notes	-4859
▁Tur	-4860
▁dynam	-4861
▁visiting	-4862
▁disp	-4863
▁tea	-4864
▁Mil	-4865
ini	-4866
den	-4867
ola	-4868
▁illust	-4869
▁island	-4870
known	-4871
▁ign	-4872
gn	-4873
▁Valley	-4874
lor	-4875
▁providers	-4876
▁Work	-4877
▁circum	-4878
▁comprehensive	-4879
▁ended	-4880
▁coast	-4881
▁profile	-4882
▁cultural	-4883
▁competitive	-4884
CH	-4885
▁Special	-4886
▁kid	-4887
▁conduct	-4888
▁audio	-4889
▁arm	-4890
▁unc	-4891
▁element	-4892
▁hyd	-4893
ano	-4894
▁Build	-4895
▁faster	-4896
▁Data	-4897
rain	-4898
▁Hill	-4899
▁Microsoft	-4900
▁Rob	-4901
▁During	-4902
▁der	-4903
▁context	-4904
▁familiar	-4905
▁volume	-4906
▁Thom	-4907
▁Chic	-4908
▁premium	-4909
▁adults	-4910
▁winning	-4911
▁inspired	-4912
▁confidence	-4913
▁climate	-4914
orough	-4915
▁argu	-4916
IA	-4917
▁ven	-4918
td	-4919
▁lights	-4920
▁delivered	-4921
▁Mer	-4922
▁goods	-4923
BA	-4924
▁totally	-4925
ki	-4926
▁Time	-4927
▁flowers	-4928
▁youth	-4929
NA	-4930
akers	-4931
mes	-4932
▁functions	-4933
▁instance	-4934
▁flight	-4935
eared	-4936
▁Like	-4937
win	-4938
▁Vir	-4939
▁Download	-4940
▁Main	-4941
▁IP	-4942
▁Que	-4943
▁sympt	-4944
▁accounts	-4945
▁Twitter	-4946
▁lad	-4947
▁meal	-4948
▁purposes	-4949
hent	-4950
▁emergency	-4951
apos	-4952
▁Under	-4953
rier	-4954
oor	-4955
▁plug	-4956
rastructure	-4957
▁Tor	-4958
with	-4959
▁Ide	-4960
▁shut	-4961
▁Android	-4962
▁Tem	-4963
▁CD	-4964
▁radio	-4965
▁Social	-4966
▁reput	-4967
▁participants	-4968
inations	-4969
▁Take	-4970
▁reached	-4971
▁supported	-4972
▁gather	-4973
▁library	-4974
zer	-4975
othes	-4976
▁database	-4977
▁measures	-4978
een	-4979
▁breakfast	-4980
▁chart	-4981
never	-4982
ipp	-4983
▁restaurants	-4984
▁consumers	-4985
.
-	-4986
▁beat	-4987
▁brief	-4988
▁rental	-4989
Con	-4990
press	-4991
▁missing	-4992
Phone	-4993
noon	-4994
▁Cas	-4995
▁poll	-4996
▁valuable	-4997
▁gun	-4998
▁educational	-4999
▁covers	-5000
▁despite	-5001
▁opinion	-5002
▁brown	-5003
▁asking	-5004
▁Food	-5005
cious	-5006
▁tun	-5007
▁employee	-5008
▁updates	-5009
▁eventually	-5010
▁butter	-5011
BS	-5012
▁buildings	-5013
yal	-5014
▁proceed	-5015
▁warrant	-5016
▁Society	-5017
▁District	-5018
cap	-5019
▁Bet	-5020
CA	-5021
but	-5022
▁emp	-5023
▁Sen	-5024
▁legisl	-5025
idden	-5026
▁Nor	-5027
Why	-5028
aturing	-5029
▁apps	-5030
friend	-5031
▁shap	-5032
▁Project	-5033
▁Committee	-5034
▁PM	-5035
▁rise	-5036
Ne	-5037
▁enable	-5038
▁Color	-5039
▁influence	-5040
ae	-5041
▁rule	-5042
▁nor	-5043
▁monthly	-5044
▁Academ	-5045
▁advertising	-5046
▁Government	-5047
▁boat	-5048
met	-5049
reens	-5050
▁resource	-5051
▁settings	-5052
▁Miss	-5053
▁pump	-5054
resp	-5055
▁Information	-5056
▁magn	-5057
▁spo	-5058
▁occup	-5059
liance	-5060
▁epis	-5061
▁returned	-5062
gging	-5063
onds	-5064
▁Det	-5065
Can	-5066
ilit	-5067
▁iron	-5068
▁mode	-5069
▁HD	-5070
olars	-5071
▁removed	-5072
▁feels	-5073
▁Master	-5074
▁housing	-5075
▁Real	-5076
estyle	-5077
▁introduced	-5078
▁ment	-5079
▁lighting	-5080
▁tail	-5081
▁Mad	-5082
equ	-5083
▁Back	-5084
▁approved	-5085
▁foods	-5086
▁die	-5087
olly	-5088
▁registered	-5089
▁possibly	-5090
▁Centre	-5091
▁dance	-5092
▁signed	-5093
Not	-5094
▁stret	-5095
▁trial	-5096
▁simpl	-5097
▁Ber	-5098
▁readers	-5099
what	-5100
ario	-5101
▁effectively	-5102
eless	-5103
▁hearing	-5104
oval	-5105
▁thr	-5106
By	-5107
▁ring	-5108
▁Alex	-5109
▁dogs	-5110
atin	-5111
▁coord	-5112
▁Team	-5113
ums	-5114
▁consumer	-5115
pected	-5116
▁therapy	-5117
which	-5118
▁interests	-5119
▁raise	-5120
list	-5121
▁AS	-5122
▁announce	-5123
▁Const	-5124
▁vary	-5125
▁symb	-5126
Thank	-5127
▁nav	-5128
▁paying	-5129
▁=	-5130
▁cooking	-5131
▁bike	-5132
▁fixed	-5133
▁occasion	-5134
▁>	-5135
oga	-5136
ifications	-5137
From	-5138
ownt	-5139
▁explain	-5140
umber	-5141
▁dish	-5142
▁improved	-5143
tered	-5144
roy	-5145
▁regularly	-5146
▁Matt	-5147
▁France	-5148
▁rapid	-5149
mosp	-5150
▁convenient	-5151
▁resolution	-5152
▁ap	-5153
▁Two	-5154
▁joy	-5155
▁remote	-5156
▁Div	-5157
▁sitting	-5158
▁amb	-5159
▁Museum	-5160
prene	-5161
cont	-5162
▁pin	-5163
▁vote	-5164
▁German	-5165
while	-5166
▁calling	-5167
Se	-5168
New	-5169
▁rot	-5170
▁supplies	-5171
rome	-5172
ste	-5173
▁animal	-5174
▁researc	-5175
▁salt	-5176
▁Tom	-5177
iest	-5178
▁kinds	-5179
▁Yes	-5180
▁sides	-5181
Des	-5182
▁fields	-5183
▁desire	-5184
lets	-5185
▁bringing	-5186
IR	-5187
▁UN	-5188
▁Sto	-5189
kin	-5190
▁purchased	-5191
▁appreciate	-5192
▁sizes	-5193
▁manufacturing	-5194
Ar	-5195
▁commitment	-5196
▁drivers	-5197
▁guest	-5198
▁boost	-5199
▁surgery	-5200
▁signs	-5201
reprene	-5202
▁appointment	-5203
▁Card	-5204
iner	-5205
▁engineering	-5206
rition	-5207
▁surrounding	-5208
TH	-5209
ensions	-5210
ulous	-5211
▁decre	-5212
▁Stand	-5213
ricult	-5214
▁launched	-5215
▁choo	-5216
▁construct	-5217
ician	-5218
▁realize	-5219
▁glad	-5220
▁factor	-5221
▁perfectly	-5222
▁seemed	-5223
▁cutting	-5224
▁quiet	-5225
▁Pan	-5226
iance	-5227
urban	-5228
▁examples	-5229
However	-5230
▁hundreds	-5231
▁tests	-5232
▁Technology	-5233
▁walls	-5234
▁weak	-5235
▁uns	-5236
▁saving	-5237
rip	-5238
▁chocolate	-5239
▁liqu	-5240
▁bound	-5241
▁auto	-5242
▁appearance	-5243
▁tight	-5244
phas	-5245
▁wheel	-5246
▁intell	-5247
▁Press	-5248
▁efficiency	-5249
▁manual	-5250
▁seeking	-5251
▁cheese	-5252
▁intended	-5253
zen	-5254
riage	-5255
▁grade	-5256
aught	-5257
▁dating	-5258
▁university	-5259
▁diam	-5260
▁ID	-5261
▁afternoon	-5262
▁Mel	-5263
▁Germany	-5264
▁houses	-5265
▁sam	-5266
▁greatest	-5267
▁Town	-5268
▁Carol	-5269
ius	-5270
▁obl	-5271
▁complic	-5272
▁NY	-5273
pon	-5274
▁neck	-5275
▁incredible	-5276
eper	-5277
▁topics	-5278
▁advis	-5279
▁Enter	-5280
road	-5281
▁Chicago	-5282
gl	-5283
ita	-5284
cher	-5285
ENT	-5286
▁supporting	-5287
▁doubt	-5288
▁iPhone	-5289
▁poly	-5290
▁minor	-5291
▁license	-5292
ulty	-5293
▁hire	-5294
▁accurate	-5295
▁Mass	-5296
▁knowing	-5297
isher	-5298
▁forg	-5299
▁Both	-5300
▁fo	-5301
▁recovery	-5302
▁Lim	-5303
▁Security	-5304
berg	-5305
▁NOT	-5306
▁er	-5307
▁Hol	-5308
▁circumst	-5309
▁holding	-5310
▁discovered	-5311
edy	-5312
Le	-5313
anish	-5314
▁mine	-5315
▁vs	-5316
▁YOU	-5317
▁replacement	-5318
▁instructions	-5319
▁chosen	-5320
▁Rad	-5321
▁meat	-5322
▁milk	-5323
▁teeth	-5324
▁sample	-5325
▁output	-5326
▁fly	-5327
▁electronic	-5328
ibilities	-5329
▁agent	-5330
▁monit	-5331
hetic	-5332
▁Indust	-5333
upp	-5334
adian	-5335
▁truck	-5336
▁aid	-5337
▁Who	-5338
▁lived	-5339
▁burn	-5340
▁participate	-5341
fa	-5342
van	-5343
SA	-5344
bre	-5345
▁presentation	-5346
▁creation	-5347
▁input	-5348
▁administration	-5349
▁tables	-5350
etime	-5351
▁delight	-5352
iat	-5353
odies	-5354
IF	-5355
▁ec	-5356
▁painting	-5357
alian	-5358
rag	-5359
▁@	-5360
▁*	-5361
▁route	-5362
▁clinical	-5363
▁charges	-5364
appy	-5365
▁Hotel	-5366
▁Dig	-5367
▁procedure	-5368
▁revenue	-5369
▁sessions	-5370
▁nurs	-5371
▁Show	-5372
▁chicken	-5373
▁ben	-5374
▁leather	-5375
▁atmosp	-5376
▁Mont	-5377
▁forest	-5378
▁fulf	-5379
▁confirm	-5380
▁coach	-5381
▁trained	-5382
▁Franc	-5383
▁Union	-5384
yc	-5385
▁neighborhood	-5386
▁Atl	-5387
gage	-5388
▁freed	-5389
▁causes	-5390
▁conflic	-5391
nect	-5392
▁conversation	-5393
▁guy	-5394
gged	-5395
▁sequ	-5396
weet	-5397
▁Family	-5398
▁Earth	-5399
alog	-5400
▁infrastructure	-5401
▁surf	-5402
▁birthday	-5403
▁symptoms	-5404
▁decades	-5405
▁domain	-5406
▁fle	-5407
▁ath	-5408
luding	-5409
▁Ltd	-5410
▁reduced	-5411
▁Journal	-5412
▁chain	-5413
▁assets	-5414
Acc	-5415
▁tasks	-5416
ixture	-5417
▁Old	-5418
▁agg	-5419
▁trend	-5420
▁Mach	-5421
esterday	-5422
orter	-5423
▁Fil	-5424
▁considering	-5425
iveness	-5426
▁registration	-5427
▁tough	-5428
▁perspective	-5429
▁whom	-5430
▁Long	-5431
▁Review	-5432
spe	-5433
▁contemporary	-5434
amic	-5435
▁Plus	-5436
▁bigger	-5437
▁owned	-5438
▁OR	-5439
▁sauce	-5440
▁battle	-5441
arp	-5442
Once	-5443
▁pure	-5444
Me	-5445
▁answers	-5446
imately	-5447
▁Exper	-5448
▁solar	-5449
▁Set	-5450
▁luxury	-5451
▁command	-5452
▁orders	-5453
ket	-5454
▁broken	-5455
▁Tour	-5456
▁Western	-5457
Just	-5458
▁Organ	-5459
▁Cert	-5460
▁Kore	-5461
ait	-5462
▁African	-5463
▁Bur	-5464
▁licens	-5465
▁shoes	-5466
▁plays	-5467
▁Medical	-5468
▁machines	-5469
▁icon	-5470
▁carried	-5471
burg	-5472
▁mouth	-5473
▁cop	-5474
▁upload	-5475
▁gear	-5476
hus	-5477
▁successfully	-5478
icial	-5479
▁consequ	-5480
▁bread	-5481
▁spaces	-5482
▁script	-5483
▁bowl	-5484
▁organic	-5485
▁Award	-5486
otic	-5487
▁univers	-5488
▁phil	-5489
▁significantly	-5490
▁failure	-5491
▁Lead	-5492
▁perman	-5493
uality	-5494
▁carefully	-5495
▁Di	-5496
ushed	-5497
agra	-5498
▁household	-5499
▁George	-5500
▁worldwide	-5501
”.
	-5502
▁remaining	-5503
En	-5504
loc	-5505
▁plate	-5506
nergy	-5507
▁crowd	-5508
abled	-5509
▁Congress	-5510
▁distribution	-5511
▁contra	-5512
▁Scott	-5513
uts	-5514
▁mail	-5515
▁alcohol	-5516
▁arrived	-5517
hand	-5518
▁belong	-5519
▁Gal	-5520
elines	-5521
asp	-5522
orry	-5523
▁sheet	-5524
▁dollars	-5525
▁Wal	-5526
working	-5527
ria	-5528
▁Start	-5529
erves	-5530
▁tut	-5531
▁stre	-5532
ef	-5533
▁village	-5534
umes	-5535
▁hun	-5536
▁begins	-5537
▁label	-5538
▁RE	-5539
aked	-5540
▁reb	-5541
▁officials	-5542
▁integ	-5543
▁inspiration	-5544
▁studio	-5545
▁vit	-5546
▁holds	-5547
dered	-5548
▁Last	-5549
▁Arts	-5550
▁Vict	-5551
▁excess	-5552
.
*	-5553
▁standing	-5554
▁yes	-5555
▁Smith	-5556
▁Contact	-5557
App	-5558
▁crim	-5559
▁spr	-5560
▁shares	-5561
▁writer	-5562
▁Head	-5563
▁sole	-5564
▁cake	-5565
▁hardware	-5566
▁shel	-5567
▁Da	-5568
atre	-5569
▁Hosp	-5570
OP	-5571
▁Keep	-5572
▁constantly	-5573
▁Att	-5574
▁payments	-5575
▁administr	-5576
▁Only	-5577
▁investors	-5578
Yes	-5579
▁Virgin	-5580
▁residential	-5581
▁Tre	-5582
ucle	-5583
▁renew	-5584
▁mal	-5585
▁loves	-5586
▁victim	-5587
▁emphas	-5588
▁procedures	-5589
inder	-5590
iors	-5591
▁vir	-5592
▁According	-5593
da	-5594
▁Test	-5595
▁Sand	-5596
▁Japanese	-5597
▁accepted	-5598
▁citizens	-5599
▁Lu	-5600
TA	-5601
▁supports	-5602
▁matters	-5603
▁ped	-5604
▁patterns	-5605
▁styles	-5606
▁kill	-5607
pass	-5608
▁crew	-5609
igan	-5610
▁keeps	-5611
▁treated	-5612
▁wid	-5613
▁cro	-5614
▁affected	-5615
▁Bi	-5616
eries	-5617
uration	-5618
▁improvement	-5619
▁deck	-5620
▁married	-5621
▁candidates	-5622
▁Brown	-5623
▁thread	-5624
▁CA	-5625
▁situations	-5626
anged	-5627
OC	-5628
▁League	-5629
▁messages	-5630
lla	-5631
▁Where	-5632
▁determined	-5633
▁grown	-5634
OD	-5635
olve	-5636
oti	-5637
▁awareness	-5638
poration	-5639
▁prepar	-5640
▁planned	-5641
▁agencies	-5642
arsh	-5643
istan	-5644
rum	-5645
azz	-5646
▁reasonable	-5647
▁historical	-5648
▁layer	-5649
▁exclusive	-5650
sm	-5651
▁height	-5652
▁garage	-5653
▁channel	-5654
▁Australian	-5655
▁fort	-5656
ras	-5657
▁expectations	-5658
▁Asia	-5659
▁row	-5660
iter	-5661
ilst	-5662
▁privacy	-5663
UT	-5664
▁jack	-5665
▁ur	-5666
▁assessment	-5667
▁chat	-5668
irms	-5669
▁silver	-5670
▁thorough	-5671
▁rear	-5672
▁landscape	-5673
▁ends	-5674
▁twice	-5675
▁Soft	-5676
xy	-5677
▁authent	-5678
▁eleg	-5679
▁Ham	-5680
▁submit	-5681
Sc	-5682
▁proposed	-5683
▁receiving	-5684
▁elig	-5685
▁river	-5686
inn	-5687
▁stunning	-5688
arrow	-5689
fection	-5690
▁Media	-5691
▁ticket	-5692
▁external	-5693
▁impressive	-5694
ighter	-5695
▁ON	-5696
▁Through	-5697
▁EU	-5698
▁forces	-5699
▁entertainment	-5700
▁CEO	-5701
Cont	-5702
▁Den	-5703
▁Fund	-5704
erts	-5705
▁nom	-5706
ossible	-5707
▁ease	-5708
oses	-5709
▁Global	-5710
▁mini	-5711
▁Cat	-5712
erry	-5713
▁concerned	-5714
▁prompt	-5715
▁Manager	-5716
▁degrees	-5717
▁Offic	-5718
▁Party	-5719
▁mel	-5720
▁everyday	-5721
▁mountain	-5722
▁Invest	-5723
Every	-5724
▁Aud	-5725
▁breath	-5726
▁scientific	-5727
▁featured	-5728
ora	-5729
▁employment	-5730
▁crusher	-5731
ache	-5732
race	-5733
▁skill	-5734
▁diverse	-5735
▁upper	-5736
▁involve	-5737
▁invent	-5738
▁protein	-5739
▁distinct	-5740
▁symbol	-5741
▁loans	-5742
▁frequently	-5743
▁Oper	-5744
orgeous	-5745
▁challenging	-5746
elcome	-5747
▁taught	-5748
▁accessible	-5749
▁assemb	-5750
▁Person	-5751
▁fif	-5752
▁lifestyle	-5753
▁root	-5754
▁failed	-5755
▁relatively	-5756
ushing	-5757
▁Equ	-5758
▁Los	-5759
▁innovation	-5760
▁Bud	-5761
orable	-5762
MA	-5763
▁engage	-5764
oop	-5765
▁appeared	-5766
▁meetings	-5767
▁hosting	-5768
ua	-5769
▁qualified	-5770
weight	-5771
▁searching	-5772
ificate	-5773
▁massive	-5774
▁imagine	-5775
ye	-5776
▁Bas	-5777
▁kick	-5778
▁emotional	-5779
osh	-5780
▁anx	-5781
▁Peter	-5782
▁List	-5783
▁Ill	-5784
Get	-5785
▁typical	-5786
ords	-5787
▁serves	-5788
▁bless	-5789
PR	-5790
lete	-5791
▁fourth	-5792
▁executive	-5793
▁profit	-5794
▁Lab	-5795
▁identified	-5796
▁Spring	-5797
Jo	-5798
west	-5799
▁regul	-5800
SE	-5801
▁publish	-5802
hors	-5803
▁entr	-5804
▁fro	-5805
▁Tim	-5806
▁choosing	-5807
▁destination	-5808
▁cycle	-5809
);	-5810
▁turns	-5811
▁vital	-5812
anda	-5813
rid	-5814
pes	-5815
▁recorded	-5816
▁integrated	-5817
dem	-5818
▁institutions	-5819
▁rom	-5820
LA	-5821
▁foundation	-5822
▁favourite	-5823
▁mir	-5824
▁Conference	-5825
▁Women	-5826
▁upcoming	-5827
▁stated	-5828
▁golf	-5829
▁speaking	-5830
.
(	-5831
▁default	-5832
▁outstanding	-5833
▁sac	-5834
▁scheduled	-5835
▁wealth	-5836
▁regional	-5837
▁NE	-5838
▁movies	-5839
bur	-5840
▁concrete	-5841
▁trouble	-5842
▁caught	-5843
▁yellow	-5844
▁circumstances	-5845
▁Flo	-5846
▁adventure	-5847
▁Pack	-5848
▁closer	-5849
▁flexible	-5850
▁Squ	-5851
ena	-5852
▁browser	-5853
ias	-5854
▁conver	-5855
▁king	-5856
▁pun	-5857
Are	-5858
▁syn	-5859
secut	-5860
▁moist	-5861
comes	-5862
▁Series	-5863
▁horse	-5864
igration	-5865
▁Cy	-5866
▁pregn	-5867
▁issued	-5868
▁election	-5869
anges	-5870
idays	-5871
▁conducted	-5872
▁featuring	-5873
Any	-5874
▁apartment	-5875
▁filter	-5876
▁oven	-5877
ndom	-5878
igned	-5879
SP	-5880
fortunately	-5881
intage	-5882
▁Adv	-5883
▁healthcare	-5884
▁nearby	-5885
▁noted	-5886
▁airport	-5887
asts	-5888
you	-5889
▁Gall	-5890
▁positions	-5891
▁closely	-5892
▁sou	-5893
▁acid	-5894
osite	-5895
▁rough	-5896
▁pm	-5897
CE	-5898
ially	-5899
▁Addition	-5900
▁extended	-5901
▁theory	-5902
▁gro	-5903
▁Dou	-5904
▁rail	-5905
▁savings	-5906
▁Prote	-5907
▁alle	-5908
▁nine	-5909
away	-5910
▁ang	-5911
▁MP	-5912
▁editor	-5913
▁transition	-5914
▁routine	-5915
uzz	-5916
▁cable	-5917
▁mic	-5918
▁moments	-5919
▁operate	-5920
▁dumpster	-5921
▁severe	-5922
▁depth	-5923
▁Prov	-5924
▁Festival	-5925
▁usual	-5926
▁entreprene	-5927
▁gifts	-5928
under	-5929
▁drugs	-5930
related	-5931
▁adm	-5932
▁dental	-5933
▁Minister	-5934
▁Louis	-5935
rency	-5936
▁stars	-5937
▁agents	-5938
▁Italian	-5939
▁compens	-5940
▁weap	-5941
▁Frank	-5942
▁Form	-5943
▁risks	-5944
▁mut	-5945
▁protected	-5946
▁medicine	-5947
▁tab	-5948
▁removal	-5949
▁vend	-5950
▁facilit	-5951
▁password	-5952
▁Instead	-5953
▁female	-5954
▁freedom	-5955
othe	-5956
▁objects	-5957
▁programme	-5958
▁creates	-5959
▁informed	-5960
▁template	-5961
stone	-5962
▁flag	-5963
▁missed	-5964
▁belief	-5965
aren	-5966
made	-5967
▁facing	-5968
▁Network	-5969
▁designer	-5970
itage	-5971
▁museum	-5972
ta	-5973
vi	-5974
▁certified	-5975
▁defined	-5976
▁trends	-5977
look	-5978
▁recognized	-5979
umps	-5980
▁atmosphere	-5981
liers	-5982
▁agreed	-5983
▁Academy	-5984
▁entirely	-5985
▁booking	-5986
▁advoc	-5987
endar	-5988
▁stands	-5989
osoph	-5990
▁interface	-5991
VE	-5992
▁vacation	-5993
alled	-5994
▁virtual	-5995
▁portion	-5996
▁Paris	-5997
UN	-5998
▁manufacturer	-5999
▁incl	-6000
onom	-6001
▁worse	-6002
▁arts	-6003
▁Rest	-6004
▁personally	-6005
▁technique	-6006
▁Canadian	-6007
▁Hand	-6008
▁classroom	-6009
arian	-6010
▁edition	-6011
▁researchers	-6012
▁native	-6013
▁odd	-6014
▁aspect	-6015
▁ast	-6016
▁collaboration	-6017
▁climb	-6018
▁celebrate	-6019
▁surprise	-6020
▁identity	-6021
▁engagement	-6022
aning	-6023
▁Gen	-6024
▁Full	-6025
ears	-6026
▁sister	-6027
▁diss	-6028
▁description	-6029
Sp	-6030
iked	-6031
▁random	-6032
▁kit	-6033
▁Royal	-6034
Since	-6035
▁pharm	-6036
▁contrast	-6037
▁supposed	-6038
▁Wil	-6039
▁vast	-6040
ework	-6041
acks	-6042
▁Ext	-6043
irty	-6044
▁sky	-6045
▁rank	-6046
▁cooper	-6047
▁enthus	-6048
▁Table	-6049
▁mixed	-6050
▁trig	-6051
▁clothes	-6052
▁partnership	-6053
CT	-6054
Another	-6055
▁picked	-6056
olved	-6057
▁organis	-6058
▁Maybe	-6059
▁dangerous	-6060
▁Robert	-6061
▁Those	-6062
▁Trust	-6063
▁veter	-6064
▁commission	-6065
▁returns	-6066
wing	-6067
▁regulations	-6068
▁substant	-6069
▁killed	-6070
▁witness	-6071
▁Land	-6072
▁carbon	-6073
▁retire	-6074
▁Mexico	-6075
▁equal	-6076
▁pil	-6077
▁dates	-6078
▁Room	-6079
▁capable	-6080
▁View	-6081
▁happening	-6082
Many	-6083
▁winner	-6084
▁beer	-6085
▁affili	-6086
▁ages	-6087
▁equipped	-6088
▁Cup	-6089
▁bonus	-6090
▁stopped	-6091
ala	-6092
▁Therefore	-6093
▁wearing	-6094
▁Democr	-6095
merce	-6096
▁monitor	-6097
▁Russian	-6098
REE	-6099
▁noticed	-6100
▁inches	-6101
▁Administ	-6102
▁reward	-6103
dden	-6104
Res	-6105
▁television	-6106
▁Control	-6107
cknow	-6108
▁collected	-6109
▁implementation	-6110
Let	-6111
vy	-6112
▁domestic	-6113
▁networks	-6114
▁Ul	-6115
▁wet	-6116
▁Bed	-6117
▁crucial	-6118
kers	-6119
▁lessons	-6120
▁Americans	-6121
▁deploy	-6122
▁slot	-6123
ansion	-6124
▁improving	-6125
aturally	-6126
orders	-6127
▁charged	-6128
▁normally	-6129
▁defense	-6130
cuit	-6131
▁quote	-6132
▁campus	-6133
▁banks	-6134
po	-6135
▁sad	-6136
▁organized	-6137
Ste	-6138
Bl	-6139
▁phase	-6140
owntown	-6141
▁fishing	-6142
▁draft	-6143
▁cute	-6144
▁monitoring	-6145
▁Victor	-6146
▁earned	-6147
folio	-6148
▁san	-6149
▁fitness	-6150
▁poker	-6151
▁motion	-6152
car	-6153
▁gallery	-6154
▁Energy	-6155
▁ongoing	-6156
!!!	-6157
▁talent	-6158
▁tub	-6159
▁musical	-6160
▁column	-6161
▁grew	-6162
▁tells	-6163
uine	-6164
▁param	-6165
▁increases	-6166
front	-6167
irmed	-6168
ints	-6169
▁Econom	-6170
According	-6171
Most	-6172
▁guidance	-6173
▁pleased	-6174
▁mainly	-6175
▁Human	-6176
date	-6177
▁stain	-6178
".
	-6179
▁shock	-6180
▁PR	-6181
▁Cost	-6182
▁turning	-6183
▁shops	-6184
can	-6185
▁Russia	-6186
ensity	-6187
▁unlike	-6188
▁scr	-6189
II	-6190
▁Way	-6191
yard	-6192
berry	-6193
han	-6194
▁Buy	-6195
▁transportation	-6196
abet	-6197
▁Another	-6198
▁AD	-6199
▁rein	-6200
▁apparent	-6201
oral	-6202
▁Ce	-6203
▁Bal	-6204
First	-6205
▁Before	-6206
▁attra	-6207
ideo	-6208
▁obvious	-6209
▁photograp	-6210
GB	-6211
case	-6212
Che	-6213
▁Mat	-6214
pret	-6215
▁photography	-6216
▁electrical	-6217
▁Pac	-6218
nament	-6219
▁hang	-6220
▁strategic	-6221
▁Children	-6222
▁architecture	-6223
▁Jud	-6224
▁tiny	-6225
▁Haw	-6226
real	-6227
▁sudden	-6228
▁liquid	-6229
▁expenses	-6230
▁manufacturers	-6231
▁AT	-6232
▁iP	-6233
▁urban	-6234
va	-6235
tle	-6236
▁managing	-6237
▁formed	-6238
▁tested	-6239
▁Thomas	-6240
▁CH	-6241
igr	-6242
▁ancient	-6243
cers	-6244
▁Access	-6245
▁prop	-6246
▁generate	-6247
▁boys	-6248
kins	-6249
▁accessories	-6250
▁soil	-6251
▁scholars	-6252
▁err	-6253
▁Fair	-6254
PC	-6255
otton	-6256
▁ok	-6257
▁attached	-6258
▁tiss	-6259
▁exceed	-6260
▁tap	-6261
▁workshop	-6262
▁arrest	-6263
▁grab	-6264
EE	-6265
▁films	-6266
▁unable	-6267
▁instruct	-6268
▁MA	-6269
▁hall	-6270
▁bes	-6271
▁tech	-6272
▁assum	-6273
▁Hope	-6274
▁bear	-6275
▁consistent	-6276
▁Cab	-6277
edia	-6278
▁Nov	-6279
▁Mid	-6280
▁confident	-6281
vate	-6282
ingly	-6283
▁Jose	-6284
▁tall	-6285
achel	-6286
▁Dev	-6287
▁mur	-6288
▁arg	-6289
▁sight	-6290
ban	-6291
▁sustainable	-6292
▁acknow	-6293
▁Ver	-6294
▁papers	-6295
▁printed	-6296
▁versions	-6297
▁reputation	-6298
▁yesterday	-6299
▁arrive	-6300
▁flood	-6301
▁precise	-6302
gend	-6303
▁religious	-6304
▁entered	-6305
▁Coast	-6306
▁passeng	-6307
▁platforms	-6308
uction	-6309
▁logo	-6310
yan	-6311
▁membership	-6312
▁Him	-6313
▁Middle	-6314
▁soul	-6315
▁proof	-6316
▁basket	-6317
▁lapt	-6318
VD	-6319
ppers	-6320
▁conv	-6321
▁corresp	-6322
▁bottle	-6323
▁gorgeous	-6324
▁spons	-6325
▁authority	-6326
Well	-6327
▁Pub	-6328
ca	-6329
▁Library	-6330
arks	-6331
gas	-6332
▁spiritual	-6333
▁Angeles	-6334
▁delay	-6335
▁Using	-6336
▁compr	-6337
▁grass	-6338
▁meals	-6339
▁fairly	-6340
atoes	-6341
▁Farm	-6342
▁Wild	-6343
Pre	-6344
▁disappoint	-6345
bles	-6346
▁graduate	-6347
▁Chair	-6348
▁Cond	-6349
she	-6350
enced	-6351
▁cos	-6352
resents	-6353
▁injuries	-6354
▁pill	-6355
▁Code	-6356
oston	-6357
▁je	-6358
▁whenever	-6359
▁negoti	-6360
odel	-6361
▁Er	-6362
▁MS	-6363
▁tank	-6364
▁west	-6365
▁speech	-6366
cking	-6367
profit	-6368
▁none	-6369
▁Spanish	-6370
eline	-6371
▁attorney	-6372
▁contribute	-6373
▁AR	-6374
▁Gar	-6375
▁SP	-6376
▁adds	-6377
▁Log	-6378
▁Does	-6379
writ	-6380
asant	-6381
▁flavor	-6382
▁tro	-6383
▁bags	-6384
▁Ire	-6385
owing	-6386
hew	-6387
▁Site	-6388
▁pipe	-6389
▁linked	-6390
wo	-6391
▁Opt	-6392
▁Men	-6393
▁capture	-6394
nic	-6395
▁achieved	-6396
▁Mic	-6397
▁absor	-6398
ii	-6399
▁Know	-6400
▁compare	-6401
▁stretch	-6402
▁hero	-6403
▁candidate	-6404
▁performing	-6405
▁mere	-6406
▁undert	-6407
▁Inte	-6408
."
"	-6409
ava	-6410
▁revealed	-6411
▁impossible	-6412
▁discip	-6413
▁proven	-6414
▁index	-6415
bi	-6416
▁forced	-6417
▁hur	-6418
▁mining	-6419
alle	-6420
▁telling	-6421
▁Secret	-6422
▁mixture	-6423
▁Tru	-6424
▁pod	-6425
▁Max	-6426
▁solve	-6427
▁instrument	-6428
▁Prem	-6429
▁Bath	-6430
▁Pass	-6431
▁Execut	-6432
▁Creat	-6433
Ke	-6434
▁possibility	-6435
▁folks	-6436
▁dealing	-6437
▁reporting	-6438
▁?	-6439
▁smile	-6440
▁visited	-6441
eration	-6442
illy	-6443
▁component	-6444
ading	-6445
▁clothing	-6446
▁originally	-6447
▁immediate	-6448
▁athlet	-6449
▁inch	-6450
▁fasc	-6451
▁offices	-6452
▁Saf	-6453
▁dynamic	-6454
ether	-6455
▁indeed	-6456
▁treatments	-6457
TC	-6458
▁historic	-6459
▁formal	-6460
▁listening	-6461
▁recognize	-6462
▁Sometimes	-6463
▁resulting	-6464
▁Du	-6465
▁End	-6466
Also	-6467
▁preparation	-6468
▁desired	-6469
▁filed	-6470
▁specialist	-6471
▁judge	-6472
▁Penn	-6473
▁Sar	-6474
▁investigation	-6475
▁discussed	-6476
luded	-6477
▁Jim	-6478
▁Game	-6479
▁exposure	-6480
▁dust	-6481
▁Second	-6482
terior	-6483
ingu	-6484
▁relief	-6485
▁explained	-6486
▁Key	-6487
asters	-6488
▁communications	-6489
comm	-6490
celer	-6491
astern	-6492
▁Cath	-6493
▁Disc	-6494
▁enables	-6495
▁obtained	-6496
▁letters	-6497
Qu	-6498
▁Cross	-6499
▁recipes	-6500
oh	-6501
inte	-6502
▁trave	-6503
▁smell	-6504
FL	-6505
▁thin	-6506
▁taxes	-6507
▁represents	-6508
▁Rev	-6509
▁attended	-6510
▁chief	-6511
utch	-6512
ardens	-6513
tr	-6514
▁teen	-6515
▁transp	-6516
▁invited	-6517
▁developers	-6518
build	-6519
▁Small	-6520
▁industries	-6521
etry	-6522
▁weekly	-6523
▁Instagram	-6524
ican	-6525
▁clar	-6526
▁crisis	-6527
▁guitar	-6528
▁counsel	-6529
▁suggested	-6530
▁Virginia	-6531
quality	-6532
▁Place	-6533
▁episode	-6534
▁forth	-6535
▁fellow	-6536
▁hidden	-6537
▁Times	-6538
▁Italy	-6539
▁yard	-6540
▁Digital	-6541
athe	-6542
▁officer	-6543
pat	-6544
▁pricing	-6545
▁constant	-6546
▁charm	-6547
holders	-6548
▁Sign	-6549
▁liked	-6550
▁Arab	-6551
▁committee	-6552
▁Van	-6553
icit	-6554
uclear	-6555
▁availability	-6556
elf	-6557
mary	-6558
▁Ca	-6559
ailable	-6560
▁nutrition	-6561
Or	-6562
▁authors	-6563
▁frust	-6564
▁losing	-6565
▁attractive	-6566
▁signal	-6567
▁printing	-6568
▁firms	-6569
▁Step	-6570
▁anticip	-6571
izer	-6572
▁Further	-6573
▁founded	-6574
▁powder	-6575
▁vul	-6576
▁suc	-6577
▁tack	-6578
Over	-6579
AA	-6580
▁Scot	-6581
▁hotels	-6582
▁Author	-6583
▁county	-6584
▁Webs	-6585
iano	-6586
rates	-6587
▁Live	-6588
▁rice	-6589
mond	-6590
▁seats	-6591
▁wash	-6592
▁dent	-6593
▁trick	-6594
▁Mult	-6595
▁Fort	-6596
▁Charl	-6597
▁widely	-6598
▁scan	-6599
▁incorpor	-6600
▁resistance	-6601
▁ordered	-6602
▁shift	-6603
▁Account	-6604
▁spin	-6605
Te	-6606
▁Federal	-6607
hire	-6608
▁Hospital	-6609
MP	-6610
▁empt	-6611
▁extension	-6612
stra	-6613
iece	-6614
▁finance	-6615
’,	-6616
iences	-6617
Add	-6618
▁expression	-6619
ographic	-6620
▁CO	-6621
▁superior	-6622
class	-6623
▁Systems	-6624
▁drawing	-6625
▁bond	-6626
bra	-6627
▁jew	-6628
reate	-6629
▁replaced	-6630
▁ultimate	-6631
▁brill	-6632
ura	-6633
▁planet	-6634
▁Chief	-6635
▁Jul	-6636
▁figures	-6637
▁surprised	-6638
▁Georg	-6639
▁festival	-6640
Tra	-6641
agon	-6642
▁Loc	-6643
▁Next	-6644
▁magazine	-6645
▁codes	-6646
▁LED	-6647
▁Follow	-6648
ogue	-6649
▁cerem	-6650
agues	-6651
Last	-6652
▁Point	-6653
▁recording	-6654
▁differences	-6655
▁Carolina	-6656
▁guard	-6657
▁border	-6658
neys	-6659
▁illness	-6660
▁ther	-6661
SC	-6662
▁communicate	-6663
rations	-6664
▁flower	-6665
▁awarded	-6666
plete	-6667
oured	-6668
▁Applic	-6669
▁sufficient	-6670
▁marriage	-6671
erning	-6672
quir	-6673
omin	-6674
▁seriously	-6675
oty	-6676
▁Support	-6677
▁Tri	-6678
▁boxes	-6679
▁susp	-6680
▁wra	-6681
▁capabilities	-6682
▁realized	-6683
lements	-6684
▁Ireland	-6685
▁prove	-6686
▁depends	-6687
▁Obama	-6688
▁satisfaction	-6689
▁Es	-6690
▁handling	-6691
▁Boston	-6692
▁narrow	-6693
▁rig	-6694
▁tooth	-6695
cover	-6696
Press	-6697
▁Bible	-6698
▁Chris	-6699
GE	-6700
▁memories	-6701
▁reducing	-6702
▁Zeal	-6703
▁Term	-6704
▁describe	-6705
?”	-6706
friendly	-6707
▁Vill	-6708
▁eligible	-6709
Click	-6710
▁ultimately	-6711
▁carpet	-6712
itution	-6713
isk	-6714
▁permanent	-6715
▁purchasing	-6716
▁Ok	-6717
▁genuine	-6718
▁criminal	-6719
lessly	-6720
▁contest	-6721
▁accomplish	-6722
▁passing	-6723
▁Insurance	-6724
iders	-6725
▁inn	-6726
▁Kitchen	-6727
▁portfolio	-6728
▁ensuring	-6729
level	-6730
ev	-6731
ifies	-6732
lymp	-6733
▁bodies	-6734
▁healing	-6735
▁Ep	-6736
▁sick	-6737
▁DC	-6738
▁flour	-6739
▁primarily	-6740
ran	-6741
▁bridge	-6742
▁amounts	-6743
▁Ideas	-6744
▁Note	-6745
▁Assist	-6746
▁decade	-6747
▁saved	-6748
▁millions	-6749
worth	-6750
▁overw	-6751
▁stim	-6752
▁Students	-6753
long	-6754
▁mile	-6755
▁stored	-6756
▁muscle	-6757
▁principles	-6758
▁soph	-6759
▁officers	-6760
▁experiment	-6761
▁unex	-6762
▁ord	-6763
▁Dub	-6764
▁mortgage	-6765
site	-6766
▁Columb	-6767
▁functional	-6768
▁Bow	-6769
▁Little	-6770
▁slowly	-6771
▁chose	-6772
▁habit	-6773
bar	-6774
HS	-6775
▁honor	-6776
▁succeed	-6777
▁tomorrow	-6778
▁About	-6779
▁enterprise	-6780
▁submitted	-6781
person	-6782
▁Report	-6783
▁Shop	-6784
irts	-6785
▁Santa	-6786
Am	-6787
host	-6788
▁arms	-6789
▁Garden	-6790
▁Champions	-6791
▁lucky	-6792
▁correspond	-6793
▁insight	-6794
▁reduction	-6795
▁compliance	-6796
▁Ken	-6797
▁Mike	-6798
▁enjoying	-6799
▁duty	-6800
▁sending	-6801
▁SEO	-6802
▁Watch	-6803
▁FOR	-6804
▁consists	-6805
▁Sky	-6806
ouch	-6807
sters	-6808
▁enforce	-6809
▁attacks	-6810
▁Martin	-6811
▁involves	-6812
▁Mur	-6813
yers	-6814
▁PDF	-6815
▁facts	-6816
▁Hen	-6817
oster	-6818
▁Store	-6819
▁likes	-6820
▁compat	-6821
▁violence	-6822
▁merch	-6823
▁recommendations	-6824
inem	-6825
▁crime	-6826
▁mold	-6827
▁SU	-6828
▁shooting	-6829
rently	-6830
▁requests	-6831
▁noise	-6832
▁defend	-6833
itz	-6834
▁Id	-6835
rating	-6836
▁Zealand	-6837
▁viewed	-6838
▁contro	-6839
▁somewhere	-6840
More	-6841
▁bench	-6842
▁gent	-6843
▁streets	-6844
▁raw	-6845
▁guidelines	-6846
▁km	-6847
▁deposit	-6848
▁hospit	-6849
▁subsequ	-6850
▁stake	-6851
▁categories	-6852
▁interact	-6853
▁producing	-6854
▁referred	-6855
pons	-6856
▁zone	-6857
▁alongside	-6858
▁structures	-6859
▁rating	-6860
▁heating	-6861
▁east	-6862
▁wooden	-6863
▁Cast	-6864
▁destroy	-6865
▁chapter	-6866
▁younger	-6867
▁pink	-6868
▁estimated	-6869
▁managers	-6870
▁rose	-6871
▁Southern	-6872
▁vent	-6873
▁blend	-6874
▁writers	-6875
▁id	-6876
▁increasingly	-6877
▁Ari	-6878
▁connections	-6879
▁Beaut	-6880
▁History	-6881
df	-6882
▁Isl	-6883
▁priority	-6884
▁roles	-6885
alse	-6886
▁aside	-6887
▁vibr	-6888
▁awards	-6889
▁Bob	-6890
▁Cir	-6891
▁approval	-6892
▁Gir	-6893
▁mand	-6894
▁buyers	-6895
▁agricult	-6896
▁Engineering	-6897
▁authorities	-6898
▁incredibly	-6899
▁terror	-6900
pel	-6901
▁confirmed	-6902
▁scheme	-6903
▁Mobile	-6904
▁Executive	-6905
BI	-6906
▁enem	-6907
ulating	-6908
▁PA	-6909
▁whilst	-6910
▁eggs	-6911
▁presents	-6912
cture	-6913
▁kne	-6914
▁usage	-6915
urning	-6916
▁OS	-6917
▁tip	-6918
▁percentage	-6919
rich	-6920
▁hoping	-6921
ellect	-6922
▁Learn	-6923
▁channels	-6924
▁exhibition	-6925
▁swimming	-6926
aper	-6927
jection	-6928
▁inner	-6929
▁dispos	-6930
▁promise	-6931
ennis	-6932
▁concl	-6933
Although	-6934
ayer	-6935
▁Lin	-6936
ati	-6937
▁Win	-6938
▁elev	-6939
▁heav	-6940
▁magic	-6941
rer	-6942
▁Sports	-6943
▁legs	-6944
▁Lib	-6945
▁Coll	-6946
▁vulner	-6947
▁reader	-6948
inos	-6949
tics	-6950
▁Week	-6951
ba	-6952
stal	-6953
iser	-6954
▁packages	-6955
Ind	-6956
▁Hard	-6957
▁pursu	-6958
▁renov	-6959
stream	-6960
▁tracks	-6961
▁philosoph	-6962
▁Search	-6963
▁Boy	-6964
▁Son	-6965
▁consideration	-6966
zing	-6967
duate	-6968
▁ille	-6969
LY	-6970
then	-6971
▁seed	-6972
▁consultation	-6973
▁Living	-6974
▁nic	-6975
aniel	-6976
????	-6977
Tube	-6978
anger	-6979
iversary	-6980
▁exceptional	-6981
▁cookies	-6982
isters	-6983
stery	-6984
▁CR	-6985
▁array	-6986
▁suffering	-6987
▁engaged	-6988
phones	-6989
▁applicable	-6990
apore	-6991
zil	-6992
uling	-6993
Im	-6994
Dr	-6995
▁controls	-6996
▁struggle	-6997
▁inspe	-6998
gers	-6999
▁crazy	-7000
!!!
	-7001
▁Spirit	-7002
▁worst	-7003
▁exception	-7004
▁Games	-7005
▁remark	-7006
▁believed	-7007
▁upgrade	-7008
▁setup	-7009
Oh	-7010
LS	-7011
▁introduction	-7012
elly	-7013
▁feelings	-7014
▁comparison	-7015
▁moves	-7016
▁commonly	-7017
hops	-7018
▁withd	-7019
lder	-7020
▁transaction	-7021
▁conflict	-7022
▁Works	-7023
▁sin	-7024
▁Marketing	-7025
gor	-7026
▁causing	-7027
▁Low	-7028
▁displayed	-7029
▁framework	-7030
▁Jeff	-7031
▁Comput	-7032
unior	-7033
▁minimal	-7034
▁https	-7035
amps	-7036
bration	-7037
▁bars	-7038
▁Very	-7039
▁naturally	-7040
▁Olymp	-7041
CD	-7042
!)	-7043
▁hyp	-7044
pack	-7045
uls	-7046
▁joining	-7047
▁potentially	-7048
▁dishes	-7049
▁Sea	-7050
▁phen	-7051
▁Joe	-7052
zes	-7053
▁blocks	-7054
▁behalf	-7055
live	-7056
▁Young	-7057
▁maintaining	-7058
▁justice	-7059
▁Jersey	-7060
that	-7061
▁ads	-7062
ags	-7063
▁requirement	-7064
▁forever	-7065
▁dreams	-7066
EST	-7067
mo	-7068
▁newly	-7069
▁Michigan	-7070
▁vegetables	-7071
▁Roman	-7072
▁Enjoy	-7073
▁Try	-7074
▁sensitive	-7075
▁programming	-7076
▁suggestions	-7077
▁graphics	-7078
▁Pacific	-7079
____	-7080
▁Financial	-7081
▁flash	-7082
▁careful	-7083
▁string	-7084
nda	-7085
▁FREE	-7086
▁intent	-7087
▁synt	-7088
▁extent	-7089
ady	-7090
▁Price	-7091
▁pleasure	-7092
▁resort	-7093
▁overwhel	-7094
Then	-7095
▁faculty	-7096
▁fru	-7097
▁factory	-7098
anes	-7099
Have	-7100
▁holidays	-7101
▁Police	-7102
▁concepts	-7103
▁elegant	-7104
▁visible	-7105
CO	-7106
▁statements	-7107
▁Ball	-7108
During	-7109
▁herself	-7110
▁hole	-7111
▁unw	-7112
▁regardless	-7113
▁consumption	-7114
ogether	-7115
▁basically	-7116
▁blank	-7117
proof	-7118
▁calendar	-7119
ventional	-7120
iverse	-7121
inent	-7122
uster	-7123
▁Smart	-7124
inch	-7125
▁critic	-7126
▁regions	-7127
▁suppliers	-7128
▁wireless	-7129
▁reform	-7130
▁Proper	-7131
▁Def	-7132
▁Guide	-7133
born	-7134
▁Tit	-7135
▁scored	-7136
▁entit	-7137
▁generated	-7138
▁toile	-7139
ione	-7140
▁interpret	-7141
Man	-7142
▁birds	-7143
▁refund	-7144
▁doctors	-7145
▁blind	-7146
▁concerning	-7147
▁Having	-7148
▁yield	-7149
▁resume	-7150
▁rely	-7151
DS	-7152
elry	-7153
▁lists	-7154
▁drinking	-7155
▁prison	-7156
▁penal	-7157
▁Box	-7158
tocol	-7159
▁continuing	-7160
▁Which	-7161
Fi	-7162
▁Ha	-7163
▁venue	-7164
izza	-7165
ATION	-7166
law	-7167
ulum	-7168
▁por	-7169
▁incident	-7170
▁Wi	-7171
▁heads	-7172
AB	-7173
▁debut	-7174
ounter	-7175
▁male	-7176
ulpt	-7177
▁errors	-7178
market	-7179
▁perm	-7180
▁Travel	-7181
acious	-7182
▁samples	-7183
ht	-7184
▁pace	-7185
Today	-7186
▁applying	-7187
▁victory	-7188
▁Inf	-7189
▁covering	-7190
▁Environment	-7191
▁fighting	-7192
▁CP	-7193
▁Die	-7194
▁marks	-7195
▁humans	-7196
▁Lee	-7197
▁Disney	-7198
▁phones	-7199
▁displ	-7200
atics	-7201
▁Area	-7202
▁listing	-7203
▁Cra	-7204
▁controlled	-7205
atell	-7206
▁colours	-7207
▁<	-7208
urse	-7209
▁pra	-7210
▁chances	-7211
▁stuck	-7212
▁authentic	-7213
onto	-7214
▁shouldn	-7215
Even	-7216
▁licensed	-7217
eding	-7218
aded	-7219
▁driven	-7220
cribe	-7221
cons	-7222
▁Ohio	-7223
▁abuse	-7224
▁definition	-7225
▁Website	-7226
▁Hor	-7227
May	-7228
bridge	-7229
▁persons	-7230
Ab	-7231
▁hopes	-7232
ule	-7233
▁laugh	-7234
▁crack	-7235
▁volunteers	-7236
▁Look	-7237
▁export	-7238
▁Francisco	-7239
▁checking	-7240
▁funny	-7241
▁trim	-7242
▁Northern	-7243
Of	-7244
▁walked	-7245
▁Ut	-7246
▁Casino	-7247
▁outcomes	-7248
▁Software	-7249
▁accord	-7250
▁shots	-7251
▁recognition	-7252
▁Sn	-7253
▁Iran	-7254
▁somewhat	-7255
▁suggests	-7256
▁discl	-7257
▁dropped	-7258
including	-7259
▁preferred	-7260
igate	-7261
MC	-7262
bing	-7263
▁storm	-7264
ument	-7265
▁Phys	-7266
haust	-7267
▁combine	-7268
▁supplement	-7269
▁posting	-7270
▁surprising	-7271
RS	-7272
ystem	-7273
jo	-7274
▁?
	-7275
▁USB	-7276
essel	-7277
▁limits	-7278
▁split	-7279
ansas	-7280
▁loving	-7281
bury	-7282
▁anxiety	-7283
▁ceiling	-7284
▁lets	-7285
ml	-7286
▁integration	-7287
▁SS	-7288
▁strict	-7289
▁warranty	-7290
▁Ent	-7291
▁Airport	-7292
ja	-7293
▁Training	-7294
▁matches	-7295
▁instant	-7296
Tr	-7297
aints	-7298
▁Cook	-7299
▁Night	-7300
▁Bon	-7301
▁Ford	-7302
▁tor	-7303
▁lawyer	-7304
▁YouTube	-7305
▁breast	-7306
▁extract	-7307
▁follows	-7308
▁Pract	-7309
▁talks	-7310
▁Did	-7311
Int	-7312
bel	-7313
▁ocean	-7314
▁bare	-7315
▁panels	-7316
iana	-7317
▁traveling	-7318
▁spray	-7319
▁LLC	-7320
making	-7321
▁lift	-7322
▁drinks	-7323
▁Page	-7324
▁Kn	-7325
▁ram	-7326
▁bell	-7327
▁coal	-7328
▁chairs	-7329
▁hat	-7330
Whe	-7331
▁tracking	-7332
VER	-7333
eters	-7334
▁centers	-7335
▁Fed	-7336
▁beneficial	-7337
▁acts	-7338
▁Fun	-7339
▁bact	-7340
Bu	-7341
▁trips	-7342
▁everywhere	-7343
▁alumin	-7344
▁hosted	-7345
riers	-7346
▁narr	-7347
etary	-7348
▁Right	-7349
▁believes	-7350
amber	-7351
sue	-7352
▁laptop	-7353
▁expansion	-7354
’.	-7355
lers	-7356
bits	-7357
▁staying	-7358
▁intelligence	-7359
▁finest	-7360
▁Pot	-7361
▁fits	-7362
▁electricity	-7363
▁Colorado	-7364
▁spots	-7365
▁correctly	-7366
ns	-7367
▁repairs	-7368
▁Bell	-7369
▁Dan	-7370
Next	-7371
arters	-7372
▁forum	-7373
▁directed	-7374
▁hurt	-7375
redit	-7376
Great	-7377
▁recover	-7378
▁spoke	-7379
▁evaluation	-7380
▁Johnson	-7381
lose	-7382
▁fest	-7383
EA	-7384
▁neighb	-7385
▁liability	-7386
▁unus	-7387
▁lesson	-7388
aze	-7389
abetes	-7390
▁Tax	-7391
sell	-7392
▁skilled	-7393
▁entrance	-7394
phy	-7395
htt	-7396
RI	-7397
▁divid	-7398
▁vintage	-7399
▁tagged	-7400
vas	-7401
▁emails	-7402
▁league	-7403
▁outcome	-7404
▁Building	-7405
▁HP	-7406
Per	-7407
▁designers	-7408
eras	-7409
▁layout	-7410
uis	-7411
▁anyway	-7412
▁forecast	-7413
ctive	-7414
amental	-7415
▁baking	-7416
▁flexibility	-7417
▁empty	-7418
▁diseases	-7419
▁stir	-7420
▁McC	-7421
▁stable	-7422
Pe	-7423
▁container	-7424
▁Silver	-7425
▁unexpected	-7426
iances	-7427
ugg	-7428
▁sharp	-7429
olid	-7430
iler	-7431
▁hi	-7432
▁Richard	-7433
▁pride	-7434
▁functionality	-7435
▁fib	-7436
owers	-7437
onym	-7438
▁bone	-7439
odge	-7440
▁Ash	-7441
▁Jon	-7442
▁filling	-7443
ership	-7444
▁interactive	-7445
▁proposal	-7446
▁Mountain	-7447
▁mood	-7448
rible	-7449
esh	-7450
▁Pak	-7451
▁Bang	-7452
erving	-7453
adow	-7454
▁SC	-7455
athy	-7456
▁till	-7457
▁Thus	-7458
▁Print	-7459
rick	-7460
▁Hon	-7461
▁lib	-7462
▁permission	-7463
Go	-7464
ckets	-7465
▁Should	-7466
▁Rose	-7467
▁gate	-7468
▁personality	-7469
▁approaches	-7470
pending	-7471
▁encouraged	-7472
eping	-7473
▁aircraft	-7474
▁coat	-7475
▁utility	-7476
▁Meet	-7477
page	-7478
amsung	-7479
▁automatic	-7480
▁complicated	-7481
▁underst	-7482
▁sections	-7483
aken	-7484
▁yours	-7485
▁possess	-7486
▁retirement	-7487
▁pocket	-7488
▁Roll	-7489
▁Though	-7490
coin	-7491
▁organisation	-7492
▁convert	-7493
▁acceler	-7494
▁ham	-7495
tes	-7496
holder	-7497
▁pitch	-7498
▁politics	-7499
▁involving	-7500
anted	-7501
▁legislation	-7502
▁opposite	-7503
iki	-7504
▁rural	-7505
▁Singapore	-7506
Note	-7507
▁damaged	-7508
▁downtown	-7509
▁guaranteed	-7510
▁lake	-7511
▁kil	-7512
▁certification	-7513
▁SH	-7514
▁sex	-7515
▁improvements	-7516
▁necessarily	-7517
▁alt	-7518
BM	-7519
ials	-7520
▁yoga	-7521
▁council	-7522
▁Auto	-7523
asting	-7524
iti	-7525
▁equival	-7526
▁delivering	-7527
▁participation	-7528
▁attach	-7529
▁marked	-7530
▁zero	-7531
▁Po	-7532
▁Yet	-7533
▁Ra	-7534
▁yards	-7535
▁juice	-7536
▁diagram	-7537
▁Four	-7538
▁literally	-7539
▁compensation	-7540
cular	-7541
▁bull	-7542
▁Nig	-7543
ugs	-7544
▁ski	-7545
▁DVD	-7546
▁spark	-7547
cut	-7548
▁demands	-7549
▁Jones	-7550
▁stages	-7551
formance	-7552
▁sofa	-7553
Hi	-7554
▁subjects	-7555
▁sail	-7556
FC	-7557
▁convenience	-7558
▁decent	-7559
ds	-7560
▁Kingdom	-7561
gypt	-7562
▁gym	-7563
▁exposed	-7564
▁spectac	-7565
▁employer	-7566
▁meets	-7567
tains	-7568
▁roads	-7569
▁Far	-7570
▁instruction	-7571
ashed	-7572
▁Hun	-7573
lyn	-7574
▁bab	-7575
ipt	-7576
ogen	-7577
▁enroll	-7578
▁Professional	-7579
ificial	-7580
▁Ap	-7581
▁tone	-7582
▁Dri	-7583
▁transactions	-7584
▁focuses	-7585
▁carrying	-7586
llo	-7587
▁Welcome	-7588
▁asset	-7589
▁preparing	-7590
▁era	-7591
▁greatly	-7592
▁photographs	-7593
fall	-7594
▁Steve	-7595
▁▁▁▁	-7596
▁Local	-7597
▁accommodation	-7598
▁seeds	-7599
▁borrow	-7600
▁experim	-7601
ali	-7602
earing	-7603
▁cabinet	-7604
▁phr	-7605
▁speakers	-7606
▁Sales	-7607
▁criteria	-7608
▁lifetime	-7609
▁Help	-7610
▁vert	-7611
lled	-7612
being	-7613
▁Blo	-7614
▁complim	-7615
▁objective	-7616
▁acquis	-7617
▁division	-7618
▁initiative	-7619
▁lens	-7620
▁Quality	-7621
ateful	-7622
▁Summer	-7623
inity	-7624
▁Modern	-7625
▁Steel	-7626
▁Jewish	-7627
▁nights	-7628
▁cock	-7629
ollywood	-7630
▁aims	-7631
▁Georgia	-7632
▁Video	-7633
▁Oil	-7634
anna	-7635
▁Space	-7636
▁explains	-7637
▁bills	-7638
▁territ	-7639
▁Machine	-7640
▁Division	-7641
▁association	-7642
▁Kar	-7643
raid	-7644
▁contained	-7645
▁Line	-7646
estion	-7647
▁gentle	-7648
▁certificate	-7649
TER	-7650
▁Brazil	-7651
▁faces	-7652
igent	-7653
▁occurs	-7654
▁requested	-7655
rage	-7656
una	-7657
▁recruit	-7658
▁computers	-7659
▁intellect	-7660
▁studying	-7661
itches	-7662
Read	-7663
▁Non	-7664
ributes	-7665
▁Friend	-7666
▁gaming	-7667
ila	-7668
reement	-7669
▁Holy	-7670
▁Andrew	-7671
▁mattress	-7672
▁Unfortunately	-7673
▁Guys	-7674
▁speaker	-7675
Each	-7676
▁Clin	-7677
▁false	-7678
▁Ter	-7679
See	-7680
▁Jackson	-7681
ologist	-7682
▁scientists	-7683
▁volunteer	-7684
▁Such	-7685
▁screw	-7686
▁adequ	-7687
▁orange	-7688
Wor	-7689
▁obviously	-7690
▁durable	-7691
▁debate	-7692
teen	-7693
▁stronger	-7694
▁pulled	-7695
GA	-7696
▁WH	-7697
▁indicate	-7698
▁brilliant	-7699
Where	-7700
▁literature	-7701
▁lies	-7702
▁floors	-7703
▁Turn	-7704
▁drawn	-7705
▁pounds	-7706
eah	-7707
ults	-7708
▁tox	-7709
▁largely	-7710
gorith	-7711
▁assume	-7712
quis	-7713
▁origin	-7714
▁concert	-7715
▁workshops	-7716
▁Williams	-7717
▁responses	-7718
▁forgot	-7719
▁packed	-7720
▁alarm	-7721
▁cotton	-7722
▁obst	-7723
RL	-7724
▁exploring	-7725
roke	-7726
▁stainless	-7727
▁finds	-7728
▁entering	-7729
cific	-7730
▁buff	-7731
▁Professor	-7732
▁satisfied	-7733
▁engaging	-7734
▁Heart	-7735
▁publication	-7736
▁stead	-7737
▁bid	-7738
vironments	-7739
▁insert	-7740
▁Ram	-7741
▁Never	-7742
▁Army	-7743
▁Stone	-7744
▁Charles	-7745
▁maintained	-7746
▁scores	-7747
liament	-7748
▁twenty	-7749
▁Spain	-7750
▁relative	-7751
▁closing	-7752
▁focusing	-7753
▁Three	-7754
▁lowest	-7755
▁advent	-7756
▁Pen	-7757
▁engines	-7758
▁nuclear	-7759
tense	-7760
▁visits	-7761
inet	-7762
▁tutorial	-7763
▁Walk	-7764
▁addresses	-7765
olit	-7766
ools	-7767
ampion	-7768
▁reaction	-7769
rect	-7770
▁suffe	-7771
▁Aff	-7772
▁explan	-7773
▁Additionally	-7774
▁exhaust	-7775
▁Ref	-7776
cm	-7777
▁mm	-7778
▁refresh	-7779
▁clock	-7780
▁Order	-7781
▁Muslim	-7782
▁Ell	-7783
▁revolution	-7784
▁introduce	-7785
riger	-7786
▁amend	-7787
days	-7788
▁recyc	-7789
▁characteristics	-7790
▁Asian	-7791
▁Link	-7792
▁tissue	-7793
▁gained	-7794
▁creativity	-7795
▁texture	-7796
▁Ess	-7797
rooms	-7798
arry	-7799
ucky	-7800
▁Medicine	-7801
atile	-7802
▁Queen	-7803
▁hasn	-7804
ifully	-7805
▁Conf	-7806
▁clicking	-7807
imal	-7808
▁vessel	-7809
Rem	-7810
AY	-7811
▁deeper	-7812
▁god	-7813
riculum	-7814
▁Vi	-7815
▁hydro	-7816
▁ceremony	-7817
▁Est	-7818
▁acting	-7819
ronics	-7820
▁specified	-7821
▁visitor	-7822
▁colleagues	-7823
uma	-7824
▁Studies	-7825
▁checked	-7826
Americ	-7827
ruption	-7828
▁flying	-7829
▁oblig	-7830
▁broadcast	-7831
▁containing	-7832
▁attending	-7833
ped	-7834
▁giant	-7835
▁hes	-7836
▁boot	-7837
omy	-7838
rat	-7839
agen	-7840
Check	-7841
ilipp	-7842
▁arrival	-7843
foot	-7844
otal	-7845
▁Ly	-7846
▁uncom	-7847
onder	-7848
▁tape	-7849
▁harder	-7850
▁gap	-7851
iour	-7852
▁flooring	-7853
▁strongly	-7854
▁advantages	-7855
▁hook	-7856
ifting	-7857
▁pad	-7858
▁enthusi	-7859
▁opens	-7860
▁Writ	-7861
▁conscious	-7862
▁cush	-7863
▁homeown	-7864
▁celebration	-7865
▁screens	-7866
▁mac	-7867
▁warn	-7868
oices	-7869
▁que	-7870
▁ranking	-7871
▁drain	-7872
och	-7873
▁talked	-7874
▁Awards	-7875
▁alive	-7876
ESS	-7877
▁completion	-7878
▁plot	-7879
▁painted	-7880
▁dad	-7881
▁residence	-7882
▁fraud	-7883
▁rising	-7884
▁Drive	-7885
▁hel	-7886
▁wave	-7887
▁Fre	-7888
▁findings	-7889
▁brush	-7890
▁riding	-7891
▁Country	-7892
▁argument	-7893
▁lie	-7894
▁intense	-7895
▁tum	-7896
▁Prom	-7897
Make	-7898
▁Pop	-7899
oof	-7900
▁Ba	-7901
sts	-7902
▁Station	-7903
▁Jac	-7904
itate	-7905
▁Cult	-7906
▁fundamental	-7907
▁Personal	-7908
▁honey	-7909
▁packaging	-7910
▁Mah	-7911
char	-7912
unicip	-7913
▁pul	-7914
▁rapidly	-7915
▁quotes	-7916
▁hits	-7917
▁patio	-7918
▁anymore	-7919
▁occurred	-7920
▁granted	-7921
▁loose	-7922
▁expressed	-7923
▁ratio	-7924
utter	-7925
▁environments	-7926
cue	-7927
RC	-7928
▁investments	-7929
▁Conc	-7930
brid	-7931
▁Egypt	-7932
▁themes	-7933
adium	-7934
▁stations	-7935
▁languages	-7936
wan	-7937
star	-7938
▁Sher	-7939
uing	-7940
▁drag	-7941
▁Sale	-7942
▁implemented	-7943
▁Rights	-7944
▁voc	-7945
▁headed	-7946
dney	-7947
PM	-7948
▁repeated	-7949
▁dollar	-7950
▁strange	-7951
▁falling	-7952
▁Need	-7953
▁temporary	-7954
▁keyword	-7955
▁representative	-7956
▁existence	-7957
▁Again	-7958
▁telephone	-7959
▁accuracy	-7960
▁waters	-7961
print	-7962
▁keys	-7963
▁heading	-7964
▁DI	-7965
▁secondary	-7966
▁Happy	-7967
▁ensures	-7968
▁afraid	-7969
lections	-7970
▁tact	-7971
▁personnel	-7972
▁Catholic	-7973
▁comprom	-7974
▁prayer	-7975
▁finger	-7976
▁inventory	-7977
▁prize	-7978
▁estimate	-7979
bell	-7980
ubs	-7981
▁dism	-7982
▁hate	-7983
▁temperatures	-7984
anned	-7985
▁Cloud	-7986
▁tile	-7987
PN	-7988
▁Kim	-7989
▁scope	-7990
▁accounting	-7991
▁Safety	-7992
▁faced	-7993
▁stylish	-7994
otive	-7995
▁module	-7996
▁CB	-7997
▁Orig	-7998
▁haz	-7999
heast	-8000
▁Vegas	-8001
▁remained	-8002
▁boards	-8003
▁casual	-8004
▁breaking	-8005
oes	-8006
▁BE	-8007
▁desktop	-8008
▁therap	-8009
▁shell	-8010
itis	-8011
▁suffer	-8012
mble	-8013
▁Stat	-8014
onic	-8015
eto	-8016
▁branch	-8017
▁assigned	-8018
▁neut	-8019
▁SE	-8020
oto	-8021
▁Las	-8022
▁servers	-8023
▁Tele	-8024
▁fing	-8025
▁insights	-8026
▁loyal	-8027
▁demonstrate	-8028
▁represented	-8029
wall	-8030
uous	-8031
sis	-8032
▁Prime	-8033
▁wanting	-8034
▁Being	-8035
▁interaction	-8036
▁Swed	-8037
osc	-8038
▁dual	-8039
▁Autom	-8040
▁Put	-8041
▁WordPress	-8042
mers	-8043
▁promotion	-8044
▁studied	-8045
▁tired	-8046
Use	-8047
looking	-8048
▁publ	-8049
▁mirror	-8050
▁Administration	-8051
▁alter	-8052
▁flights	-8053
▁reaching	-8054
FA	-8055
▁isol	-8056
▁initially	-8057
▁PS	-8058
zona	-8059
chester	-8060
▁bedrooms	-8061
▁FL	-8062
▁Process	-8063
▁Kent	-8064
▁currency	-8065
▁configuration	-8066
▁Sup	-8067
▁Brand	-8068
▁diversity	-8069
▁shirt	-8070
▁Connect	-8071
▁seam	-8072
▁hanging	-8073
▁Hou	-8074
▁hyper	-8075
▁initiatives	-8076
isa	-8077
▁Toy	-8078
▁contribution	-8079
▁childhood	-8080
▁segment	-8081
▁tons	-8082
icious	-8083
▁statistics	-8084
▁entitled	-8085
▁Run	-8086
uten	-8087
▁Gallery	-8088
books	-8089
▁observed	-8090
▁reprodu	-8091
▁ending	-8092
▁horiz	-8093
▁organisations	-8094
▁Ren	-8095
▁cameras	-8096
▁farmers	-8097
criptions	-8098
▁objectives	-8099
icket	-8100
▁Korea	-8101
▁DO	-8102
sole	-8103
▁maps	-8104
letter	-8105
▁Made	-8106
▁trusted	-8107
▁sculpt	-8108
▁calm	-8109
▁laid	-8110
igure	-8111
▁equivalent	-8112
▁Sav	-8113
▁transmission	-8114
▁Bit	-8115
▁champions	-8116
▁Dog	-8117
▁Irish	-8118
▁Sus	-8119
inyl	-8120
▁define	-8121
▁mountains	-8122
▁deeply	-8123
aters	-8124
empl	-8125
▁Learning	-8126
▁CON	-8127
▁react	-8128
annel	-8129
vo	-8130
▁displays	-8131
▁Section	-8132
▁Cru	-8133
▁Corporation	-8134
▁Leg	-8135
▁Limited	-8136
▁cul	-8137
athered	-8138
Fe	-8139
▁illegal	-8140
▁contracts	-8141
charge	-8142
′′	-8143
▁returning	-8144
rite	-8145
step	-8146
stall	-8147
▁bunch	-8148
ashes	-8149
low	-8150
▁Fact	-8151
▁Britain	-8152
▁SM	-8153
▁layers	-8154
▁equally	-8155
▁tie	-8156
▁graphic	-8157
▁participating	-8158
▁Creek	-8159
▁viewing	-8160
▁smartphone	-8161
▁invite	-8162
▁directions	-8163
▁amen	-8164
izz	-8165
isdom	-8166
ludes	-8167
cal	-8168
▁safely	-8169
▁align	-8170
▁hiring	-8171
▁orient	-8172
▁consequences	-8173
▁signature	-8174
▁indoor	-8175
▁circuit	-8176
Before	-8177
▁respectively	-8178
▁Studio	-8179
▁Policy	-8180
▁Sci	-8181
▁racing	-8182
▁Agency	-8183
▁appointed	-8184
▁depression	-8185
▁passionate	-8186
▁wise	-8187
▁beds	-8188
ih	-8189
inois	-8190
acc	-8191
▁algorith	-8192
▁escape	-8193
▁pepper	-8194
▁surve	-8195
urious	-8196
▁performances	-8197
▁tournament	-8198
▁LO	-8199
▁Finally	-8200
tail	-8201
▁injured	-8202
▁watched	-8203
▁operated	-8204
▁gamb	-8205
▁Exam	-8206
▁withdraw	-8207
▁unknown	-8208
aylor	-8209
▁LA	-8210
▁Ban	-8211
isms	-8212
acon	-8213
eties	-8214
▁locks	-8215
▁Would	-8216
▁importantly	-8217
▁resid	-8218
▁documentation	-8219
▁productivity	-8220
▁acquired	-8221
▁provision	-8222
▁Still	-8223
▁utilize	-8224
rad	-8225
▁pig	-8226
▁wondering	-8227
ensus	-8228
▁promoting	-8229
▁specialists	-8230
lude	-8231
flow	-8232
▁stability	-8233
▁cuts	-8234
sen	-8235
▁Fac	-8236
▁continuous	-8237
▁Oak	-8238
▁appl	-8239
UL	-8240
▁Toronto	-8241
▁Ira	-8242
▁wheels	-8243
▁Give	-8244
▁Father	-8245
▁reveal	-8246
▁golden	-8247
andon	-8248
▁chronic	-8249
ervations	-8250
gi	-8251
▁Ray	-8252
ulator	-8253
▁peak	-8254
umni	-8255
▁Come	-8256
DP	-8257
▁spa	-8258
sized	-8259
▁sought	-8260
▁Rs	-8261
olving	-8262
▁Perhaps	-8263
▁overse	-8264
▁Field	-8265
▁Base	-8266
limited	-8267
▁mistakes	-8268
▁medication	-8269
▁contributions	-8270
umbing	-8271
▁Avenue	-8272
▁Force	-8273
%.	-8274
onso	-8275
▁plain	-8276
▁suite	-8277
▁asp	-8278
▁Image	-8279
▁plane	-8280
▁Senior	-8281
▁knock	-8282
▁Dar	-8283
▁weren	-8284
lace	-8285
▁trash	-8286
▁jewelry	-8287
▁holes	-8288
▁corn	-8289
▁contractors	-8290
Up	-8291
Other	-8292
▁Senate	-8293
▁coaching	-8294
mercial	-8295
igen	-8296
▁Forest	-8297
sa	-8298
ji	-8299
▁employers	-8300
▁buyer	-8301
▁Customer	-8302
▁portable	-8303
▁emotions	-8304
▁semi	-8305
▁neither	-8306
▁southern	-8307
▁EX	-8308
▁Stock	-8309
run	-8310
HA	-8311
▁frequency	-8312
▁Remember	-8313
▁talented	-8314
▁Kh	-8315
▁campaigns	-8316
▁reception	-8317
ERS	-8318
aka	-8319
▁venture	-8320
ceived	-8321
▁grace	-8322
▁sink	-8323
wich	-8324
▁adopted	-8325
▁Members	-8326
▁fabulous	-8327
▁anniversary	-8328
▁claimed	-8329
▁puts	-8330
ervice	-8331
tery	-8332
▁Product	-8333
ipes	-8334
▁workplace	-8335
▁substantial	-8336
Love	-8337
▁shed	-8338
▁understood	-8339
▁catalog	-8340
▁NO	-8341
▁falls	-8342
ko	-8343
▁consent	-8344
ador	-8345
▁inspection	-8346
▁Foot	-8347
▁crypt	-8348
vania	-8349
▁accordance	-8350
ounge	-8351
▁Daniel	-8352
Gu	-8353
▁institution	-8354
▁templates	-8355
▁Select	-8356
▁coloring	-8357
▁laser	-8358
▁legend	-8359
▁raising	-8360
▁Tal	-8361
▁edit	-8362
▁Eastern	-8363
▁Joseph	-8364
▁rubber	-8365
▁unusual	-8366
TE	-8367
iac	-8368
▁exists	-8369
uct	-8370
▁amongst	-8371
▁pollut	-8372
▁gram	-8373
▁Capital	-8374
makers	-8375
▁professor	-8376
cycle	-8377
Take	-8378
aska	-8379
▁Ur	-8380
▁mg	-8381
▁Products	-8382
▁networking	-8383
▁Hold	-8384
▁attitude	-8385
▁abilities	-8386
bro	-8387
▁copyright	-8388
▁developer	-8389
▁accommodate	-8390
orous	-8391
▁intention	-8392
Mar	-8393
▁Event	-8394
%,	-8395
▁consistently	-8396
atellite	-8397
ILL	-8398
anwhile	-8399
▁Labor	-8400
▁lip	-8401
▁sees	-8402
adel	-8403
▁Greek	-8404
▁ranging	-8405
▁directory	-8406
▁Looking	-8407
power	-8408
▁Justice	-8409
▁bold	-8410
ccer	-8411
▁divor	-8412
▁Fall	-8413
war	-8414
▁Viet	-8415
▁encounter	-8416
▁Ice	-8417
▁periods	-8418
▁phenomen	-8419
▁convey	-8420
▁Agreement	-8421
▁Natural	-8422
▁Samsung	-8423
style	-8424
▁Square	-8425
▁ownership	-8426
▁protocol	-8427
▁emerging	-8428
TP	-8429
▁math	-8430
hyd	-8431
▁Cro	-8432
▁highlights	-8433
burgh	-8434
▁tours	-8435
▁spectacular	-8436
etch	-8437
▁titles	-8438
ounded	-8439
▁Consult	-8440
encing	-8441
▁bat	-8442
▁seasons	-8443
▁hung	-8444
▁drives	-8445
produ	-8446
▁compact	-8447
▁eliminate	-8448
▁acquire	-8449
GO	-8450
▁smoke	-8451
▁mild	-8452
▁Secretary	-8453
wear	-8454
axy	-8455
▁Repair	-8456
▁supplier	-8457
rif	-8458
▁aer	-8459
▁devot	-8460
▁reserved	-8461
▁Sydney	-8462
Sm	-8463
bow	-8464
QL	-8465
▁grateful	-8466
▁solo	-8467
aya	-8468
UM	-8469
▁outs	-8470
▁cater	-8471
▁Decor	-8472
▁abroad	-8473
▁hack	-8474
▁indu	-8475
▁rust	-8476
▁subm	-8477
▁Blu	-8478
▁twist	-8479
awa	-8480
▁cher	-8481
▁Village	-8482
▁Model	-8483
▁designing	-8484
▁conversion	-8485
▁franch	-8486
▁sour	-8487
▁mole	-8488
▁scenes	-8489
▁alleged	-8490
▁Bridge	-8491
▁Arizona	-8492
▁damages	-8493
CS	-8494
▁chips	-8495
▁shapes	-8496
▁Without	-8497
alysis	-8498
▁sen	-8499
hour	-8500
▁possibilities	-8501
▁weapons	-8502
▁latter	-8503
▁iPad	-8504
▁gender	-8505
Who	-8506
inton	-8507
cor	-8508
▁shoulder	-8509
Will	-8510
▁muscles	-8511
from	-8512
▁imper	-8513
Mr	-8514
▁philosophy	-8515
▁cm	-8516
iary	-8517
swe	-8518
▁conventional	-8519
isticated	-8520
▁evaluate	-8521
▁Ox	-8522
▁Ros	-8523
▁AL	-8524
▁founder	-8525
▁recre	-8526
▁Estate	-8527
alo	-8528
giving	-8529
▁slots	-8530
▁religion	-8531
▁enforcement	-8532
▁collections	-8533
▁Mother	-8534
inery	-8535
▁nutri	-8536
▁toilet	-8537
▁wins	-8538
▁cheaper	-8539
▁aest	-8540
▁Stan	-8541
ho	-8542
▁intellectual	-8543
bourne	-8544
▁Radio	-8545
▁Cou	-8546
▁tu	-8547
▁targeted	-8548
tical	-8549
iami	-8550
▁mistake	-8551
▁evolution	-8552
▁charity	-8553
gent	-8554
ffective	-8555
employ	-8556
▁Nic	-8557
▁ALL	-8558
racy	-8559
Col	-8560
esides	-8561
▁cod	-8562
▁prime	-8563
▁investing	-8564
▁subsid	-8565
▁resident	-8566
▁grey	-8567
▁Lind	-8568
▁entrepreneurs	-8569
▁exterior	-8570
umer	-8571
▁resolve	-8572
▁strike	-8573
TV	-8574
Because	-8575
▁handy	-8576
ylvania	-8577
▁vine	-8578
▁nursing	-8579
▁distributed	-8580
▁Illinois	-8581
▁representatives	-8582
zed	-8583
▁Iraq	-8584
▁stayed	-8585
▁warning	-8586
▁stack	-8587
▁Kong	-8588
▁applies	-8589
▁landscap	-8590
▁cooked	-8591
ller	-8592
▁matching	-8593
▁clubs	-8594
abeth	-8595
▁compatible	-8596
▁suffered	-8597
▁thousand	-8598
▁elected	-8599
▁complement	-8600
▁Dun	-8601
Rec	-8602
ERE	-8603
▁Employ	-8604
▁CS	-8605
▁massage	-8606
Co	-8607
▁trib	-8608
▁permit	-8609
Sim	-8610
▁extraord	-8611
▁gran	-8612
▁discounts	-8613
olis	-8614
▁contents	-8615
▁Kids	-8616
▁Annual	-8617
▁Ministry	-8618
▁Plant	-8619
▁exclus	-8620
aza	-8621
▁broke	-8622
Good	-8623
▁dil	-8624
▁situated	-8625
▁pets	-8626
▁formula	-8627
Pr	-8628
ouses	-8629
▁PRO	-8630
▁oral	-8631
▁MD	-8632
abil	-8633
▁impression	-8634
▁mit	-8635
▁strengthen	-8636
▁reserve	-8637
▁Broad	-8638
TR	-8639
▁pilot	-8640
bage	-8641
▁Officer	-8642
▁stamp	-8643
gments	-8644
▁OK	-8645
▁rolling	-8646
▁infection	-8647
▁pic	-8648
▁EN	-8649
rug	-8650
tons	-8651
regon	-8652
orses	-8653
▁oppon	-8654
▁diabetes	-8655
▁hearts	-8656
enny	-8657
▁heaven	-8658
▁advertise	-8659
▁roots	-8660
.;	-8661
AND	-8662
▁locally	-8663
▁Collection	-8664
▁officially	-8665
▁loud	-8666
▁iOS	-8667
CL	-8668
▁convin	-8669
▁expanded	-8670
▁employed	-8671
▁Photo	-8672
vals	-8673
▁leaf	-8674
▁wake	-8675
▁struggling	-8676
asted	-8677
▁Pur	-8678
▁admin	-8679
▁privile	-8680
edge	-8681
▁sorry	-8682
▁decrease	-8683
▁suddenly	-8684
▁Uk	-8685
"
"	-8686
▁sheets	-8687
lined	-8688
▁hen	-8689
▁Motor	-8690
ping	-8691
▁instruments	-8692
▁SA	-8693
▁merely	-8694
interest	-8695
▁Golden	-8696
▁spir	-8697
▁Solutions	-8698
▁sensor	-8699
▁delivers	-8700
▁Common	-8701
aid	-8702
▁Scotland	-8703
▁universities	-8704
▁editing	-8705
▁tradem	-8706
▁Despite	-8707
▁chest	-8708
▁beautifully	-8709
▁fulfill	-8710
▁Mess	-8711
▁folder	-8712
▁curriculum	-8713
screen	-8714
stein	-8715
rieved	-8716
pany	-8717
▁Standard	-8718
olt	-8719
▁rarely	-8720
▁opinions	-8721
▁lob	-8722
▁relating	-8723
▁Gro	-8724
▁Rom	-8725
▁operational	-8726
▁bass	-8727
▁tablet	-8728
▁SO	-8729
▁experiencing	-8730
▁Strateg	-8731
dri	-8732
achelor	-8733
itched	-8734
▁assistant	-8735
ilton	-8736
▁dies	-8737
nders	-8738
▁SD	-8739
acher	-8740
▁Emer	-8741
▁copies	-8742
▁CN	-8743
erman	-8744
▁foam	-8745
ifi	-8746
▁uncertain	-8747
▁essentially	-8748
▁customized	-8749
▁abund	-8750
▁fifth	-8751
▁globe	-8752
▁parks	-8753
▁reject	-8754
Reg	-8755
cribed	-8756
▁boss	-8757
▁exercises	-8758
▁equity	-8759
▁wiring	-8760
▁Treat	-8761
theless	-8762
▁steam	-8763
▁western	-8764
this	-8765
▁Ven	-8766
▁discussions	-8767
▁vendors	-8768
itu	-8769
▁relation	-8770
▁Server	-8771
elling	-8772
ormal	-8773
Spe	-8774
Lear	-8775
▁dough	-8776
▁Fa	-8777
▁fewer	-8778
▁sed	-8779
▁belt	-8780
▁Rod	-8781
ordan	-8782
bered	-8783
▁ft	-8784
▁Kat	-8785
Sec	-8786
▁Philipp	-8787
urniture	-8788
▁constructed	-8789
▁gotten	-8790
ATE	-8791
▁relaxing	-8792
epend	-8793
▁Houston	-8794
▁compete	-8795
▁efficiently	-8796
kel	-8797
▁northern	-8798
▁surely	-8799
▁assembly	-8800
iffe	-8801
▁restore	-8802
▁instantly	-8803
iform	-8804
Stud	-8805
▁detect	-8806
▁behaviour	-8807
▁Private	-8808
▁losses	-8809
▁thoroughly	-8810
!!!!	-8811
▁respective	-8812
▁regulatory	-8813
chers	-8814
▁wider	-8815
▁meaningful	-8816
▁cann	-8817
sylvania	-8818
▁Li	-8819
▁..	-8820
rape	-8821
▁specialized	-8822
▁Tech	-8823
▁stood	-8824
▁salad	-8825
Part	-8826
▁prohib	-8827
▁Rh	-8828
▁banking	-8829
▁Manufact	-8830
Whether	-8831
▁oils	-8832
undry	-8833
▁overnight	-8834
organ	-8835
▁alloc	-8836
stract	-8837
▁processed	-8838
▁Ms	-8839
▁Lat	-8840
aine	-8841
▁actively	-8842
Su	-8843
▁engineers	-8844
▁Band	-8845
oir	-8846
▁lawn	-8847
athan	-8848
home	-8849
▁Rub	-8850
▁Psych	-8851
oli	-8852
▁Hong	-8853
abling	-8854
▁rated	-8855
▁examination	-8856
ifier	-8857
▁Map	-8858
▁worship	-8859
▁spacious	-8860
▁survive	-8861
▁blogs	-8862
▁letting	-8863
▁refriger	-8864
▁Bh	-8865
rets	-8866
▁pursue	-8867
▁repeat	-8868
▁aimed	-8869
▁inspire	-8870
▁appliances	-8871
uties	-8872
▁finishing	-8873
▁removing	-8874
child	-8875
▁adj	-8876
▁connecting	-8877
▁Ont	-8878
▁Cry	-8879
▁abandon	-8880
▁Bul	-8881
▁Pra	-8882
▁Express	-8883
▁chef	-8884
▁Level	-8885
inson	-8886
▁printer	-8887
visor	-8888
▁interviews	-8889
▁worn	-8890
▁Sem	-8891
▁Easy	-8892
▁swing	-8893
ghan	-8894
▁angle	-8895
▁legit	-8896
▁jur	-8897
▁attempts	-8898
piece	-8899
▁quantity	-8900
▁heavily	-8901
▁coupon	-8902
▁indicated	-8903
assion	-8904
▁Columbia	-8905
▁examine	-8906
▁tent	-8907
▁rou	-8908
▁enhanced	-8909
▁sophisticated	-8910
▁targets	-8911
▁backup	-8912
▁lemon	-8913
▁newspaper	-8914
▁produces	-8915
rix	-8916
▁heritage	-8917
▁amenities	-8918
▁purchases	-8919
▁ministry	-8920
▁precious	-8921
▁toler	-8922
▁overcome	-8923
▁mechanical	-8924
oween	-8925
▁diagnosis	-8926
▁sectors	-8927
▁Latin	-8928
▁aged	-8929
hr	-8930
▁fiber	-8931
▁Theatre	-8932
mates	-8933
▁Op	-8934
▁Dream	-8935
▁composition	-8936
▁contractor	-8937
▁grounds	-8938
▁circle	-8939
mat	-8940
▁victims	-8941
▁margin	-8942
▁robust	-8943
▁Jr	-8944
month	-8945
▁difficulty	-8946
▁arrangements	-8947
▁Partners	-8948
▁meters	-8949
ela	-8950
▁BM	-8951
▁addressed	-8952
▁;	-8953
▁washing	-8954
▁developments	-8955
▁admit	-8956
▁edited	-8957
▁sear	-8958
EP	-8959
▁fruits	-8960
▁describes	-8961
CP	-8962
angle	-8963
Find	-8964
▁conserv	-8965
▁powers	-8966
▁Civil	-8967
▁evil	-8968
▁dess	-8969
▁ax	-8970
▁Ang	-8971
▁scar	-8972
▁surrounded	-8973
fee	-8974
obe	-8975
▁Glass	-8976
Ed	-8977
onsored	-8978
▁picking	-8979
▁Protection	-8980
▁Cit	-8981
▁Chall	-8982
▁minds	-8983
ports	-8984
▁antib	-8985
▁breaks	-8986
▁gardens	-8987
▁Ocean	-8988
▁puzz	-8989
ami	-8990
aux	-8991
▁overview	-8992
▁modified	-8993
world	-8994
▁($	-8995
▁Front	-8996
▁chemicals	-8997
▁Everyone	-8998
urities	-8999
▁Henry	-9000
▁conclusion	-9001
▁financing	-9002
dep	-9003
▁union	-9004
vious	-9005
pton	-9006
shire	-9007
inator	-9008
onna	-9009
▁pp	-9010
▁vacc	-9011
ften	-9012
rog	-9013
▁pizza	-9014
▁ink	-9015
▁Eth	-9016
▁Templ	-9017
pay	-9018
otics	-9019
▁pour	-9020
▁garlic	-9021
▁Fox	-9022
▁pleasant	-9023
▁completing	-9024
▁nose	-9025
Like	-9026
▁courts	-9027
▁divided	-9028
▁Pakistan	-9029
▁Sat	-9030
▁Fred	-9031
▁impressed	-9032
▁PH	-9033
vity	-9034
▁divide	-9035
▁batt	-9036
ested	-9037
▁balanced	-9038
▁Install	-9039
▁weigh	-9040
▁checks	-9041
▁Student	-9042
▁patch	-9043
▁Contin	-9044
▁lasting	-9045
ropical	-9046
▁hide	-9047
▁Mrs	-9048
▁apparently	-9049
▁gene	-9050
▁Film	-9051
▁Alp	-9052
through	-9053
olar	-9054
▁shade	-9055
▁acquisition	-9056
oper	-9057
ista	-9058
emed	-9059
▁everybody	-9060
▁aluminum	-9061
▁singing	-9062
igious	-9063
▁basketball	-9064
▁bands	-9065
▁stom	-9066
▁tube	-9067
viously	-9068
▁Pennsylvania	-9069
usal	-9070
izabeth	-9071
▁consolid	-9072
▁slee	-9073
▁wildlife	-9074
▁crash	-9075
▁User	-9076
everal	-9077
▁supplied	-9078
doors	-9079
▁harvest	-9080
▁crown	-9081
urches	-9082
▁guides	-9083
▁incent	-9084
▁seal	-9085
vard	-9086
▁bub	-9087
unes	-9088
▁Hi	-9089
▁virtually	-9090
▁personalized	-9091
▁remarkable	-9092
▁trem	-9093
imp	-9094
▁cong	-9095
▁sleeping	-9096
▁generations	-9097
▁Cand	-9098
▁cooperation	-9099
leep	-9100
▁DJ	-9101
▁Ryan	-9102
▁cats	-9103
nell	-9104
▁ly	-9105
▁surfaces	-9106
▁volt	-9107
icted	-9108
▁moisture	-9109
▁surge	-9110
▁governments	-9111
▁expense	-9112
▁urg	-9113
▁toys	-9114
▁Case	-9115
▁ought	-9116
▁Chem	-9117
▁Pict	-9118
▁makeup	-9119
▁Saint	-9120
▁podcast	-9121
▁Oregon	-9122
▁habits	-9123
▁rehab	-9124
▁Miami	-9125
Car	-9126
▁lawyers	-9127
inals	-9128
▁wallpaper	-9129
▁Choose	-9130
Post	-9131
▁artwork	-9132
iatric	-9133
▁happiness	-9134
▁ske	-9135
▁Own	-9136
▁Has	-9137
▁Capt	-9138
▁Harr	-9139
heim	-9140
gel	-9141
ART	-9142
▁pup	-9143
▁DNA	-9144
▁colon	-9145
▁Save	-9146
▁TR	-9147
agers	-9148
▁edges	-9149
▁proport	-9150
▁Sound	-9151
▁frequent	-9152
asty	-9153
▁compliment	-9154
▁vibrant	-9155
▁winners	-9156
▁reply	-9157
▁Univers	-9158
▁practition	-9159
▁cancell	-9160
lects	-9161
▁cruise	-9162
uum	-9163
▁gathering	-9164
▁decline	-9165
graduate	-9166
▁dirt	-9167
▁Share	-9168
▁Golf	-9169
icity	-9170
▁scratch	-9171
▁Simply	-9172
▁accum	-9173
▁wisdom	-9174
▁Barb	-9175
▁competitors	-9176
▁vertical	-9177
OK	-9178
olesale	-9179
aha	-9180
▁combat	-9181
▁seller	-9182
▁settlement	-9183
ima	-9184
ultane	-9185
▁rhy	-9186
▁cabinets	-9187
▁fluid	-9188
▁cooling	-9189
▁cha	-9190
▁alert	-9191
▁mechanism	-9192
▁photographer	-9193
ditional	-9194
▁NC	-9195
▁subscription	-9196
▁beef	-9197
boards	-9198
lass	-9199
▁measured	-9200
▁bacteria	-9201
▁fascinating	-9202
▁tonight	-9203
▁lease	-9204
▁copper	-9205
onda	-9206
▁cow	-9207
opyright	-9208
▁•	-9209
',	-9210
▁Analy	-9211
▁producer	-9212
▁minister	-9213
▁AI	-9214
▁brew	-9215
PL	-9216
arents	-9217
▁Diego	-9218
allas	-9219
▁GM	-9220
▁publishing	-9221
eness	-9222
▁blogg	-9223
▁Join	-9224
▁Credit	-9225
UD	-9226
▁semin	-9227
▁retain	-9228
▁integrity	-9229
pson	-9230
aron	-9231
▁Taylor	-9232
▁Was	-9233
▁FA	-9234
▁flaw	-9235
▁romantic	-9236
▁Think	-9237
▁appreciated	-9238
▁Dam	-9239
xid	-9240
].	-9241
▁Clean	-9242
▁Type	-9243
▁parameters	-9244
uan	-9245
▁Rail	-9246
http	-9247
uation	-9248
▁reviewed	-9249
▁fundra	-9250
▁resulted	-9251
▁pointed	-9252
▁Crusher	-9253
▁BB	-9254
▁Supreme	-9255
▁scenario	-9256
▁accompan	-9257
▁neuro	-9258
▁beaches	-9259
▁artistic	-9260
▁Nav	-9261
▁passes	-9262
▁(“	-9263
▁Guard	-9264
▁hopefully	-9265
after	-9266
▁Brook	-9267
▁pregnancy	-9268
▁Trade	-9269
▁newest	-9270
▁representation	-9271
fers	-9272
▁Ron	-9273
estone	-9274
icide	-9275
▁conversations	-9276
▁Hills	-9277
▁Computer	-9278
▁rum	-9279
▁gal	-9280
▁administrative	-9281
▁refuge	-9282
was	-9283
▁stops	-9284
▁movements	-9285
pled	-9286
▁opposed	-9287
▁rack	-9288
▁emotion	-9289
▁HR	-9290
▁nail	-9291
▁Perfect	-9292
ibl	-9293
anny	-9294
▁terr	-9295
▁Victoria	-9296
▁principal	-9297
iah	-9298
▁prescription	-9299
▁releases	-9300
▁Lew	-9301
▁advise	-9302
▁earnings	-9303
▁hub	-9304
▁emphasis	-9305
▁mounted	-9306
▁beans	-9307
anguage	-9308
▁gambling	-9309
▁rib	-9310
▁)	-9311
▁dramatic	-9312
▁Visit	-9313
▁burning	-9314
▁inex	-9315
gener	-9316
▁formation	-9317
nesota	-9318
▁signing	-9319
oric	-9320
▁twe	-9321
▁hosts	-9322
▁conj	-9323
▁mathem	-9324
azed	-9325
▁elsewhere	-9326
▁clip	-9327
▁distingu	-9328
▁Easter	-9329
▁drama	-9330
▁Doc	-9331
▁graduated	-9332
scale	-9333
▁disaster	-9334
▁Bad	-9335
minute	-9336
▁discovery	-9337
aret	-9338
▁Transport	-9339
▁Moreover	-9340
itative	-9341
▁nations	-9342
▁cyber	-9343
▁Innov	-9344
▁transformation	-9345
▁generic	-9346
▁manif	-9347
Finally	-9348
aver	-9349
▁API	-9350
▁Arm	-9351
▁workout	-9352
▁gathered	-9353
▁timely	-9354
!”	-9355
▁Everything	-9356
▁principle	-9357
▁capability	-9358
▁enjoyable	-9359
▁facilitate	-9360
ingham	-9361
▁artificial	-9362
Two	-9363
▁ordinary	-9364
▁somehow	-9365
semble	-9366
▁hip	-9367
▁compos	-9368
iology	-9369
▁passengers	-9370
▁manufactured	-9371
ologists	-9372
▁excite	-9373
high	-9374
▁tourist	-9375
▁Austin	-9376
▁proved	-9377
▁Lic	-9378
▁Hawai	-9379
▁mouse	-9380
▁ratings	-9381
nowned	-9382
▁representing	-9383
▁Hollywood	-9384
▁subsequent	-9385
▁Cli	-9386
▁athletes	-9387
Rep	-9388
▁variable	-9389
▁Cut	-9390
aimed	-9391
▁tender	-9392
▁stocks	-9393
▁fiction	-9394
▁refe	-9395
uer	-9396
allel	-9397
▁superb	-9398
▁gre	-9399
grade	-9400
▁wrap	-9401
▁worried	-9402
orship	-9403
▁Fram	-9404
uana	-9405
▁sentence	-9406
lar	-9407
vet	-9408
wa	-9409
▁€	-9410
▁trailer	-9411
▁Furthermore	-9412
▁restrictions	-9413
▁suspect	-9414
▁Kind	-9415
ifer	-9416
▁grat	-9417
cling	-9418
▁vice	-9419
▁pix	-9420
▁cocon	-9421
▁substance	-9422
boy	-9423
▁dose	-9424
▁CL	-9425
▁selecting	-9426
▁controvers	-9427
oked	-9428
▁soup	-9429
phia	-9430
arts	-9431
▁fitted	-9432
▁nerv	-9433
▁ware	-9434
▁paintings	-9435
▁alike	-9436
ige	-9437
▁Dark	-9438
▁strive	-9439
▁Paper	-9440
▁ultra	-9441
dale	-9442
▁Exchange	-9443
▁Action	-9444
▁profits	-9445
▁excellence	-9446
▁Az	-9447
Us	-9448
▁Adam	-9449
ationally	-9450
▁spell	-9451
▁font	-9452
Step	-9453
▁sorts	-9454
▁Blog	-9455
▁Luc	-9456
▁enabled	-9457
▁immune	-9458
arest	-9459
don	-9460
▁Core	-9461
▁portra	-9462
▁allerg	-9463
▁protecting	-9464
▁Republican	-9465
▁Tam	-9466
▁Requ	-9467
best	-9468
▁Bern	-9469
▁generous	-9470
▁Winter	-9471
▁powered	-9472
swered	-9473
istent	-9474
▁receipt	-9475
▁moon	-9476
occ	-9477
▁assured	-9478
▁Donald	-9479
▁indicates	-9480
▁incorporate	-9481
▁wines	-9482
▁babies	-9483
▁CT	-9484
▁Iron	-9485
utical	-9486
▁duties	-9487
▁lin	-9488
▁cosm	-9489
▁expanding	-9490
▁inspiring	-9491
▁Based	-9492
▁Regist	-9493
▁placing	-9494
rup	-9495
▁army	-9496
▁Seattle	-9497
ospel	-9498
▁estimates	-9499
chain	-9500
▁reverse	-9501
▁apple	-9502
bound	-9503
owered	-9504
▁consulting	-9505
▁Finance	-9506
▁adequate	-9507
▁fert	-9508
osystem	-9509
▁universe	-9510
▁advised	-9511
airy	-9512
ANT	-9513
▁lady	-9514
▁Brad	-9515
▁salary	-9516
▁broker	-9517
▁walks	-9518
▁referr	-9519
▁regulation	-9520
▁Mix	-9521
▁installing	-9522
▁okay	-9523
▁Magazine	-9524
verty	-9525
ifted	-9526
cker	-9527
▁bug	-9528
▁remem	-9529
▁couch	-9530
▁announcement	-9531
▁enorm	-9532
▁Ontario	-9533
winning	-9534
▁deserve	-9535
eav	-9536
▁exch	-9537
▁arranged	-9538
▁operators	-9539
▁Construction	-9540
▁Daily	-9541
▁waves	-9542
▁extraordinary	-9543
▁bulk	-9544
▁restoration	-9545
▁productive	-9546
▁spare	-9547
▁buttons	-9548
▁III	-9549
▁remodel	-9550
adelphia	-9551
▁Nick	-9552
▁shelf	-9553
Cons	-9554
▁frames	-9555
▁exit	-9556
ilarly	-9557
▁libr	-9558
▁elder	-9559
▁jaw	-9560
▁Dom	-9561
John	-9562
▁actor	-9563
▁pupp	-9564
▁Available	-9565
▁Short	-9566
lix	-9567
▁summary	-9568
▁brid	-9569
forward	-9570
ilty	-9571
ocracy	-9572
▁qualify	-9573
▁captured	-9574
▁elections	-9575
ridge	-9576
▁olive	-9577
Book	-9578
▁references	-9579
▁Property	-9580
Does	-9581
▁poverty	-9582
▁hospitals	-9583
▁translation	-9584
?"	-9585
▁Industry	-9586
▁popularity	-9587
even	-9588
oen	-9589
▁empower	-9590
▁caut	-9591
quiry	-9592
▁sized	-9593
▁URL	-9594
▁compe	-9595
▁simultane	-9596
▁Sir	-9597
▁Electric	-9598
▁wishes	-9599
Aut	-9600
▁cord	-9601
▁Large	-9602
▁danger	-9603
▁versatile	-9604
isd	-9605
▁Working	-9606
▁oldest	-9607
▁Baby	-9608
▁Contract	-9609
▁knowledgeable	-9610
▁AB	-9611
▁piano	-9612
lee	-9613
▁horses	-9614
oln	-9615
▁fault	-9616
▁greet	-9617
▁admission	-9618
▁bran	-9619
▁coconut	-9620
▁priced	-9621
▁ore	-9622
▁relaxed	-9623
▁occasions	-9624
▁vib	-9625
▁survival	-9626
▁compan	-9627
Follow	-9628
▁Cover	-9629
intend	-9630
▁Mov	-9631
▁encouraging	-9632
▁batteries	-9633
▁answered	-9634
▁shaped	-9635
ucks	-9636
▁duration	-9637
▁Member	-9638
▁arrangement	-9639
unicipal	-9640
▁Minnesota	-9641
▁Mom	-9642
fire	-9643
▁hunting	-9644
▁ward	-9645
▁width	-9646
▁screening	-9647
acent	-9648
▁Edition	-9649
cery	-9650
▁Palest	-9651
▁Cool	-9652
▁listings	-9653
▁celebrated	-9654
▁drum	-9655
etts	-9656
▁crisp	-9657
▁Song	-9658
▁operates	-9659
▁multip	-9660
▁Material	-9661
ockey	-9662
▁rings	-9663
loved	-9664
ori	-9665
udi	-9666
▁LE	-9667
▁loaded	-9668
▁tremend	-9669
▁ranked	-9670
▁Imp	-9671
▁thinks	-9672
agraph	-9673
erals	-9674
▁specifications	-9675
▁Explo	-9676
▁Tree	-9677
▁Bru	-9678
▁lightweight	-9679
ounce	-9680
▁Brian	-9681
oom	-9682
onsin	-9683
cope	-9684
pool	-9685
▁Change	-9686
▁hob	-9687
section	-9688
▁demonstrated	-9689
aug	-9690
ickets	-9691
▁vulnerable	-9692
▁versus	-9693
▁Books	-9694
▁fed	-9695
▁Content	-9696
▁singer	-9697
▁COM	-9698
▁DE	-9699
▁drops	-9700
▁gig	-9701
▁Atlanta	-9702
▁manip	-9703
▁Chapter	-9704
▁Elizabeth	-9705
▁Lock	-9706
▁exclusively	-9707
isconsin	-9708
ethe	-9709
yes	-9710
▁Linux	-9711
▁unlock	-9712
▁Turkey	-9713
▁opposition	-9714
▁Os	-9715
▁solely	-9716
▁concentration	-9717
▁operator	-9718
FF	-9719
WS	-9720
American	-9721
▁prevention	-9722
His	-9723
prof	-9724
▁BC	-9725
papers	-9726
▁alumni	-9727
▁contacts	-9728
▁Halloween	-9729
▁followers	-9730
incess	-9731
store	-9732
▁fastest	-9733
ITH	-9734
fish	-9735
▁Davis	-9736
▁fence	-9737
▁acres	-9738
▁Brother	-9739
▁snap	-9740
▁signals	-9741
▁Prim	-9742
▁browse	-9743
▁Moon	-9744
▁Albert	-9745
▁slide	-9746
▁keyboard	-9747
▁Memorial	-9748
▁recall	-9749
▁entries	-9750
▁baseball	-9751
▁whereas	-9752
▁keen	-9753
▁loop	-9754
Under	-9755
▁protest	-9756
▁optimal	-9757
▁Sciences	-9758
▁retailers	-9759
▁hill	-9760
xygen	-9761
▁chip	-9762
▁Princ	-9763
▁towns	-9764
▁contributed	-9765
▁myth	-9766
▁Carl	-9767
▁arrested	-9768
▁caring	-9769
osit	-9770
▁bomb	-9771
▁endless	-9772
▁donation	-9773
▁Ol	-9774
▁Malays	-9775
ureau	-9776
inf	-9777
udd	-9778
▁Architect	-9779
▁essays	-9780
▁apartments	-9781
▁locate	-9782
▁Vice	-9783
▁landing	-9784
rus	-9785
▁struck	-9786
bec	-9787
iscal	-9788
pot	-9789
▁Apart	-9790
▁adoption	-9791
inates	-9792
IGH	-9793
▁physically	-9794
▁GP	-9795
▁Anth	-9796
▁Sport	-9797
▁Regard	-9798
isure	-9799
▁Quick	-9800
▁occasionally	-9801
▁dimensions	-9802
▁Jordan	-9803
achus	-9804
▁stem	-9805
def	-9806
ito	-9807
▁Py	-9808
▁streaming	-9809
▁stomach	-9810
▁Barn	-9811
▁regards	-9812
▁automated	-9813
▁loads	-9814
▁credits	-9815
▁weird	-9816
rett	-9817
▁murder	-9818
▁conservation	-9819
▁ho	-9820
▁overwhelming	-9821
▁Youth	-9822
ols	-9823
▁divorce	-9824
▁!	-9825
onymous	-9826
aceutical	-9827
▁acknowled	-9828
udes	-9829
▁reduces	-9830
▁entertaining	-9831
▁Sche	-9832
▁trails	-9833
▁Poly	-9834
VC	-9835
▁Cape	-9836
lope	-9837
▁NAS	-9838
aware	-9839
▁sexual	-9840
▁brick	-9841
▁plates	-9842
UST	-9843
vation	-9844
▁prominent	-9845
card	-9846
▁!
	-9847
▁delete	-9848
▁effectiveness	-9849
RP	-9850
ijuana	-9851
▁tort	-9852
▁assignment	-9853
▁nervous	-9854
bean	-9855
▁Grow	-9856
▁theatre	-9857
▁Advanced	-9858
▁pushed	-9859
▁physician	-9860
athon	-9861
▁Season	-9862
▁Wars	-9863
▁sne	-9864
▁agenda	-9865
▁explanation	-9866
▁emissions	-9867
▁achieving	-9868
▁outfit	-9869
▁worker	-9870
▁Cub	-9871
▁attractions	-9872
▁Excell	-9873
▁Eric	-9874
▁Furniture	-9875
elle	-9876
▁Sarah	-9877
▁tempt	-9878
▁spokes	-9879
%)	-9880
▁inse	-9881
▁involvement	-9882
▁enjoys	-9883
▁Manchester	-9884
VA	-9885
Fr	-9886
hot	-9887
▁curious	-9888
raine	-9889
▁dealer	-9890
▁Ah	-9891
▁Nature	-9892
▁Diam	-9893
▁Ask	-9894
▁outdoors	-9895
cure	-9896
▁Delhi	-9897
▁annoy	-9898
▁diamond	-9899
▁pushing	-9900
▁underlying	-9901
▁lawsu	-9902
▁laundry	-9903
NS	-9904
▁royal	-9905
▁differently	-9906
▁glasses	-9907
▁roughly	-9908
▁cultiv	-9909
iger	-9910
▁fleet	-9911
▁subtle	-9912
▁dash	-9913
▁excitement	-9914
cul	-9915
itzer	-9916
▁navigate	-9917
incoln	-9918
iley	-9919
▁legacy	-9920
▁trucks	-9921
▁placement	-9922
rub	-9923
▁neutral	-9924
▁Forum	-9925
▁disorder	-9926
▁Drag	-9927
▁fireplace	-9928
▁Budd	-9929
ilitation	-9930
▁calories	-9931
▁cer	-9932
▁Indones	-9933
ilation	-9934
▁offerings	-9935
▁Money	-9936
isp	-9937
▁analytics	-9938
rot	-9939
km	-9940
▁trigger	-9941
▁memorable	-9942
▁sequence	-9943
stic	-9944
achusetts	-9945
▁settled	-9946
mouth	-9947
▁satellite	-9948
▁cogn	-9949
sea	-9950
▁franchise	-9951
covery	-9952
▁Hur	-9953
▁reliability	-9954
▁affects	-9955
uisine	-9956
▁tied	-9957
▁iconic	-9958
▁lamp	-9959
▁Method	-9960
▁bio	-9961
▁Environmental	-9962
▁comply	-9963
▁enemy	-9964
▁tire	-9965
▁Dallas	-9966
rator	-9967
▁spectrum	-9968
▁Hay	-9969
▁Ast	-9970
▁directors	-9971
▁provisions	-9972
▁seating	-9973
rend	-9974
▁endeav	-9975
ao	-9976
▁TX	-9977
▁Melbourne	-9978
▁charging	-9979
▁grid	-9980
▁brothers	-9981
IE	-9982
▁Rand	-9983
owa	-9984
▁profiles	-9985
▁disorders	-9986
ennes	-9987
▁Philadelphia	-9988
▁prints	-9989
▁Name	-9990
▁Story	-9991
▁bottles	-9992
mod	-9993
whe	-9994
▁span	-9995
▁Past	-9996
gree	-9997
▁Lux	-9998
▁suits	-9999
esy	-10000
▁Gree	-10001
ITY	-10002
▁departments	-10003
▁interactions	-10004
atal	-10005
▁Fast	-10006
▁corpor	-10007
▁Pok	-10008
▁dipl	-10009
▁Advent	-10010
▁Ult	-10011
▁flavors	-10012
▁refers	-10013
▁Authority	-10014
▁technicians	-10015
▁complaint	-10016
party	-10017
▁explos	-10018
Som	-10019
▁Kevin	-10020
ICE	-10021
cend	-10022
▁Stephen	-10023
▁trials	-10024
▁slic	-10025
▁hadn	-10026
▁Study	-10027
▁collective	-10028
▁vitamin	-10029
▁musicians	-10030
uros	-10031
▁processor	-10032
▁knee	-10033
▁impacts	-10034
▁straw	-10035
▁unlikely	-10036
▁intervention	-10037
▁inflamm	-10038
▁secured	-10039
▁Bush	-10040
▁shoe	-10041
▁pdf	-10042
▁pregnant	-10043
iller	-10044
found	-10045
▁producers	-10046
▁Assistant	-10047
▁testim	-10048
▁Application	-10049
▁structural	-10050
▁Dave	-10051
amel	-10052
▁territory	-10053
▁presentations	-10054
▁metab	-10055
▁travelling	-10056
▁donations	-10057
▁Fab	-10058
▁cultures	-10059
▁RO	-10060
▁accomplished	-10061
▁Resort	-10062
▁grinding	-10063
▁medications	-10064
▁Tai	-10065
▁vinyl	-10066
▁threats	-10067
▁churches	-10068
▁Rome	-10069
▁Wisconsin	-10070
▁auction	-10071
hou	-10072
▁maker	-10073
▁Trail	-10074
▁Independ	-10075
▁Cell	-10076
▁Vers	-10077
▁aggreg	-10078
Hz	-10079
rong	-10080
▁difficulties	-10081
▁workforce	-10082
▁shipped	-10083
▁Retrieved	-10084
▁Eve	-10085
▁cloth	-10086
cho	-10087
angers	-10088
▁slip	-10089
rapeut	-10090
▁fingers	-10091
EX	-10092
▁boots	-10093
▁Within	-10094
▁wherever	-10095
▁permitted	-10096
▁Self	-10097
▁tourism	-10098
▁Harry	-10099
week	-10100
aft	-10101
▁bund	-10102
▁Ten	-10103
▁voters	-10104
▁Due	-10105
People	-10106
▁hence	-10107
▁sits	-10108
▁funded	-10109
▁NFL	-10110
▁virus	-10111
lette	-10112
▁races	-10113
▁IM	-10114
▁resistant	-10115
▁Creative	-10116
▁tiles	-10117
▁prest	-10118
rary	-10119
abis	-10120
▁Classic	-10121
▁Body	-10122
ington	-10123
mg	-10124
▁killing	-10125
Down	-10126
▁dismiss	-10127
▁entity	-10128
▁Regional	-10129
▁overseas	-10130
▁attorneys	-10131
▁Nut	-10132
▁desper	-10133
▁Atlantic	-10134
▁conditioning	-10135
▁absence	-10136
▁transferred	-10137
▁Experience	-10138
ritten	-10139
mont	-10140
▁jacket	-10141
vit	-10142
▁measurement	-10143
▁investigate	-10144
▁encount	-10145
▁deadline	-10146
'.	-10147
▁tackle	-10148
▁limitations	-10149
▁designated	-10150
▁Number	-10151
▁alternatives	-10152
▁Hind	-10153
▁admitted	-10154
▁dependent	-10155
Looking	-10156
▁Medic	-10157
▁Ak	-10158
iy	-10159
▁Kansas	-10160
offee	-10161
iate	-10162
▁Mu	-10163
▁carrier	-10164
Free	-10165
tech	-10166
▁judgment	-10167
▁Rog	-10168
ctic	-10169
table	-10170
▁disability	-10171
▁Lady	-10172
▁Industrial	-10173
▁deleg	-10174
▁reloc	-10175
▁handled	-10176
▁implementing	-10177
▁Resources	-10178
▁narrative	-10179
▁Orange	-10180
▁Wedding	-10181
▁confidential	-10182
▁infect	-10183
▁Terms	-10184
▁Planning	-10185
▁Mini	-10186
▁newsletter	-10187
▁Jam	-10188
▁acknowledge	-10189
▁IL	-10190
▁shortly	-10191
ousing	-10192
▁medic	-10193
▁enabling	-10194
▁champion	-10195
DC	-10196
▁anytime	-10197
▁pit	-10198
nut	-10199
sembly	-10200
▁magical	-10201
▁embed	-10202
▁Cancer	-10203
▁NS	-10204
▁’	-10205
▁Wales	-10206
yd	-10207
▁mineral	-10208
▁optional	-10209
▁Insp	-10210
View	-10211
▁Sym	-10212
▁routes	-10213
such	-10214
BO	-10215
▁preserve	-10216
▁aqu	-10217
▁FR	-10218
▁Miller	-10219
▁retired	-10220
▁Massachusetts	-10221
ref	-10222
▁ships	-10223
▁':	-10224
▁colorful	-10225
erty	-10226
▁smoking	-10227
iffs	-10228
igrants	-10229
▁participated	-10230
▁dancing	-10231
aire	-10232
▁hired	-10233
▁Pharm	-10234
▁realistic	-10235
▁actors	-10236
▁arom	-10237
gain	-10238
▁Restaur	-10239
▁fake	-10240
▁Photos	-10241
▁blow	-10242
▁EC	-10243
iva	-10244
▁merg	-10245
▁Comb	-10246
▁ecosystem	-10247
cs	-10248
commerce	-10249
▁cinem	-10250
▁headqu	-10251
▁plumbing	-10252
▁IC	-10253
▁Bathroom	-10254
▁Things	-10255
▁gently	-10256
ishment	-10257
plant	-10258
fections	-10259
▁settle	-10260
▁asks	-10261
▁mixing	-10262
▁compassion	-10263
▁fur	-10264
▁jurisd	-10265
▁poetry	-10266
▁parad	-10267
▁tailored	-10268
ECT	-10269
▁luxurious	-10270
ika	-10271
▁renowned	-10272
▁gut	-10273
▁stakeholders	-10274
▁AG	-10275
▁downloaded	-10276
▁horm	-10277
”)	-10278
▁timing	-10279
ummy	-10280
▁Korean	-10281
▁tennis	-10282
▁thesis	-10283
▁recon	-10284
▁sew	-10285
▁CC	-10286
▁hardly	-10287
▁clinic	-10288
▁Age	-10289
▁containers	-10290
ouver	-10291
ussion	-10292
irk	-10293
▁terrible	-10294
idity	-10295
▁Valent	-10296
▁prosecut	-10297
▁Dutch	-10298
▁cookie	-10299
ascular	-10300
rec	-10301
▁costly	-10302
▁dialogue	-10303
pur	-10304
▁nicely	-10305
▁fitting	-10306
▁declared	-10307
IVE	-10308
enth	-10309
olk	-10310
▁anch	-10311
▁composed	-10312
▁tension	-10313
necess	-10314
ifferent	-10315
▁Matthew	-10316
phic	-10317
▁organize	-10318
season	-10319
elve	-10320
ey	-10321
▁balls	-10322
▁combines	-10323
▁accred	-10324
▁Maryland	-10325
▁twin	-10326
akh	-10327
▁analyze	-10328
▁Certified	-10329
▁sli	-10330
▁harmful	-10331
▁Double	-10332
.
–	-10333
▁closet	-10334
▁bay	-10335
▁trad	-10336
▁suited	-10337
thm	-10338
there	-10339
▁Marc	-10340
▁labels	-10341
▁rescue	-10342
▁achievement	-10343
▁promises	-10344
▁CF	-10345
▁identification	-10346
▁gam	-10347
▁Eag	-10348
▁intu	-10349
▁shades	-10350
▁stopping	-10351
▁troubles	-10352
▁eager	-10353
▁Wilson	-10354
▁Break	-10355
▁consultant	-10356
▁writes	-10357
▁Performance	-10358
bie	-10359
▁potatoes	-10360
▁Democratic	-10361
ostic	-10362
▁execution	-10363
via	-10364
▁Dy	-10365
▁scoring	-10366
▁Bull	-10367
▁collecting	-10368
rep	-10369
▁Aqu	-10370
▁varied	-10371
▁identifying	-10372
etooth	-10373
▁agreements	-10374
▁hiking	-10375
▁gray	-10376
▁impress	-10377
bled	-10378
prises	-10379
▁engineer	-10380
▁destroyed	-10381
▁recru	-10382
▁mask	-10383
Out	-10384
Inst	-10385
▁outer	-10386
▁MO	-10387
▁propri	-10388
▁odds	-10389
▁retreat	-10390
▁reserves	-10391
▁accompanied	-10392
▁authorized	-10393
ello	-10394
▁amp	-10395
otherapy	-10396
range	-10397
▁hitting	-10398
▁annually	-10399
▁Bat	-10400
▁soldiers	-10401
wart	-10402
▁basement	-10403
▁Indiana	-10404
▁acceptable	-10405
itters	-10406
▁uniform	-10407
▁betting	-10408
▁guided	-10409
▁sevent	-10410
▁Equipment	-10411
olds	-10412
▁crystal	-10413
▁hell	-10414
rous	-10415
▁universal	-10416
Best	-10417
▁encry	-10418
oz	-10419
venues	-10420
▁toy	-10421
▁frozen	-10422
▁diameter	-10423
▁Interest	-10424
▁marine	-10425
Net	-10426
▁branches	-10427
▁publications	-10428
▁Door	-10429
▁Beautiful	-10430
▁cub	-10431
retion	-10432
oos	-10433
▁guilty	-10434
owed	-10435
TML	-10436
▁bits	-10437
▁delighted	-10438
▁poster	-10439
▁wellness	-10440
▁Pers	-10441
▁disturb	-10442
▁aggressive	-10443
nie	-10444
▁associate	-10445
▁Ever	-10446
▁Exp	-10447
▁Berlin	-10448
▁encl	-10449
▁fancy	-10450
▁voted	-10451
▁exploration	-10452
aved	-10453
▁Deb	-10454
SL	-10455
Point	-10456
▁addiction	-10457
▁Prince	-10458
▁Unit	-10459
▁grain	-10460
orms	-10461
▁Among	-10462
▁Jenn	-10463
.
>	-10464
ouri	-10465
apse	-10466
ALL	-10467
lend	-10468
istical	-10469
▁crushing	-10470
▁mystery	-10471
▁PhD	-10472
▁peaceful	-10473
▁Sab	-10474
Start	-10475
▁Pain	-10476
ighth	-10477
▁immigration	-10478
▁stays	-10479
▁tablets	-10480
----	-10481
▁Consider	-10482
aga	-10483
▁satisfy	-10484
ishers	-10485
▁tower	-10486
▁neighbors	-10487
only	-10488
▁USD	-10489
▁DIY	-10490
▁imagination	-10491
▁considerable	-10492
▁Sure	-10493
Did	-10494
▁Kenn	-10495
▁inev	-10496
▁shorter	-10497
kind	-10498
▁accidents	-10499
▁scal	-10500
▁couples	-10501
▁enormous	-10502
ancouver	-10503
▁audiences	-10504
▁coaches	-10505
▁PL	-10506
▁laboratory	-10507
▁penalty	-10508
inth	-10509
▁rug	-10510
▁makers	-10511
iel	-10512
▁bun	-10513
▁Steven	-10514
▁Birth	-10515
▁ISO	-10516
▁controller	-10517
▁Must	-10518
mann	-10519
▁Size	-10520
▁colored	-10521
▁requiring	-10522
▁Mind	-10523
▁treats	-10524
▁bin	-10525
▁filing	-10526
called	-10527
▁Nations	-10528
berries	-10529
▁jer	-10530
disc	-10531
▁Snow	-10532
▁tourists	-10533
▁motivation	-10534
▁feeding	-10535
▁arbit	-10536
Comm	-10537
rowave	-10538
▁desert	-10539
▁obstac	-10540
▁Job	-10541
▁Springs	-10542
lay	-10543
▁hybrid	-10544
▁adopt	-10545
▁Bookmark	-10546
▁Tan	-10547
▁ANY	-10548
Vis	-10549
▁Sep	-10550
▁disk	-10551
▁plugin	-10552
▁utilizing	-10553
▁detection	-10554
▁Lincoln	-10555
▁cleaner	-10556
bally	-10557
▁sustainability	-10558
▁theater	-10559
▁grants	-10560
****	-10561
▁Portug	-10562
▁Sony	-10563
▁paragraph	-10564
▁cig	-10565
▁Round	-10566
▁Cooper	-10567
▁showcase	-10568
▁rocks	-10569
▁carries	-10570
ourse	-10571
▁gains	-10572
guard	-10573
▁render	-10574
▁Rent	-10575
itivity	-10576
▁homeowners	-10577
▁Condition	-10578
▁qualities	-10579
▁uk	-10580
▁Vietnam	-10581
▁Galaxy	-10582
▁rect	-10583
▁preferences	-10584
▁sq	-10585
KE	-10586
▁marketplace	-10587
ended	-10588
agan	-10589
▁filters	-10590
▁wed	-10591
▁nuts	-10592
▁boats	-10593
irl	-10594
▁Inn	-10595
aki	-10596
▁Cleaning	-10597
▁inhib	-10598
▁Attor	-10599
▁speeds	-10600
mart	-10601
▁Below	-10602
▁Cash	-10603
Having	-10604
▁formats	-10605
▁Brow	-10606
▁recept	-10607
▁rewards	-10608
lah	-10609
▁lung	-10610
▁Sant	-10611
▁Josh	-10612
▁entrepreneur	-10613
PP	-10614
inar	-10615
▁Christians	-10616
▁lecture	-10617
▁pione	-10618
▁barely	-10619
▁Tony	-10620
SI	-10621
Gener	-10622
▁Prior	-10623
uman	-10624
▁careers	-10625
walk	-10626
Both	-10627
▁precisely	-10628
▁modify	-10629
▁exhibit	-10630
har	-10631
otte	-10632
▁knife	-10633
▁WE	-10634
▁backed	-10635
▁voting	-10636
▁Buff	-10637
▁synd	-10638
▁vacuum	-10639
selling	-10640
▁Resume	-10641
▁agricultural	-10642
▁zip	-10643
building	-10644
▁soap	-10645
▁Anton	-10646
▁establishment	-10647
▁sacrif	-10648
▁Text	-10649
opher	-10650
dam	-10651
emade	-10652
▁Host	-10653
Cur	-10654
▁reflects	-10655
iplinary	-10656
▁instances	-10657
▁Manual	-10658
icating	-10659
▁acceptance	-10660
▁hesitate	-10661
▁irrit	-10662
▁somebody	-10663
▁treating	-10664
atching	-10665
▁myster	-10666
Fl	-10667
▁soccer	-10668
▁leak	-10669
’.
	-10670
▁tags	-10671
▁ladies	-10672
▁promised	-10673
▁bite	-10674
author	-10675
▁destinations	-10676
▁mad	-10677
HD	-10678
▁Lyn	-10679
zens	-10680
▁Emp	-10681
▁parallel	-10682
▁begun	-10683
▁breathing	-10684
▁Bab	-10685
▁Economic	-10686
▁crafts	-10687
▁permal	-10688
▁disrupt	-10689
dated	-10690
▁Oxford	-10691
▁complaints	-10692
▁Complete	-10693
▁genetic	-10694
▁beliefs	-10695
▁verify	-10696
▁oxygen	-10697
▁Castle	-10698
▁Altern	-10699
▁Early	-10700
▁voltage	-10701
▁neat	-10702
▁specialty	-10703
▁Gas	-10704
▁Stra	-10705
▁technological	-10706
▁bearing	-10707
▁Dead	-10708
▁unlimited	-10709
▁bene	-10710
irable	-10711
▁hass	-10712
▁weakness	-10713
▁electro	-10714
orted	-10715
rior	-10716
▁thro	-10717
▁replacing	-10718
▁pine	-10719
▁heal	-10720
▁preced	-10721
▁tang	-10722
▁fer	-10723
▁tune	-10724
anship	-10725
▁Greg	-10726
▁suspend	-10727
▁Following	-10728
▁CM	-10729
acter	-10730
▁Raj	-10731
usions	-10732
mind	-10733
▁divers	-10734
▁Much	-10735
▁striking	-10736
▁Championship	-10737
▁moral	-10738
▁Homes	-10739
▁rush	-10740
Which	-10741
▁mature	-10742
▁favorites	-10743
▁permalink	-10744
▁scholarship	-10745
▁festiv	-10746
▁confused	-10747
ateral	-10748
fly	-10749
▁Doctor	-10750
▁hills	-10751
ixtures	-10752
▁relate	-10753
▁Han	-10754
▁receives	-10755
ividually	-10756
▁Moo	-10757
▁paste	-10758
▁camping	-10759
▁holder	-10760
▁VA	-10761
▁purple	-10762
ushes	-10763
▁visa	-10764
ailand	-10765
fortable	-10766
▁sponsored	-10767
▁Pick	-10768
▁kits	-10769
SM	-10770
▁blessed	-10771
Using	-10772
▁transparent	-10773
▁BBC	-10774
▁Stay	-10775
▁Polit	-10776
▁Commercial	-10777
UI	-10778
Pal	-10779
▁gel	-10780
▁showc	-10781
▁Date	-10782
▁Month	-10783
▁Fresh	-10784
▁dressing	-10785
▁bankrupt	-10786
▁insure	-10787
▁Compet	-10788
▁Dump	-10789
essed	-10790
▁nutrients	-10791
▁recommendation	-10792
▁centuries	-10793
▁homework	-10794
▁pollution	-10795
▁grocery	-10796
▁steady	-10797
▁temple	-10798
▁nest	-10799
enter	-10800
Through	-10801
▁Clinton	-10802
▁magnific	-10803
▁weapon	-10804
who	-10805
▁measurements	-10806
▁passenger	-10807
ottage	-10808
Play	-10809
▁Kit	-10810
▁phrase	-10811
▁Aw	-10812
roit	-10813
▁merchand	-10814
▁unnecess	-10815
stop	-10816
▁tasty	-10817
▁utilized	-10818
▁adjustable	-10819
▁expecting	-10820
▁Les	-10821
gov	-10822
▁exec	-10823
addle	-10824
rors	-10825
▁Interior	-10826
▁responded	-10827
▁observe	-10828
▁lounge	-10829
AG	-10830
▁Navy	-10831
aa	-10832
▁countless	-10833
▁login	-10834
▁Schools	-10835
▁Dur	-10836
lation	-10837
hill	-10838
▁jam	-10839
attan	-10840
▁Gene	-10841
▁motivated	-10842
▁audit	-10843
reated	-10844
▁tries	-10845
▁Belg	-10846
itutes	-10847
▁vendor	-10848
▁automation	-10849
Despite	-10850
▁Ped	-10851
▁Nurs	-10852
▁Sac	-10853
▁confirmation	-10854
▁Six	-10855
▁stones	-10856
▁converted	-10857
▁incorporated	-10858
▁dozen	-10859
▁ignore	-10860
otes	-10861
ORE	-10862
▁Create	-10863
FT	-10864
▁ster	-10865
quet	-10866
High	-10867
▁speaks	-10868
owned	-10869
▁liver	-10870
▁argue	-10871
▁intrig	-10872
▁integrate	-10873
▁venues	-10874
▁ordering	-10875
burn	-10876
pert	-10877
▁discipline	-10878
▁radi	-10879
▁inspect	-10880
▁Nether	-10881
▁Block	-10882
▁islands	-10883
▁caf	-10884
izations	-10885
▁domin	-10886
▁tires	-10887
lights	-10888
▁Islands	-10889
Back	-10890
effective	-10891
▁celebrating	-10892
eling	-10893
isted	-10894
▁Lewis	-10895
▁Tro	-10896
▁pron	-10897
LD	-10898
▁Ali	-10899
▁fridge	-10900
bes	-10901
▁conce	-10902
▁architectural	-10903
aped	-10904
▁Storage	-10905
orious	-10906
▁disappointed	-10907
ventions	-10908
▁immun	-10909
▁embrace	-10910
▁Craft	-10911
▁courage	-10912
▁supporters	-10913
▁votes	-10914
conf	-10915
▁bicy	-10916
inkle	-10917
▁Bird	-10918
▁dried	-10919
▁EP	-10920
▁meditation	-10921
▁Hom	-10922
▁aging	-10923
▁Jay	-10924
Med	-10925
inge	-10926
▁Nothing	-10927
ppy	-10928
▁spoken	-10929
▁obligation	-10930
iro	-10931
town	-10932
▁Course	-10933
▁NJ	-10934
mith	-10935
▁IV	-10936
▁bones	-10937
lan	-10938
▁ears	-10939
commun	-10940
pling	-10941
▁Mir	-10942
▁junk	-10943
▁disabled	-10944
writing	-10945
▁Chen	-10946
beat	-10947
▁Coffee	-10948
ims	-10949
▁continuously	-10950
▁WW	-10951
agine	-10952
▁Rain	-10953
▁climbing	-10954
ez	-10955
▁Pitt	-10956
▁modules	-10957
▁strip	-10958
▁ME	-10959
▁drove	-10960
open	-10961
▁easiest	-10962
▁discussing	-10963
▁jail	-10964
▁Grant	-10965
▁Lot	-10966
▁Pear	-10967
▁Tel	-10968
▁na	-10969
▁junior	-10970
▁Wire	-10971
▁publicly	-10972
▁beloved	-10973
▁Jane	-10974
▁moderate	-10975
▁seasonal	-10976
▁additionally	-10977
▁uncle	-10978
▁decorative	-10979
bet	-10980
▁Jason	-10981
▁measuring	-10982
▁shelter	-10983
▁GPS	-10984
▁Bry	-10985
▁collaborative	-10986
▁Pages	-10987
▁forgotten	-10988
▁snack	-10989
▁invested	-10990
▁intake	-10991
▁tomatoes	-10992
▁',	-10993
▁specially	-10994
▁Patrick	-10995
▁wing	-10996
▁patent	-10997
yles	-10998
▁Michel	-10999
▁Vancouver	-11000
▁precision	-11001
▁Intell	-11002
▁Dad	-11003
▁instructor	-11004
▁Appro	-11005
gets	-11006
ju	-11007
fulness	-11008
squ	-11009
jack	-11010
ennessee	-11011
▁tropical	-11012
▁cups	-11013
▁canvas	-11014
▁coupons	-11015
ACK	-11016
▁complexity	-11017
▁IBM	-11018
▁Enterprise	-11019
▁rolled	-11020
▁Practice	-11021
▁Hal	-11022
orse	-11023
they	-11024
▁Challenge	-11025
▁marijuana	-11026
▁vocal	-11027
TO	-11028
▁Ho	-11029
ictions	-11030
Gra	-11031
▁colleges	-11032
▁Brew	-11033
oenix	-11034
▁blogging	-11035
▁internationally	-11036
▁YOUR	-11037
▁automotive	-11038
▁durability	-11039
▁Lam	-11040
▁traditions	-11041
▁Nation	-11042
▁EM	-11043
verages	-11044
▁locked	-11045
▁peer	-11046
▁prospects	-11047
▁SW	-11048
cur	-11049
ontal	-11050
▁attendance	-11051
▁Along	-11052
▁Besides	-11053
▁Jean	-11054
▁excessive	-11055
▁steep	-11056
▁simultaneously	-11057
▁Mand	-11058
▁cancel	-11059
▁Gh	-11060
reach	-11061
UC	-11062
▁incom	-11063
▁Magn	-11064
▁Veter	-11065
▁hood	-11066
itutional	-11067
▁intelligent	-11068
▁sup	-11069
▁scrap	-11070
odd	-11071
▁separately	-11072
rine	-11073
▁Afghan	-11074
Call	-11075
▁Always	-11076
▁handles	-11077
asion	-11078
▁wrapped	-11079
▁promotional	-11080
mad	-11081
imum	-11082
▁Side	-11083
El	-11084
▁Islam	-11085
▁Laure	-11086
▁Want	-11087
▁rod	-11088
▁cuisine	-11089
▁corresponding	-11090
▁electronics	-11091
Very	-11092
DR	-11093
▁mas	-11094
▁roofing	-11095
backs	-11096
wind	-11097
link	-11098
▁Bitcoin	-11099
▁appet	-11100
▁crop	-11101
post	-11102
mn	-11103
itty	-11104
maker	-11105
▁suspension	-11106
▁reveals	-11107
olen	-11108
▁fantasy	-11109
▁distinctive	-11110
▁cust	-11111
erest	-11112
isers	-11113
▁Speed	-11114
▁painful	-11115
plus	-11116
▁booth	-11117
Those	-11118
Bel	-11119
▁unfortunately	-11120
▁bout	-11121
▁portal	-11122
imens	-11123
taking	-11124
▁Emb	-11125
▁Quest	-11126
▁backyard	-11127
▁comedy	-11128
▁terminal	-11129
▁navigation	-11130
▁corporations	-11131
▁interpretation	-11132
▁Heritage	-11133
▁prospect	-11134
▁grows	-11135
▁density	-11136
▁lean	-11137
▁Temple	-11138
▁accused	-11139
ishop	-11140
itarian	-11141
▁individually	-11142
.-	-11143
▁Five	-11144
IO	-11145
▁recycling	-11146
▁supplements	-11147
▁console	-11148
▁Parliament	-11149
eller	-11150
▁Wy	-11151
▁les	-11152
▁hike	-11153
ella	-11154
▁varieties	-11155
▁Analysis	-11156
▁Balt	-11157
▁burden	-11158
▁possession	-11159
▁Ross	-11160
▁calculated	-11161
olitan	-11162
▁teaches	-11163
▁Advis	-11164
LO	-11165
ortion	-11166
opes	-11167
▁Gate	-11168
▁documentary	-11169
iar	-11170
▁ye	-11171
▁tear	-11172
INE	-11173
▁analys	-11174
vable	-11175
▁WITH	-11176
▁breed	-11177
▁Desk	-11178
▁Mexican	-11179
▁boundaries	-11180
▁Alliance	-11181
▁confront	-11182
Learn	-11183
▁cleans	-11184
▁heated	-11185
▁shine	-11186
▁fiscal	-11187
mother	-11188
▁gross	-11189
▁Friends	-11190
▁Rus	-11191
▁oh	-11192
tic	-11193
▁disag	-11194
▁Islamic	-11195
irtual	-11196
▁Affairs	-11197
▁solving	-11198
▁Writing	-11199
▁loading	-11200
▁candy	-11201
▁Phone	-11202
▁demanding	-11203
▁grades	-11204
▁foster	-11205
▁Marine	-11206
▁adventures	-11207
ova	-11208
▁Vit	-11209
▁earning	-11210
.....	-11211
▁disposal	-11212
▁Mission	-11213
▁computing	-11214
▁Kelly	-11215
▁defensive	-11216
orks	-11217
▁NEW	-11218
ondition	-11219
depth	-11220
▁logic	-11221
▁Marsh	-11222
hell	-11223
▁applicants	-11224
▁appreciation	-11225
▁province	-11226
▁Imm	-11227
▁Corn	-11228
gate	-11229
▁invitation	-11230
▁Major	-11231
osph	-11232
▁jazz	-11233
!"	-11234
▁fut	-11235
▁Iowa	-11236
▁tears	-11237
▁tremendous	-11238
abs	-11239
ixed	-11240
▁mobility	-11241
▁neighbour	-11242
▁Bureau	-11243
enger	-11244
olves	-11245
▁winds	-11246
▁tar	-11247
▁gradually	-11248
ropri	-11249
▁passage	-11250
▁Bring	-11251
▁Olympic	-11252
name	-11253
ustain	-11254
pensive	-11255
stock	-11256
▁Chi	-11257
rogen	-11258
▁reflection	-11259
▁Nigeria	-11260
▁Assembly	-11261
▁Currently	-11262
▁hal	-11263
▁handful	-11264
▁proposals	-11265
▁Bus	-11266
▁VPN	-11267
▁diagnosed	-11268
igenous	-11269
shine	-11270
unting	-11271
igs	-11272
pres	-11273
▁dive	-11274
Av	-11275
▁Sri	-11276
▁fragr	-11277
▁discrim	-11278
osa	-11279
▁magnetic	-11280
▁fallen	-11281
▁ampl	-11282
▁presenting	-11283
▁Falls	-11284
▁exempt	-11285
FS	-11286
▁ET	-11287
▁Hyd	-11288
▁dentist	-11289
▁Style	-11290
Inc	-11291
▁Scient	-11292
▁agriculture	-11293
ounding	-11294
▁decorating	-11295
▁discretion	-11296
▁Thanksgiving	-11297
▁Cambridge	-11298
erge	-11299
▁Peace	-11300
Keep	-11301
▁coins	-11302
▁submission	-11303
▁titled	-11304
▁kilomet	-11305
▁Meeting	-11306
▁healthier	-11307
heart	-11308
▁accompany	-11309
▁Cart	-11310
▁Corp	-11311
▁builds	-11312
▁cleaned	-11313
isan	-11314
▁mud	-11315
▁Tool	-11316
▁sensors	-11317
▁straightforward	-11318
abad	-11319
ui	-11320
▁Ave	-11321
▁Denver	-11322
▁Pin	-11323
▁preventing	-11324
▁denied	-11325
enery	-11326
icked	-11327
lahoma	-11328
bris	-11329
otype	-11330
▁Hig	-11331
▁Mail	-11332
▁mira	-11333
▁Israeli	-11334
CR	-11335
▁attempting	-11336
arat	-11337
▁bron	-11338
▁lighter	-11339
▁Channel	-11340
▁notification	-11341
arency	-11342
robe	-11343
▁cyl	-11344
▁Laur	-11345
▁obligations	-11346
▁Toyota	-11347
▁Dance	-11348
▁independence	-11349
▁Ear	-11350
▁arise	-11351
▁Football	-11352
▁Future	-11353
▁deter	-11354
▁Ele	-11355
▁Hart	-11356
▁Sho	-11357
▁programmes	-11358
VP	-11359
▁ranges	-11360
▁GA	-11361
mate	-11362
▁bust	-11363
▁classical	-11364
▁overs	-11365
hist	-11366
bling	-11367
adays	-11368
▁Premier	-11369
ML	-11370
▁Thailand	-11371
▁max	-11372
▁Carib	-11373
▁Reserve	-11374
rell	-11375
▁pays	-11376
▁variations	-11377
▁deaths	-11378
▁Had	-11379
▁Reading	-11380
▁spouse	-11381
Em	-11382
▁reminder	-11383
Christ	-11384
▁mutual	-11385
amins	-11386
▁outlet	-11387
▁folk	-11388
▁lovers	-11389
▁delicate	-11390
▁clim	-11391
▁paths	-11392
owship	-11393
▁closest	-11394
▁assault	-11395
▁refused	-11396
▁vegetable	-11397
▁Records	-11398
▁Netherlands	-11399
▁manually	-11400
▁thirty	-11401
▁lying	-11402
Home	-11403
▁mush	-11404
bird	-11405
▁query	-11406
▁Metal	-11407
▁HTML	-11408
▁Entertain	-11409
good	-11410
specific	-11411
▁liable	-11412
▁preview	-11413
▁assisted	-11414
.
[	-11415
health	-11416
▁shelves	-11417
▁Amb	-11418
▁Var	-11419
onia	-11420
▁dele	-11421
▁pockets	-11422
▁conferences	-11423
▁Making	-11424
▁charts	-11425
▁welcoming	-11426
aired	-11427
▁%	-11428
▁thrown	-11429
▁voices	-11430
GR	-11431
▁dedication	-11432
rapeutic	-11433
▁pasta	-11434
▁Rot	-11435
▁File	-11436
▁fails	-11437
▁libraries	-11438
▁valued	-11439
▁carp	-11440
dings	-11441
▁dozens	-11442
▁genre	-11443
▁Tennessee	-11444
Red	-11445
▁Java	-11446
▁Rout	-11447
▁contacted	-11448
▁recruitment	-11449
▁Simple	-11450
▁ethnic	-11451
ntil	-11452
▁nationwide	-11453
▁Malaysia	-11454
▁continually	-11455
▁leisure	-11456
uru	-11457
▁stroke	-11458
▁Move	-11459
▁psychological	-11460
etheless	-11461
umbers	-11462
▁Better	-11463
▁corners	-11464
DI	-11465
▁nobody	-11466
▁Unlike	-11467
▁grip	-11468
Bay	-11469
▁premises	-11470
comed	-11471
orient	-11472
▁airline	-11473
matic	-11474
▁basics	-11475
▁startup	-11476
abama	-11477
Art	-11478
lihood	-11479
▁Lane	-11480
▁essence	-11481
rying	-11482
▁demo	-11483
▁competing	-11484
▁Pil	-11485
▁garbage	-11486
▁influenced	-11487
▁Chairman	-11488
▁oz	-11489
esis	-11490
▁boasts	-11491
▁WA	-11492
▁nurse	-11493
▁Roof	-11494
▁Flash	-11495
▁deciding	-11496
▁wax	-11497
▁Missouri	-11498
▁radical	-11499
▁derived	-11500
▁blame	-11501
▁investor	-11502
▁Dubai	-11503
▁Communications	-11504
▁dont	-11505
▁Impro	-11506
acco	-11507
oning	-11508
▁Mort	-11509
▁Magic	-11510
▁Allen	-11511
Loc	-11512
▁Ky	-11513
▁stere	-11514
▁supportive	-11515
▁hazard	-11516
about	-11517
▁prospective	-11518
enz	-11519
▁Pinterest	-11520
▁Solar	-11521
aud	-11522
▁binary	-11523
izable	-11524
▁Anne	-11525
▁Simon	-11526
▁Democrats	-11527
Off	-11528
▁ties	-11529
▁Dat	-11530
▁regime	-11531
▁offensive	-11532
▁figured	-11533
cked	-11534
▁gaining	-11535
▁episodes	-11536
▁lobby	-11537
inction	-11538
▁maximize	-11539
uther	-11540
▁concluded	-11541
▁UC	-11542
iche	-11543
sl	-11544
▁addressing	-11545
▁devoted	-11546
▁Rap	-11547
▁identical	-11548
▁HERE	-11549
▁premier	-11550
▁remed	-11551
▁pulling	-11552
antry	-11553
ogy	-11554
▁GO	-11555
▁constra	-11556
▁toxic	-11557
▁herbs	-11558
▁Coc	-11559
father	-11560
uf	-11561
▁NH	-11562
▁Single	-11563
azines	-11564
▁restricted	-11565
▁beneath	-11566
trans	-11567
asures	-11568
▁affiliate	-11569
▁Ta	-11570
▁Cos	-11571
▁hunt	-11572
▁Portland	-11573
▁caps	-11574
▁Represent	-11575
▁snacks	-11576
▁Source	-11577
▁Jews	-11578
▁Clear	-11579
▁binding	-11580
apters	-11581
▁jar	-11582
▁visibility	-11583
▁facial	-11584
▁keywords	-11585
▁Dor	-11586
▁Technical	-11587
▁responsive	-11588
apolis	-11589
▁readily	-11590
phan	-11591
▁brace	-11592
uv	-11593
▁recipient	-11594
UP	-11595
▁veteran	-11596
▁convinced	-11597
▁Agricult	-11598
▁dimension	-11599
▁Ark	-11600
▁Liter	-11601
asive	-11602
▁ancest	-11603
▁pants	-11604
▁charming	-11605
▁Deep	-11606
▁accent	-11607
▁bathrooms	-11608
▁shore	-11609
Contact	-11610
▁bonds	-11611
jections	-11612
▁unemploy	-11613
▁oak	-11614
........	-11615
▁stur	-11616
▁implications	-11617
▁resil	-11618
▁significance	-11619
▁Beh	-11620
▁RA	-11621
immer	-11622
▁Nap	-11623
▁booked	-11624
isting	-11625
▁tong	-11626
▁appealing	-11627
▁customize	-11628
▁Bron	-11629
▁strain	-11630
▁establishing	-11631
▁protective	-11632
onge	-11633
▁Philippines	-11634
▁Letter	-11635
▁progressive	-11636
▁accessed	-11637
▁deemed	-11638
▁entities	-11639
ked	-11640
▁defeat	-11641
▁onion	-11642
▁incorrect	-11643
▁lately	-11644
Time	-11645
▁Less	-11646
Eng	-11647
▁prizes	-11648
▁Jun	-11649
▁theore	-11650
aco	-11651
▁Palestin	-11652
ocur	-11653
▁semester	-11654
?!	-11655
ante	-11656
▁Highway	-11657
game	-11658
▁dealers	-11659
▁tastes	-11660
will	-11661
IST	-11662
▁consistency	-11663
▁neglect	-11664
▁coin	-11665
outheast	-11666
▁dear	-11667
▁viagra	-11668
▁comic	-11669
▁Cher	-11670
▁clever	-11671
icular	-11672
oons	-11673
speed	-11674
▁intend	-11675
▁Companies	-11676
▁singles	-11677
iere	-11678
pace	-11679
▁functioning	-11680
▁Burn	-11681
▁Medicare	-11682
▁fired	-11683
▁hem	-11684
asm	-11685
Her	-11686
chestra	-11687
▁Staff	-11688
▁bol	-11689
onomic	-11690
Set	-11691
▁finishes	-11692
▁mechanisms	-11693
ulates	-11694
sex	-11695
arer	-11696
▁reminded	-11697
▁с	-11698
▁variables	-11699
▁Cele	-11700
▁seeks	-11701
olph	-11702
built	-11703
shore	-11704
▁tends	-11705
▁onions	-11706
code	-11707
▁Anderson	-11708
▁digest	-11709
▁fortun	-11710
▁anticipated	-11711
''	-11712
▁rounds	-11713
▁GB	-11714
▁batch	-11715
▁Pad	-11716
▁symbols	-11717
itects	-11718
▁graduates	-11719
▁revers	-11720
oria	-11721
quisite	-11722
▁machinery	-11723
▁packing	-11724
▁dirty	-11725
auge	-11726
▁compelling	-11727
▁Chrome	-11728
itzerland	-11729
▁Greece	-11730
▁Queens	-11731
▁Ath	-11732
▁magnificent	-11733
eman	-11734
▁hassle	-11735
▁accurately	-11736
ching	-11737
▁ber	-11738
▁clarity	-11739
arios	-11740
▁lam	-11741
▁inhab	-11742
▁honestly	-11743
▁crafted	-11744
neath	-11745
service	-11746
▁disabilities	-11747
▁texts	-11748
▁Nik	-11749
▁Holiday	-11750
▁Girl	-11751
▁upset	-11752
▁surgical	-11753
▁thereby	-11754
▁valve	-11755
▁throwing	-11756
▁funeral	-11757
▁lenses	-11758
▁Language	-11759
▁exams	-11760
count	-11761
▁Attorney	-11762
▁shadow	-11763
▁thermal	-11764
▁defic	-11765
▁optimization	-11766
▁BR	-11767
▁devast	-11768
aul	-11769
▁skip	-11770
▁Battle	-11771
▁Final	-11772
▁worlds	-11773
▁Index	-11774
▁harsh	-11775
xx	-11776
▁Scottish	-11777
▁blocked	-11778
▁determination	-11779
ounced	-11780
▁destruction	-11781
▁worthy	-11782
▁welcomed	-11783
▁Foreign	-11784
▁bother	-11785
oub	-11786
chair	-11787
▁Fle	-11788
▁bikes	-11789
▁separated	-11790
▁unnecessary	-11791
▁Title	-11792
▁orth	-11793
▁gluten	-11794
▁Ni	-11795
▁homeless	-11796
▁dispute	-11797
▁Could	-11798
stick	-11799
flix	-11800
▁perception	-11801
▁seemingly	-11802
▁evident	-11803
▁THIS	-11804
pectives	-11805
ITE	-11806
▁breach	-11807
▁offense	-11808
cium	-11809
▁highlighted	-11810
▁mp	-11811
▁abstract	-11812
▁boring	-11813
▁HE	-11814
▁peers	-11815
naments	-11816
▁strengths	-11817
▁tweet	-11818
▁glory	-11819
▁Email	-11820
stairs	-11821
▁debris	-11822
forming	-11823
herent	-11824
▁dessert	-11825
▁CV	-11826
▁adjusted	-11827
▁tops	-11828
▁informative	-11829
▁Turk	-11830
▁UP	-11831
▁Governor	-11832
▁jet	-11833
▁Hair	-11834
plex	-11835
▁contributing	-11836
▁coastal	-11837
▁experimental	-11838
Ty	-11839
▁queries	-11840
break	-11841
%.
	-11842
▁floating	-11843
.’	-11844
▁Der	-11845
▁cheer	-11846
elson	-11847
▁Wine	-11848
▁preference	-11849
▁flows	-11850
▁intimate	-11851
▁tempor	-11852
▁tale	-11853
▁cannabis	-11854
▁affairs	-11855
ratulations	-11856
▁Third	-11857
▁cement	-11858
▁prestigious	-11859
▁Leon	-11860
▁Mun	-11861
▁intensity	-11862
▁Bright	-11863
▁humanity	-11864
green	-11865
▁thy	-11866
oft	-11867
aus	-11868
idth	-11869
▁differ	-11870
▁attempted	-11871
rylic	-11872
▁priorities	-11873
▁Talk	-11874
▁Oklahoma	-11875
▁Chamber	-11876
▁nearest	-11877
▁partnerships	-11878
▁blade	-11879
▁obtaining	-11880
▁treasure	-11881
▁embra	-11882
rons	-11883
▁balcon	-11884
▁whis	-11885
offs	-11886
aughters	-11887
Trans	-11888
▁Several	-11889
▁Century	-11890
marks	-11891
▁homemade	-11892
formed	-11893
Download	-11894
▁shield	-11895
▁weekends	-11896
▁encourages	-11897
opic	-11898
▁Syria	-11899
▁elderly	-11900
▁Tower	-11901
▁dict	-11902
▁Gun	-11903
▁Kentucky	-11904
▁adorable	-11905
▁Hu	-11906
▁aesthetic	-11907
fram	-11908
▁needing	-11909
▁generating	-11910
sk	-11911
▁Dumpster	-11912
▁donated	-11913
▁cure	-11914
mediate	-11915
▁permits	-11916
▁lear	-11917
▁anybody	-11918
▁corporation	-11919
▁Edward	-11920
▁Fashion	-11921
▁tricks	-11922
children	-11923
imm	-11924
▁Caribbean	-11925
▁reaches	-11926
▁anger	-11927
▁dresses	-11928
▁determining	-11929
▁epic	-11930
▁Detroit	-11931
onies	-11932
▁boil	-11933
▁Ze	-11934
▁departure	-11935
quer	-11936
▁merchandise	-11937
UE	-11938
▁legitimate	-11939
▁od	-11940
ropract	-11941
▁grill	-11942
test	-11943
▁consecut	-11944
anth	-11945
▁patience	-11946
▁districts	-11947
▁Deal	-11948
▁Prize	-11949
▁biological	-11950
MI	-11951
▁Gulf	-11952
▁handed	-11953
▁lined	-11954
atility	-11955
apor	-11956
▁Occ	-11957
▁Trib	-11958
▁roller	-11959
▁rede	-11960
▁Screen	-11961
liest	-11962
▁rides	-11963
La	-11964
▁Dental	-11965
ulin	-11966
▁Sweden	-11967
ailing	-11968
▁inflation	-11969
▁Gre	-11970
▁angry	-11971
▁ic	-11972
▁embedded	-11973
▁Indonesia	-11974
▁Jess	-11975
▁eastern	-11976
entials	-11977
▁retro	-11978
▁incur	-11979
▁Template	-11980
▁Kings	-11981
▁trains	-11982
ribution	-11983
▁Alabama	-11984
▁minimize	-11985
▁vegan	-11986
▁Bowl	-11987
▁Pow	-11988
▁minerals	-11989
▁valley	-11990
▁footage	-11991
▁Restaurant	-11992
rint	-11993
▁conducting	-11994
▁locals	-11995
▁promising	-11996
▁algorithm	-11997
▁affecting	-11998
▁rab	-11999
▁sons	-12000
▁taxi	-12001
▁Fish	-12002
▁inclusion	-12003
▁gem	-12004
PG	-12005
lu	-12006
Sub	-12007
▁unp	-12008
▁failing	-12009
itudes	-12010
▁profound	-12011
▁surroundings	-12012
▁Gil	-12013
▁cous	-12014
ele	-12015
▁flip	-12016
cat	-12017
▁manifest	-12018
▁serial	-12019
▁freel	-12020
▁Utah	-12021
▁wage	-12022
itual	-12023
ACT	-12024
wl	-12025
],	-12026
▁Dra	-12027
▁reactions	-12028
wick	-12029
▁ports	-12030
▁Bah	-12031
▁populations	-12032
▁reflected	-12033
▁Stop	-12034
▁drawings	-12035
ioned	-12036
▁py	-12037
▁troops	-12038
▁Rather	-12039
▁Yellow	-12040
▁decorated	-12041
▁lid	-12042
▁viewers	-12043
▁Spot	-12044
▁bree	-12045
dog	-12046
▁placeholder	-12047
▁Mining	-12048
Dis	-12049
▁Convention	-12050
▁refreshing	-12051
▁Together	-12052
oline	-12053
held	-12054
▁Morgan	-12055
▁Yoga	-12056
▁radiation	-12057
arness	-12058
▁dressed	-12059
▁Pier	-12060
▁Gab	-12061
orical	-12062
▁fool	-12063
Star	-12064
▁assists	-12065
nected	-12066
▁fabrics	-12067
▁SER	-12068
▁accepting	-12069
▁talents	-12070
▁google	-12071
▁Fine	-12072
▁MC	-12073
ivery	-12074
▁cognitive	-12075
▁Rick	-12076
▁pork	-12077
aria	-12078
▁imaging	-12079
▁ED	-12080
gie	-12081
▁governance	-12082
▁fears	-12083
▁Phoenix	-12084
master	-12085
▁Often	-12086
▁squad	-12087
size	-12088
▁Success	-12089
▁rac	-12090
▁pest	-12091
▁combining	-12092
compass	-12093
▁trademark	-12094
Dav	-12095
rows	-12096
clusive	-12097
▁championship	-12098
▁floral	-12099
▁Rober	-12100
▁curve	-12101
▁Alaska	-12102
▁newer	-12103
▁underground	-12104
▁experiments	-12105
▁assignments	-12106
▁practicing	-12107
around	-12108
▁Wonder	-12109
aneous	-12110
▁Bedroom	-12111
▁substitute	-12112
▁saves	-12113
overs	-12114
▁municipal	-12115
ahoo	-12116
▁executives	-12117
▁citizen	-12118
▁nit	-12119
▁inexpensive	-12120
▁nonprofit	-12121
▁decoration	-12122
▁Doll	-12123
▁advocate	-12124
▁Wat	-12125
▁adjacent	-12126
▁Gift	-12127
▁conjunction	-12128
▁coating	-12129
▁Ridge	-12130
▁petition	-12131
▁Alexander	-12132
your	-12133
▁alleg	-12134
▁Nort	-12135
▁attributes	-12136
▁heater	-12137
▁barriers	-12138
▁sixth	-12139
▁Mars	-12140
veland	-12141
▁innoc	-12142
▁tomato	-12143
▁UV	-12144
▁Relations	-12145
▁Legal	-12146
▁Palace	-12147
▁Safe	-12148
▁Panel	-12149
▁dairy	-12150
igue	-12151
▁improves	-12152
▁toss	-12153
▁ranks	-12154
▁Description	-12155
▁owns	-12156
▁creatures	-12157
▁arguments	-12158
xide	-12159
▁comf	-12160
▁HA	-12161
▁avo	-12162
▁violation	-12163
Cle	-12164
▁Sud	-12165
▁highway	-12166
▁connectivity	-12167
IB	-12168
▁CBD	-12169
▁RV	-12170
▁integral	-12171
▁structured	-12172
▁Premium	-12173
writer	-12174
▁globally	-12175
gins	-12176
Only	-12177
▁approx	-12178
▁Days	-12179
driven	-12180
▁sunny	-12181
▁inher	-12182
agu	-12183
ificates	-12184
▁Hawaii	-12185
zo	-12186
▁AF	-12187
▁Harris	-12188
▁Anthony	-12189
▁Junior	-12190
▁Palm	-12191
▁barrier	-12192
▁Resp	-12193
▁Outdoor	-12194
▁presidential	-12195
▁animation	-12196
▁twelve	-12197
acht	-12198
illance	-12199
▁leverage	-12200
▁educate	-12201
apel	-12202
▁niche	-12203
elect	-12204
chron	-12205
▁digit	-12206
omatic	-12207
edu	-12208
▁complimentary	-12209
gly	-12210
tops	-12211
▁SQL	-12212
▁quit	-12213
▁Holl	-12214
erk	-12215
▁MB	-12216
▁Bear	-12217
kyo	-12218
NE	-12219
▁Total	-12220
▁magazines	-12221
▁adverse	-12222
▁pond	-12223
▁GT	-12224
▁Saudi	-12225
▁Used	-12226
▁volunt	-12227
▁Sweet	-12228
▁LOVE	-12229
▁legendary	-12230
▁brass	-12231
Day	-12232
cca	-12233
▁True	-12234
▁Discover	-12235
▁Switzerland	-12236
▁Diamond	-12237
▁Entertainment	-12238
▁theft	-12239
▁stabil	-12240
▁renovation	-12241
▁ethical	-12242
type	-12243
▁Urban	-12244
▁friendship	-12245
▁transformed	-12246
▁squee	-12247
▁cycling	-12248
▁Path	-12249
▁organizing	-12250
omic	-12251
▁outline	-12252
▁Opp	-12253
▁gonna	-12254
▁armed	-12255
aton	-12256
▁mainstream	-12257
▁Organization	-12258
▁consume	-12259
anean	-12260
▁immers	-12261
▁refrigerator	-12262
▁Leadership	-12263
▁microwave	-12264
▁Nice	-12265
▁attendees	-12266
▁Honda	-12267
function	-12268
▁classified	-12269
▁Inv	-12270
▁baked	-12271
▁dramatically	-12272
iph	-12273
▁honored	-12274
advant	-12275
▁Survey	-12276
ader	-12277
▁organised	-12278
▁enemies	-12279
▁Mall	-12280
▁ceramic	-12281
▁wings	-12282
▁draws	-12283
▁smoothly	-12284
▁hungry	-12285
▁thumb	-12286
▁freely	-12287
▁bugs	-12288
▁ridic	-12289
▁litigation	-12290
▁Years	-12291
▁ruling	-12292
▁punch	-12293
▁counts	-12294
school	-12295
▁overlook	-12296
▁veterans	-12297
▁Located	-12298
worthy	-12299
▁vanilla	-12300
▁confusion	-12301
nered	-12302
▁Death	-12303
▁intensive	-12304
Mon	-12305
▁Intel	-12306
▁restored	-12307
▁ingredient	-12308
▁Swiss	-12309
ategory	-12310
▁accordingly	-12311
▁Moore	-12312
▁Maria	-12313
forced	-12314
▁shame	-12315
▁villages	-12316
pare	-12317
▁Pas	-12318
::	-12319
▁Whit	-12320
▁politicians	-12321
▁relaxation	-12322
▁Liver	-12323
issa	-12324
▁tatt	-12325
▁surveys	-12326
aro	-12327
▁Dining	-12328
uming	-12329
▁dying	-12330
▁Article	-12331
racle	-12332
vada	-12333
▁promo	-12334
▁reservation	-12335
cia	-12336
▁Summit	-12337
▁underneath	-12338
▁Metro	-12339
▁clay	-12340
emet	-12341
▁Hung	-12342
▁donate	-12343
▁pedest	-12344
▁buzz	-12345
▁physicians	-12346
▁Maine	-12347
▁particles	-12348
▁understands	-12349
▁professionally	-12350
▁infections	-12351
▁proteins	-12352
ricane	-12353
Black	-12354
▁beings	-12355
alm	-12356
ndant	-12357
omer	-12358
▁Girls	-12359
▁resolved	-12360
▁Technologies	-12361
▁pools	-12362
▁stove	-12363
▁Nash	-12364
ometric	-12365
▁thrilled	-12366
▁Clark	-12367
resist	-12368
▁waist	-12369
▁Too	-12370
▁expend	-12371
gic	-12372
mentation	-12373
ocratic	-12374
uscript	-12375
Ob	-12376
")	-12377
quiries	-12378
UB	-12379
▁consecutive	-12380
▁Empire	-12381
ugar	-12382
▁lawsuit	-12383
wal	-12384
▁travels	-12385
lly	-12386
▁Investment	-12387
▁rejected	-12388
▁Floor	-12389
▁Inside	-12390
omed	-12391
ographical	-12392
Supp	-12393
▁shirts	-12394
▁reson	-12395
▁Hub	-12396
▁undergraduate	-12397
▁renewable	-12398
▁sisters	-12399
▁reasonably	-12400
NY	-12401
▁suggestion	-12402
▁Coloring	-12403
▁Vin	-12404
▁mart	-12405
▁Bluetooth	-12406
▁dupl	-12407
▁wides	-12408
▁Purch	-12409
▁volumes	-12410
▁profitable	-12411
▁horror	-12412
▁tuned	-12413
amous	-12414
▁assert	-12415
▁explicit	-12416
▁labour	-12417
▁Bol	-12418
▁silent	-12419
▁Return	-12420
▁Ka	-12421
▁deliber	-12422
AST	-12423
▁forming	-12424
▁eco	-12425
▁conservative	-12426
▁Cow	-12427
▁cozy	-12428
upid	-12429
▁Innovation	-12430
▁regarded	-12431
▁pairs	-12432
Hel	-12433
▁transit	-12434
▁scream	-12435
▁migration	-12436
▁Luck	-12437
▁granite	-12438
hesis	-12439
▁Plans	-12440
▁bankruptcy	-12441
▁Audio	-12442
▁rolls	-12443
▁Mayor	-12444
gency	-12445
▁welf	-12446
▁intim	-12447
▁pear	-12448
▁launching	-12449
▁topped	-12450
cha	-12451
▁steering	-12452
▁broader	-12453
▁acute	-12454
▁cheapest	-12455
▁Really	-12456
▁barn	-12457
▁transparency	-12458
▁respected	-12459
PE	-12460
▁Near	-12461
▁Extra	-12462
ARD	-12463
▁Fant	-12464
otion	-12465
▁abandoned	-12466
▁chains	-12467
▁Getting	-12468
ASE	-12469
Ok	-12470
▁stolen	-12471
▁welfare	-12472
▁referring	-12473
▁subscrib	-12474
adi	-12475
▁Na	-12476
▁immense	-12477
▁Linked	-12478
▁Editor	-12479
▁legally	-12480
▁wheat	-12481
▁Mas	-12482
▁appointments	-12483
▁graduation	-12484
▁Assess	-12485
▁scenarios	-12486
▁democracy	-12487
▁Ident	-12488
▁Region	-12489
▁specify	-12490
▁vessels	-12491
amine	-12492
▁dot	-12493
▁sellers	-12494
▁safer	-12495
▁fare	-12496
▁picks	-12497
thur	-12498
▁judges	-12499
▁proportion	-12500
About	-12501
▁gang	-12502
▁Element	-12503
astro	-12504
lishing	-12505
▁seniors	-12506
▁casinos	-12507
▁Bachelor	-12508
▁praise	-12509
▁MI	-12510
▁independently	-12511
▁forums	-12512
iov	-12513
eron	-12514
▁McG	-12515
▁Compl	-12516
user	-12517
ritis	-12518
▁sponsor	-12519
▁Gi	-12520
▁partial	-12521
▁compromise	-12522
atar	-12523
▁executed	-12524
▁Adobe	-12525
▁chairman	-12526
leans	-12527
▁Chel	-12528
▁Joy	-12529
▁BMW	-12530
▁exped	-12531
▁lyrics	-12532
▁sacrifice	-12533
rin	-12534
hu	-12535
arma	-12536
▁EV	-12537
▁("	-12538
attered	-12539
▁poem	-12540
▁ghost	-12541
▁interpre	-12542
▁loyalty	-12543
▁Shel	-12544
▁outlets	-12545
▁Coach	-12546
iches	-12547
▁shr	-12548
▁burg	-12549
▁Events	-12550
▁Cheap	-12551
ulent	-12552
▁mesh	-12553
▁Script	-12554
ere	-12555
▁prosper	-12556
iasm	-12557
rative	-12558
reedom	-12559
ancers	-12560
▁rend	-12561
▁synthetic	-12562
▁variation	-12563
▁cant	-12564
▁headquarters	-12565
Sometimes	-12566
orized	-12567
▁meter	-12568
▁Sett	-12569
▁Visual	-12570
▁Valentine	-12571
imore	-12572
▁achievements	-12573
▁farming	-12574
leading	-12575
ylon	-12576
▁guns	-12577
▁hospitality	-12578
pread	-12579
▁rational	-12580
▁besides	-12581
▁emerged	-12582
▁Directors	-12583
▁execute	-12584
▁sooner	-12585
▁fundraising	-12586
fund	-12587
▁beta	-12588
▁introducing	-12589
▁separation	-12590
Based	-12591
ometer	-12592
▁pension	-12593
▁Edge	-12594
▁shoulders	-12595
▁mandatory	-12596
▁advisor	-12597
bably	-12598
▁tasting	-12599
ordon	-12600
▁rewarding	-12601
kg	-12602
supp	-12603
▁Buck	-12604
▁indicator	-12605
▁pipes	-12606
normal	-12607
afe	-12608
natural	-12609
drop	-12610
▁tv	-12611
▁decreased	-12612
▁RAM	-12613
▁suppose	-12614
ending	-12615
▁fixtures	-12616
▁todd	-12617
▁rhythm	-12618
▁Row	-12619
hesive	-12620
▁practitioners	-12621
ptic	-12622
▁persu	-12623
▁Whatever	-12624
▁survived	-12625
thon	-12626
▁Collect	-12627
▁surprises	-12628
▁alph	-12629
▁warehouse	-12630
▁Corporate	-12631
annah	-12632
Ass	-12633
▁explaining	-12634
rise	-12635
achers	-12636
Wow	-12637
▁Slo	-12638
▁Grey	-12639
uz	-12640
▁uncomfortable	-12641
▁evolved	-12642
▁Dim	-12643
NC	-12644
▁centres	-12645
▁Hop	-12646
▁Culture	-12647
ceive	-12648
▁adjustment	-12649
▁acids	-12650
▁occasional	-12651
▁intr	-12652
GS	-12653
shot	-12654
Cal	-12655
▁Thai	-12656
▁concentrate	-12657
irational	-12658
▁penet	-12659
afood	-12660
▁subt	-12661
Hey	-12662
▁Beat	-12663
▁feas	-12664
oni	-12665
▁queen	-12666
▁tray	-12667
▁Shipping	-12668
▁Target	-12669
umbai	-12670
▁�	-12671
inst	-12672
▁lect	-12673
▁Certificate	-12674
▁drill	-12675
izers	-12676
▁Ott	-12677
▁Spa	-12678
▁turb	-12679
▁reads	-12680
▁negl	-12681
zan	-12682
▁Tokyo	-12683
▁Brooklyn	-12684
▁uploaded	-12685
▁Race	-12686
▁AV	-12687
▁secrets	-12688
▁pickup	-12689
LP	-12690
▁Dry	-12691
ingo	-12692
▁irre	-12693
▁dys	-12694
▁lap	-12695
iterr	-12696
▁isolated	-12697
IES	-12698
▁Pi	-12699
▁varying	-12700
▁Andy	-12701
▁inflammation	-12702
▁nurt	-12703
▁stairs	-12704
Ge	-12705
▁stitch	-12706
▁cooler	-12707
▁institutional	-12708
▁Si	-12709
azy	-12710
▁adjustments	-12711
▁teens	-12712
▁vig	-12713
▁flavour	-12714
▁remembered	-12715
uke	-12716
▁Cars	-12717
ertation	-12718
▁GR	-12719
▁Grace	-12720
▁Commerce	-12721
roller	-12722
di	-12723
▁dip	-12724
▁Tell	-12725
hard	-12726
▁avoiding	-12727
▁Mississ	-12728
▁mothers	-12729
▁pressing	-12730
▁Captain	-12731
▁pencil	-12732
▁targeting	-12733
▁rival	-12734
Ac	-12735
▁Player	-12736
▁Gary	-12737
icut	-12738
▁Excel	-12739
▁thankful	-12740
▁weld	-12741
▁packs	-12742
▁insulation	-12743
oche	-12744
▁lun	-12745
▁trauma	-12746
▁vegg	-12747
▁courtesy	-12748
▁Harvard	-12749
▁organizational	-12750
▁recl	-12751
▁Gran	-12752
▁longest	-12753
adows	-12754
▁Stadium	-12755
▁proceedings	-12756
▁rentals	-12757
▁Update	-12758
▁Defense	-12759
▁Images	-12760
▁maj	-12761
▁browsing	-12762
▁criticism	-12763
OME	-12764
▁Math	-12765
▁dos	-12766
▁NYC	-12767
▁landl	-12768
▁attain	-12769
▁Lad	-12770
▁transfers	-12771
▁Blood	-12772
SD	-12773
▁crossing	-12774
▁pose	-12775
▁gloss	-12776
▁camps	-12777
PT	-12778
▁generator	-12779
▁pupils	-12780
▁contam	-12781
▁IF	-12782
reation	-12783
▁arc	-12784
▁promotions	-12785
arity	-12786
▁tid	-12787
aph	-12788
▁glue	-12789
▁inviting	-12790
▁dropping	-12791
▁companion	-12792
▁Dating	-12793
emetery	-12794
▁antique	-12795
pically	-12796
olo	-12797
▁optical	-12798
▁elite	-12799
opt	-12800
▁pics	-12801
kee	-12802
▁portray	-12803
▁pharmacy	-12804
▁refuse	-12805
▁Revolution	-12806
▁Hamilton	-12807
▁gest	-12808
▁complications	-12809
▁gad	-12810
▁trades	-12811
▁slides	-12812
brew	-12813
Donald	-12814
hedral	-12815
▁cocktail	-12816
].
	-12817
▁albums	-12818
▁distribute	-12819
▁Rab	-12820
▁holders	-12821
▁sponsors	-12822
wy	-12823
▁chill	-12824
▁prayers	-12825
▁motorcycle	-12826
izard	-12827
▁pillow	-12828
▁educated	-12829
umble	-12830
▁Draw	-12831
▁Luke	-12832
▁buried	-12833
nels	-12834
▁Netflix	-12835
▁specializes	-12836
▁Given	-12837
▁hint	-12838
▁backgrounds	-12839
▁commod	-12840
▁lightly	-12841
innam	-12842
▁Pink	-12843
▁actress	-12844
▁violent	-12845
▁intuitive	-12846
▁potato	-12847
▁Sov	-12848
▁Bapt	-12849
▁literary	-12850
▁Nep	-12851
▁consciousness	-12852
▁riders	-12853
▁indirect	-12854
eals	-12855
▁branding	-12856
agg	-12857
raul	-12858
▁sweat	-12859
gun	-12860
ipher	-12861
▁notable	-12862
▁negotiations	-12863
ressing	-12864
lad	-12865
▁Argent	-12866
▁joints	-12867
▁suicide	-12868
▁chamber	-12869
ORT	-12870
▁BL	-12871
▁sporting	-12872
▁Orleans	-12873
▁Crit	-12874
▁ate	-12875
▁cave	-12876
▁Native	-12877
itations	-12878
▁promptly	-12879
▁physics	-12880
▁cryptocur	-12881
anka	-12882
avan	-12883
▁absorb	-12884
Join	-12885
▁Cold	-12886
▁notion	-12887
▁consuming	-12888
plan	-12889
arrass	-12890
▁Republicans	-12891
▁Phill	-12892
▁reset	-12893
rowing	-12894
▁assumed	-12895
▁printable	-12896
▁Dean	-12897
breaking	-12898
Act	-12899
▁panc	-12900
▁trainer	-12901
▁hardwood	-12902
▁sells	-12903
▁therapeutic	-12904
▁enthusiasm	-12905
▁searches	-12906
▁warming	-12907
▁vitamins	-12908
▁rivers	-12909
▁Andre	-12910
▁scary	-12911
▁bullet	-12912
▁strictly	-12913
liminary	-12914
▁Benef	-12915
▁adapted	-12916
▁manages	-12917
▁dynamics	-12918
▁revenues	-12919
▁deployment	-12920
Cor	-12921
▁pharmaceutical	-12922
▁consisting	-12923
▁surprisingly	-12924
andel	-12925
▁fought	-12926
▁Animal	-12927
iterranean	-12928
celona	-12929
▁psychology	-12930
▁femin	-12931
elta	-12932
▁Pool	-12933
▁desires	-12934
▁marking	-12935
▁borders	-12936
mented	-12937
▁travelers	-12938
▁inclusive	-12939
▁Tea	-12940
mi	-12941
▁ritual	-12942
Ps	-12943
▁Anna	-12944
▁backing	-12945
▁metres	-12946
▁Upon	-12947
Unfortunately	-12948
▁Beauty	-12949
▁Ukraine	-12950
Rel	-12951
▁towel	-12952
▁toll	-12953
▁chapters	-12954
quire	-12955
▁marble	-12956
?)	-12957
core	-12958
Ret	-12959
▁trace	-12960
▁buck	-12961
▁Dragon	-12962
▁amid	-12963
▁recur	-12964
▁crimes	-12965
▁FDA	-12966
mental	-12967
▁prevents	-12968
▁chic	-12969
▁reminds	-12970
rolling	-12971
▁Later	-12972
▁Active	-12973
▁chemistry	-12974
▁unwanted	-12975
▁Kal	-12976
▁decorations	-12977
roduction	-12978
▁Cann	-12979
▁Wolf	-12980
ivic	-12981
▁Antonio	-12982
▁lenders	-12983
▁stair	-12984
▁curtains	-12985
ippi	-12986
▁enterprises	-12987
▁syndrome	-12988
lington	-12989
▁Designs	-12990
▁Eye	-12991
▁Dak	-12992
Cong	-12993
▁Fan	-12994
▁Indeed	-12995
▁Bor	-12996
▁installations	-12997
▁tanks	-12998
oples	-12999
▁palm	-13000
rolled	-13001
Being	-13002
▁subsequently	-13003
▁corruption	-13004
▁upgrades	-13005
▁consultants	-13006
▁chol	-13007
uit	-13008
▁Tar	-13009
▁fried	-13010
▁Feel	-13011
▁modes	-13012
▁BY	-13013
shirt	-13014
▁stap	-13015
▁Particip	-13016
▁dealt	-13017
atical	-13018
▁modest	-13019
taining	-13020
▁spine	-13021
▁updating	-13022
▁Usually	-13023
▁Window	-13024
▁zones	-13025
▁perpet	-13026
▁widespread	-13027
▁attraction	-13028
▁pharmac	-13029
▁hoped	-13030
▁connects	-13031
vol	-13032
▁Cleveland	-13033
▁Pros	-13034
▁buses	-13035
dis	-13036
▁Hence	-13037
▁crossed	-13038
▁distract	-13039
▁cushions	-13040
▁maintains	-13041
oard	-13042
▁sheep	-13043
Hot	-13044
▁quart	-13045
▁RSS	-13046
▁cakes	-13047
▁receiver	-13048
▁circles	-13049
▁sake	-13050
track	-13051
▁Ay	-13052
pin	-13053
▁Remove	-13054
oven	-13055
▁bake	-13056
▁Charlotte	-13057
▁woods	-13058
▁schemes	-13059
olas	-13060
obs	-13061
▁Universal	-13062
▁lever	-13063
▁DM	-13064
OUN	-13065
white	-13066
▁schedules	-13067
Pat	-13068
▁Virtual	-13069
▁Kate	-13070
▁Shan	-13071
▁arising	-13072
▁calculate	-13073
▁uphol	-13074
▁appliance	-13075
Remember	-13076
▁associations	-13077
▁declined	-13078
▁smartphones	-13079
irs	-13080
▁Manufacture	-13081
▁controlling	-13082
▁warmth	-13083
▁Dise	-13084
some	-13085
cr	-13086
▁nerve	-13087
▁HIV	-13088
ropolitan	-13089
▁NA	-13090
▁Therapy	-13091
▁forests	-13092
irates	-13093
▁bump	-13094
▁iT	-13095
ancies	-13096
▁Princip	-13097
cuits	-13098
▁descriptions	-13099
▁Nob	-13100
▁Ring	-13101
▁logical	-13102
▁coupled	-13103
▁opponent	-13104
▁compound	-13105
▁Masters	-13106
tw	-13107
▁ups	-13108
▁traders	-13109
▁combinations	-13110
▁advances	-13111
▁defence	-13112
▁benefic	-13113
▁wallet	-13114
▁thickness	-13115
God	-13116
jan	-13117
▁triple	-13118
▁Sad	-13119
▁burst	-13120
▁attracted	-13121
▁Meanwhile	-13122
▁illum	-13123
▁perceived	-13124
▁develops	-13125
▁planted	-13126
Welcome	-13127
▁pipeline	-13128
lie	-13129
▁festivals	-13130
▁momentum	-13131
▁pursuing	-13132
▁nurses	-13133
bn	-13134
usalem	-13135
ieces	-13136
Though	-13137
▁Salt	-13138
▁Gardens	-13139
▁Costa	-13140
▁surviv	-13141
dge	-13142
▁sensitivity	-13143
lon	-13144
▁recognised	-13145
▁lender	-13146
▁Movie	-13147
Students	-13148
KS	-13149
▁regret	-13150
astics	-13151
▁influences	-13152
▁ARE	-13153
▁soy	-13154
▁proprietary	-13155
chi	-13156
atinum	-13157
igo	-13158
▁Dynam	-13159
▁Lex	-13160
IAL	-13161
▁slice	-13162
▁fract	-13163
▁mounting	-13164
▁sustained	-13165
▁brake	-13166
▁daughters	-13167
sor	-13168
▁protects	-13169
▁waterproof	-13170
▁crops	-13171
▁cree	-13172
▁struggles	-13173
▁contempl	-13174
▁Taiwan	-13175
▁poison	-13176
▁costume	-13177
▁Grade	-13178
▁metabol	-13179
istically	-13180
▁awa	-13181
atherine	-13182
▁badly	-13183
▁RF	-13184
▁unve	-13185
▁pel	-13186
▁groom	-13187
Jan	-13188
▁BO	-13189
▁rally	-13190
▁segments	-13191
▁retrie	-13192
vised	-13193
▁Surg	-13194
▁meth	-13195
▁linear	-13196
▁perspectives	-13197
▁Domin	-13198
▁Bio	-13199
▁fork	-13200
edar	-13201
Custom	-13202
▁Poland	-13203
▁approached	-13204
Prov	-13205
Open	-13206
▁humor	-13207
oriented	-13208
▁Pitts	-13209
▁Wa	-13210
ributed	-13211
▁streams	-13212
▁cycl	-13213
Want	-13214
▁wool	-13215
▁SL	-13216
▁crust	-13217
▁challenged	-13218
▁logistics	-13219
html	-13220
▁MT	-13221
▁Mosc	-13222
▁static	-13223
rue	-13224
bies	-13225
▁thresh	-13226
Meanwhile	-13227
▁grasp	-13228
▁counseling	-13229
▁clouds	-13230
lfriend	-13231
▁Lands	-13232
▁Housing	-13233
▁curtain	-13234
▁behaviors	-13235
osity	-13236
▁wholesale	-13237
▁backs	-13238
▁households	-13239
▁Additional	-13240
▁defect	-13241
▁prescribed	-13242
▁Architecture	-13243
▁publisher	-13244
▁shake	-13245
▁Mine	-13246
▁bot	-13247
▁Afghanistan	-13248
▁retention	-13249
ommy	-13250
▁silence	-13251
▁puzzle	-13252
Look	-13253
▁locksmith	-13254
ede	-13255
▁reconst	-13256
▁Fu	-13257
zech	-13258
▁sewing	-13259
ptions	-13260
▁founding	-13261
group	-13262
sers	-13263
▁Multi	-13264
▁DR	-13265
▁Cream	-13266
▁traveled	-13267
▁Chef	-13268
▁claiming	-13269
GM	-13270
▁mig	-13271
ioxid	-13272
▁paired	-13273
▁Howard	-13274
▁robot	-13275
▁promoted	-13276
▁Judge	-13277
▁drew	-13278
▁Francis	-13279
▁Present	-13280
▁McK	-13281
▁fortunate	-13282
FO	-13283
▁priorit	-13284
oustic	-13285
▁provin	-13286
▁handmade	-13287
▁Results	-13288
▁pile	-13289
allic	-13290
▁notify	-13291
▁proxim	-13292
▁jurisdiction	-13293
▁timber	-13294
▁disadvant	-13295
▁promotes	-13296
ensed	-13297
▁suspended	-13298
ometry	-13299
innamon	-13300
▁nails	-13301
▁holy	-13302
▁Associate	-13303
▁submitting	-13304
riving	-13305
▁economics	-13306
bin	-13307
▁charter	-13308
vance	-13309
▁notified	-13310
ORD	-13311
▁privilege	-13312
▁Ultra	-13313
▁energ	-13314
▁abundance	-13315
▁cushion	-13316
▁Anyone	-13317
uffy	-13318
ni	-13319
▁liberal	-13320
▁stressed	-13321
▁coinc	-13322
pg	-13323
▁UA	-13324
▁cosmetic	-13325
Prof	-13326
ijing	-13327
▁lbs	-13328
▁recreational	-13329
ustral	-13330
▁diesel	-13331
ountain	-13332
Tech	-13333
ogram	-13334
▁IR	-13335
lando	-13336
▁Drug	-13337
▁observation	-13338
▁portrait	-13339
stan	-13340
isons	-13341
▁tongue	-13342
idem	-13343
▁Begin	-13344
ialis	-13345
▁substances	-13346
▁Clinical	-13347
▁goodness	-13348
alid	-13349
agne	-13350
▁tel	-13351
▁exotic	-13352
▁touches	-13353
ancer	-13354
▁Overall	-13355
▁confusing	-13356
▁upgraded	-13357
▁convention	-13358
▁argued	-13359
▁offline	-13360
▁comparable	-13361
▁Focus	-13362
▁mes	-13363
BR	-13364
abul	-13365
▁Integr	-13366
▁perfection	-13367
▁Marg	-13368
Pay	-13369
keeping	-13370
▁switching	-13371
▁Rou	-13372
▁cargo	-13373
▁offset	-13374
▁matched	-13375
▁afterwards	-13376
▁kingdom	-13377
▁subscribe	-13378
▁Ground	-13379
▁arriving	-13380
bone	-13381
▁uncertainty	-13382
▁deserves	-13383
▁din	-13384
▁likewise	-13385
▁ا	-13386
▁elabor	-13387
▁closure	-13388
▁vou	-13389
▁relatives	-13390
▁Federation	-13391
Posted	-13392
▁Nevada	-13393
▁farms	-13394
base	-13395
▁Associates	-13396
▁embarrass	-13397
▁HV	-13398
▁Abs	-13399
▁rehabilitation	-13400
▁ES	-13401
ARE	-13402
▁phenomenon	-13403
▁Users	-13404
western	-13405
▁Gram	-13406
▁terrace	-13407
rencies	-13408
▁stressful	-13409
▁warned	-13410
check	-13411
▁autonom	-13412
▁wardrobe	-13413
borough	-13414
mus	-13415
▁undertaking	-13416
llers	-13417
dig	-13418
▁thrive	-13419
▁Fro	-13420
▁anten	-13421
▁Qual	-13422
arten	-13423
eland	-13424
▁indul	-13425
▁Wee	-13426
ieval	-13427
▁Susan	-13428
pers	-13429
▁enrolled	-13430
arium	-13431
▁blockchain	-13432
sels	-13433
▁encompass	-13434
▁sturdy	-13435
▁stew	-13436
▁ginger	-13437
Min	-13438
▁Wheel	-13439
▁trek	-13440
▁Depending	-13441
ictionary	-13442
▁Dublin	-13443
▁darkness	-13444
▁tob	-13445
▁Coal	-13446
▁applicant	-13447
▁circulation	-13448
▁dense	-13449
position	-13450
▁fles	-13451
Following	-13452
▁Hem	-13453
fold	-13454
▁Especially	-13455
ONE	-13456
fi	-13457
Apr	-13458
▁Fran	-13459
▁Say	-13460
▁ignored	-13461
▁manuscript	-13462
▁Driver	-13463
amboo	-13464
▁Naz	-13465
▁occupied	-13466
▁performs	-13467
▁Alan	-13468
▁Connecticut	-13469
▁inject	-13470
▁Greater	-13471
also	-13472
▁partially	-13473
security	-13474
▁encountered	-13475
▁Mumbai	-13476
▁assessments	-13477
▁Throughout	-13478
▁anth	-13479
▁diving	-13480
▁translate	-13481
▁quilt	-13482
▁diagnostic	-13483
▁tactics	-13484
▁endorse	-13485
▁Bruce	-13486
nals	-13487
▁Veh	-13488
▁Nich	-13489
cedes	-13490
▁guarantees	-13491
▁stepped	-13492
▁sketch	-13493
▁tones	-13494
▁fraction	-13495
insp	-13496
▁gaps	-13497
▁athletic	-13498
▁examined	-13499
rant	-13500
▁finances	-13501
▁Touch	-13502
▁Canon	-13503
cost	-13504
▁cav	-13505
▁Mediterranean	-13506
BN	-13507
▁Gib	-13508
.'	-13509
chant	-13510
▁Lisa	-13511
▁yarn	-13512
▁blast	-13513
uity	-13514
▁summit	-13515
▁cluster	-13516
▁approaching	-13517
▁Jerusalem	-13518
▁jeans	-13519
▁Original	-13520
▁commands	-13521
▁monetary	-13522
▁lining	-13523
▁RS	-13524
IGHT	-13525
▁positioned	-13526
▁assessed	-13527
()	-13528
gered	-13529
▁museums	-13530
▁catering	-13531
▁datas	-13532
dict	-13533
rena	-13534
▁damp	-13535
▁considerably	-13536
ete	-13537
▁catching	-13538
ailed	-13539
umper	-13540
▁moistur	-13541
▁rustic	-13542
▁Tools	-13543
opter	-13544
▁Cole	-13545
▁Wik	-13546
hal	-13547
▁Register	-13548
▁repeatedly	-13549
▁Sens	-13550
▁Osc	-13551
▁deposits	-13552
hattan	-13553
▁insured	-13554
▁romance	-13555
▁Amazing	-13556
▁tuition	-13557
▁Gray	-13558
Pres	-13559
▁dia	-13560
▁tricky	-13561
oT	-13562
hoot	-13563
▁lakes	-13564
▁preval	-13565
ques	-13566
▁Import	-13567
▁comparing	-13568
▁methodology	-13569
▁Birthday	-13570
?"
	-13571
▁cables	-13572
assador	-13573
▁ebook	-13574
▁escap	-13575
▁simpler	-13576
Bra	-13577
kend	-13578
▁Activ	-13579
▁sends	-13580
aba	-13581
isy	-13582
▁appearing	-13583
▁Conne	-13584
▁Coord	-13585
ifiable	-13586
▁Od	-13587
▁participant	-13588
▁pean	-13589
▁terrain	-13590
jud	-13591
▁stiff	-13592
▁ank	-13593
igrant	-13594
▁jury	-13595
ceptions	-13596
WH	-13597
▁Priv	-13598
▁repay	-13599
▁breakdown	-13600
▁Hug	-13601
▁wand	-13602
▁Oracle	-13603
▁Bag	-13604
▁spat	-13605
▁Baltimore	-13606
▁Others	-13607
▁touched	-13608
fare	-13609
▁Amy	-13610
▁Client	-13611
▁Walker	-13612
▁checkout	-13613
izon	-13614
osures	-13615
▁pound	-13616
▁interf	-13617
▁congreg	-13618
▁disclosure	-13619
▁spam	-13620
▁weddings	-13621
▁shout	-13622
▁divine	-13623
▁statistical	-13624
▁Vision	-13625
▁comprises	-13626
▁lips	-13627
▁fertil	-13628
▁arrives	-13629
MB	-13630
▁nan	-13631
▁spices	-13632
▁Treatment	-13633
▁Communication	-13634
Would	-13635
▁reun	-13636
▁Barcelona	-13637
▁contacting	-13638
▁accl	-13639
Life	-13640
???	-13641
▁evaluated	-13642
▁proceeds	-13643
▁bucket	-13644
▁harness	-13645
▁analysts	-13646
irus	-13647
▁enzy	-13648
▁scenery	-13649
▁disappear	-13650
▁micros	-13651
▁governor	-13652
wed	-13653
bay	-13654
▁satisfying	-13655
▁supervision	-13656
▁christ	-13657
▁Ku	-13658
▁learners	-13659
anium	-13660
▁optimize	-13661
▁Louisiana	-13662
▁suggesting	-13663
Maybe	-13664
▁scent	-13665
▁lifting	-13666
aws	-13667
pring	-13668
▁castle	-13669
century	-13670
▁ample	-13671
have	-13672
▁antibi	-13673
▁jumping	-13674
irmingham	-13675
▁reportedly	-13676
iden	-13677
▁blanket	-13678
▁horizontal	-13679
othy	-13680
▁HS	-13681
hh	-13682
closure	-13683
▁Mira	-13684
▁downloading	-13685
▁gum	-13686
▁scroll	-13687
▁Heat	-13688
▁Rd	-13689
▁gauge	-13690
rels	-13691
▁dated	-13692
andal	-13693
▁Justin	-13694
▁elementary	-13695
▁Ga	-13696
anas	-13697
▁lane	-13698
▁genes	-13699
▁obstacles	-13700
arel	-13701
IX	-13702
▁TN	-13703
▁recycled	-13704
▁predicted	-13705
▁planting	-13706
▁porch	-13707
▁reviewing	-13708
ingle	-13709
▁observations	-13710
▁pumpkin	-13711
▁surveillance	-13712
▁dimin	-13713
▁ruled	-13714
▁Moscow	-13715
▁accredited	-13716
shaped	-13717
patient	-13718
click	-13719
▁educators	-13720
▁Primary	-13721
Dec	-13722
▁Platform	-13723
seys	-13724
▁novels	-13725
▁billing	-13726
▁icons	-13727
▁silk	-13728
▁THAT	-13729
▁databases	-13730
▁aug	-13731
stage	-13732
▁watches	-13733
▁eBay	-13734
▁retailer	-13735
▁Record	-13736
▁assure	-13737
rection	-13738
▁metals	-13739
és	-13740
▁Suite	-13741
▁Constitution	-13742
▁Verm	-13743
▁upt	-13744
▁Orth	-13745
▁Fell	-13746
efficient	-13747
blem	-13748
duct	-13749
▁explores	-13750
▁deleted	-13751
▁Poker	-13752
WA	-13753
esterol	-13754
ME	-13755
Previous	-13756
▁sciences	-13757
▁cleared	-13758
▁demonstrates	-13759
Work	-13760
▁Conserv	-13761
Bet	-13762
▁delays	-13763
note	-13764
▁furnish	-13765
▁sliding	-13766
▁mysterious	-13767
ben	-13768
▁а	-13769
Second	-13770
rene	-13771
▁quicker	-13772
▁Sustain	-13773
▁mentor	-13774
▁frost	-13775
▁sticks	-13776
▁excuse	-13777
▁ambit	-13778
▁enhancing	-13779
▁WiFi	-13780
▁wages	-13781
▁Hunter	-13782
)(	-13783
▁hobby	-13784
▁frustrating	-13785
▁о	-13786
▁wondered	-13787
▁forex	-13788
▁occurring	-13789
▁modeling	-13790
▁memorial	-13791
▁interrupt	-13792
▁Boo	-13793
▁creamy	-13794
phant	-13795
▁fisher	-13796
OST	-13797
▁Hack	-13798
▁Charlie	-13799
urd	-13800
,’	-13801
Top	-13802
ymph	-13803
▁NBA	-13804
▁firmly	-13805
▁flowing	-13806
▁carriers	-13807
▁bacon	-13808
▁nutritional	-13809
▁....	-13810
▁overhead	-13811
▁Angel	-13812
sure	-13813
▁melt	-13814
rac	-13815
▁SF	-13816
▁VR	-13817
etal	-13818
when	-13819
▁cited	-13820
▁balcony	-13821
▁Pic	-13822
Build	-13823
▁iTunes	-13824
▁ABC	-13825
▁explored	-13826
▁playground	-13827
▁Factory	-13828
assy	-13829
Hello	-13830
▁Glen	-13831
▁Jen	-13832
wellery	-13833
width	-13834
▁Anti	-13835
ido	-13836
▁varies	-13837
▁wore	-13838
▁competent	-13839
▁Trading	-13840
▁astron	-13841
▁pist	-13842
oding	-13843
rose	-13844
▁Independent	-13845
▁Scholars	-13846
Mo	-13847
▁Hello	-13848
▁Mississippi	-13849
▁Soviet	-13850
▁Obs	-13851
▁umb	-13852
▁Ru	-13853
▁reass	-13854
▁counties	-13855
▁Ranch	-13856
▁Details	-13857
▁Emergency	-13858
▁lasts	-13859
▁FC	-13860
▁Hud	-13861
▁Lif	-13862
▁mi	-13863
▁fundament	-13864
▁concerts	-13865
▁Otherwise	-13866
▁Individual	-13867
QU	-13868
▁Bou	-13869
▁Bart	-13870
▁Lodge	-13871
▁Fly	-13872
▁landed	-13873
xit	-13874
▁cope	-13875
▁yog	-13876
▁Mt	-13877
▁barrel	-13878
▁Dal	-13879
▁Parts	-13880
▁lending	-13881
Bar	-13882
▁detected	-13883
posed	-13884
▁Monte	-13885
▁annoying	-13886
▁membr	-13887
▁sunlight	-13888
telling	-13889
▁columns	-13890
▁indicators	-13891
▁missions	-13892
ummer	-13893
mel	-13894
▁stupid	-13895
▁Roberts	-13896
▁Mechan	-13897
▁Pul	-13898
▁calcium	-13899
▁Pant	-13900
▁Liverpool	-13901
ditionally	-13902
erald	-13903
▁Zone	-13904
▁limitation	-13905
▁spirits	-13906
▁revel	-13907
ра	-13908
HP	-13909
▁BA	-13910
▁translated	-13911
.),	-13912
▁bride	-13913
▁VM	-13914
▁pointing	-13915
▁refined	-13916
cient	-13917
ando	-13918
▁Fal	-13919
nity	-13920
Select	-13921
finitely	-13922
▁delayed	-13923
▁scheduling	-13924
▁CE	-13925
▁sealed	-13926
▁outf	-13927
▁drying	-13928
▁euro	-13929
▁Ach	-13930
▁kiss	-13931
▁seamless	-13932
▁circular	-13933
ateur	-13934
▁mailing	-13935
▁withdrawal	-13936
▁belongs	-13937
asis	-13938
▁algorithms	-13939
chem	-13940
▁extends	-13941
▁therapist	-13942
▁”	-13943
▁Alt	-13944
▁pixels	-13945
▁Barbara	-13946
▁SUV	-13947
ercury	-13948
▁counting	-13949
▁invention	-13950
▁vet	-13951
sub	-13952
▁..
	-13953
gary	-13954
▁alternate	-13955
▁Turkish	-13956
Mod	-13957
▁Esc	-13958
▁Rules	-13959
▁jumped	-13960
Mus	-13961
▁Boot	-13962
▁Operations	-13963
▁Intelligence	-13964
....
	-13965
▁lou	-13966
py	-13967
▁extensions	-13968
▁Lem	-13969
iop	-13970
▁Lag	-13971
▁journalist	-13972
▁symp	-13973
▁succ	-13974
▁Garage	-13975
▁Jonathan	-13976
umatic	-13977
▁newspapers	-13978
▁Jobs	-13979
▁controversial	-13980
▁amazed	-13981
▁BBQ	-13982
▁blessing	-13983
▁polished	-13984
▁Brun	-13985
ASS	-13986
▁Range	-13987
▁automobile	-13988
▁dietary	-13989
NET	-13990
ampa	-13991
▁slim	-13992
▁incidents	-13993
▁opponents	-13994
oubted	-13995
▁Beijing	-13996
▁Bott	-13997
▁Xbox	-13998
▁stadium	-13999
▁median	-14000
▁inquiry	-14001
▁Russell	-14002
▁competitions	-14003
flu	-14004
▁tunnel	-14005
appro	-14006
▁orientation	-14007
▁parliament	-14008
▁Beck	-14009
▁animated	-14010
▁bou	-14011
▁chi	-14012
▁Hamp	-14013
▁sung	-14014
heet	-14015
ipedia	-14016
▁Sha	-14017
▁struggled	-14018
▁Ale	-14019
▁Fer	-14020
▁scared	-14021
▁vanity	-14022
▁Hopefully	-14023
▁prohibited	-14024
▁tribute	-14025
imedia	-14026
▁candle	-14027
Copyright	-14028
etics	-14029
▁pole	-14030
▁strikes	-14031
▁pumps	-14032
▁styl	-14033
▁viable	-14034
▁Vel	-14035
▁nod	-14036
idel	-14037
▁pads	-14038
▁cherry	-14039
▁Impact	-14040
irations	-14041
▁Cabinet	-14042
▁salmon	-14043
▁Beth	-14044
▁photographers	-14045
▁inaug	-14046
▁Something	-14047
▁secretary	-14048
▁deployed	-14049
heimer	-14050
appropri	-14051
▁Photography	-14052
amas	-14053
▁sincere	-14054
▁coding	-14055
▁clearance	-14056
Intern	-14057
Par	-14058
▁comprised	-14059
Further	-14060
▁innovations	-14061
▁Trip	-14062
▁realise	-14063
▁lover	-14064
▁ML	-14065
▁starter	-14066
▁quoted	-14067
Enjoy	-14068
onial	-14069
▁dryer	-14070
start	-14071
▁Transfer	-14072
▁attachment	-14073
▁journalists	-14074
▁practically	-14075
glas	-14076
mill	-14077
▁congr	-14078
▁Ther	-14079
▁documented	-14080
raulic	-14081
▁nationally	-14082
▁Fra	-14083
missions	-14084
▁Current	-14085
▁dissertation	-14086
▁utter	-14087
▁Laura	-14088
▁alignment	-14089
rock	-14090
▁terrific	-14091
'.
	-14092
▁apolog	-14093
▁Basic	-14094
▁Nelson	-14095
▁antioxid	-14096
▁fatigue	-14097
Big	-14098
▁mant	-14099
▁sunset	-14100
▁wound	-14101
▁Transportation	-14102
▁threatened	-14103
▁releasing	-14104
▁bases	-14105
rones	-14106
▁compounds	-14107
▁illustrations	-14108
ontin	-14109
▁cottage	-14110
▁Vac	-14111
▁spreading	-14112
▁describing	-14113
▁neighborhoods	-14114
comfort	-14115
▁sailing	-14116
ushers	-14117
pal	-14118
▁vo	-14119
▁Tun	-14120
claim	-14121
▁autumn	-14122
▁Manhattan	-14123
▁Freedom	-14124
fight	-14125
Health	-14126
▁builder	-14127
▁runners	-14128
▁alien	-14129
▁Crystal	-14130
▁disciplines	-14131
▁solved	-14132
▁Madison	-14133
▁Ec	-14134
▁assisting	-14135
▁syrup	-14136
▁invoice	-14137
▁spicy	-14138
hess	-14139
▁sod	-14140
belie	-14141
urable	-14142
chnology	-14143
▁captain	-14144
▁Czech	-14145
▁collar	-14146
▁Sin	-14147
▁counterpart	-14148
uate	-14149
▁Mi	-14150
▁Duke	-14151
▁archive	-14152
eing	-14153
asma	-14154
ulu	-14155
▁Nat	-14156
▁ours	-14157
erness	-14158
▁addict	-14159
▁Value	-14160
▁wrist	-14161
▁licensing	-14162
Should	-14163
▁cellular	-14164
▁Tickets	-14165
thening	-14166
phony	-14167
▁clips	-14168
▁CAN	-14169
wen	-14170
▁hockey	-14171
mega	-14172
▁immigrants	-14173
▁needle	-14174
▁Between	-14175
▁fires	-14176
▁herb	-14177
▁indication	-14178
▁Pap	-14179
▁ambitious	-14180
▁runner	-14181
quest	-14182
asket	-14183
erver	-14184
▁partly	-14185
▁revised	-14186
▁las	-14187
▁capac	-14188
▁elevated	-14189
UK	-14190
▁Lakes	-14191
entially	-14192
▁specialize	-14193
houses	-14194
▁composite	-14195
▁Krist	-14196
▁certificates	-14197
▁supermarket	-14198
▁injection	-14199
▁Hell	-14200
▁tin	-14201
▁Snap	-14202
▁themed	-14203
▁Send	-14204
ructive	-14205
▁dominant	-14206
▁SN	-14207
▁elastic	-14208
▁outlook	-14209
▁Gordon	-14210
▁railway	-14211
▁dub	-14212
▁Options	-14213
▁Kay	-14214
▁necessity	-14215
▁Nike	-14216
▁Spect	-14217
▁Ton	-14218
▁Orlando	-14219
▁Analytics	-14220
Super	-14221
▁Vent	-14222
▁Reviews	-14223
▁Mos	-14224
aman	-14225
▁shifting	-14226
mir	-14227
▁Marvel	-14228
▁verified	-14229
▁spice	-14230
▁greens	-14231
iot	-14232
ainted	-14233
▁desirable	-14234
▁consumed	-14235
tees	-14236
▁sheer	-14237
angel	-14238
▁apples	-14239
rella	-14240
uments	-14241
▁permanently	-14242
▁Weight	-14243
GH	-14244
▁discon	-14245
▁theories	-14246
uxe	-14247
▁torn	-14248
iaries	-14249
▁medicines	-14250
World	-14251
▁financially	-14252
▁informal	-14253
▁breathe	-14254
▁Chart	-14255
▁grandmother	-14256
XX	-14257
▁Leather	-14258
install	-14259
umbled	-14260
▁Rio	-14261
▁beating	-14262
▁beside	-14263
▁ethics	-14264
▁earthqu	-14265
▁Ger	-14266
ologically	-14267
▁foss	-14268
▁Consumer	-14269
▁mapping	-14270
▁aver	-14271
oubtedly	-14272
hma	-14273
▁arth	-14274
▁tan	-14275
▁macro	-14276
▁depict	-14277
▁threw	-14278
▁nominated	-14279
▁accessing	-14280
▁Expl	-14281
▁OH	-14282
▁Initi	-14283
▁tenants	-14284
▁urgent	-14285
▁habitat	-14286
avor	-14287
▁vinegar	-14288
▁messaging	-14289
▁fond	-14290
▁simulation	-14291
▁disclose	-14292
▁fatal	-14293
▁researching	-14294
▁org	-14295
rison	-14296
▁Track	-14297
inburgh	-14298
▁convince	-14299
▁picnic	-14300
iosity	-14301
▁therm	-14302
▁Fo	-14303
ardo	-14304
▁Jennifer	-14305
ghai	-14306
▁sacred	-14307
minded	-14308
▁Different	-14309
▁bears	-14310
olin	-14311
▁Choice	-14312
asa	-14313
▁coordination	-14314
▁remedy	-14315
▁hind	-14316
▁broth	-14317
▁Birmingham	-14318
▁nu	-14319
arms	-14320
color	-14321
oca	-14322
▁activated	-14323
▁shaft	-14324
▁rankings	-14325
▁metrics	-14326
▁electron	-14327
first	-14328
▁Worth	-14329
▁fauc	-14330
▁projected	-14331
▁Sel	-14332
▁Thompson	-14333
▁backpack	-14334
▁skirt	-14335
▁freezer	-14336
▁resemb	-14337
▁medi	-14338
▁Answ	-14339
▁qualifications	-14340
▁administrator	-14341
▁delightful	-14342
PER	-14343
▁affiliated	-14344
ierra	-14345
▁outlined	-14346
▁unemployment	-14347
ango	-14348
▁pale	-14349
▁Contemporary	-14350
▁silly	-14351
▁SMS	-14352
▁compiled	-14353
▁brave	-14354
som	-14355
seeing	-14356
encer	-14357
▁acne	-14358
▁conflicts	-14359
▁Adams	-14360
Watch	-14361
!"
	-14362
▁shar	-14363
▁Delivery	-14364
▁responding	-14365
oda	-14366
▁Bond	-14367
▁Version	-14368
▁rh	-14369
▁Includes	-14370
▁Anim	-14371
washer	-14372
▁Mes	-14373
▁earliest	-14374
▁Norway	-14375
psy	-14376
iments	-14377
▁bored	-14378
ICK	-14379
▁styling	-14380
▁LinkedIn	-14381
aque	-14382
▁prol	-14383
pher	-14384
▁securities	-14385
eta	-14386
itants	-14387
▁meantime	-14388
TI	-14389
ctuary	-14390
▁nowhere	-14391
▁tens	-14392
▁minority	-14393
▁theoretical	-14394
▁Christopher	-14395
▁Prop	-14396
▁bicycle	-14397
▁Isa	-14398
▁Lawrence	-14399
▁Khan	-14400
▁Resource	-14401
▁Bos	-14402
▁Pod	-14403
▁FM	-14404
▁repet	-14405
issan	-14406
▁recy	-14407
▁contrary	-14408
pted	-14409
▁Clinic	-14410
▁liber	-14411
paid	-14412
ablished	-14413
▁relie	-14414
▁Drop	-14415
▁quad	-14416
anyon	-14417
▁Skin	-14418
named	-14419
▁gluc	-14420
▁Berg	-14421
▁socks	-14422
▁eaten	-14423
▁chick	-14424
▁bloggers	-14425
▁slower	-14426
▁Strategy	-14427
▁advocacy	-14428
▁landscapes	-14429
▁eliminating	-14430
▁selections	-14431
▁Questions	-14432
▁ener	-14433
▁Registration	-14434
▁Economics	-14435
▁nour	-14436
grad	-14437
kt	-14438
inis	-14439
Care	-14440
▁Bot	-14441
▁Mountains	-14442
▁evolving	-14443
▁Syn	-14444
nia	-14445
▁Fisher	-14446
tails	-14447
icker	-14448
▁Cad	-14449
▁Kenya	-14450
lett	-14451
gress	-14452
▁Partner	-14453
▁Tu	-14454
▁avoided	-14455
▁overl	-14456
▁Ot	-14457
▁quantities	-14458
▁wrest	-14459
▁Hit	-14460
inance	-14461
▁unpre	-14462
▁lone	-14463
getic	-14464
▁cycles	-14465
▁peel	-14466
ema	-14467
▁killer	-14468
HR	-14469
Data	-14470
▁mechanics	-14471
▁bubble	-14472
▁lacking	-14473
▁Figure	-14474
Del	-14475
▁Studios	-14476
▁Pine	-14477
▁resur	-14478
▁router	-14479
▁wires	-14480
▁strips	-14481
▁turkey	-14482
▁intric	-14483
▁Healthcare	-14484
▁Franklin	-14485
▁supplying	-14486
▁Butter	-14487
cycl	-14488
▁comfortably	-14489
▁investigations	-14490
poke	-14491
▁mater	-14492
ACE	-14493
▁WILL	-14494
▁custody	-14495
▁Beyond	-14496
▁lamps	-14497
▁Arc	-14498
▁Lower	-14499
atories	-14500
▁Parker	-14501
▁steal	-14502
▁lineup	-14503
▁mirrors	-14504
▁seafood	-14505
Mc	-14506
Class	-14507
▁Swedish	-14508
▁Wayne	-14509
▁lime	-14510
▁ribbon	-14511
▁Nevertheless	-14512
▁Ori	-14513
▁Got	-14514
▁gloves	-14515
▁biology	-14516
▁incentives	-14517
due	-14518
▁discusses	-14519
▁HT	-14520
esity	-14521
▁Dress	-14522
▁sights	-14523
▁cone	-14524
▁gri	-14525
BB	-14526
▁Kath	-14527
▁distant	-14528
▁musician	-14529
▁Delta	-14530
▁banner	-14531
▁broch	-14532
▁Conditions	-14533
List	-14534
▁tobacco	-14535
▁lod	-14536
▁los	-14537
▁kay	-14538
▁helic	-14539
▁rotation	-14540
▁Hans	-14541
▁HVAC	-14542
▁freeze	-14543
▁legislative	-14544
!).	-14545
▁Kennedy	-14546
▁Half	-14547
▁influential	-14548
▁Jazz	-14549
▁Ore	-14550
▁strap	-14551
▁preliminary	-14552
▁mint	-14553
Search	-14554
logy	-14555
▁combo	-14556
▁existed	-14557
▁rows	-14558
▁Muslims	-14559
▁Tes	-14560
▁consp	-14561
▁briefly	-14562
▁Belgium	-14563
▁blogger	-14564
▁subscribers	-14565
▁Jacob	-14566
▁tendency	-14567
▁Crown	-14568
▁IRS	-14569
▁Graham	-14570
▁CPU	-14571
OUR	-14572
▁Parks	-14573
▁Heaven	-14574
uerto	-14575
▁spoon	-14576
▁Pictures	-14577
▁appearances	-14578
finition	-14579
▁Leader	-14580
▁Until	-14581
Hope	-14582
▁recovered	-14583
▁refugees	-14584
▁Pent	-14585
▁Pun	-14586
▁facebook	-14587
▁proximity	-14588
▁phrases	-14589
▁tissues	-14590
oting	-14591
▁soda	-14592
▁distra	-14593
▁Standards	-14594
▁NASA	-14595
▁creator	-14596
▁spotted	-14597
igma	-14598
▁gy	-14599
▁appra	-14600
▁unfor	-14601
▁Alb	-14602
rimp	-14603
▁Upper	-14604
▁Pittsburgh	-14605
▁Workshop	-14606
iblical	-14607
▁simplicity	-14608
▁beverage	-14609
▁loft	-14610
▁complain	-14611
keep	-14612
▁namely	-14613
▁washed	-14614
▁demonstration	-14615
▁mindset	-14616
lift	-14617
▁assembled	-14618
Beaut	-14619
▁Features	-14620
▁unders	-14621
sterdam	-14622
▁Dest	-14623
▁Diet	-14624
▁shifts	-14625
▁portions	-14626
▁specification	-14627
▁redes	-14628
▁arena	-14629
▁parish	-14630
kh	-14631
▁kidney	-14632
BE	-14633
▁brut	-14634
▁collaborate	-14635
ourage	-14636
▁horn	-14637
▁pretend	-14638
▁Princess	-14639
ipper	-14640
▁Labour	-14641
▁bronze	-14642
▁Baker	-14643
▁verification	-14644
▁regulated	-14645
▁gospel	-14646
orig	-14647
▁smallest	-14648
▁Stage	-14649
▁witnessed	-14650
▁reinforce	-14651
Je	-14652
▁Chicken	-14653
▁Published	-14654
▁conveniently	-14655
▁infring	-14656
▁sentences	-14657
boro	-14658
▁ACC	-14659
▁Tips	-14660
▁Retail	-14661
▁propag	-14662
▁Production	-14663
▁assurance	-14664
▁artic	-14665
▁cholesterol	-14666
▁Citiz	-14667
Know	-14668
▁AA	-14669
falls	-14670
��	-14671
▁dece	-14672
alia	-14673
▁Flat	-14674
alling	-14675
▁Victorian	-14676
ocy	-14677
nings	-14678
eu	-14679
▁Wright	-14680
▁node	-14681
retty	-14682
eder	-14683
▁happily	-14684
oa	-14685
▁Applications	-14686
▁molecular	-14687
▁fres	-14688
▁enrich	-14689
▁girlfriend	-14690
▁Craig	-14691
________	-14692
▁traded	-14693
pered	-14694
▁traditionally	-14695
▁extending	-14696
▁hiding	-14697
▁renting	-14698
▁Ja	-14699
▁analyzed	-14700
▁listened	-14701
▁XP	-14702
▁Dakota	-14703
▁linking	-14704
▁urge	-14705
than	-14706
especially	-14707
blo	-14708
andy	-14709
▁imported	-14710
▁countryside	-14711
Person	-14712
▁Degree	-14713
▁panic	-14714
▁altogether	-14715
▁PE	-14716
▁brokers	-14717
▁Taking	-14718
ilings	-14719
▁penalties	-14720
▁cents	-14721
▁SK	-14722
Place	-14723
▁Replace	-14724
▁ric	-14725
curement	-14726
▁acrylic	-14727
▁parameter	-14728
▁strings	-14729
eded	-14730
▁seventh	-14731
▁Brid	-14732
▁sleek	-14733
▁distinction	-14734
▁transmit	-14735
Interest	-14736
▁:)	-14737
▁recordings	-14738
Its	-14739
▁heroes	-14740
opl	-14741
▁editorial	-14742
acts	-14743
Never	-14744
▁occupation	-14745
▁Singh	-14746
▁License	-14747
▁Lay	-14748
▁traged	-14749
bank	-14750
▁worries	-14751
▁remodeling	-14752
Still	-14753
▁Voice	-14754
stud	-14755
▁overlooking	-14756
rific	-14757
insula	-14758
▁disagree	-14759
▁blu	-14760
▁Yard	-14761
▁Cards	-14762
▁reputable	-14763
archy	-14764
▁progression	-14765
▁poems	-14766
▁Leave	-14767
listed	-14768
▁undertake	-14769
▁Either	-14770
▁expects	-14771
Create	-14772
DE	-14773
▁SEC	-14774
▁RES	-14775
▁tailor	-14776
lit	-14777
▁Stain	-14778
wheel	-14779
▁unre	-14780
orus	-14781
▁Forex	-14782
▁bonuses	-14783
▁Et	-14784
borne	-14785
version	-14786
▁Nord	-14787
▁ol	-14788
▁plaint	-14789
pn	-14790
▁Lang	-14791
▁burned	-14792
▁vel	-14793
anners	-14794
elong	-14795
▁mice	-14796
▁inevitable	-14797
▁flesh	-14798
▁sandwich	-14799
▁bind	-14800
cult	-14801
▁Ward	-14802
▁ER	-14803
▁Pure	-14804
ст	-14805
ocket	-14806
▁administrators	-14807
▁Hat	-14808
▁cinema	-14809
▁frustration	-14810
NG	-14811
▁Write	-14812
agar	-14813
▁Horse	-14814
Sign	-14815
▁domains	-14816
▁culinary	-14817
▁switches	-14818
▁Exhib	-14819
▁RC	-14820
[...]
