<pad>	0
</s>	0
<unk>	0
<mask>	0
<n>	0
<0x00>	0
<0x01>	0
<0x02>	0
<0x03>	0
<0x04>	0
<0x05>	0
<0x06>	0
<0x07>	0
<0x08>	0
<0x09>	0
<0x0A>	0
<0x0B>	0
<0x0C>	0
<0x0D>	0
<0x0E>	0
<0x0F>	0
<0x10>	0
<0x11>	0
<0x12>	0
<0x13>	0
<0x14>	0
<0x15>	0
<0x16>	0
<0x17>	0
<0x18>	0
<0x19>	0
<0x1A>	0
<0x1B>	0
<0x1C>	0
<0x1D>	0
<0x1E>	0
<0x1F>	0
<0x20>	0
<0x21>	0
<0x22>	0
<0x23>	0
<0x24>	0
<0x25>	0
<0x26>	0
<0x27>	0
<0x28>	0
<0x29>	0
<0x2A>	0
<0x2B>	0
<0x2C>	0
<0x2D>	0
<0x2E>	0
<0x2F>	0
<0x30>	0
<0x31>	0
<0x32>	0
<0x33>	0
<0x34>	0
<0x35>	0
<0x36>	0
<0x37>	0
<0x38>	0
<0x39>	0
<0x3A>	0
<0x3B>	0
<0x3C>	0
<0x3D>	0
<0x3E>	0
<0x3F>	0
<0x40>	0
<0x41>	0
<0x42>	0
<0x43>	0
<0x44>	0
<0x45>	0
<0x46>	0
<0x47>	0
<0x48>	0
<0x49>	0
<0x4A>	0
<0x4B>	0
<0x4C>	0
<0x4D>	0
<0x4E>	0
<0x4F>	0
<0x50>	0
<0x51>	0
<0x52>	0
<0x53>	0
<0x54>	0
<0x55>	0
<0x56>	0
<0x57>	0
<0x58>	0
<0x59>	0
<0x5A>	0
<0x5B>	0
<0x5C>	0
<0x5D>	0
<0x5E>	0
<0x5F>	0
<0x60>	0
<0x61>	0
<0x62>	0
<0x63>	0
<0x64>	0
<0x65>	0
<0x66>	0
<0x67>	0
<0x68>	0
<0x69>	0
<0x6A>	0
<0x6B>	0
<0x6C>	0
<0x6D>	0
<0x6E>	0
<0x6F>	0
<0x70>	0
<0x71>	0
<0x72>	0
<0x73>	0
<0x74>	0
<0x75>	0
<0x76>	0
<0x77>	0
<0x78>	0
<0x79>	0
<0x7A>	0
<0x7B>	0
<0x7C>	0
<0x7D>	0
<0x7E>	0
<0x7F>	0
<0x80>	0
<0x81>	0
<0x82>	0
<0x83>	0
<0x84>	0
<0x85>	0
<0x86>	0
<0x87>	0
<0x88>	0
<0x89>	0
<0x8A>	0
<0x8B>	0
<0x8C>	0
<0x8D>	0
<0x8E>	0
<0x8F>	0
<0x90>	0
<0x91>	0
<0x92>	0
<0x93>	0
<0x94>	0
<0x95>	0
<0x96>	0
<0x97>	0
<0x98>	0
<0x99>	0
<0x9A>	0
<0x9B>	0
<0x9C>	0
<0x9D>	0
<0x9E>	0
<0x9F>	0
<0xA0>	0
<0xA1>	0
<0xA2>	0
<0xA3>	0
<0xA4>	0
<0xA5>	0
<0xA6>	0
<0xA7>	0
<0xA8>	0
<0xA9>	0
<0xAA>	0
<0xAB>	0
<0xAC>	0
<0xAD>	0
<0xAE>	0
<0xAF>	0
<0xB0>	0
<0xB1>	0
<0xB2>	0
<0xB3>	0
<0xB4>	0
<0xB5>	0
<0xB6>	0
<0xB7>	0
<0xB8>	0
<0xB9>	0
<0xBA>	0
<0xBB>	0
<0xBC>	0
<0xBD>	0
<0xBE>	0
<0xBF>	0
<0xC0>	0
<0xC1>	0
<0xC2>	0
<0xC3>	0
<0xC4>	0
<0xC5>	0
<0xC6>	0
<0xC7>	0
<0xC8>	0
<0xC9>	0
<0xCA>	0
<0xCB>	0
<0xCC>	0
<0xCD>	0
<0xCE>	0
<0xCF>	0
<0xD0>	0
<0xD1>	0
<0xD2>	0
<0xD3>	0
<0xD4>	0
<0xD5>	0
<0xD6>	0
<0xD7>	0
<0xD8>	0
<0xD9>	0
<0xDA>	0
<0xDB>	0
<0xDC>	0
<0xDD>	0
<0xDE>	0
<0xDF>	0
<0xE0>	0
<0xE1>	0
<0xE2>	0
<0xE3>	0
<0xE4>	0
<0xE5>	0
<0xE6>	0
<0xE7>	0
<0xE8>	0
<0xE9>	0
<0xEA>	0
<0xEB>	0
<0xEC>	0
<0xED>	0
<0xEE>	0
<0xEF>	0
<0xF0>	0
<0xF1>	0
<0xF2>	0
<0xF3>	0
<0xF4>	0
<0xF5>	0
<0xF6>	0
<0xF7>	0
<0xF8>	0
<0xF9>	0
<0xFA>	0
<0xFB>	0
<0xFC>	0
<0xFD>	0
<0xFE>	0
<0xFF>	0
▁t	-0
▁a	-1
in	-2
he	-3
re	-4
on	-5
▁the	-6
er	-7
▁s	-8
▁w	-9
▁o	-10
at	-11
nd	-12
▁c	-13
it	-14
ou	-15
or	-16
es	-17
▁f	-18
is	-19
en	-20
ing	-21
▁b	-22
▁p	-23
an	-24
▁to	-25
ed	-26
al	-27
▁m	-28
▁and	-29
ar	-30
▁in	-31
▁of	-32
▁d	-33
ic	-34
le	-35
om	-36
▁h	-37
ion	-38
as	-39
▁th	-40
.
	-41
ll	-42
▁y	-43
▁l	-44
ent	-45
ve	-46
ro	-47
▁e	-48
▁re	-49
st	-50
▁n	-51
▁you	-52
ct	-53
▁g	-54
▁I	-55
ly	-56
et	-57
▁is	-58
▁T	-59
▁for	-60
▁be	-61
ut	-62
▁on	-63
ot	-64
id	-65
ur	-66
▁S	-67
ow	-68
ay	-69
us	-70
ce	-71
im	-72
ig	-73
▁C	-74
▁A	-75
ra	-76
ith	-77
ch	-78
ver	-79
il	-80
ation	-81
▁st	-82
▁that	-83
▁with	-84
ol	-85
ad	-86
am	-87
ir	-88
▁it	-89
se	-90
▁we	-91
▁M	-92
ill	-93
▁an	-94
▁pro	-95
▁are	-96
▁as	-97
ers	-98
▁he	-99
▁P	-100
▁wh	-101
un	-102
if	-103
▁B	-104
ke	-105
ge	-106
▁ha	-107
ter	-108
▁con	-109
▁of▁the	-110
▁W	-111
▁or	-112
oo	-113
ul	-114
ess	-115
▁com	-116
pp	-117
ate	-118
her	-119
▁your	-120
▁The	-121
est	-122
ment	-123
ld	-124
ab	-125
▁at	-126
▁de	-127
ck	-128
ore	-129
▁se	-130
ri	-131
▁H	-132
▁ex	-133
▁D	-134
▁ne	-135
rom	-136
igh	-137
pe	-138
▁F	-139
qu	-140
ort	-141
ure	-142
ist	-143
▁v	-144
ant	-145
ity	-146
▁R	-147
ive	-148
▁have	-149
▁can	-150
art	-151
ust	-152
um	-153
▁was	-154
op	-155
▁L	-156
▁this	-157
▁from	-158
▁us	-159
▁in▁the	-160
em	-161
ain	-162
th	-163
▁sh	-164
▁r	-165
▁al	-166
▁(	-167
▁G	-168
▁will	-169
el	-170
ies	-171
▁ch	-172
▁E	-173
os	-174
and	-175
▁by	-176
▁not	-177
nt	-178
▁su	-179
▁N	-180
▁u	-181
ome	-182
ight	-183
all	-184
s▁and	-185
▁le	-186
ard	-187
res	-188
out	-189
ud	-190
▁O	-191
ost	-192
▁wor	-193
ie	-194
▁do	-195
▁ab	-196
iv	-197
our	-198
ide	-199
▁all	-200
ould	-201
▁pl	-202
ial	-203
te	-204
od	-205
per	-206
gh	-207
rou	-208
ine	-209
ed▁to	-210
red	-211
▁so	-212
▁ma	-213
▁j	-214
▁comp	-215
ast	-216
age	-217
fe	-218
ice	-219
▁k	-220
ally	-221
pt	-222
▁has	-223
ear	-224
▁ad	-225
king	-226
ction	-227
▁whe	-228
ag	-229
able	-230
▁en	-231
▁me	-232
ind	-233
lo	-234
ac	-235
▁but	-236
ther	-237
ack	-238
▁our	-239
▁out	-240
so	-241
ip	-242
▁J	-243
ing▁the	-244
▁up	-245
are	-246
ich	-247
ite	-248
very	-249
s▁to	-250
The	-251
s▁of	-252
ry	-253
one	-254
cc	-255
▁more	-256
▁Th	-257
ime	-258
ood	-259
▁lo	-260
ong	-261
▁te	-262
du	-263
▁im	-264
▁U	-265
▁my	-266
▁they	-267
reat	-268
iz	-269
for	-270
▁one	-271
▁cont	-272
▁to▁the	-273
ous	-274
ike	-275
▁man	-276
▁In	-277
▁on▁the	-278
▁cl	-279
ance	-280
ib	-281
ign	-282
▁fe	-283
ook	-284
▁about	-285
▁un	-286
▁inc	-287
act	-288
ru	-289
▁res	-290
▁app	-291
▁qu	-292
ire	-293
▁which	-294
ans	-295
ated	-296
ace	-297
ult	-298
ail	-299
ase	-300
ition	-301
▁Y	-302
erv	-303
ia	-304
ree	-305
og	-306
▁per	-307
▁time	-308
▁also	-309
▁go	-310
ap	-311
▁who	-312
▁any	-313
to	-314
ame	-315
ne	-316
ach	-317
▁other	-318
pl	-319
▁for▁the	-320
▁K	-321
vel	-322
form	-323
ven	-324
▁work	-325
▁off	-326
▁get	-327
ber	-328
ile	-329
ak	-330
▁year	-331
ical	-332
▁It	-333
ass	-334
ep	-335
ary	-336
ount	-337
▁like	-338
ick	-339
▁sp	-340
ark	-341
▁and▁the	-342
▁some	-343
ff	-344
▁part	-345
▁dis	-346
ue	-347
▁is▁a	-348
ence	-349
▁new	-350
▁V	-351
av	-352
own	-353
s▁a	-354
▁tra	-355
s▁in	-356
ub	-357
▁St	-358
▁We	-359
ing▁to	-360
ond	-361
▁spe	-362
▁over	-363
▁Ch	-364
▁his	-365
▁ro	-366
ing▁a	-367
ations	-368
cial	-369
▁rec	-370
▁if	-371
▁sc	-372
▁when	-373
ild	-374
▁been	-375
▁imp	-376
▁pe	-377
▁sa	-378
▁ar	-379
▁what	-380
ress	-381
▁kn	-382
▁pre	-383
▁co	-384
▁with▁the	-385
ough	-386
ake	-387
▁would	-388
▁than	-389
ays	-390
int	-391
ions	-392
▁des	-393
ound	-394
wn	-395
▁just	-396
ish	-397
▁how	-398
▁“	-399
▁there	-400
ater	-401
▁were	-402
▁This	-403
ed▁in	-404
rough	-405
lp	-406
ens	-407
▁their	-408
ren	-409
ents	-410
!
	-411
ord	-412
▁prov	-413
▁comm	-414
▁am	-415
▁had	-416
ings	-417
ed▁by	-418
▁acc	-419
nder	-420
▁bec	-421
▁help	-422
irst	-423
ors	-424
use	-425
▁serv	-426
ink	-427
lud	-428
▁the▁b	-429
old	-430
▁make	-431
ople	-432
▁"	-433
ang	-434
ory	-435
▁no	-436
▁add	-437
lic	-438
▁her	-439
▁pr	-440
▁may	-441
vers	-442
fter	-443
▁the▁f	-444
▁use	-445
ces	-446
ram	-447
itt	-448
▁produ	-449
▁ag	-450
▁-	-451
▁its	-452
rent	-453
▁a▁l	-454
▁bu	-455
ual	-456
▁most	-457
▁tw	-458
▁people	-459
ft	-460
▁em	-461
les	-462
▁know	-463
ose	-464
▁tr	-465
ices	-466
▁them	-467
?
	-468
▁through	-469
oc	-470
▁well	-471
we	-472
ull	-473
▁only	-474
ates	-475
▁includ	-476
▁every	-477
tern	-478
ily	-479
end	-480
▁need	-481
▁the▁s	-482
▁the▁c	-483
round	-484
ect	-485
hed	-486
ian	-487
▁He	-488
▁–	-489
ious	-490
▁ind	-491
ning	-492
▁into	-493
▁want	-494
▁cons	-495
ov	-496
▁bet	-497
ise	-498
ities	-499
▁ph	-500
ause	-501
▁po	-502
s▁are	-503
fect	-504
▁supp	-505
ob	-506
▁You	-507
hen	-508
ade	-509
▁will▁be	-510
▁under	-511
▁see	-512
▁way	-513
▁exper	-514
iness	-515
ific	-516
▁back	-517
amp	-518
ons	-519
▁dif	-520
..	-521
▁very	-522
ove	-523
ject	-524
cess	-525
mer	-526
ful	-527
oth	-528
▁rep	-529
lect	-530
iew	-531
ert	-532
urn	-533
▁to▁be	-534
▁many	-535
xt	-536
ict	-537
li	-538
▁col	-539
ange	-540
day	-541
▁at▁the	-542
▁with▁a	-543
▁reg	-544
▁good	-545
ph	-546
▁ra	-547
▁ke	-548
▁two	-549
▁stud	-550
any	-551
row	-552
▁she	-553
yst	-554
usiness	-555
▁great	-556
fore	-557
uch	-558
sel	-559
vent	-560
ible	-561
▁day	-562
ife	-563
ing▁and	-564
eth	-565
ility	-566
ank	-567
▁Re	-568
▁rem	-569
get	-570
▁even	-571
▁act	-572
Th	-573
▁from▁the	-574
erson	-575
▁should	-576
▁where	-577
▁dec	-578
▁fl	-579
bs	-580
iss	-581
▁could	-582
ience	-583
▁sm	-584
▁pos	-585
▁ent	-586
ont	-587
oy	-588
ational	-589
ments	-590
▁find	-591
pect	-592
ower	-593
▁own	-594
▁loc	-595
ract	-596
ular	-597
▁start	-598
ool	-599
ew	-600
▁high	-601
▁you▁can	-602
ating	-603
formation	-604
ature	-605
▁now	-606
▁first	-607
aw	-608
▁of▁a	-609
ystem	-610
olog	-611
▁home	-612
oll	-613
rit	-614
▁right	-615
▁for▁a	-616
▁set	-617
velop	-618
ath	-619
ble	-620
▁If	-621
▁design	-622
▁down	-623
▁in▁a	-624
ward	-625
▁inst	-626
es▁and	-627
▁Wh	-628
▁requ	-629
▁much	-630
ient	-631
▁inv	-632
line	-633
▁sec	-634
▁play	-635
ork	-636
▁such	-637
▁gu	-638
air	-639
▁rel	-640
▁business	-641
ty	-642
ative	-643
▁car	-644
erm	-645
ced	-646
▁don	-647
▁take	-648
ident	-649
▁att	-650
▁fin	-651
▁said	-652
▁ins	-653
▁diffe	-654
▁read	-655
▁as▁a	-656
▁after	-657
hip	-658
arch	-659
com	-660
▁Un	-661
▁mark	-662
▁because	-663
ased	-664
▁min	-665
▁product	-666
▁the▁p	-667
▁look	-668
gan	-669
s▁that	-670
und	-671
ting	-672
▁ac	-673
alth	-674
ener	-675
),	-676
▁inte	-677
▁can▁be	-678
ek	-679
ional	-680
s▁the	-681
▁che	-682
ec	-683
▁here	-684
▁mon	-685
▁bl	-686
ality	-687
▁vis	-688
up	-689
chn	-690
▁information	-691
▁mod	-692
▁develop	-693
ustom	-694
▁disc	-695
▁made	-696
▁Com	-697
▁provid	-698
ys	-699
way	-700
▁sim	-701
cy	-702
▁fam	-703
▁before	-704
other	-705
▁show	-706
▁&	-707
▁does	-708
ell	-709
ash	-710
▁br	-711
▁Pro	-712
▁did	-713
▁prog	-714
▁it▁is	-715
▁person	-716
s▁for	-717
ric	-718
▁those	-719
).	-720
▁trans	-721
ner	-722
▁ass	-723
chool	-724
io	-725
▁$	-726
▁end	-727
▁bel	-728
ix	-729
▁world	-730
▁too	-731
ed▁the	-732
▁system	-733
▁eas	-734
▁As	-735
▁art	-736
ually	-737
▁is▁the	-738
▁And	-739
rest	-740
arn	-741
rib	-742
▁call	-743
▁For	-744
▁comple	-745
▁sur	-746
▁det	-747
▁hand	-748
▁pres	-749
▁each	-750
▁long	-751
▁support	-752
▁num	-753
▁An	-754
vail	-755
gg	-756
ouse	-757
ffect	-758
▁exp	-759
▁mem	-760
▁med	-761
▁op	-762
▁then	-763
In	-764
az	-765
ize	-766
▁while	-767
arm	-768
▁different	-769
ason	-770
▁love	-771
▁life	-772
ple	-773
der	-774
▁form	-775
land	-776
ata	-777
▁market	-778
riv	-779
ci	-780
▁sub	-781
self	-782
▁str	-783
ince	-784
cept	-785
▁process	-786
ng	-787
ues	-788
ather	-789
▁you▁are	-790
▁a▁b	-791
ave	-792
olut	-793
ale	-794
ts	-795
▁last	-796
▁really	-797
▁place	-798
lease	-799
▁child	-800
ros	-801
▁cle	-802
▁free	-803
▁years	-804
▁custom	-805
▁commun	-806
▁lead	-807
ages	-808
▁prof	-809
ited	-810
▁post	-811
▁care	-812
als	-813
▁inter	-814
▁gra	-815
▁ret	-816
atch	-817
▁think	-818
▁som	-819
▁plan	-820
dition	-821
ollow	-822
read	-823
ever	-824
▁cur	-825
ef	-826
vailable	-827
▁ed	-828
▁and▁a	-829
▁techn	-830
▁team	-831
▁being	-832
ives	-833
hes	-834
▁sk	-835
▁program	-836
▁Sh	-837
ooking	-838
led	-839
▁import	-840
▁these	-841
ied	-842
irect	-843
▁both	-844
▁feel	-845
▁best	-846
▁Al	-847
roup	-848
riend	-849
ines	-850
ness	-851
ax	-852
▁still	-853
pr	-854
▁again	-855
▁as▁well	-856
oun	-857
ten	-858
ween	-859
We	-860
▁ext	-861
ics	-862
arge	-863
▁him	-864
y▁and	-865
▁week	-866
imes	-867
▁company	-868
▁fun	-869
This	-870
▁adv	-871
▁service	-872
▁ser	-873
its	-874
▁though	-875
▁pur	-876
▁dur	-877
view	-878
de	-879
▁New	-880
ired	-881
▁full	-882
▁opt	-883
au	-884
▁found	-885
▁need▁to	-886
▁val	-887
▁bo	-888
▁ty	-889
ittle	-890
▁top	-891
ways	-892
▁between	-893
▁cour	-894
▁has▁been	-895
▁ide	-896
▁sign	-897
▁var	-898
▁list	-899
▁few	-900
ed▁a	-901
iqu	-902
less	-903
▁run	-904
▁keep	-905
▁to▁a	-906
▁pub	-907
ivers	-908
▁happ	-909
▁They	-910
▁creat	-911
▁main	-912
▁project	-913
▁But	-914
aking	-915
▁Ar	-916
▁experience	-917
▁have▁a	-918
y▁to	-919
▁point	-920
▁appro	-921
alk	-922
▁water	-923
▁health	-924
ed▁with	-925
▁that▁the	-926
▁cre	-927
▁gener	-928
▁Se	-929
▁real	-930
▁pol	-931
▁poss	-932
ital	-933
▁ref	-934
▁allow	-935
iet	-936
▁There	-937
▁count	-938
▁services	-939
▁month	-940
▁De	-941
▁small	-942
▁So	-943
▁open	-944
ern	-945
▁sure	-946
▁partic	-947
▁book	-948
▁build	-949
▁provide	-950
▁Cl	-951
▁result	-952
▁ev	-953
aut	-954
ware	-955
le▁to	-956
▁sl	-957
gin	-958
ed▁and	-959
▁offer	-960
orth	-961
atur	-962
▁want▁to	-963
▁Ad	-964
stand	-965
ah	-966
ing▁in	-967
erg	-968
▁data	-969
ically	-970
▁organ	-971
bers	-972
▁rest	-973
ation▁of	-974
▁stand	-975
▁come	-976
▁pay	-977
▁important	-978
ton	-979
▁ob	-980
uc	-981
▁three	-982
▁must	-983
▁family	-984
ock	-985
▁online	-986
y▁of	-987
ute	-988
▁follow	-989
Wh	-990
▁resp	-991
ves	-992
▁on▁a	-993
▁interest	-994
▁always	-995
▁have▁been	-996
▁.	-997
reen	-998
blem	-999
ining	-1000
plo	-1001
▁Le	-1002
▁cor	-1003
▁if▁you	-1004
▁proper	-1005
▁friend	-1006
▁say	-1007
▁try	-1008
sh	-1009
▁number	-1010
ccess	-1011
▁better	-1012
▁perform	-1013
ier	-1014
▁area	-1015
▁contin	-1016
▁without	-1017
▁iss	-1018
kes	-1019
▁spec	-1020
▁How	-1021
▁def	-1022
▁Be	-1023
▁conf	-1024
ield	-1025
▁rece	-1026
▁quest	-1027
▁ve	-1028
be	-1029
▁pat	-1030
▁the▁l	-1031
arly	-1032
▁effect	-1033
port	-1034
▁aut	-1035
▁webs	-1036
▁someth	-1037
▁cent	-1038
ien	-1039
▁school	-1040
▁dist	-1041
ished	-1042
▁level	-1043
▁conc	-1044
lection	-1045
).
	-1046
▁give	-1047
▁problem	-1048
▁fil	-1049
It	-1050
▁class	-1051
ploy	-1052
ved	-1053
co	-1054
▁mus	-1055
▁put	-1056
joy	-1057
▁special	-1058
▁opp	-1059
▁Pl	-1060
man	-1061
▁cost	-1062
arg	-1063
▁state	-1064
ology	-1065
▁next	-1066
▁around	-1067
▁let	-1068
▁Te	-1069
es▁to	-1070
▁and▁I	-1071
con	-1072
▁int	-1073
▁group	-1074
att	-1075
▁one▁of▁the	-1076
ets	-1077
ared	-1078
thing	-1079
▁pass	-1080
ump	-1081
▁feature	-1082
▁able▁to	-1083
meric	-1084
▁room	-1085
▁quality	-1086
ertain	-1087
ior	-1088
▁On	-1089
▁visit	-1090
▁tri	-1091
▁incre	-1092
oot	-1093
ately	-1094
▁order	-1095
▁eng	-1096
▁hard	-1097
▁things	-1098
rand	-1099
ider	-1100
ug	-1101
▁might	-1102
▁another	-1103
ody	-1104
▁is▁not	-1105
▁wr	-1106
ures	-1107
vern	-1108
ral	-1109
If	-1110
ator	-1111
▁since	-1112
me	-1113
▁grow	-1114
work	-1115
ortun	-1116
▁direct	-1117
▁report	-1118
ized	-1119
▁phot	-1120
ery	-1121
load	-1122
▁Ex	-1123
uss	-1124
▁old	-1125
iving	-1126
▁head	-1127
▁of▁your	-1128
▁oper	-1129
▁All	-1130
ision	-1131
ential	-1132
orn	-1133
rol	-1134
▁blo	-1135
▁rese	-1136
ffic	-1137
▁gl	-1138
▁i	-1139
▁second	-1140
▁addition	-1141
▁access	-1142
room	-1143
▁such▁as	-1144
ins	-1145
es▁of	-1146
▁profess	-1147
illion	-1148
▁available	-1149
▁equ	-1150
rist	-1151
▁meet	-1152
pend	-1153
▁event	-1154
▁light	-1155
▁fact	-1156
▁never	-1157
▁est	-1158
ars	-1159
▁something	-1160
▁Americ	-1161
▁working	-1162
▁cr	-1163
▁Q	-1164
ruct	-1165
eng	-1166
inal	-1167
▁mov	-1168
ateg	-1169
▁invest	-1170
oney	-1171
cl	-1172
▁Ind	-1173
omm	-1174
▁game	-1175
ium	-1176
▁She	-1177
▁local	-1178
ed▁for	-1179
here	-1180
▁you▁have	-1181
orm	-1182
▁enjoy	-1183
▁looking	-1184
ivid	-1185
▁within	-1186
▁dri	-1187
▁win	-1188
rence	-1189
ames	-1190
▁view	-1191
▁including	-1192
▁got	-1193
▁test	-1194
ense	-1195
ants	-1196
▁job	-1197
▁expl	-1198
rid	-1199
▁el	-1200
▁inf	-1201
agement	-1202
ism	-1203
▁it▁was	-1204
▁making	-1205
▁applic	-1206
ration	-1207
ently	-1208
▁current	-1209
anc	-1210
▁food	-1211
▁learn	-1212
▁website	-1213
go	-1214
ote	-1215
▁hour	-1216
▁sit	-1217
▁Sc	-1218
ott	-1219
▁less	-1220
▁‘	-1221
iversity	-1222
▁treat	-1223
▁power	-1224
▁children	-1225
▁understand	-1226
▁as▁well▁as	-1227
ving	-1228
▁pract	-1229
iron	-1230
ieve	-1231
▁using	-1232
▁tak	-1233
▁I▁was	-1234
ctions	-1235
ird	-1236
▁fac	-1237
▁indust	-1238
▁more▁than	-1239
▁pop	-1240
oint	-1241
outh	-1242
▁complete	-1243
▁buy	-1244
▁To	-1245
ients	-1246
"
	-1247
▁turn	-1248
▁to▁get	-1249
▁tru	-1250
▁prote	-1251
ability	-1252
ush	-1253
ope	-1254
atter	-1255
ross	-1256
▁check	-1257
▁With	-1258
ret	-1259
▁site	-1260
▁prom	-1261
por	-1262
▁Is	-1263
ission	-1264
▁change	-1265
▁sal	-1266
▁At	-1267
▁unt	-1268
▁ann	-1269
▁impro	-1270
▁present	-1271
▁bre	-1272
tain	-1273
olution	-1274
ers▁and	-1275
▁met	-1276
▁success	-1277
ron	-1278
▁chang	-1279
▁Ph	-1280
▁bro	-1281
▁they▁are	-1282
▁the▁same	-1283
▁Con	-1284
side	-1285
aterial	-1286
▁all▁the	-1287
▁intern	-1288
▁const	-1289
▁Z	-1290
ode	-1291
You	-1292
tend	-1293
ique	-1294
gether	-1295
▁along	-1296
▁conne	-1297
▁ca	-1298
pos	-1299
▁the▁best	-1300
▁ben	-1301
let	-1302
ention	-1303
ling	-1304
ably	-1305
▁ask	-1306
▁gr	-1307
ocus	-1308
▁by▁the	-1309
fer	-1310
▁vide	-1311
▁beaut	-1312
▁Col	-1313
▁bas	-1314
oh	-1315
▁US	-1316
▁house	-1317
ER	-1318
▁to▁make	-1319
ample	-1320
▁seem	-1321
▁When	-1322
ann	-1323
▁cap	-1324
▁detail	-1325
▁Bl	-1326
▁that▁you	-1327
ify	-1328
▁employ	-1329
▁public	-1330
▁thing	-1331
the	-1332
▁name	-1333
aster	-1334
▁for▁your	-1335
lish	-1336
▁hist	-1337
▁pa	-1338
▁possible	-1339
of	-1340
...	-1341
▁of▁our	-1342
ina	-1343
ex	-1344
▁course	-1345
ories	-1346
▁beh	-1347
▁What	-1348
ream	-1349
▁dem	-1350
part	-1351
▁leg	-1352
▁professional	-1353
lement	-1354
oss	-1355
▁di	-1356
▁dev	-1357
ember	-1358
▁today	-1359
▁until	-1360
▁why	-1361
▁the▁m	-1362
▁community	-1363
▁contact	-1364
▁Our	-1365
cent	-1366
ogra	-1367
▁create	-1368
icle	-1369
ation▁and	-1370
▁used	-1371
ift	-1372
▁term	-1373
pping	-1374
▁pain	-1375
min	-1376
▁hum	-1377
itive	-1378
yle	-1379
▁If▁you	-1380
els	-1381
▁expect	-1382
ered	-1383
ists	-1384
▁I▁am	-1385
▁would▁be	-1386
▁research	-1387
ik	-1388
rop	-1389
▁kind	-1390
▁dra	-1391
ront	-1392
iven	-1393
▁that▁is	-1394
ury	-1395
▁going▁to	-1396
▁big	-1397
▁I▁have	-1398
▁a▁c	-1399
ividual	-1400
▁Or	-1401
▁perfect	-1402
▁sing	-1403
▁personal	-1404
▁That	-1405
▁Sp	-1406
▁char	-1407
▁mean	-1408
irm	-1409
vernment	-1410
ym	-1411
▁soft	-1412
bo	-1413
ases	-1414
▁often	-1415
▁activ	-1416
▁Christ	-1417
▁Cent	-1418
ified	-1419
▁record	-1420
,”	-1421
▁opportun	-1422
▁writ	-1423
▁—	-1424
s▁on	-1425
arent	-1426
pecial	-1427
▁include	-1428
▁makes	-1429
▁card	-1430
▁times	-1431
▁Res	-1432
▁you▁to	-1433
viron	-1434
▁material	-1435
▁'	-1436
▁become	-1437
▁a▁lot	-1438
▁is▁an	-1439
▁word	-1440
s▁of▁the	-1441
▁short	-1442
▁require	-1443
▁control	-1444
▁as▁the	-1445
ed▁on	-1446
▁side	-1447
▁and▁f	-1448
▁Man	-1449
▁development	-1450
▁night	-1451
▁money	-1452
uck	-1453
▁of▁this	-1454
▁page	-1455
indow	-1456
soci	-1457
▁law	-1458
▁based	-1459
▁price	-1460
▁es	-1461
▁students	-1462
oice	-1463
▁done	-1464
ization	-1465
▁ens	-1466
cu	-1467
oose	-1468
▁air	-1469
▁specific	-1470
▁elect	-1471
ead	-1472
ency	-1473
▁wom	-1474
▁may▁be	-1475
▁members	-1476
jor	-1477
▁about▁the	-1478
▁mult	-1479
▁sever	-1480
▁net	-1481
▁social	-1482
▁enough	-1483
hor	-1484
s▁with	-1485
▁Comm	-1486
▁deal	-1487
par	-1488
er▁and	-1489
▁par	-1490
ries	-1491
ready	-1492
▁quick	-1493
vious	-1494
itc	-1495
▁condition	-1496
▁review	-1497
ing▁your	-1498
▁tem	-1499
ured	-1500
▁Tr	-1501
▁clean	-1502
▁left	-1503
▁sw	-1504
▁compan	-1505
▁four	-1506
▁non	-1507
▁days	-1508
▁focus	-1509
uture	-1510
▁account	-1511
aff	-1512
▁music	-1513
▁Can	-1514
ption	-1515
▁several	-1516
ined	-1517
ribut	-1518
▁hot	-1519
▁individual	-1520
ley	-1521
ape	-1522
▁occ	-1523
▁move	-1524
▁benef	-1525
ding	-1526
▁ever	-1527
▁live	-1528
▁educ	-1529
▁store	-1530
▁little	-1531
▁fav	-1532
▁Eng	-1533
▁God	-1534
ane	-1535
▁It▁is	-1536
▁already	-1537
▁space	-1538
▁You▁can	-1539
▁These	-1540
ney	-1541
▁below	-1542
over	-1543
▁typ	-1544
sc	-1545
ee	-1546
▁la	-1547
▁hold	-1548
uro	-1549
vironment	-1550
isk	-1551
!!	-1552
olid	-1553
▁season	-1554
▁share	-1555
▁consider	-1556
lose	-1557
inc	-1558
▁the▁first	-1559
▁pot	-1560
▁hig	-1561
▁number▁of	-1562
▁vers	-1563
▁Am	-1564
▁large	-1565
▁key	-1566
ances	-1567
▁major	-1568
▁was▁a	-1569
iful	-1570
▁imm	-1571
▁have▁to	-1572
▁item	-1573
▁University	-1574
▁purch	-1575
ing▁for	-1576
▁orig	-1577
ats	-1578
▁lim	-1579
▁should▁be	-1580
conom	-1581
▁Mar	-1582
ed▁by▁the	-1583
▁No	-1584
.,	-1585
▁My	-1586
▁et	-1587
ilt	-1588
by	-1589
augh	-1590
▁ce	-1591
▁range	-1592
▁case	-1593
▁mar	-1594
ither	-1595
▁you▁will	-1596
resent	-1597
▁offers	-1598
▁story	-1599
▁line	-1600
app	-1601
alf	-1602
▁million	-1603
▁cover	-1604
▁return	-1605
▁mind	-1606
▁up▁to	-1607
▁companies	-1608
s▁in▁the	-1609
▁recomm	-1610
▁we▁are	-1611
▁install	-1612
aim	-1613
▁particular	-1614
IN	-1615
ait	-1616
▁land	-1617
▁recommend	-1618
▁certain	-1619
▁Do	-1620
▁example	-1621
▁step	-1622
▁there▁are	-1623
ering	-1624
▁tell	-1625
▁deli	-1626
▁against	-1627
most	-1628
▁redu	-1629
▁industry	-1630
▁compet	-1631
▁has▁a	-1632
▁fund	-1633
ograph	-1634
▁Su	-1635
ethod	-1636
enn	-1637
urther	-1638
▁anal	-1639
▁comb	-1640
▁Car	-1641
lf	-1642
ully	-1643
ed▁in▁the	-1644
▁reason	-1645
▁pack	-1646
light	-1647
▁away	-1648
▁past	-1649
ising	-1650
rap	-1651
ilities	-1652
ctor	-1653
▁to▁your	-1654
▁far	-1655
atic	-1656
sw	-1657
▁camp	-1658
▁means	-1659
▁least	-1660
▁ident	-1661
ok	-1662
son	-1663
▁contain	-1664
▁thought	-1665
▁video	-1666
▁chall	-1667
▁how▁to	-1668
ing▁on	-1669
yn	-1670
▁content	-1671
ing▁of	-1672
▁value	-1673
book	-1674
▁together	-1675
▁happen	-1676
ask	-1677
▁fore	-1678
▁Pr	-1679
▁in▁your	-1680
▁products	-1681
urs	-1682
fact	-1683
▁didn	-1684
rodu	-1685
▁a▁few	-1686
▁mil	-1687
▁tre	-1688
fort	-1689
▁ess	-1690
ised	-1691
utes	-1692
▁amount	-1693
urity	-1694
ai	-1695
▁do▁not	-1696
▁Intern	-1697
▁Tra	-1698
▁App	-1699
ply	-1700
ancial	-1701
For	-1702
▁Co	-1703
▁dr	-1704
vert	-1705
What	-1706
▁stay	-1707
▁skill	-1708
▁is▁to	-1709
▁low	-1710
▁strong	-1711
▁begin	-1712
▁please	-1713
err	-1714
▁exc	-1715
▁lot	-1716
ural	-1717
cle	-1718
▁ste	-1719
ource	-1720
▁email	-1721
▁May	-1722
▁won	-1723
iod	-1724
▁port	-1725
▁respons	-1726
▁standard	-1727
▁kid	-1728
atural	-1729
▁cut	-1730
▁tool	-1731
▁doesn	-1732
▁pie	-1733
ion▁of	-1734
▁that▁I	-1735
cell	-1736
ford	-1737
▁Inst	-1738
▁government	-1739
▁energ	-1740
▁search	-1741
ung	-1742
RE	-1743
▁environment	-1744
▁once	-1745
▁type	-1746
▁provides	-1747
▁above	-1748
▁property	-1749
ored	-1750
▁vol	-1751
▁super	-1752
▁remain	-1753
▁Gu	-1754
▁enc	-1755
ister	-1756
▁which▁is	-1757
ino	-1758
ster	-1759
osp	-1760
▁En	-1761
▁management	-1762
▁priv	-1763
ference	-1764
eral	-1765
▁heart	-1766
urch	-1767
▁However	-1768
ources	-1769
bal	-1770
not	-1771
ners	-1772
▁One	-1773
▁student	-1774
▁wond	-1775
ON	-1776
▁bed	-1777
▁young	-1778
br	-1779
ination	-1780
▁areas	-1781
▁yet	-1782
ledge	-1783
.
“	-1784
ental	-1785
▁charact	-1786
pecially	-1787
▁hope	-1788
▁travel	-1789
lished	-1790
che	-1791
lev	-1792
s▁or	-1793
▁X	-1794
unch	-1795
▁jo	-1796
▁customers	-1797
itor	-1798
AT	-1799
▁given	-1800
▁close	-1801
urance	-1802
▁the▁most	-1803
▁color	-1804
▁pict	-1805
▁same	-1806
▁brand	-1807
▁men	-1808
▁Serv	-1809
▁z	-1810
▁early	-1811
▁beautiful	-1812
▁Ro	-1813
▁at▁a	-1814
s▁from	-1815
uff	-1816
He	-1817
▁web	-1818
ensive	-1819
▁ensure	-1820
▁upd	-1821
es▁in	-1822
▁tour	-1823
▁sound	-1824
▁to▁see	-1825
▁came	-1826
There	-1827
es▁are	-1828
▁known	-1829
▁ey	-1830
▁offic	-1831
resh	-1832
▁Comp	-1833
▁method	-1834
▁sell	-1835
▁future	-1836
▁Fl	-1837
▁simple	-1838
▁download	-1839
▁to▁do	-1840
place	-1841
▁question	-1842
ufact	-1843
▁invol	-1844
▁plac	-1845
▁into▁the	-1846
leg	-1847
▁others	-1848
▁someone	-1849
▁Des	-1850
▁econom	-1851
▁mot	-1852
▁improve	-1853
ohn	-1854
idd	-1855
▁required	-1856
▁Cont	-1857
▁exam	-1858
▁appear	-1859
ruction	-1860
▁during▁the	-1861
▁experien	-1862
▁of▁their	-1863
▁tax	-1864
redit	-1865
▁unique	-1866
ibility	-1867
▁on▁your	-1868
▁model	-1869
▁whole	-1870
AN	-1871
reet	-1872
▁American	-1873
▁position	-1874
▁sum	-1875
▁due	-1876
▁field	-1877
,"	-1878
▁Med	-1879
une	-1880
▁over▁the	-1881
arr	-1882
▁strateg	-1883
▁and▁we	-1884
fic	-1885
ety	-1886
▁study	-1887
▁mom	-1888
▁performance	-1889
irt	-1890
▁period	-1891
▁table	-1892
▁discuss	-1893
▁dig	-1894
▁flo	-1895
▁through▁the	-1896
St	-1897
▁body	-1898
."
	-1899
▁,	-1900
ogn	-1901
ides	-1902
mber	-1903
▁idea	-1904
▁taking	-1905
roll	-1906
astic	-1907
▁media	-1908
▁staff	-1909
▁mach	-1910
▁issues	-1911
▁country	-1912
ed▁that	-1913
ulation	-1914
tt	-1915
▁link	-1916
▁pri	-1917
▁single	-1918
ipp	-1919
wh	-1920
▁cra	-1921
▁Euro	-1922
▁risk	-1923
▁print	-1924
▁manag	-1925
▁comput	-1926
▁particip	-1927
ww	-1928
▁prob	-1929
▁choose	-1930
▁out▁of	-1931
rew	-1932
ing▁that	-1933
▁address	-1934
ox	-1935
play	-1936
▁clos	-1937
▁ant	-1938
s▁like	-1939
▁everything	-1940
▁oil	-1941
▁various	-1942
oid	-1943
How	-1944
▁assist	-1945
▁easy	-1946
▁Ste	-1947
▁cou	-1948
▁near	-1949
ume	-1950
yl	-1951
though	-1952
▁common	-1953
▁connect	-1954
▁human	-1955
▁track	-1956
arning	-1957
.
"	-1958
▁/	-1959
ES	-1960
cri	-1961
▁United	-1962
▁effective	-1963
▁took	-1964
▁polic	-1965
aur	-1966
▁whether	-1967
▁technology	-1968
now	-1969
▁Fe	-1970
▁later	-1971
▁says	-1972
idence	-1973
▁way▁to	-1974
▁a▁f	-1975
▁necess	-1976
▁text	-1977
abor	-1978
An	-1979
lex	-1980
rict	-1981
▁seen	-1982
fully	-1983
af	-1984
oon	-1985
▁break	-1986
ene	-1987
ables	-1988
▁eff	-1989
▁minutes	-1990
▁wall	-1991
▁City	-1992
▁in▁this	-1993
▁city	-1994
As	-1995
▁wide	-1996
lege	-1997
▁phys	-1998
nov	-1999
come	-2000
▁went	-2001
▁actually	-2002
ps	-2003
pro	-2004
▁especially	-2005
▁Your	-2006
▁percent	-2007
▁Che	-2008
imate	-2009
aring	-2010
▁doing	-2011
▁quite	-2012
▁simply	-2013
▁history	-2014
a▁and	-2015
ggest	-2016
▁comfort	-2017
▁engine	-2018
▁entire	-2019
gr	-2020
ones	-2021
▁Ne	-2022
▁either	-2023
▁After	-2024
▁spend	-2025
▁film	-2026
▁we▁can	-2027
ians	-2028
▁questions	-2029
▁size	-2030
▁Fr	-2031
▁women	-2032
▁does▁not	-2033
▁everyone	-2034
▁network	-2035
▁relations	-2036
▁dam	-2037
▁talk	-2038
▁effort	-2039
▁of▁these	-2040
itchen	-2041
▁cal	-2042
▁cult	-2043
▁select	-2044
▁meas	-2045
inking	-2046
▁regard	-2047
obile	-2048
ched	-2049
▁includes	-2050
▁software	-2051
edi	-2052
do	-2053
▁pick	-2054
--	-2055
▁favor	-2056
▁host	-2057
▁getting	-2058
ived	-2059
▁I▁can	-2060
▁docu	-2061
▁Thank	-2062
▁and▁then	-2063
▁represent	-2064
▁energy	-2065
▁press	-2066
▁walk	-2067
▁suggest	-2068
When	-2069
istic	-2070
crib	-2071
▁ideas	-2072
▁help▁you	-2073
▁extra	-2074
▁glo	-2075
▁defin	-2076
AR	-2077
ated▁to	-2078
▁during	-2079
▁function	-2080
rain	-2081
▁natural	-2082
▁mess	-2083
▁bring	-2084
▁from▁a	-2085
▁tot	-2086
ler	-2087
▁Europe	-2088
▁etc	-2089
▁style	-2090
▁answ	-2091
▁exist	-2092
orld	-2093
▁South	-2094
▁mag	-2095
ball	-2096
gle	-2097
ficult	-2098
▁of▁my	-2099
▁when▁you	-2100
▁for▁you	-2101
ed▁up	-2102
xim	-2103
On	-2104
▁clear	-2105
irl	-2106
elt	-2107
▁manufact	-2108
▁further	-2109
▁and▁it	-2110
▁comes	-2111
▁series	-2112
selves	-2113
ment▁of	-2114
▁phone	-2115
▁wait	-2116
▁soon	-2117
▁claim	-2118
▁self	-2119
▁five	-2120
▁difficult	-2121
uring	-2122
▁protect	-2123
▁used▁to	-2124
▁is▁that	-2125
▁financial	-2126
▁almost	-2127
▁John	-2128
▁half	-2129
ilar	-2130
iver	-2131
▁training	-2132
▁tradition	-2133
wards	-2134
enc	-2135
▁thank	-2136
ires	-2137
▁a▁little	-2138
▁blog	-2139
▁white	-2140
back	-2141
▁Cal	-2142
AS	-2143
▁red	-2144
▁aud	-2145
▁watch	-2146
▁knowledge	-2147
ites	-2148
▁Me	-2149
▁at▁least	-2150
▁a▁lot▁of	-2151
▁option	-2152
▁needs	-2153
▁paper	-2154
▁Min	-2155
ication	-2156
ipment	-2157
omes	-2158
apt	-2159
▁variet	-2160
▁throughout	-2161
▁consum	-2162
▁bar	-2163
▁miss	-2164
▁impact	-2165
duct	-2166
▁dou	-2167
▁request	-2168
▁called	-2169
rown	-2170
▁we▁have	-2171
▁front	-2172
▁believe	-2173
▁opportunity	-2174
▁popular	-2175
▁office	-2176
s▁not	-2177
urg	-2178
▁parent	-2179
umb	-2180
▁signific	-2181
▁veh	-2182
ief	-2183
▁sol	-2184
ux	-2185
▁Count	-2186
▁however	-2187
▁This▁is	-2188
▁customer	-2189
▁application	-2190
▁safe	-2191
uge	-2192
▁with▁your	-2193
▁Not	-2194
▁tal	-2195
ival	-2196
▁Aust	-2197
ers▁to	-2198
▁send	-2199
▁goal	-2200
▁wood	-2201
▁deb	-2202
time	-2203
▁wonder	-2204
▁North	-2205
▁fre	-2206
▁dog	-2207
If▁you	-2208
▁plant	-2209
▁School	-2210
▁receive	-2211
angu	-2212
▁third	-2213
▁face	-2214
ibr	-2215
ification	-2216
oura	-2217
▁building	-2218
So	-2219
where	-2220
▁determ	-2221
▁black	-2222
etimes	-2223
▁relationship	-2224
azing	-2225
▁not▁be	-2226
▁tou	-2227
.”	-2228
▁among	-2229
▁located	-2230
▁stop	-2231
▁likely	-2232
IT	-2233
acy	-2234
IS	-2235
▁Im	-2236
▁accord	-2237
▁having	-2238
new	-2239
▁security	-2240
▁Rep	-2241
▁cir	-2242
▁State	-2243
▁abs	-2244
▁time▁to	-2245
ze	-2246
face	-2247
▁continue	-2248
▁taken	-2249
▁insp	-2250
▁fit	-2251
▁increase	-2252
▁fall	-2253
▁fill	-2254
▁sho	-2255
▁National	-2256
▁news	-2257
▁and▁s	-2258
▁usually	-2259
▁contract	-2260
ed▁out	-2261
▁regular	-2262
▁else	-2263
▁situ	-2264
▁there▁is	-2265
▁issue	-2266
action	-2267
itch	-2268
▁higher	-2269
▁rather	-2270
▁probably	-2271
icro	-2272
▁games	-2273
▁York	-2274
ison	-2275
imal	-2276
▁Park	-2277
▁depend	-2278
OR	-2279
mon	-2280
▁init	-2281
▁previous	-2282
▁pret	-2283
▁foot	-2284
▁There▁are	-2285
ers▁are	-2286
ED	-2287
▁potential	-2288
▁currently	-2289
▁road	-2290
▁prep	-2291
▁mor	-2292
yd	-2293
rect	-2294
er▁to	-2295
▁rate	-2296
▁coll	-2297
mit	-2298
s▁to▁be	-2299
▁anything	-2300
▁collection	-2301
reme	-2302
▁estab	-2303
verage	-2304
▁original	-2305
arget	-2306
ublic	-2307
▁drive	-2308
IC	-2309
ed▁at	-2310
▁ut	-2311
▁crit	-2312
ises	-2313
▁continu	-2314
▁Go	-2315
▁stat	-2316
▁nice	-2317
▁concern	-2318
ructure	-2319
iple	-2320
head	-2321
atest	-2322
eter	-2323
▁subject	-2324
acher	-2325
▁significant	-2326
▁matter	-2327
▁associ	-2328
▁collect	-2329
▁but▁I	-2330
itten	-2331
▁famil	-2332
gra	-2333
▁jour	-2334
▁fail	-2335
▁attend	-2336
▁sle	-2337
▁recogn	-2338
▁Qu	-2339
▁age	-2340
▁additional	-2341
itut	-2342
▁solution	-2343
▁true	-2344
▁da	-2345
dd	-2346
▁date	-2347
▁of▁M	-2348
ted	-2349
▁takes	-2350
▁behind	-2351
To	-2352
ring	-2353
oud	-2354
▁approach	-2355
▁easily	-2356
▁Pe	-2357
▁pretty	-2358
▁polit	-2359
▁works	-2360
ing▁with	-2361
ground	-2362
▁window	-2363
▁del	-2364
AL	-2365
▁accept	-2366
ots	-2367
▁author	-2368
▁outside	-2369
▁Sm	-2370
▁exact	-2371
aving	-2372
aps	-2373
▁I▁had	-2374
▁friends	-2375
▁image	-2376
▁member	-2377
And	-2378
ing▁them	-2379
▁Tw	-2380
ing▁to▁the	-2381
▁Stud	-2382
▁choice	-2383
▁excell	-2384
▁party	-2385
bor	-2386
▁built	-2387
ger	-2388
▁role	-2389
▁pan	-2390
▁ground	-2391
▁started	-2392
▁agree	-2393
ators	-2394
▁Ke	-2395
▁modern	-2396
▁box	-2397
lin	-2398
▁effic	-2399
▁reach	-2400
▁treatment	-2401
▁like▁to	-2402
erc	-2403
▁a▁new	-2404
EN	-2405
▁could▁be	-2406
▁leave	-2407
▁respect	-2408
▁[	-2409
hib	-2410
ray	-2411
asing	-2412
▁via	-2413
▁and▁other	-2414
▁train	-2415
▁vi	-2416
arden	-2417
ed▁to▁the	-2418
arth	-2419
ate▁the	-2420
▁Ag	-2421
▁insurance	-2422
▁hon	-2423
era	-2424
▁save	-2425
▁some▁of▁the	-2426
▁expert	-2427
▁maintain	-2428
lu	-2429
put	-2430
▁Sec	-2431
▁client	-2432
▁credit	-2433
▁living	-2434
▁options	-2435
atform	-2436
anced	-2437
▁swe	-2438
▁worth	-2439
▁events	-2440
▁speak	-2441
iting	-2442
▁clients	-2443
▁Some	-2444
▁sent	-2445
▁similar	-2446
ing▁their	-2447
▁held	-2448
▁production	-2449
▁that▁are	-2450
▁private	-2451
▁Inc	-2452
▁learning	-2453
▁Reg	-2454
▁is▁also	-2455
▁World	-2456
isc	-2457
▁in▁their	-2458
▁Apr	-2459
Ch	-2460
▁apply	-2461
ounc	-2462
▁cool	-2463
▁location	-2464
▁Jan	-2465
▁quickly	-2466
▁click	-2467
hing	-2468
opy	-2469
▁screen	-2470
amb	-2471
▁deg	-2472
▁practice	-2473
▁Af	-2474
▁part▁of▁the	-2475
▁kind▁of	-2476
▁kitchen	-2477
▁Just	-2478
▁stock	-2479
▁States	-2480
s▁to▁the	-2481
▁mix	-2482
▁board	-2483
▁article	-2484
▁Ge	-2485
▁neg	-2486
▁bad	-2487
minist	-2488
▁#	-2489
lock	-2490
▁Em	-2491
▁bit	-2492
▁inj	-2493
▁hair	-2494
▁object	-2495
▁draw	-2496
▁By	-2497
▁Please	-2498
▁yourself	-2499
▁growth	-2500
▁general	-2501
▁x	-2502
iam	-2503
AC	-2504
ada	-2505
▁longer	-2506
oogle	-2507
▁Bar	-2508
ies▁and	-2509
▁door	-2510
▁ability	-2511
▁Per	-2512
▁sport	-2513
▁recent	-2514
▁equipment	-2515
▁Will	-2516
ed▁as	-2517
▁this▁is	-2518
.▁"	-2519
▁dom	-2520
▁necessary	-2521
▁High	-2522
Our	-2523
ole	-2524
▁forward	-2525
pper	-2526
▁order▁to	-2527
▁lay	-2528
ese	-2529
ffe	-2530
▁range▁of	-2531
▁prior	-2532
▁consist	-2533
▁challeng	-2534
▁Bu	-2535
ed▁into	-2536
▁cele	-2537
▁norm	-2538
▁character	-2539
▁that▁they	-2540
▁Dr	-2541
▁Pres	-2542
▁fast	-2543
▁official	-2544
▁decid	-2545
▁I▁think	-2546
icles	-2547
▁His	-2548
board	-2549
▁rad	-2550
▁Part	-2551
▁introdu	-2552
But	-2553
▁benefit	-2554
▁caus	-2555
▁TH	-2556
▁UK	-2557
▁activities	-2558
ipe	-2559
hold	-2560
▁user	-2561
s▁were	-2562
▁remov	-2563
▁flow	-2564
▁shop	-2565
▁enter	-2566
▁Mark	-2567
▁sche	-2568
▁anyone	-2569
rug	-2570
▁join	-2571
▁rent	-2572
▁months	-2573
▁skin	-2574
adem	-2575
▁but▁it	-2576
▁must▁be	-2577
reg	-2578
ecut	-2579
▁ill	-2580
▁writing	-2581
ille	-2582
▁purchase	-2583
▁education	-2584
▁saf	-2585
▁recently	-2586
void	-2587
▁prevent	-2588
▁six	-2589
▁Dep	-2590
▁picture	-2591
▁bath	-2592
▁town	-2593
▁hours	-2594
▁separ	-2595
▁floor	-2596
▁cell	-2597
▁deep	-2598
▁weight	-2599
▁tit	-2600
my	-2601
▁Art	-2602
ively	-2603
▁decision	-2604
▁medical	-2605
val	-2606
oph	-2607
erve	-2608
▁I▁would	-2609
empt	-2610
olutions	-2611
▁While	-2612
ana	-2613
▁target	-2614
▁national	-2615
▁Now	-2616
▁dest	-2617
▁block	-2618
cing	-2619
mas	-2620
▁encoura	-2621
▁Pre	-2622
▁round	-2623
▁favorite	-2624
▁trying▁to	-2625
▁variety▁of	-2626
s▁at	-2627
pose	-2628
ivity	-2629
iter	-2630
▁West	-2631
▁.
	-2632
Al	-2633
▁highly	-2634
▁platform	-2635
cer	-2636
▁computer	-2637
right	-2638
▁cook	-2639
▁a▁great	-2640
▁New▁York	-2641
▁sat	-2642
ression	-2643
▁itself	-2644
▁sett	-2645
▁larg	-2646
▁he▁was	-2647
OT	-2648
▁Bo	-2649
gu	-2650
▁trip	-2651
▁song	-2652
▁document	-2653
▁April	-2654
▁file	-2655
aby	-2656
▁version	-2657
▁display	-2658
aper	-2659
▁international	-2660
atory	-2661
▁Off	-2662
▁and▁M	-2663
▁Center	-2664
▁Ab	-2665
ysis	-2666
iddle	-2667
▁total	-2668
ran	-2669
▁fire	-2670
edding	-2671
▁fig	-2672
eal	-2673
▁users	-2674
▁and▁is	-2675
▁prim	-2676
▁code	-2677
▁action	-2678
ky	-2679
▁that▁we	-2680
ha	-2681
▁to▁have	-2682
▁moment	-2683
▁huge	-2684
▁told	-2685
ached	-2686
▁inside	-2687
irth	-2688
▁sales	-2689
▁Don	-2690
▁firm	-2691
▁suit	-2692
ing▁up	-2693
just	-2694
leas	-2695
▁that▁it	-2696
irit	-2697
▁guest	-2698
//	-2699
▁with▁an	-2700
pri	-2701
▁gives	-2702
anguage	-2703
With	-2704
▁and▁S	-2705
▁resources	-2706
▁in▁my	-2707
.▁(	-2708
▁features	-2709
ees	-2710
▁chance	-2711
▁inde	-2712
cription	-2713
▁Cor	-2714
▁commer	-2715
▁excellent	-2716
▁explain	-2717
▁in▁our	-2718
▁leaders	-2719
▁demand	-2720
▁announ	-2721
▁cand	-2722
ches	-2723
▁bal	-2724
▁hav	-2725
iture	-2726
▁marketing	-2727
▁attention	-2728
like	-2729
cher	-2730
nal	-2731
lier	-2732
▁gain	-2733
▁sens	-2734
▁It▁was	-2735
itely	-2736
▁teach	-2737
▁trust	-2738
▁autom	-2739
▁limit	-2740
▁easy▁to	-2741
aign	-2742
na	-2743
orage	-2744
▁immedi	-2745
▁hear	-2746
▁qual	-2747
▁digital	-2748
▁Austral	-2749
based	-2750
▁touch	-2751
▁written	-2752
▁implement	-2753
ension	-2754
▁Ed	-2755
▁We▁are	-2756
▁Par	-2757
reng	-2758
▁machine	-2759
udget	-2760
▁on▁this	-2761
▁United▁States	-2762
arter	-2763
▁rout	-2764
urer	-2765
chieve	-2766
▁photos	-2767
▁feed	-2768
▁so▁much	-2769
ological	-2770
ham	-2771
▁stri	-2772
▁remember	-2773
aste	-2774
▁organiz	-2775
▁going	-2776
▁running	-2777
▁of▁his	-2778
▁what▁you	-2779
▁of▁an	-2780
▁to▁help	-2781
ed▁to▁be	-2782
ountain	-2783
ips	-2784
▁sense	-2785
bit	-2786
▁Oct	-2787
ett	-2788
kend	-2789
su	-2790
oke	-2791
▁directly	-2792
▁Ju	-2793
▁Day	-2794
▁Fin	-2795
▁gen	-2796
▁lives	-2797
▁summer	-2798
▁sale	-2799
▁roll	-2800
ony	-2801
▁arch	-2802
▁restaur	-2803
▁mention	-2804
s▁ago	-2805
▁ded	-2806
▁who▁are	-2807
year	-2808
▁or▁a	-2809
ession	-2810
wood	-2811
▁base	-2812
ing▁it	-2813
▁prices	-2814
▁Val	-2815
hern	-2816
▁Pol	-2817
▁and▁more	-2818
,▁“	-2819
▁deliver	-2820
▁section	-2821
▁in▁M	-2822
▁wish	-2823
▁Home	-2824
▁Air	-2825
▁describ	-2826
uary	-2827
▁results	-2828
▁squ	-2829
▁daily	-2830
▁Us	-2831
▁traditional	-2832
▁emb	-2833
▁teacher	-2834
▁piece	-2835
▁task	-2836
▁the▁right	-2837
▁House	-2838
mitt	-2839
▁Here	-2840
▁green	-2841
OS	-2842
▁ear	-2843
▁fram	-2844
▁mobile	-2845
akes	-2846
▁legal	-2847
▁dep	-2848
▁amount▁of	-2849
earch	-2850
▁to▁find	-2851
▁and▁in	-2852
▁changes	-2853
▁Mc	-2854
▁cas	-2855
mark	-2856
ondon	-2857
▁device	-2858
▁of▁S	-2859
▁cause	-2860
ache	-2861
▁write	-2862
▁imag	-2863
OU	-2864
▁prem	-2865
▁essential	-2866
▁multiple	-2867
▁for▁this	-2868
▁fully	-2869
ude	-2870
▁bi	-2871
cul	-2872
▁stra	-2873
lim	-2874
hood	-2875
▁commercial	-2876
▁bank	-2877
▁of▁all	-2878
▁death	-2879
▁allows	-2880
▁Black	-2881
▁organization	-2882
▁Aut	-2883
▁a▁good	-2884
▁across	-2885
▁rul	-2886
ming	-2887
urb	-2888
▁heat	-2889
▁hotel	-2890
▁ones	-2891
iring	-2892
▁except	-2893
▁regist	-2894
▁match	-2895
▁County	-2896
ed▁from	-2897
▁pers	-2898
▁commit	-2899
▁global	-2900
▁positive	-2901
▁surpr	-2902
cast	-2903
▁as▁an	-2904
▁gold	-2905
ekend	-2906
▁Design	-2907
▁International	-2908
▁tick	-2909
org	-2910
nes	-2911
▁thinking	-2912
▁hit	-2913
▁From	-2914
▁English	-2915
▁myself	-2916
▁Act	-2917
sy	-2918
▁obs	-2919
▁TV	-2920
▁Int	-2921
▁Google	-2922
▁for▁all	-2923
mb	-2924
ault	-2925
▁celebr	-2926
▁systems	-2927
▁the▁world	-2928
ing▁out	-2929
▁Of	-2930
▁repair	-2931
mission	-2932
▁amazing	-2933
▁streng	-2934
ruit	-2935
▁shall	-2936
uel	-2937
▁that▁will	-2938
▁completely	-2939
All	-2940
My	-2941
▁furn	-2942
partment	-2943
ament	-2944
▁Sept	-2945
▁bus	-2946
▁extreme	-2947
▁the▁d	-2948
▁gift	-2949
▁gradu	-2950
▁final	-2951
▁saw	-2952
▁fresh	-2953
▁career	-2954
▁China	-2955
://	-2956
."	-2957
▁isn	-2958
▁answer	-2959
ills	-2960
ington	-2961
▁mass	-2962
▁did▁not	-2963
▁eat	-2964
▁warm	-2965
▁cert	-2966
unt	-2967
erous	-2968
ought	-2969
▁one▁of	-2970
▁Health	-2971
avy	-2972
▁of▁them	-2973
▁concept	-2974
ouncil	-2975
ma	-2976
▁girl	-2977
▁dise	-2978
idered	-2979
▁ge	-2980
▁problems	-2981
▁unit	-2982
▁America	-2983
▁lost	-2984
▁finish	-2985
▁and▁d	-2986
Thank	-2987
▁El	-2988
▁nature	-2989
▁using▁the	-2990
▁successful	-2991
▁consult	-2992
▁cy	-2993
▁sn	-2994
rel	-2995
wise	-2996
▁:	-2997
onst	-2998
▁Window	-2999
iff	-3000
▁wel	-3001
ences	-3002
▁attack	-3003
ris	-3004
ceed	-3005
▁in▁S	-3006
▁cat	-3007
▁and▁to	-3008
▁a▁long	-3009
▁Her	-3010
ounter	-3011
▁More	-3012
▁Ac	-3013
▁the▁S	-3014
▁complex	-3015
band	-3016
▁sil	-3017
▁hous	-3018
▁advant	-3019
aint	-3020
▁Face	-3021
▁this▁year	-3022
▁I▁don	-3023
ker	-3024
▁type▁of	-3025
▁hor	-3026
▁earn	-3027
▁fix	-3028
At	-3029
▁images	-3030
ober	-3031
▁policy	-3032
▁began	-3033
atives	-3034
onse	-3035
▁Afric	-3036
vey	-3037
▁Aug	-3038
▁to▁take	-3039
s▁on▁the	-3040
▁source	-3041
▁morning	-3042
▁Then	-3043
▁charg	-3044
▁in▁B	-3045
▁instead	-3046
,▁"	-3047
▁log	-3048
▁Acc	-3049
▁cannot	-3050
enge	-3051
arant	-3052
▁decor	-3053
▁affect	-3054
▁upon	-3055
isf	-3056
▁sun	-3057
▁lower	-3058
▁rock	-3059
aves	-3060
▁London	-3061
▁countries	-3062
AM	-3063
▁reading	-3064
▁patients	-3065
▁for▁their	-3066
gy	-3067
▁holid	-3068
▁cam	-3069
▁sym	-3070
inary	-3071
sp	-3072
verse	-3073
ustain	-3074
▁kids	-3075
▁became	-3076
**	-3077
▁release	-3078
▁rev	-3079
▁opportunities	-3080
▁comment	-3081
hest	-3082
igation	-3083
▁Associ	-3084
yond	-3085
▁Har	-3086
▁War	-3087
▁lab	-3088
▁wonderful	-3089
▁definitely	-3090
itute	-3091
▁attempt	-3092
▁measure	-3093
▁partners	-3094
▁but▁the	-3095
▁sometimes	-3096
▁af	-3097
▁sold	-3098
agn	-3099
▁Christmas	-3100
▁note	-3101
▁into▁a	-3102
▁based▁on	-3103
▁wrong	-3104
alu	-3105
ing▁an	-3106
▁Feb	-3107
aught	-3108
▁Every	-3109
ica	-3110
pped	-3111
▁ten	-3112
▁subst	-3113
▁Gra	-3114
ing▁is	-3115
▁Direct	-3116
uth	-3117
▁--	-3118
zz	-3119
▁war	-3120
▁weekend	-3121
iforn	-3122
▁propos	-3123
▁and▁you	-3124
riday	-3125
▁June	-3126
off	-3127
fl	-3128
▁kill	-3129
▁carry	-3130
▁happy	-3131
▁goes	-3132
▁garden	-3133
▁exactly	-3134
▁in▁an	-3135
iction	-3136
▁indic	-3137
vest	-3138
▁a▁bit	-3139
▁Dav	-3140
▁Net	-3141
▁late	-3142
▁investment	-3143
▁added	-3144
reci	-3145
▁physical	-3146
oring	-3147
Be	-3148
▁Pa	-3149
▁speed	-3150
▁storage	-3151
▁Dis	-3152
▁contribut	-3153
▁of▁B	-3154
▁stru	-3155
▁considered	-3156
iant	-3157
▁when▁it	-3158
ule	-3159
orge	-3160
▁not▁only	-3161
ties	-3162
▁Mon	-3163
▁serious	-3164
itect	-3165
▁construction	-3166
▁campaign	-3167
▁obtain	-3168
▁cases	-3169
▁emerg	-3170
rought	-3171
▁Cons	-3172
▁to▁use	-3173
▁bott	-3174
▁guid	-3175
ifornia	-3176
▁looking▁for	-3177
▁back▁to	-3178
__	-3179
▁had▁a	-3180
▁promot	-3181
▁prec	-3182
ges	-3183
▁appropri	-3184
▁sort	-3185
ooth	-3186
▁capt	-3187
ibly	-3188
ederal	-3189
▁behav	-3190
▁Are	-3191
▁load	-3192
▁Group	-3193
▁innov	-3194
▁might▁be	-3195
apan	-3196
▁spot	-3197
ague	-3198
▁slow	-3199
▁analysis	-3200
▁Gl	-3201
▁mother	-3202
▁vehicle	-3203
▁neigh	-3204
▁ep	-3205
ester	-3206
ospital	-3207
.▁“	-3208
olute	-3209
ama	-3210
▁bag	-3211
▁histor	-3212
▁correct	-3213
▁Germ	-3214
▁India	-3215
▁the▁B	-3216
▁region	-3217
▁Mr	-3218
▁guide	-3219
EC	-3220
oul	-3221
▁March	-3222
▁Depart	-3223
urt	-3224
▁players	-3225
raft	-3226
▁supply	-3227
▁damage	-3228
fered	-3229
▁dry	-3230
▁administ	-3231
ength	-3232
word	-3233
▁ult	-3234
▁meeting	-3235
▁sleep	-3236
▁lic	-3237
ari	-3238
▁Most	-3239
▁exerc	-3240
▁club	-3241
▁pred	-3242
▁transport	-3243
unday	-3244
▁Free	-3245
▁and▁that	-3246
▁easier	-3247
ged	-3248
▁fight	-3249
ridge	-3250
ny	-3251
▁listen	-3252
ronic	-3253
▁photo	-3254
amic	-3255
ville	-3256
▁repl	-3257
▁ri	-3258
▁average	-3259
▁they▁were	-3260
▁latest	-3261
▁Facebook	-3262
▁band	-3263
Re	-3264
▁when▁I	-3265
ara	-3266
ity▁of	-3267
t▁be	-3268
▁July	-3269
▁rele	-3270
▁have▁the	-3271
▁felt	-3272
▁Mus	-3273
▁Also	-3274
▁altern	-3275
gar	-3276
▁integr	-3277
▁published	-3278
itter	-3279
Do	-3280
▁Red	-3281
▁eye	-3282
ll▁be	-3283
▁when▁the	-3284
ST	-3285
▁path	-3286
▁pull	-3287
▁difference	-3288
rast	-3289
s▁and▁the	-3290
▁paid	-3291
▁safety	-3292
ed▁it	-3293
▁subs	-3294
▁use▁of	-3295
▁convers	-3296
▁conduct	-3297
▁arm	-3298
▁words	-3299
door	-3300
asons	-3301
▁Service	-3302
▁California	-3303
▁stuff	-3304
▁Friday	-3305
ing▁from	-3306
▁nut	-3307
pre	-3308
▁fine	-3309
▁as▁it	-3310
▁div	-3311
set	-3312
▁January	-3313
▁you▁may	-3314
aces	-3315
▁entry	-3316
▁Bro	-3317
▁vac	-3318
▁dream	-3319
▁budget	-3320
▁selection	-3321
▁center	-3322
▁President	-3323
▁replace	-3324
▁feet	-3325
▁charge	-3326
▁due▁to	-3327
ousand	-3328
▁glass	-3329
▁stories	-3330
iles	-3331
▁former	-3332
▁stage	-3333
▁temper	-3334
EO	-3335
▁inform	-3336
▁on▁their	-3337
▁dark	-3338
▁driv	-3339
▁for▁me	-3340
▁details	-3341
Sh	-3342
▁solutions	-3343
▁First	-3344
▁September	-3345
▁transfer	-3346
attle	-3347
rences	-3348
▁projects	-3349
▁internet	-3350
antly	-3351
▁Great	-3352
▁drug	-3353
One	-3354
▁East	-3355
ING	-3356
▁photograph	-3357
oday	-3358
▁received	-3359
ales	-3360
▁pattern	-3361
▁aspect	-3362
▁Sw	-3363
▁assess	-3364
tee	-3365
rial	-3366
▁pet	-3367
▁Cour	-3368
▁wear	-3369
ovember	-3370
▁language	-3371
ecause	-3372
ares	-3373
▁Techn	-3374
▁minim	-3375
▁enh	-3376
▁mid	-3377
▁Trans	-3378
het	-3379
▁hy	-3380
▁compon	-3381
rive	-3382
▁serve	-3383
▁was▁the	-3384
▁Services	-3385
▁you▁need▁to	-3386
▁paint	-3387
▁October	-3388
▁viol	-3389
pen	-3390
s▁into	-3391
▁wanted▁to	-3392
gram	-3393
▁fab	-3394
usion	-3395
AP	-3396
abin	-3397
▁cash	-3398
▁wedding	-3399
▁gas	-3400
▁court	-3401
▁overall	-3402
After	-3403
error	-3404
▁are▁the	-3405
▁response	-3406
▁mat	-3407
▁categ	-3408
▁healthy	-3409
▁planning	-3410
chan	-3411
arily	-3412
rench	-3413
▁surround	-3414
house	-3415
▁adult	-3416
▁influ	-3417
▁had▁been	-3418
ried	-3419
▁execut	-3420
ashion	-3421
▁those▁who	-3422
▁express	-3423
▁aware	-3424
ET	-3425
▁gar	-3426
unk	-3427
▁La	-3428
▁Sim	-3429
ato	-3430
▁appreci	-3431
▁bra	-3432
▁Let	-3433
▁rates	-3434
OM	-3435
inner	-3436
▁certainly	-3437
▁to▁you	-3438
eries	-3439
▁truly	-3440
▁fair	-3441
▁movie	-3442
▁respond	-3443
vis	-3444
▁ball	-3445
▁blood	-3446
▁structure	-3447
▁needed	-3448
ancy	-3449
▁Even	-3450
iar	-3451
▁gave	-3452
▁maxim	-3453
▁providing	-3454
▁Commun	-3455
▁applications	-3456
shop	-3457
▁political	-3458
▁park	-3459
▁under▁the	-3460
ards	-3461
▁In▁the	-3462
▁make▁sure	-3463
▁occur	-3464
▁pages	-3465
▁useful	-3466
▁ability▁to	-3467
▁advert	-3468
▁uses	-3469
▁regul	-3470
▁Russ	-3471
▁a▁large	-3472
▁ver	-3473
urrent	-3474
range	-3475
aturday	-3476
LL	-3477
▁Gener	-3478
▁ter	-3479
cember	-3480
▁I▁love	-3481
▁within▁the	-3482
ani	-3483
▁we▁will	-3484
▁devices	-3485
porate	-3486
▁advice	-3487
That	-3488
▁guarant	-3489
▁Internet	-3490
ation▁of▁the	-3491
▁ing	-3492
▁score	-3493
▁delivery	-3494
▁following	-3495
▁wal	-3496
▁to▁keep	-3497
▁technolog	-3498
itary	-3499
▁loss	-3500
uk	-3501
▁heard	-3502
▁spent	-3503
▁you▁know	-3504
▁nam	-3505
▁reli	-3506
▁economic	-3507
oe	-3508
ross▁the	-3509
▁Japan	-3510
▁Pat	-3511
▁part▁of	-3512
sequ	-3513
▁circ	-3514
▁themselves	-3515
▁August	-3516
▁to▁go	-3517
▁birth	-3518
▁College	-3519
ibrary	-3520
dom	-3521
▁annual	-3522
▁ideal	-3523
▁degree	-3524
▁reduce	-3525
wes	-3526
▁distribut	-3527
▁smart	-3528
▁farm	-3529
▁comfortable	-3530
ID	-3531
▁helps	-3532
▁to▁our	-3533
▁so▁that	-3534
wide	-3535
▁hop	-3536
omp	-3537
▁pressure	-3538
▁arriv	-3539
ance▁of	-3540
▁Prof	-3541
▁Out	-3542
ing▁on▁the	-3543
▁tim	-3544
dule	-3545
▁for▁an	-3546
▁interview	-3547
▁items	-3548
▁prefer	-3549
▁in▁which	-3550
▁Jes	-3551
▁are▁not	-3552
▁culture	-3553
▁spirit	-3554
▁Whe	-3555
▁produce	-3556
▁responsible	-3557
▁beyond	-3558
▁Windows	-3559
ve▁been	-3560
pite	-3561
▁purpose	-3562
aging	-3563
▁bedroom	-3564
▁communic	-3565
▁pool	-3566
rig	-3567
▁November	-3568
▁tend	-3569
▁Inter	-3570
▁sites	-3571
▁numbers	-3572
▁reflect	-3573
▁thousand	-3574
▁years▁of	-3575
bon	-3576
▁adjust	-3577
▁Gold	-3578
▁wind	-3579
key	-3580
▁to▁work	-3581
▁los	-3582
▁instru	-3583
▁trade	-3584
▁cross	-3585
▁Brit	-3586
▁King	-3587
▁electric	-3588
▁between▁the	-3589
▁at▁all	-3590
▁proced	-3591
▁requirements	-3592
▁Rem	-3593
▁skills	-3594
▁and▁there	-3595
er▁of	-3596
▁appoint	-3597
▁aim	-3598
▁pow	-3599
ly▁and	-3600
▁protection	-3601
▁expand	-3602
que	-3603
t▁have	-3604
▁AN	-3605
▁drink	-3606
idential	-3607
alt	-3608
ruary	-3609
agram	-3610
idents	-3611
▁also▁be	-3612
haps	-3613
▁Well	-3614
change	-3615
▁Law	-3616
▁patient	-3617
▁stress	-3618
▁provided	-3619
▁emot	-3620
duc	-3621
bum	-3622
▁families	-3623
▁temperature	-3624
▁double	-3625
ades	-3626
▁plus	-3627
porary	-3628
▁Company	-3629
enior	-3630
▁Cle	-3631
useum	-3632
▁states	-3633
▁with▁their	-3634
▁Port	-3635
▁satisf	-3636
mm	-3637
▁dire	-3638
▁and▁your	-3639
▁Bra	-3640
▁if▁the	-3641
▁brought	-3642
zy	-3643
▁li	-3644
▁htt	-3645
▁particularly	-3646
▁maybe	-3647
▁finally	-3648
▁December	-3649
▁Sunday	-3650
▁Get	-3651
▁hom	-3652
add	-3653
▁jud	-3654
itation	-3655
▁absolute	-3656
▁message	-3657
▁restaurant	-3658
ights	-3659
▁types▁of	-3660
You▁can	-3661
ressive	-3662
ube	-3663
etic	-3664
unte	-3665
▁activity	-3666
sych	-3667
▁along▁with	-3668
PS	-3669
▁frequ	-3670
▁shows	-3671
▁sus	-3672
▁Many	-3673
▁dress	-3674
▁interesting	-3675
▁Gr	-3676
▁highest	-3677
▁challenge	-3678
isions	-3679
▁appropriate	-3680
icip	-3681
▁liv	-3682
iling	-3683
▁extend	-3684
▁leading	-3685
▁award	-3686
▁as▁you	-3687
▁fish	-3688
ship	-3689
▁attract	-3690
▁immediately	-3691
▁I▁could	-3692
▁evalu	-3693
▁reve	-3694
▁System	-3695
▁Book	-3696
▁independ	-3697
atically	-3698
asc	-3699
atever	-3700
▁church	-3701
▁points	-3702
▁iP	-3703
▁estate	-3704
▁payment	-3705
izes	-3706
▁acqu	-3707
▁lif	-3708
▁doll	-3709
bert	-3710
▁dead	-3711
▁wild	-3712
▁costs	-3713
▁explore	-3714
▁sty	-3715
▁and▁C	-3716
▁creative	-3717
rows	-3718
▁giving	-3719
▁secure	-3720
▁valu	-3721
▁as▁they	-3722
▁time▁and	-3723
▁with▁our	-3724
olf	-3725
aith	-3726
▁situation	-3727
well	-3728
▁exhib	-3729
▁weather	-3730
venue	-3731
▁collabor	-3732
imin	-3733
▁rid	-3734
▁dedic	-3735
▁your▁own	-3736
▁European	-3737
usive	-3738
▁associated	-3739
▁sav	-3740
▁trend	-3741
t▁know	-3742
▁furniture	-3743
▁experienced	-3744
▁vict	-3745
undred	-3746
itting	-3747
▁like▁a	-3748
▁initial	-3749
▁efficient	-3750
ed▁on▁the	-3751
hens	-3752
▁Work	-3753
▁soci	-3754
▁weeks	-3755
▁Del	-3756
reak	-3757
▁conven	-3758
cel	-3759
ples	-3760
iation	-3761
▁straight	-3762
▁asked	-3763
▁and▁they	-3764
log	-3765
field	-3766
▁powerful	-3767
kin	-3768
more	-3769
▁employees	-3770
umn	-3771
▁such▁a	-3772
olk	-3773
▁or▁the	-3774
▁IN	-3775
▁und	-3776
▁strugg	-3777
▁us▁to	-3778
▁£	-3779
aughter	-3780
▁shown	-3781
▁February	-3782
▁Dec	-3783
▁colour	-3784
▁of▁its	-3785
▁rather▁than	-3786
▁in▁order▁to	-3787
▁Up	-3788
▁active	-3789
▁traffic	-3790
▁extremely	-3791
▁fell	-3792
▁businesses	-3793
▁ways	-3794
▁connection	-3795
▁cove	-3796
▁util	-3797
▁conditions	-3798
hol	-3799
istry	-3800
▁growing	-3801
▁normal	-3802
ipping	-3803
rate	-3804
▁confirm	-3805
aly	-3806
▁coming	-3807
▁holiday	-3808
▁shot	-3809
▁college	-3810
▁to▁their	-3811
ifi	-3812
▁driver	-3813
▁nation	-3814
▁offered	-3815
▁Saturday	-3816
▁belie	-3817
estival	-3818
▁relax	-3819
▁background	-3820
▁Br	-3821
ida	-3822
ulf	-3823
▁on▁my	-3824
▁income	-3825
▁letter	-3826
▁years▁ago	-3827
▁Wash	-3828
▁knew	-3829
▁I▁will	-3830
body	-3831
▁PC	-3832
▁Char	-3833
▁and▁his	-3834
term	-3835
▁lock	-3836
▁manage	-3837
▁Jesus	-3838
▁Add	-3839
▁by▁a	-3840
▁do▁you	-3841
gest	-3842
▁for▁any	-3843
ira	-3844
▁IS	-3845
▁drop	-3846
▁of▁us	-3847
▁ble	-3848
▁button	-3849
▁advantage	-3850
▁plans	-3851
ously	-3852
▁Good	-3853
ffee	-3854
▁Tex	-3855
▁Green	-3856
▁nearly	-3857
▁but▁also	-3858
▁experiences	-3859
▁princ	-3860
▁White	-3861
▁disease	-3862
▁Each	-3863
▁and▁he	-3864
onday	-3865
oices	-3866
▁setting	-3867
▁existing	-3868
▁of▁C	-3869
▁Any	-3870
▁loved	-3871
▁of▁course	-3872
▁defe	-3873
▁Church	-3874
▁fat	-3875
▁places	-3876
▁Street	-3877
▁for▁our	-3878
▁requires	-3879
▁son	-3880
▁Once	-3881
▁tree	-3882
aches	-3883
▁grand	-3884
▁demonst	-3885
eria	-3886
ams	-3887
▁opportunity▁to	-3888
▁peace	-3889
▁capital	-3890
▁owners	-3891
▁bathroom	-3892
▁out▁the	-3893
▁ready▁to	-3894
▁clin	-3895
▁science	-3896
▁Je	-3897
rael	-3898
▁vill	-3899
▁bur	-3900
▁Canada	-3901
Cl	-3902
ed▁in▁a	-3903
▁Best	-3904
▁with▁you	-3905
▁blue	-3906
▁shoot	-3907
▁entertain	-3908
gain	-3909
annel	-3910
Ex	-3911
▁make▁it	-3912
lies	-3913
▁institut	-3914
▁trail	-3915
▁out▁of▁the	-3916
▁Sch	-3917
pm	-3918
ids	-3919
top	-3920
There▁are	-3921
ers▁in	-3922
▁Found	-3923
▁basis	-3924
amin	-3925
▁books	-3926
▁Program	-3927
▁and▁m	-3928
▁although	-3929
▁liter	-3930
ivil	-3931
▁Hot	-3932
iment	-3933
ple▁of	-3934
▁billion	-3935
".	-3936
▁materials	-3937
▁IT	-3938
force	-3939
▁compared	-3940
▁Mod	-3941
▁candid	-3942
AD	-3943
fast	-3944
▁steel	-3945
▁street	-3946
▁Other	-3947
▁notice	-3948
▁accur	-3949
▁stick	-3950
▁|	-3951
▁pieces	-3952
▁Indian	-3953
omen	-3954
▁Business	-3955
▁wine	-3956
col	-3957
▁you▁should	-3958
ald	-3959
▁with▁this	-3960
itiz	-3961
▁manufacturer	-3962
▁tip	-3963
▁like▁the	-3964
ed▁by▁a	-3965
owl	-3966
▁established	-3967
▁any▁other	-3968
ses	-3969
airs	-3970
▁broad	-3971
▁strength	-3972
ed▁with▁the	-3973
inese	-3974
▁alone	-3975
tenance	-3976
▁They▁are	-3977
▁sweet	-3978
▁born	-3979
▁album	-3980
▁partner	-3981
▁that▁was	-3982
des	-3983
▁occas	-3984
▁oppos	-3985
▁winter	-3986
ate▁and	-3987
▁identify	-3988
▁Australia	-3989
▁Web	-3990
▁incred	-3991
▁scient	-3992
▁title	-3993
▁lack	-3994
▁tag	-3995
▁schedule	-3996
▁people▁who	-3997
ios	-3998
BC	-3999
amily	-4000
▁hundred	-4001
▁pleas	-4002
▁stream	-4003
ellow	-4004
oly	-4005
▁coffee	-4006
▁remove	-4007
▁Cr	-4008
s▁after	-4009
nown	-4010
▁hus	-4011
▁Mich	-4012
Pro	-4013
▁loan	-4014
▁origin	-4015
oles	-4016
itude	-4017
▁that▁he	-4018
▁craft	-4019
▁delic	-4020
▁ton	-4021
inter	-4022
▁spread	-4023
ing▁this	-4024
▁monitor	-4025
▁resist	-4026
▁baby	-4027
▁studies	-4028
▁which▁are	-4029
▁THE	-4030
▁...	-4031
▁basic	-4032
▁threat	-4033
▁end▁of▁the	-4034
▁Pal	-4035
▁relev	-4036
aries	-4037
atively	-4038
▁Island	-4039
▁retail	-4040
▁covered	-4041
lor	-4042
▁ord	-4043
▁cold	-4044
▁element	-4045
▁and▁also	-4046
sec	-4047
▁player	-4048
▁analy	-4049
▁designed▁to	-4050
▁woman	-4051
usher	-4052
▁beginning	-4053
▁Paul	-4054
▁nothing	-4055
▁so▁many	-4056
▁competition	-4057
▁social▁media	-4058
▁finished	-4059
▁expos	-4060
▁Down	-4061
▁and▁an	-4062
▁appli	-4063
▁discount	-4064
..
	-4065
▁on▁our	-4066
▁Council	-4067
While	-4068
IP	-4069
▁technical	-4070
▁mis	-4071
▁race	-4072
rapy	-4073
▁boy	-4074
▁comes▁to	-4075
▁star	-4076
▁evidence	-4077
▁batter	-4078
ers▁of	-4079
s▁in▁a	-4080
▁session	-4081
▁doub	-4082
▁copy	-4083
▁sustain	-4084
opt	-4085
s▁will	-4086
roid	-4087
▁Monday	-4088
s▁have	-4089
▁feeling	-4090
▁Since	-4091
icking	-4092
▁compos	-4093
▁University▁of	-4094
▁cru	-4095
▁opin	-4096
▁where▁the	-4097
▁I▁know	-4098
These	-4099
▁plent	-4100
▁statement	-4101
▁and▁B	-4102
ico	-4103
▁lots▁of	-4104
ken	-4105
▁Post	-4106
iny	-4107
soft	-4108
▁David	-4109
▁give▁you	-4110
▁dat	-4111
▁created	-4112
▁all▁of▁the	-4113
oos	-4114
▁included	-4115
▁Read	-4116
▁If▁you▁are	-4117
bu	-4118
▁vot	-4119
▁artist	-4120
▁there▁is▁a	-4121
amm	-4122
▁prepared	-4123
ing▁in▁the	-4124
hel	-4125
▁according▁to	-4126
order	-4127
able▁to	-4128
▁Texas	-4129
▁each▁other	-4130
▁Educ	-4131
▁Office	-4132
▁ingred	-4133
▁earlier	-4134
ixt	-4135
▁Hall	-4136
▁ready	-4137
ommod	-4138
▁decided▁to	-4139
▁Club	-4140
ing▁of▁the	-4141
▁and▁their	-4142
▁Super	-4143
▁reserv	-4144
▁graph	-4145
orrow	-4146
▁talking	-4147
▁throughout▁the	-4148
lements	-4149
ribute	-4150
pective	-4151
▁strategy	-4152
rie	-4153
▁San	-4154
▁capac	-4155
▁than▁the	-4156
▁discover	-4157
wesome	-4158
▁In▁addition	-4159
▁communities	-4160
EM	-4161
imb	-4162
▁See	-4163
▁French	-4164
▁mechan	-4165
antastic	-4166
▁after▁the	-4167
▁determine	-4168
see	-4169
iency	-4170
▁cry	-4171
▁as▁possible	-4172
roud	-4173
▁Rec	-4174
▁they▁can	-4175
▁fra	-4176
▁husband	-4177
▁primary	-4178
▁excl	-4179
▁increasing	-4180
aker	-4181
▁make▁a	-4182
▁it▁will	-4183
overed	-4184
▁to▁create	-4185
▁communication	-4186
▁greater	-4187
care	-4188
▁in▁his	-4189
inger	-4190
▁poor	-4191
▁pray	-4192
▁shar	-4193
▁forget	-4194
▁programs	-4195
rated	-4196
▁ran	-4197
▁voice	-4198
▁optim	-4199
▁map	-4200
▁essay	-4201
▁parents	-4202
▁trou	-4203
▁get▁a	-4204
▁architect	-4205
▁director	-4206
▁of▁it	-4207
▁Dist	-4208
▁matt	-4209
▁sand	-4210
phone	-4211
▁released	-4212
ating▁the	-4213
▁volunte	-4214
▁shared	-4215
▁what▁is	-4216
▁hands	-4217
▁gets	-4218
▁Develop	-4219
gen	-4220
Pl	-4221
▁more▁about	-4222
mical	-4223
▁Jack	-4224
estern	-4225
▁welcome	-4226
▁complet	-4227
▁homes	-4228
▁himself	-4229
▁how▁much	-4230
▁+	-4231
▁waste	-4232
▁or▁other	-4233
”.	-4234
▁seven	-4235
▁and▁will	-4236
ago	-4237
ael	-4238
▁transl	-4239
▁shape	-4240
▁surface	-4241
▁Ass	-4242
▁Mac	-4243
▁Market	-4244
▁reveal	-4245
▁master	-4246
hedul	-4247
▁roof	-4248
▁Israel	-4249
▁smooth	-4250
▁increased	-4251
omb	-4252
▁Over	-4253
EL	-4254
▁eyes	-4255
▁looks	-4256
▁reasons	-4257
ging	-4258
▁Spr	-4259
▁Why	-4260
azon	-4261
rote	-4262
▁last▁year	-4263
▁wife	-4264
▁figure	-4265
▁slight	-4266
▁Supp	-4267
▁highlight	-4268
▁II	-4269
▁station	-4270
▁plann	-4271
▁Board	-4272
▁Wed	-4273
▁Play	-4274
▁cheap	-4275
▁flav	-4276
▁access▁to	-4277
▁to▁provide	-4278
▁assign	-4279
▁cancer	-4280
icy	-4281
▁handle	-4282
icken	-4283
▁bill	-4284
izing	-4285
▁virt	-4286
rehens	-4287
▁solid	-4288
cket	-4289
....	-4290
chie	-4291
▁set▁up	-4292
ION	-4293
za	-4294
▁is▁very	-4295
semb	-4296
▁afford	-4297
▁actual	-4298
US	-4299
down	-4300
▁passion	-4301
▁sector	-4302
▁playing	-4303
▁if▁you▁are	-4304
▁generally	-4305
ij	-4306
▁harm	-4307
▁largest	-4308
▁techniqu	-4309
free	-4310
▁motor	-4311
▁mission	-4312
s▁for▁the	-4313
▁fee	-4314
No	-4315
):	-4316
▁that▁can	-4317
▁the▁C	-4318
fit	-4319
▁Management	-4320
▁is▁available	-4321
▁haven	-4322
text	-4323
▁island	-4324
▁surv	-4325
ae	-4326
▁Year	-4327
▁anim	-4328
▁establish	-4329
orking	-4330
▁files	-4331
▁heavy	-4332
▁classic	-4333
▁Phil	-4334
▁incor	-4335
▁videos	-4336
▁helpful	-4337
iber	-4338
ss	-4339
▁sy	-4340
▁fabric	-4341
▁har	-4342
▁luck	-4343
▁Washington	-4344
▁facilities	-4345
▁so▁I	-4346
▁eight	-4347
▁Institute	-4348
ston	-4349
▁quarter	-4350
▁is▁in	-4351
▁father	-4352
▁in▁the▁world	-4353
icon	-4354
▁audience	-4355
inn	-4356
▁cloud	-4357
▁Chinese	-4358
▁journey	-4359
ager	-4360
ocal	-4361
▁length	-4362
▁lines	-4363
▁miles	-4364
▁prepar	-4365
▁goals	-4366
▁den	-4367
▁metal	-4368
▁and▁are	-4369
▁organis	-4370
Now	-4371
▁the▁way	-4372
▁diet	-4373
encies	-4374
▁bod	-4375
▁announced	-4376
▁.▁.	-4377
▁cast	-4378
ing▁or	-4379
▁egg	-4380
▁before▁the	-4381
▁pen	-4382
▁cabin	-4383
▁medic	-4384
▁reality	-4385
▁critical	-4386
▁shopping	-4387
.)	-4388
aged	-4389
▁interested▁in	-4390
▁Make	-4391
▁less▁than	-4392
▁ir	-4393
▁Flor	-4394
▁Micro	-4395
▁practices	-4396
▁maintenance	-4397
sm	-4398
▁River	-4399
▁grant	-4400
▁outdoor	-4401
▁use▁the	-4402
road	-4403
▁Court	-4404
s▁that▁are	-4405
rey	-4406
▁status	-4407
▁We▁have	-4408
▁and▁b	-4409
▁format	-4410
▁talent	-4411
▁relevant	-4412
▁conference	-4413
s▁is	-4414
▁gone	-4415
Please	-4416
coming	-4417
▁gall	-4418
ror	-4419
▁Word	-4420
▁rich	-4421
raw	-4422
ity▁and	-4423
▁beach	-4424
▁middle	-4425
▁remind	-4426
▁Plan	-4427
▁related▁to	-4428
▁Check	-4429
▁whose	-4430
overy	-4431
▁update	-4432
orial	-4433
▁the▁other	-4434
▁Wood	-4435
▁is▁no	-4436
▁William	-4437
ript	-4438
▁we▁were	-4439
▁movement	-4440
LE	-4441
▁dump	-4442
▁topic	-4443
▁Mor	-4444
s▁off	-4445
es▁the	-4446
ated▁by	-4447
▁visual	-4448
▁encourage	-4449
▁direction	-4450
▁push	-4451
▁and▁not	-4452
▁rat	-4453
ortunately	-4454
▁ship	-4455
iety	-4456
▁repe	-4457
▁Ret	-4458
▁tur	-4459
▁coach	-4460
▁Lake	-4461
▁combin	-4462
▁they▁have	-4463
▁decide	-4464
▁memory	-4465
▁parties	-4466
▁kept	-4467
▁suff	-4468
▁accommod	-4469
rupt	-4470
ademic	-4471
▁doctor	-4472
▁Bel	-4473
▁Fore	-4474
▁schedul	-4475
rief	-4476
▁Research	-4477
ed▁me	-4478
▁As▁a	-4479
▁novel	-4480
▁level▁of	-4481
They	-4482
▁scen	-4483
ota	-4484
▁try▁to	-4485
▁the▁count	-4486
isl	-4487
▁fly	-4488
▁dang	-4489
▁rare	-4490
▁is▁one▁of▁the	-4491
IM	-4492
pet	-4493
▁pair	-4494
▁rain	-4495
nesday	-4496
▁century	-4497
ili	-4498
▁landsc	-4499
▁to▁this	-4500
▁recipe	-4501
s▁as	-4502
▁their▁own	-4503
box	-4504
▁wire	-4505
ursday	-4506
lling	-4507
▁flight	-4508
rat	-4509
▁values	-4510
▁but▁not	-4511
▁Life	-4512
▁advent	-4513
▁Road	-4514
vention	-4515
▁Find	-4516
▁hospital	-4517
▁seat	-4518
▁it▁to	-4519
abilities	-4520
ero	-4521
▁becom	-4522
ters	-4523
▁Spe	-4524
▁owner	-4525
▁veget	-4526
▁properties	-4527
apter	-4528
ocol	-4529
▁flat	-4530
▁force	-4531
▁becomes	-4532
aj	-4533
▁Ob	-4534
▁unf	-4535
▁Class	-4536
▁benefits	-4537
▁and▁P	-4538
▁server	-4539
▁exercise	-4540
▁initi	-4541
▁police	-4542
▁neighbor	-4543
▁expensive	-4544
▁achieve	-4545
la	-4546
▁much▁more	-4547
▁AP	-4548
isher	-4549
m▁not	-4550
▁operation	-4551
▁gett	-4552
▁controll	-4553
▁compar	-4554
tra	-4555
al▁and	-4556
▁whatever	-4557
▁military	-4558
▁intend	-4559
▁Ann	-4560
▁up▁the	-4561
▁separate	-4562
▁you▁need	-4563
ona	-4564
▁taste	-4565
▁medium	-4566
▁truck	-4567
▁numerous	-4568
▁multi	-4569
▁older	-4570
▁Ant	-4571
▁Ins	-4572
udd	-4573
▁Dem	-4574
rt	-4575
ingly	-4576
▁pictures	-4577
ech	-4578
▁and▁its	-4579
s▁an	-4580
▁panel	-4581
▁across▁the	-4582
▁ice	-4583
▁workshop	-4584
▁carri	-4585
▁earth	-4586
▁to▁ensure	-4587
▁cream	-4588
▁related	-4589
olic	-4590
▁of▁P	-4591
▁and▁L	-4592
I▁am	-4593
▁impl	-4594
es▁for	-4595
▁brain	-4596
▁Christian	-4597
▁offering	-4598
uesday	-4599
▁or▁not	-4600
▁fashion	-4601
▁proud	-4602
▁Bank	-4603
▁a▁big	-4604
▁for▁them	-4605
▁and▁how	-4606
unction	-4607
▁what▁I	-4608
bour	-4609
ordin	-4610
▁adapt	-4611
▁worry	-4612
able▁and	-4613
▁Ve	-4614
▁cup	-4615
▁as▁much	-4616
vin	-4617
▁Click	-4618
▁the▁M	-4619
▁desk	-4620
▁advance	-4621
▁arrange	-4622
▁wrote	-4623
umin	-4624
▁truth	-4625
▁AM	-4626
unning	-4627
▁Rock	-4628
ception	-4629
▁fear	-4630
▁aff	-4631
▁vision	-4632
▁This▁is▁a	-4633
ternal	-4634
▁templ	-4635
▁disapp	-4636
▁gam	-4637
ula	-4638
▁pros	-4639
▁having▁a	-4640
ado	-4641
▁recip	-4642
▁as▁I	-4643
▁ahead	-4644
▁and▁D	-4645
▁General	-4646
▁breat	-4647
▁receiv	-4648
▁Director	-4649
▁rob	-4650
▁Although	-4651
▁behavior	-4652
Un	-4653
▁AC	-4654
▁Because	-4655
s▁can	-4656
▁the▁new	-4657
OW	-4658
▁Vis	-4659
▁for▁more	-4660
▁dro	-4661
▁Phot	-4662
▁vari	-4663
▁Thursday	-4664
bl	-4665
▁fan	-4666
▁ticket	-4667
ximately	-4668
rust	-4669
▁maximum	-4670
▁lose	-4671
outhern	-4672
nect	-4673
▁and▁even	-4674
▁sugar	-4675
▁valid	-4676
▁Thank▁you	-4677
www	-4678
craft	-4679
▁flex	-4680
ection	-4681
▁rights	-4682
▁command	-4683
▁comprehens	-4684
▁faith	-4685
OL	-4686
oop	-4687
▁to▁me	-4688
▁that▁a	-4689
▁with▁my	-4690
▁friendly	-4691
▁from▁your	-4692
▁as▁we	-4693
▁…	-4694
▁will▁not	-4695
▁enough▁to	-4696
▁and▁T	-4697
TS	-4698
▁contem	-4699
▁minimum	-4700
▁advanced	-4701
▁absolutely	-4702
▁because▁it	-4703
▁meant	-4704
▁theme	-4705
▁look▁at	-4706
▁cop	-4707
itness	-4708
▁Today	-4709
▁and▁was	-4710
arrant	-4711
Is	-4712
▁Mem	-4713
▁about▁it	-4714
oma	-4715
point	-4716
▁progress	-4717
ician	-4718
▁Rich	-4719
zen	-4720
▁sources	-4721
agra	-4722
▁Love	-4723
▁relig	-4724
▁avoid	-4725
▁plastic	-4726
▁chair	-4727
▁when▁they	-4728
▁sto	-4729
active	-4730
▁Apple	-4731
▁toward	-4732
▁Wednesday	-4733
ows	-4734
▁Ben	-4735
▁factor	-4736
▁groups	-4737
▁sports	-4738
▁going▁to▁be	-4739
▁In▁this	-4740
”,	-4741
▁plenty▁of	-4742
▁British	-4743
▁extensive	-4744
▁micro	-4745
▁config	-4746
▁wat	-4747
▁election	-4748
▁and▁p	-4749
▁vent	-4750
▁Water	-4751
▁observ	-4752
▁who▁is	-4753
▁investig	-4754
sey	-4755
▁jump	-4756
▁Profess	-4757
▁menu	-4758
oman	-4759
enses	-4760
▁leadership	-4761
erry	-4762
▁diagn	-4763
▁walking	-4764
rowd	-4765
▁onto	-4766
▁continue▁to	-4767
▁hang	-4768
▁quot	-4769
▁estim	-4770
▁princip	-4771
cean	-4772
Ad	-4773
▁Use	-4774
▁package	-4775
▁minute	-4776
ing▁you	-4777
▁James	-4778
▁central	-4779
▁need▁to▁be	-4780
▁independent	-4781
It▁is	-4782
▁scale	-4783
▁that▁this	-4784
▁obvious	-4785
▁population	-4786
▁Ange	-4787
▁species	-4788
▁department	-4789
▁Star	-4790
▁anti	-4791
MS	-4792
VE	-4793
▁van	-4794
▁secret	-4795
▁ban	-4796
night	-4797
▁continues	-4798
▁For▁example	-4799
anta	-4800
▁Trump	-4801
▁ways▁to	-4802
▁brother	-4803
how	-4804
▁them▁to	-4805
▁Sing	-4806
▁leader	-4807
ed▁with▁a	-4808
▁stone	-4809
inct	-4810
▁Care	-4811
▁compl	-4812
▁inspir	-4813
▁coverage	-4814
▁the▁fact	-4815
▁profit	-4816
▁operating	-4817
ugg	-4818
▁upgra	-4819
▁Tuesday	-4820
▁if▁it	-4821
▁spect	-4822
▁smaller	-4823
ette	-4824
s▁around	-4825
▁that▁has	-4826
▁which▁was	-4827
▁bought	-4828
▁counter	-4829
odes	-4830
▁Call	-4831
ferences	-4832
yer	-4833
▁Child	-4834
mail	-4835
▁pric	-4836
▁a▁cou	-4837
SS	-4838
gment	-4839
itors	-4840
ompl	-4841
estic	-4842
ooper	-4843
▁honest	-4844
▁comments	-4845
ing▁at	-4846
istics	-4847
▁camera	-4848
life	-4849
▁mist	-4850
▁stain	-4851
▁pump	-4852
▁spring	-4853
hem	-4854
uce	-4855
DA	-4856
▁the▁same▁time	-4857
▁issu	-4858
▁spl	-4859
▁transform	-4860
▁alternative	-4861
Don	-4862
She	-4863
s▁and▁a	-4864
met	-4865
▁and▁so	-4866
▁economy	-4867
▁levels	-4868
▁lovely	-4869
▁England	-4870
▁organizations	-4871
▁mo	-4872
▁thus	-4873
▁committ	-4874
▁she▁was	-4875
▁bright	-4876
▁real▁estate	-4877
ence▁of	-4878
▁district	-4879
▁involved	-4880
PA	-4881
▁just▁a	-4882
▁limited	-4883
▁procedure	-4884
Your	-4885
aven	-4886
▁www	-4887
▁north	-4888
edom	-4889
▁Open	-4890
▁catch	-4891
Ne	-4892
ed▁or	-4893
▁had▁to	-4894
▁Amazon	-4895
rical	-4896
▁vehicles	-4897
ga	-4898
▁OF	-4899
▁for▁example	-4900
▁argu	-4901
▁guess	-4902
paper	-4903
▁launch	-4904
▁Jew	-4905
In▁the	-4906
▁cities	-4907
itar	-4908
▁lux	-4909
IG	-4910
▁Cong	-4911
cles	-4912
es▁that	-4913
▁not▁to	-4914
▁Online	-4915
▁Som	-4916
▁in▁L	-4917
▁names	-4918
▁refer	-4919
▁if▁they	-4920
▁daughter	-4921
▁Oh	-4922
▁eth	-4923
▁ride	-4924
▁dram	-4925
standing	-4926
??	-4927
We▁are	-4928
▁for▁my	-4929
▁debt	-4930
▁Engine	-4931
▁People	-4932
▁using▁a	-4933
▁facility	-4934
LC	-4935
▁casino	-4936
Here	-4937
▁USA	-4938
▁assistance	-4939
▁being▁a	-4940
▁dinner	-4941
rian	-4942
▁Hel	-4943
▁meal	-4944
s▁of▁a	-4945
▁Africa	-4946
▁what▁we	-4947
▁appeal	-4948
rd	-4949
vere	-4950
▁sea	-4951
▁including▁the	-4952
▁Met	-4953
ording▁to	-4954
▁agreement	-4955
▁football	-4956
▁individuals	-4957
▁Science	-4958
▁concent	-4959
▁animal	-4960
▁perhaps	-4961
reek	-4962
▁joint	-4963
▁mer	-4964
▁society	-4965
▁balance	-4966
▁properly	-4967
▁sch	-4968
▁requirement	-4969
▁and▁have	-4970
osh	-4971
▁Jo	-4972
▁error	-4973
▁of▁L	-4974
▁he▁said	-4975
▁to▁know	-4976
▁the▁country	-4977
▁Mag	-4978
▁sem	-4979
▁to▁my	-4980
▁rental	-4981
▁scene	-4982
▁surg	-4983
▁of▁her	-4984
ki	-4985
▁mountain	-4986
▁chain	-4987
ionally	-4988
▁govern	-4989
▁is▁now	-4990
▁flu	-4991
▁of▁H	-4992
▁Their	-4993
oost	-4994
▁Bay	-4995
▁advis	-4996
▁favour	-4997
▁Association	-4998
▁and▁has	-4999
▁typically	-5000
▁emp	-5001
▁pal	-5002
antic	-5003
ing▁our	-5004
▁no▁longer	-5005
▁http	-5006
▁seek	-5007
asy	-5008
▁approximately	-5009
mp	-5010
!!
	-5011
▁responsibility	-5012
▁to▁be▁a	-5013
▁You▁will	-5014
▁dial	-5015
▁wheel	-5016
RA	-5017
RO	-5018
ilm	-5019
▁dining	-5020
▁list▁of	-5021
▁famous	-5022
▁sharing	-5023
IL	-5024
▁meaning	-5025
▁expertise	-5026
▁journal	-5027
▁used▁in	-5028
▁resear	-5029
▁at▁home	-5030
▁off▁the	-5031
s▁available	-5032
▁magn	-5033
s▁out	-5034
▁reference	-5035
▁you▁want▁to	-5036
IA	-5037
▁Ev	-5038
▁Wall	-5039
▁completed	-5040
▁Florida	-5041
▁laun	-5042
cript	-5043
▁vs	-5044
▁citiz	-5045
▁parts	-5046
▁illust	-5047
▁Lear	-5048
ka	-5049
▁Commit	-5050
▁or▁even	-5051
ulture	-5052
▁every▁day	-5053
▁square	-5054
▁Download	-5055
▁context	-5056
▁Top	-5057
pher	-5058
▁Camp	-5059
▁brows	-5060
▁you▁get	-5061
oor	-5062
▁of▁that	-5063
mar	-5064
▁suitable	-5065
▁this▁time	-5066
▁Chic	-5067
▁in▁all	-5068
▁the▁past	-5069
▁corporate	-5070
▁what▁they	-5071
▁Sl	-5072
▁throw	-5073
▁prepare	-5074
▁practical	-5075
osis	-5076
▁Sal	-5077
▁accident	-5078
▁guy	-5079
▁around▁the	-5080
▁fuel	-5081
▁changed	-5082
s▁about	-5083
▁would▁like▁to	-5084
▁up▁and	-5085
pid	-5086
▁edge	-5087
▁Power	-5088
▁and▁R	-5089
▁choices	-5090
▁Education	-5091
▁frame	-5092
▁Whether	-5093
▁foreign	-5094
▁decisions	-5095
▁Arch	-5096
▁senior	-5097
▁factors	-5098
",	-5099
▁mort	-5100
▁Build	-5101
▁opinion	-5102
▁and▁t	-5103
▁models	-5104
▁HD	-5105
uries	-5106
▁Card	-5107
▁workers	-5108
een	-5109
▁and▁all	-5110
▁Ide	-5111
▁chart	-5112
▁We▁will	-5113
state	-5114
s▁ac	-5115
▁manager	-5116
isco	-5117
mal	-5118
▁experts	-5119
▁Commission	-5120
▁Project	-5121
ampions	-5122
atin	-5123
▁Grand	-5124
This▁is	-5125
▁Glo	-5126
▁specifically	-5127
▁Pay	-5128
▁register	-5129
▁Sil	-5130
▁ign	-5131
▁Sub	-5132
▁industrial	-5133
ocolate	-5134
▁to▁say	-5135
▁thousands▁of	-5136
▁gun	-5137
▁enhance	-5138
▁distance	-5139
▁Foundation	-5140
▁exchange	-5141
▁larger	-5142
▁of▁any	-5143
▁switch	-5144
cious	-5145
hone	-5146
▁quant	-5147
▁parking	-5148
▁feedback	-5149
azine	-5150
ivered	-5151
▁confidence	-5152
ptom	-5153
▁installation	-5154
▁negative	-5155
▁challenges	-5156
▁comprehensive	-5157
▁fold	-5158
▁named	-5159
▁hyd	-5160
▁in▁C	-5161
▁unless	-5162
▁would▁have	-5163
apers	-5164
▁with▁his	-5165
▁snow	-5166
▁psych	-5167
▁trad	-5168
igence	-5169
rete	-5170
ying	-5171
▁prot	-5172
othing	-5173
▁slightly	-5174
orthern	-5175
▁way▁of	-5176
▁the▁only	-5177
▁Have	-5178
ment▁and	-5179
▁clearly	-5180
apos	-5181
▁Sur	-5182
▁mill	-5183
.
•	-5184
illa	-5185
s▁by	-5186
▁Hill	-5187
▁predict	-5188
▁ST	-5189
▁Fire	-5190
▁Mary	-5191
▁decl	-5192
▁that▁your	-5193
▁Information	-5194
men	-5195
▁TO	-5196
▁esc	-5197
▁fruit	-5198
▁manner	-5199
▁updated	-5200
▁Beach	-5201
▁sheet	-5202
▁unc	-5203
s▁also	-5204
▁root	-5205
▁domain	-5206
ilit	-5207
▁rules	-5208
▁bul	-5209
ander	-5210
▁restrict	-5211
abase	-5212
▁reached	-5213
rab	-5214
▁focus▁on	-5215
▁Mal	-5216
▁Soc	-5217
▁core	-5218
▁elimin	-5219
▁Pet	-5220
▁involv	-5221
▁struct	-5222
▁Like	-5223
▁ven	-5224
▁coast	-5225
▁see▁the	-5226
med	-5227
▁Light	-5228
uman	-5229
▁der	-5230
▁Vir	-5231
▁schools	-5232
▁was▁not	-5233
osen	-5234
▁through▁a	-5235
▁mostly	-5236
▁eventually	-5237
▁spr	-5238
▁Elect	-5239
▁discussion	-5240
omas	-5241
▁Cap	-5242
▁motiv	-5243
▁Central	-5244
▁evening	-5245
▁fans	-5246
▁climate	-5247
▁premium	-5248
▁updates	-5249
▁category	-5250
▁of▁D	-5251
▁Republic	-5252
nel	-5253
▁Ma	-5254
▁Mill	-5255
▁Microsoft	-5256
▁couldn	-5257
CC	-5258
:▁"	-5259
▁Jer	-5260
prise	-5261
s▁you	-5262
▁set▁of	-5263
▁occup	-5264
▁thick	-5265
▁UN	-5266
▁Twitter	-5267
▁cleaning	-5268
▁warrant	-5269
▁guarantee	-5270
hab	-5271
▁volume	-5272
▁Big	-5273
▁and▁get	-5274
▁component	-5275
rees	-5276
▁cris	-5277
▁anywhere	-5278
used	-5279
cohol	-5280
▁swim	-5281
▁president	-5282
▁promote	-5283
▁*	-5284
▁Tem	-5285
▁previously	-5286
▁desire	-5287
▁produc	-5288
▁Lord	-5289
▁Team	-5290
▁accompl	-5291
going	-5292
▁Bill	-5293
▁Mart	-5294
▁Roy	-5295
ancing	-5296
▁characters	-5297
ations▁and	-5298
▁seed	-5299
▁south	-5300
▁moving	-5301
▁to▁an	-5302
▁tele	-5303
▁classes	-5304
▁creating	-5305
▁the▁company	-5306
bol	-5307
▁in▁H	-5308
▁du	-5309
▁Tor	-5310
uring▁the	-5311
eper	-5312
▁rank	-5313
▁exciting	-5314
▁websites	-5315
▁Government	-5316
▁environmental	-5317
s▁all	-5318
▁shut	-5319
▁competitive	-5320
▁partnership	-5321
ixture	-5322
ctors	-5323
▁shipping	-5324
▁strategies	-5325
▁suppli	-5326
▁worked	-5327
▁known▁as	-5328
▁needed▁to	-5329
▁Alex	-5330
fficient	-5331
▁resource	-5332
pon	-5333
▁operations	-5334
omin	-5335
▁attor	-5336
▁calcul	-5337
▁become▁a	-5338
▁create▁a	-5339
▁familiar	-5340
▁dyn	-5341
▁wouldn	-5342
De	-5343
▁tast	-5344
▁delicious	-5345
essions	-5346
▁gather	-5347
▁spons	-5348
▁Community	-5349
ya	-5350
yp	-5351
▁Custom	-5352
gn	-5353
urban	-5354
▁I▁just	-5355
itz	-5356
▁tools	-5357
▁forest	-5358
cient	-5359
▁Jour	-5360
icians	-5361
▁technologies	-5362
▁group▁of	-5363
▁electronic	-5364
▁kick	-5365
▁Under	-5366
▁helped	-5367
▁delivered	-5368
▁adopt	-5369
▁remote	-5370
▁inspired	-5371
▁important▁to	-5372
orough	-5373
▁Ser	-5374
no	-5375
▁info	-5376
▁and▁H	-5377
▁it▁has	-5378
eared	-5379
nam	-5380
Not	-5381
▁replac	-5382
ils	-5383
▁manual	-5384
▁Committee	-5385
▁breakfast	-5386
terest	-5387
onus	-5388
er▁is	-5389
ummer	-5390
▁colors	-5391
▁cultural	-5392
▁reput	-5393
▁shower	-5394
aling	-5395
ve▁got	-5396
▁teeth	-5397
DF	-5398
▁bird	-5399
▁in▁P	-5400
▁radio	-5401
▁Department▁of	-5402
▁Data	-5403
▁do▁it	-5404
noon	-5405
▁Blue	-5406
▁injury	-5407
▁profile	-5408
▁Show	-5409
▁capacity	-5410
▁therefore	-5411
▁a▁year	-5412
▁bottom	-5413
▁channel	-5414
▁AND	-5415
▁civil	-5416
▁@	-5417
▁residents	-5418
BA	-5419
▁produced	-5420
▁fantastic	-5421
▁full▁of	-5422
▁there▁is▁no	-5423
gend	-5424
water	-5425
▁even▁more	-5426
win	-5427
▁cart	-5428
▁mount	-5429
ollowing	-5430
▁Time	-5431
▁grade	-5432
▁despite	-5433
▁the▁next	-5434
▁leaves	-5435
▁purpos	-5436
▁ju	-5437
▁Canad	-5438
▁interior	-5439
ownt	-5440
▁legisl	-5441
▁used▁for	-5442
tered	-5443
▁employee	-5444
▁in▁its	-5445
known	-5446
▁go▁to	-5447
▁enable	-5448
▁the▁case	-5449
ye	-5450
▁fem	-5451
▁Exp	-5452
▁vote	-5453
▁for▁his	-5454
▁with▁them	-5455
with	-5456
▁rub	-5457
rs	-5458
ersonal	-5459
CH	-5460
▁shap	-5461
▁quiet	-5462
▁up▁with	-5463
▁tail	-5464
I▁have	-5465
▁Music	-5466
friend	-5467
ola	-5468
▁NOT	-5469
▁is▁still	-5470
▁regarding	-5471
▁Two	-5472
never	-5473
ous▁and	-5474
den	-5475
▁Take	-5476
▁lunch	-5477
▁asking	-5478
▁who▁have	-5479
▁high▁quality	-5480
UR	-5481
estyle	-5482
▁beauty	-5483
▁circum	-5484
ation▁to	-5485
However	-5486
▁driving	-5487
▁Que	-5488
▁Valley	-5489
▁construct	-5490
omet	-5491
▁diam	-5492
Why	-5493
▁makes▁it	-5494
but	-5495
hent	-5496
▁like▁this	-5497
▁you▁want	-5498
▁there▁was	-5499
▁registered	-5500
▁Development	-5501
▁when▁we	-5502
▁you▁could	-5503
▁resolution	-5504
▁place▁to	-5505
rip	-5506
ms	-5507
▁Chicago	-5508
▁Sam	-5509
▁poll	-5510
▁Stand	-5511
▁most▁of▁the	-5512
othe	-5513
▁stret	-5514
▁faster	-5515
▁possibly	-5516
▁Tom	-5517
▁and▁our	-5518
▁courses	-5519
▁in▁mind	-5520
▁announce	-5521
▁reported	-5522
olars	-5523
ulated	-5524
▁of▁those	-5525
equ	-5526
▁corner	-5527
▁detect	-5528
s▁no	-5529
▁Centre	-5530
▁and▁re	-5531
▁instance	-5532
rastructure	-5533
rition	-5534
▁teaching	-5535
Some	-5536
▁decre	-5537
▁and▁be	-5538
▁eating	-5539
list	-5540
t▁get	-5541
umber	-5542
pond	-5543
▁glad	-5544
▁in▁any	-5545
▁Mot	-5546
▁agency	-5547
▁nav	-5548
▁labor	-5549
▁with▁us	-5550
▁emergency	-5551
▁PM	-5552
hetic	-5553
lines	-5554
▁documents	-5555
ed▁his	-5556
▁rise	-5557
▁the▁F	-5558
▁efficiency	-5559
olly	-5560
▁articles	-5561
▁right▁now	-5562
SE	-5563
eless	-5564
▁saying	-5565
▁chemical	-5566
aser	-5567
▁battery	-5568
▁monthly	-5569
prene	-5570
▁take▁a	-5571
▁Product	-5572
▁policies	-5573
miss	-5574
▁your▁home	-5575
▁Vol	-5576
▁Android	-5577
▁tun	-5578
▁conserv	-5579
▁instead▁of	-5580
▁rot	-5581
▁neck	-5582
▁terms▁of	-5583
▁the▁cour	-5584
roy	-5585
iest	-5586
otic	-5587
spe	-5588
▁District	-5589
▁YOU	-5590
▁of▁F	-5591
reprene	-5592
▁tables	-5593
mosp	-5594
▁centre	-5595
▁delight	-5596
▁reliable	-5597
Des	-5598
fol	-5599
ocr	-5600
▁survey	-5601
▁greatest	-5602
▁tow	-5603
.
-	-5604
▁Rob	-5605
▁George	-5606
▁a▁very	-5607
▁regularly	-5608
▁Lim	-5609
▁Tur	-5610
▁about▁this	-5611
what	-5612
▁Real	-5613
ography	-5614
▁visitors	-5615
ultural	-5616
▁helping	-5617
NA	-5618
▁blend	-5619
▁script	-5620
By	-5621
ius	-5622
▁Det	-5623
▁Award	-5624
▁Carol	-5625
▁crusher	-5626
▁sure▁to	-5627
▁trading	-5628
ing▁around	-5629
▁mine	-5630
▁Its	-5631
▁marri	-5632
▁trees	-5633
aid	-5634
▁tom	-5635
▁dut	-5636
▁disp	-5637
▁to▁learn	-5638
▁what▁the	-5639
▁NY	-5640
▁Sun	-5641
while	-5642
▁Town	-5643
▁Michael	-5644
▁butter	-5645
▁In▁fact	-5646
SA	-5647
which	-5648
alog	-5649
▁Hist	-5650
levision	-5651
▁News	-5652
burg	-5653
olve	-5654
▁brown	-5655
▁conflic	-5656
▁series▁of	-5657
▁cooking	-5658
▁when▁he	-5659
▁Div	-5660
▁one▁of▁the▁most	-5661
TH	-5662
ario	-5663
▁mode	-5664
▁rapid	-5665
▁He▁was	-5666
▁consumer	-5667
▁trial	-5668
▁Tour	-5669
ate▁to	-5670
▁Set	-5671
▁realize	-5672
▁Atl	-5673
▁chicken	-5674
▁educational	-5675
▁rule	-5676
▁otherwise	-5677
pret	-5678
▁convenient	-5679
itions	-5680
▁elements	-5681
loc	-5682
▁this▁week	-5683
▁Rel	-5684
▁Ital	-5685
▁Color	-5686
berg	-5687
ed▁to▁a	-5688
▁down▁the	-5689
▁developed	-5690
▁Franc	-5691
▁based▁on▁the	-5692
▁Museum	-5693
▁signal	-5694
▁ec	-5695
asis	-5696
▁and▁for	-5697
edy	-5698
ucle	-5699
From	-5700
▁plants	-5701
▁Network	-5702
s▁and▁other	-5703
▁Rad	-5704
▁fees	-5705
▁yard	-5706
can	-5707
▁doubt	-5708
▁raise	-5709
▁epis	-5710
New	-5711
utom	-5712
▁busy	-5713
▁researcher	-5714
▁Kore	-5715
▁hire	-5716
▁vary	-5717
ibilities	-5718
▁IP	-5719
▁the▁P	-5720
▁appointment	-5721
Acc	-5722
▁Food	-5723
▁brid	-5724
▁trick	-5725
ctually	-5726
▁>	-5727
▁icon	-5728
▁seeking	-5729
▁the▁big	-5730
ras	-5731
▁Enter	-5732
▁with▁it	-5733
▁sense▁of	-5734
▁die	-5735
▁It▁is▁a	-5736
▁academic	-5737
▁locations	-5738
▁launched	-5739
gage	-5740
▁Old	-5741
If▁you▁are	-5742
▁Hotel	-5743
hi	-5744
▁happy▁to	-5745
td	-5746
▁Yes	-5747
▁sort▁of	-5748
▁contains	-5749
▁mail	-5750
▁rang	-5751
▁valuable	-5752
▁river	-5753
▁Germany	-5754
▁contemporary	-5755
ports	-5756
▁Special	-5757
▁effectively	-5758
▁poly	-5759
▁France	-5760
anch	-5761
▁Who	-5762
▁or▁more	-5763
▁recovery	-5764
Le	-5765
gl	-5766
cuit	-5767
▁guys	-5768
▁iron	-5769
▁form▁of	-5770
▁Nor	-5771
▁weak	-5772
▁your▁business	-5773
▁Both	-5774
▁Land	-5775
▁minor	-5776
▁check▁out	-5777
▁first▁time	-5778
yal	-5779
▁leather	-5780
▁dish	-5781
▁German	-5782
▁revenue	-5783
▁starting	-5784
▁university	-5785
▁mental	-5786
ation▁for	-5787
CA	-5788
▁tank	-5789
CT	-5790
edd	-5791
▁Back	-5792
▁died	-5793
▁if▁I	-5794
▁jobs	-5795
Can	-5796
ita	-5797
▁Social	-5798
ype	-5799
▁cards	-5800
▁▁	-5801
▁Bet	-5802
▁Head	-5803
▁depos	-5804
▁lot▁of	-5805
▁federal	-5806
▁a▁look	-5807
ation▁is	-5808
▁afternoon	-5809
▁work▁with	-5810
▁will▁have	-5811
▁contact▁us	-5812
▁biggest	-5813
▁perfectly	-5814
idden	-5815
▁thread	-5816
▁people▁are	-5817
Con	-5818
▁Lou	-5819
▁Earth	-5820
▁shift	-5821
▁When▁you	-5822
▁participate	-5823
▁you▁will▁be	-5824
▁uns	-5825
▁at▁any	-5826
▁due▁to▁the	-5827
▁output	-5828
▁its▁own	-5829
▁thr	-5830
▁Room	-5831
▁Asia	-5832
▁Test	-5833
▁find▁a	-5834
▁Gar	-5835
▁ple	-5836
▁saving	-5837
esterday	-5838
▁the▁cor	-5839
▁ingredients	-5840
ste	-5841
▁and▁l	-5842
hus	-5843
upp	-5844
etime	-5845
▁chance▁to	-5846
▁=	-5847
▁Master	-5848
▁can▁help	-5849
▁may▁have	-5850
▁commitment	-5851
▁bound	-5852
Com	-5853
▁brings	-5854
▁and▁c	-5855
▁selected	-5856
ion▁of▁the	-5857
▁discovered	-5858
▁cheese	-5859
▁chosen	-5860
▁meat	-5861
▁visitor	-5862
imately	-5863
▁innovative	-5864
▁forg	-5865
ening	-5866
▁consequ	-5867
▁defend	-5868
▁improvement	-5869
▁Adv	-5870
s▁just	-5871
▁birthday	-5872
▁to▁give	-5873
▁which▁will	-5874
▁upload	-5875
▁happens	-5876
▁you▁don	-5877
s▁been	-5878
▁automatically	-5879
▁Where	-5880
▁deck	-5881
iveness	-5882
▁perman	-5883
▁convert	-5884
▁for▁each	-5885
▁incredible	-5886
rim	-5887
▁OR	-5888
▁bowl	-5889
▁burn	-5890
▁label	-5891
ounsel	-5892
▁route	-5893
▁Indust	-5894
▁tight	-5895
▁Security	-5896
bb	-5897
----	-5898
▁invent	-5899
▁complic	-5900
▁internal	-5901
look	-5902
▁nor	-5903
iquid	-5904
▁with▁her	-5905
▁so▁you▁can	-5906
▁excess	-5907
▁of▁you	-5908
▁spending	-5909
▁back▁to▁the	-5910
En	-5911
▁salt	-5912
▁to▁all	-5913
▁towards	-5914
▁administr	-5915
▁high▁school	-5916
van	-5917
ed▁an	-5918
s▁most	-5919
fection	-5920
ena	-5921
▁perspective	-5922
iner	-5923
▁joy	-5924
▁whom	-5925
▁tea	-5926
▁sequ	-5927
▁Western	-5928
▁with▁all	-5929
▁intell	-5930
hand	-5931
gainst	-5932
▁and▁what	-5933
oil	-5934
▁and▁this	-5935
▁Department	-5936
BS	-5937
rome	-5938
▁I▁do	-5939
▁Public	-5940
▁insight	-5941
▁Technology	-5942
▁wis	-5943
▁Start	-5944
▁tough	-5945
▁horse	-5946
▁teams	-5947
cont	-5948
▁dim	-5949
▁victim	-5950
▁may▁not	-5951
▁piece▁of	-5952
xy	-5953
▁detailed	-5954
west	-5955
dered	-5956
▁Cert	-5957
▁agent	-5958
▁Mex	-5959
ographer	-5960
▁the▁time	-5961
▁household	-5962
orry	-5963
▁hardware	-5964
▁provider	-5965
▁constantly	-5966
Just	-5967
▁obl	-5968
▁Scott	-5969
▁opening	-5970
▁administration	-5971
UN	-5972
▁Const	-5973
▁wants▁to	-5974
▁neighborhood	-5975
rag	-5976
istan	-5977
▁of▁R	-5978
atre	-5979
▁Dig	-5980
▁folk	-5981
▁surf	-5982
▁he▁is	-5983
▁depart	-5984
▁away▁from	-5985
▁they▁will	-5986
▁registration	-5987
actions	-5988
▁mouth	-5989
race	-5990
ulate	-5991
appy	-5992
orter	-5993
▁Long	-5994
ed▁this	-5995
▁about▁a	-5996
▁univers	-5997
▁Mach	-5998
▁was▁post	-5999
▁historical	-6000
▁er	-6001
es▁a	-6002
▁and▁my	-6003
▁looked	-6004
▁iPhone	-6005
ini	-6006
▁Sk	-6007
▁Lead	-6008
▁conv	-6009
Once	-6010
▁winning	-6011
yard	-6012
▁submitt	-6013
asp	-6014
▁vit	-6015
▁List	-6016
▁Oper	-6017
terior	-6018
▁Through	-6019
rem	-6020
ottom	-6021
▁loves	-6022
▁techniques	-6023
▁Virgin	-6024
▁agg	-6025
anish	-6026
▁for▁it	-6027
ria	-6028
▁assum	-6029
▁Review	-6030
▁is▁a▁great	-6031
▁Pan	-6032
▁rom	-6033
▁boat	-6034
▁who▁has	-6035
▁residential	-6036
▁manufacturing	-6037
▁hall	-6038
▁RE	-6039
▁phil	-6040
re▁not	-6041
ing▁these	-6042
net	-6043
▁Sen	-6044
▁how▁the	-6045
▁the▁city	-6046
bur	-6047
▁mir	-6048
▁symptom	-6049
s▁up	-6050
▁nar	-6051
ulous	-6052
rum	-6053
iding	-6054
▁Ener	-6055
▁of▁time	-6056
▁clinical	-6057
▁candidates	-6058
▁CA	-6059
▁Press	-6060
▁developing	-6061
Yes	-6062
▁input	-6063
▁selling	-6064
▁successfully	-6065
▁Only	-6066
▁prompt	-6067
▁testing	-6068
UT	-6069
▁Keep	-6070
▁Gall	-6071
▁sauce	-6072
▁Mil	-6073
▁belong	-6074
▁fellow	-6075
▁is▁just	-6076
▁circumst	-6077
hy	-6078
azz	-6079
igan	-6080
mond	-6081
▁vend	-6082
▁is▁located	-6083
▁that▁you▁can	-6084
▁Plus	-6085
▁reviews	-6086
▁and▁can	-6087
▁Cam	-6088
Every	-6089
ework	-6090
elcome	-6091
uction	-6092
▁exclusive	-6093
▁Di	-6094
▁Sand	-6095
▁get▁the	-6096
OD	-6097
▁too▁much	-6098
pass	-6099
illed	-6100
▁nurs	-6101
▁assemb	-6102
▁alcohol	-6103
arian	-6104
▁fort	-6105
▁products▁and	-6106
▁and▁her	-6107
Me	-6108
▁mini	-6109
▁failure	-6110
▁Bas	-6111
▁sole	-6112
▁knows	-6113
▁organic	-6114
▁make▁the	-6115
▁out▁there	-6116
ua	-6117
.
(	-6118
▁Sa	-6119
▁emph	-6120
▁wasn	-6121
▁grown	-6122
:▁“	-6123
▁of▁N	-6124
▁boost	-6125
▁twice	-6126
▁worldwide	-6127
▁hundreds▁of	-6128
you	-6129
▁gear	-6130
);	-6131
▁units	-6132
▁Russia	-6133
▁emotional	-6134
▁an▁un	-6135
▁the▁back	-6136
▁Exper	-6137
▁Journal	-6138
▁against▁the	-6139
Cont	-6140
olar	-6141
rency	-6142
▁Union	-6143
▁chocolate	-6144
▁sam	-6145
▁diss	-6146
ificate	-6147
▁for▁some	-6148
▁Family	-6149
▁CD	-6150
▁Brown	-6151
▁simpl	-6152
▁a▁small	-6153
▁village	-6154
▁the▁last	-6155
▁Main	-6156
▁agre	-6157
▁ease	-6158
▁compli	-6159
▁artists	-6160
t▁want▁to	-6161
▁to▁avoid	-6162
Se	-6163
icial	-6164
▁Media	-6165
▁editor	-6166
▁from▁our	-6167
▁significantly	-6168
▁League	-6169
▁for▁sale	-6170
▁library	-6171
▁regional	-6172
OP	-6173
▁Cat	-6174
▁Thanks	-6175
▁at▁the▁time	-6176
▁replacement	-6177
▁required▁to	-6178
▁Vict	-6179
▁height	-6180
▁AT	-6181
▁aw	-6182
▁doors	-6183
working	-6184
▁African	-6185
▁professionals	-6186
▁Fund	-6187
▁choos	-6188
▁musical	-6189
▁windows	-6190
▁the▁col	-6191
▁lik	-6192
iance	-6193
▁purchased	-6194
▁so▁it	-6195
▁end▁of	-6196
▁database	-6197
▁generation	-6198
▁learned	-6199
▁stunning	-6200
▁processes	-6201
▁the▁latest	-6202
ENT	-6203
____	-6204
▁ment	-6205
nament	-6206
▁I▁also	-6207
▁with▁no	-6208
amil	-6209
▁guests	-6210
▁airport	-6211
IR	-6212
ushed	-6213
▁hard▁to	-6214
▁about▁your	-6215
▁Japanese	-6216
▁there▁were	-6217
weight	-6218
▁dance	-6219
▁styles	-6220
▁readers	-6221
IF	-6222
▁Last	-6223
▁painting	-6224
she	-6225
▁Pri	-6226
▁campus	-6227
▁Contact	-6228
▁free▁to	-6229
itu	-6230
rad	-6231
ady	-6232
▁mentioned	-6233
▁bike	-6234
intage	-6235
▁executive	-6236
▁you▁might	-6237
▁conversation	-6238
ilst	-6239
rang	-6240
▁audio	-6241
▁processing	-6242
▁milk	-6243
▁to▁them	-6244
▁because▁the	-6245
▁member▁of▁the	-6246
▁elig	-6247
▁shares	-6248
▁resident	-6249
▁rest▁of▁the	-6250
▁played	-6251
▁The▁first	-6252
▁coordin	-6253
”.
	-6254
▁rail	-6255
▁Offic	-6256
ited▁to	-6257
▁awesome	-6258
Thank▁you	-6259
weet	-6260
reens	-6261
▁Miss	-6262
▁fulf	-6263
▁dollar	-6264
▁apart	-6265
▁retain	-6266
▁in▁that	-6267
▁AS	-6268
▁Ir	-6269
▁Frank	-6270
▁Medical	-6271
▁at▁this	-6272
▁housing	-6273
▁amb	-6274
▁pin	-6275
▁cars	-6276
▁discip	-6277
ially	-6278
▁description	-6279
inding	-6280
▁changing	-6281
App	-6282
▁fle	-6283
▁covers	-6284
▁reb	-6285
raction	-6286
▁for▁us	-6287
▁find▁out	-6288
iece	-6289
▁kit	-6290
▁pure	-6291
▁kinds▁of	-6292
▁eleg	-6293
▁Organ	-6294
▁Prov	-6295
▁the▁D	-6296
.
*	-6297
▁Russian	-6298
▁with▁other	-6299
igr	-6300
▁engage	-6301
▁suppos	-6302
▁consumers	-6303
▁relatively	-6304
▁Tre	-6305
▁markets	-6306
▁Gal	-6307
ity▁of▁the	-6308
▁submit	-6309
▁supplies	-6310
▁Lo	-6311
▁featured	-6312
▁presence	-6313
▁providers	-6314
▁top▁of▁the	-6315
▁because▁they	-6316
▁Smith	-6317
▁components	-6318
▁EU	-6319
▁standards	-6320
eed	-6321
▁cred	-6322
▁asset	-6323
related	-6324
▁studio	-6325
athe	-6326
▁wid	-6327
▁so▁far	-6328
▁ago	-6329
▁the▁following	-6330
t▁think	-6331
▁adventure	-6332
▁Global	-6333
iers	-6334
▁atmosp	-6335
▁specialist	-6336
▁soul	-6337
▁Control	-6338
▁provide▁a	-6339
▁ON	-6340
▁yellow	-6341
▁the▁cost	-6342
ighter	-6343
▁the▁t	-6344
▁shel	-6345
▁negot	-6346
▁appreciate	-6347
▁forward▁to	-6348
▁Tim	-6349
▁bask	-6350
ishing	-6351
▁alway	-6352
▁appeared	-6353
▁for▁that	-6354
▁Inf	-6355
▁thorough	-6356
▁television	-6357
▁Italian	-6358
▁have▁an	-6359
▁protein	-6360
▁Academ	-6361
▁routine	-6362
away	-6363
▁climb	-6364
▁drivers	-6365
▁surgery	-6366
▁Addition	-6367
▁appearance	-6368
▁forum	-6369
▁I▁hope	-6370
▁licens	-6371
▁reports	-6372
▁will▁also	-6373
▁row	-6374
▁syn	-6375
▁Form	-6376
▁imagine	-6377
▁typical	-6378
▁ourselves	-6379
▁as▁he	-6380
ion▁and	-6381
▁engagement	-6382
▁process▁of	-6383
ores	-6384
▁rear	-6385
▁cycle	-6386
▁deals	-6387
▁the▁fl	-6388
▁everyday	-6389
ossible	-6390
▁removal	-6391
▁Ltd	-6392
▁animals	-6393
ampionship	-6394
▁habit	-6395
▁purposes	-6396
vi	-6397
▁proceed	-6398
▁spiritual	-6399
▁transition	-6400
▁Ext	-6401
▁Soft	-6402
▁and▁F	-6403
▁on▁his	-6404
▁totally	-6405
▁entreprene	-6406
▁rough	-6407
▁Invest	-6408
▁designs	-6409
▁Att	-6410
▁yes	-6411
LA	-6412
odel	-6413
▁gro	-6414
▁crack	-6415
▁for▁its	-6416
itage	-6417
▁bread	-6418
▁rooms	-6419
▁taught	-6420
▁distinct	-6421
urd	-6422
▁infl	-6423
▁dedicated	-6424
TA	-6425
▁renew	-6426
▁Robert	-6427
ation▁in	-6428
▁diverse	-6429
▁improved	-6430
▁Table	-6431
▁impressive	-6432
▁but▁they	-6433
Since	-6434
▁equal	-6435
▁notic	-6436
▁vital	-6437
▁reward	-6438
▁edition	-6439
▁to▁start	-6440
▁expected	-6441
▁external	-6442
▁influence	-6443
Any	-6444
▁Women	-6445
▁Instead	-6446
CE	-6447
▁Ill	-6448
▁soil	-6449
▁vir	-6450
ounds	-6451
▁weap	-6452
▁youth	-6453
▁capture	-6454
▁for▁her	-6455
▁machines	-6456
▁landscape	-6457
▁upper	-6458
▁listed	-6459
▁cannot▁be	-6460
▁know▁that	-6461
▁technique	-6462
irty	-6463
▁solar	-6464
▁I▁didn	-6465
▁associated▁with	-6466
RI	-6467
▁facilit	-6468
▁publish	-6469
▁likely▁to	-6470
car	-6471
▁interface	-6472
▁instruction	-6473
▁End	-6474
▁mal	-6475
▁and▁N	-6476
▁Report	-6477
▁dating	-6478
▁over▁a	-6479
▁destination	-6480
aren	-6481
inder	-6482
▁jack	-6483
▁selection▁of	-6484
▁Cas	-6485
▁Clean	-6486
▁urban	-6487
▁closely	-6488
▁impress	-6489
ev	-6490
▁crew	-6491
▁movies	-6492
▁compens	-6493
▁chat	-6494
▁and▁st	-6495
▁license	-6496
▁Canadian	-6497
▁Those	-6498
▁pharm	-6499
respond	-6500
▁Mel	-6501
pected	-6502
▁sessions	-6503
▁entertainment	-6504
▁responsible▁for	-6505
▁lit	-6506
I▁think	-6507
akers	-6508
▁Sy	-6509
▁contest	-6510
▁of▁what	-6511
▁scientific	-6512
ht	-6513
▁tab	-6514
cknow	-6515
Another	-6516
▁export	-6517
▁putting	-6518
▁expected▁to	-6519
anda	-6520
▁Medic	-6521
▁shock	-6522
enty	-6523
▁ath	-6524
aturally	-6525
▁classroom	-6526
▁Australian	-6527
▁frequently	-6528
unting	-6529
▁native	-6530
▁winner	-6531
▁seconds	-6532
▁Festival	-6533
▁substant	-6534
▁collection▁of	-6535
ened	-6536
made	-6537
▁trouble	-6538
▁favourite	-6539
▁Equ	-6540
▁spac	-6541
▁but▁we	-6542
▁for▁those	-6543
case	-6544
▁on▁an	-6545
▁it▁all	-6546
▁sample	-6547
▁Leg	-6548
▁tut	-6549
front	-6550
▁bond	-6551
▁Paris	-6552
▁lifestyle	-6553
▁instrument	-6554
▁advertising	-6555
▁most▁important	-6556
▁to▁buy	-6557
clos	-6558
▁in▁one	-6559
▁edit	-6560
▁who▁was	-6561
▁commission	-6562
▁Mad	-6563
▁virtual	-6564
▁participants	-6565
uthor	-6566
▁blogg	-6567
▁belief	-6568
▁to▁meet	-6569
▁personally	-6570
▁looking▁for▁a	-6571
▁Er	-6572
▁wa	-6573
▁mut	-6574
▁and▁G	-6575
▁buildings	-6576
▁Mer	-6577
▁Hand	-6578
▁vast	-6579
▁programme	-6580
hentic	-6581
▁Wal	-6582
▁crowd	-6583
CS	-6584
ops	-6585
▁ID	-6586
▁nine	-6587
▁pill	-6588
▁carefully	-6589
▁of▁which	-6590
▁the▁current	-6591
MA	-6592
uzz	-6593
▁serving	-6594
ls	-6595
Let	-6596
▁AD	-6597
▁and▁g	-6598
▁worse	-6599
▁writer	-6600
husi	-6601
▁acid	-6602
▁thoughts	-6603
fortunately	-6604
ifts	-6605
▁Def	-6606
▁cere	-6607
▁bless	-6608
▁couple▁of	-6609
▁odd	-6610
illing	-6611
▁nearby	-6612
▁needs▁to	-6613
oston	-6614
▁enab	-6615
▁buying	-6616
▁massive	-6617
▁affordable	-6618
▁Matt	-6619
▁trig	-6620
▁I▁got	-6621
ks	-6622
▁Pack	-6623
▁speaking	-6624
▁Squ	-6625
▁Series	-6626
▁wide▁range▁of	-6627
ors▁and	-6628
▁retire	-6629
▁can▁also	-6630
▁with▁some	-6631
▁Thomas	-6632
▁tell▁you	-6633
▁Jul	-6634
oration	-6635
▁speech	-6636
▁membership	-6637
endar	-6638
secut	-6639
▁dent	-6640
profit	-6641
▁usual	-6642
▁tried▁to	-6643
▁willing▁to	-6644
oga	-6645
ails	-6646
▁Mass	-6647
▁loans	-6648
▁mainly	-6649
▁Mountain	-6650
vailability	-6651
▁to▁achieve	-6652
enef	-6653
▁pil	-6654
▁he▁has	-6655
▁cutting	-6656
▁infrastructure	-6657
▁aid	-6658
acific	-6659
▁dumpster	-6660
▁thanks▁to	-6661
▁Way	-6662
▁in▁some	-6663
II	-6664
uclear	-6665
▁Minister	-6666
▁the▁cent	-6667
ifications	-6668
▁Conference	-6669
folio	-6670
▁Maybe	-6671
▁remark	-6672
▁entirely	-6673
▁Therefore	-6674
Ste	-6675
▁ok	-6676
▁enthusi	-6677
▁since▁the	-6678
▁needs▁to▁be	-6679
ed▁as▁a	-6680
orgeous	-6681
▁featur	-6682
▁involve	-6683
▁is▁made	-6684
▁precise	-6685
▁apartment	-6686
".
	-6687
▁Aud	-6688
▁Fall	-6689
▁silver	-6690
igration	-6691
Add	-6692
▁Sign	-6693
▁The▁B	-6694
▁param	-6695
▁broken	-6696
▁historic	-6697
▁better▁than	-6698
▁Gen	-6699
▁powder	-6700
▁excited	-6701
▁take▁the	-6702
Are	-6703
▁cable	-6704
▁phase	-6705
▁You▁are	-6706
ing▁for▁the	-6707
Many	-6708
othes	-6709
▁rely	-6710
ensions	-6711
FL	-6712
Sp	-6713
rance	-6714
▁Peter	-6715
▁can▁be▁found	-6716
elines	-6717
▁engineering	-6718
▁plate	-6719
▁the▁g	-6720
▁shall▁be	-6721
▁Nov	-6722
▁depth	-6723
▁seems	-6724
▁adding	-6725
▁Str	-6726
▁and▁many	-6727
▁exhibition	-6728
stone	-6729
▁Farm	-6730
▁caught	-6731
▁Kh	-6732
▁Jud	-6733
▁Sto	-6734
▁equipp	-6735
▁severe	-6736
▁find▁the	-6737
ideo	-6738
▁Children	-6739
REE	-6740
lete	-6741
apore	-6742
orable	-6743
▁addition▁to	-6744
▁side▁of▁the	-6745
▁lift	-6746
▁deploy	-6747
▁finding	-6748
▁stated	-6749
▁that▁would	-6750
▁in▁D	-6751
▁use▁a	-6752
▁for▁free	-6753
▁to▁make▁sure	-6754
▁on▁it	-6755
▁sight	-6756
▁while▁the	-6757
Bl	-6758
▁Jose	-6759
▁beat	-6760
▁concert	-6761
▁me▁to	-6762
▁Secret	-6763
▁expans	-6764
▁it▁is▁a	-6765
▁and▁some	-6766
Get	-6767
▁Ber	-6768
First	-6769
▁slot	-6770
▁surprise	-6771
▁pm	-6772
▁Ver	-6773
▁circumstances	-6774
dden	-6775
▁orders	-6776
▁after▁a	-6777
▁Prote	-6778
▁defense	-6779
▁a▁couple▁of	-6780
ate▁a	-6781
ed▁her	-6782
▁entered	-6783
▁flag	-6784
▁instruct	-6785
▁normally	-6786
▁Da	-6787
mong	-6788
▁Before	-6789
▁planet	-6790
▁Wil	-6791
▁If▁you▁have	-6792
fall	-6793
owntown	-6794
!!!	-6795
▁the▁sm	-6796
▁for▁many	-6797
▁Rest	-6798
▁and▁un	-6799
▁domestic	-6800
▁situations	-6801
Press	-6802
▁brief	-6803
▁therapy	-6804
▁witness	-6805
▁assessment	-6806
▁teen	-6807
▁veter	-6808
olarship	-6809
▁default	-6810
▁settings	-6811
ether	-6812
▁of▁God	-6813
iminal	-6814
▁garage	-6815
▁transaction	-6816
eds	-6817
los	-6818
ifying	-6819
▁domin	-6820
▁in▁her	-6821
▁oven	-6822
▁Creat	-6823
▁resort	-6824
▁at▁your	-6825
▁contrast	-6826
▁with▁its	-6827
SP	-6828
▁advoc	-6829
▁closed	-6830
▁matters	-6831
▁conflict	-6832
stall	-6833
▁Royal	-6834
▁bonus	-6835
▁come▁to	-6836
▁sister	-6837
▁sudden	-6838
▁messages	-6839
▁remaining	-6840
▁working▁with	-6841
Most	-6842
▁prop	-6843
▁concrete	-6844
▁committee	-6845
▁confident	-6846
uine	-6847
▁rand	-6848
▁strategic	-6849
▁employment	-6850
▁ap	-6851
▁Lab	-6852
▁If▁the	-6853
▁in▁front	-6854
▁will▁help	-6855
ano	-6856
▁before▁you	-6857
▁Arts	-6858
▁wealth	-6859
▁reduced	-6860
▁reasonable	-6861
elf	-6862
oster	-6863
▁has▁an	-6864
▁here▁to	-6865
▁Qual	-6866
writ	-6867
▁tech	-6868
▁Party	-6869
bar	-6870
adow	-6871
kins	-6872
▁moist	-6873
▁apparent	-6874
▁Lu	-6875
berry	-6876
▁quote	-6877
▁raised	-6878
oral	-6879
▁Energy	-6880
▁One▁of▁the	-6881
▁consistent	-6882
onom	-6883
▁ring	-6884
▁compared▁to	-6885
▁Chair	-6886
▁Access	-6887
▁answers	-6888
▁offers▁a	-6889
▁wet	-6890
▁battle	-6891
▁increases	-6892
▁making▁it	-6893
▁healthcare	-6894
▁Full	-6895
▁of▁T	-6896
▁posts	-6897
▁yesterday	-6898
ize▁the	-6899
olit	-6900
I▁was	-6901
osoph	-6902
▁if▁we	-6903
▁will▁take	-6904
iche	-6905
▁Rev	-6906
▁dynamic	-6907
rick	-6908
plete	-6909
▁logo	-6910
red▁to	-6911
ondition	-6912
▁risk▁of	-6913
▁guidance	-6914
chang	-6915
▁elev	-6916
▁west	-6917
reland	-6918
▁notes	-6919
▁Another	-6920
ora	-6921
▁lend	-6922
▁alleg	-6923
EE	-6924
Che	-6925
ing▁my	-6926
▁need▁a	-6927
▁the▁power	-6928
▁Ul	-6929
Also	-6930
▁Administ	-6931
▁impossible	-6932
OC	-6933
s▁C	-6934
▁golf	-6935
mes	-6936
”▁(	-6937
quir	-6938
▁Step	-6939
▁to▁offer	-6940
▁sad	-6941
▁I▁thought	-6942
▁hero	-6943
▁none	-6944
▁steps	-6945
▁determin	-6946
lla	-6947
▁et▁al	-6948
▁undert	-6949
▁Buy	-6950
▁Bath	-6951
uration	-6952
▁lack▁of	-6953
▁disappoint	-6954
▁Ari	-6955
▁is▁so	-6956
▁pregn	-6957
icit	-6958
merce	-6959
▁Look	-6960
▁flowers	-6961
▁methods	-6962
▁accurate	-6963
▁password	-6964
utch	-6965
▁Week	-6966
▁Wi	-6967
▁I▁did	-6968
▁difficult▁to	-6969
▁design▁and	-6970
▁if▁you▁have	-6971
▁incorpor	-6972
▁random	-6973
▁fro	-6974
▁poker	-6975
▁freedom	-6976
▁thank▁you	-6977
▁Beaut	-6978
▁you▁a	-6979
▁integrated	-6980
nic	-6981
s▁it	-6982
▁Code	-6983
▁enjoyed	-6984
t▁have▁to	-6985
▁medicine	-6986
▁and▁E	-6987
▁feel▁like	-6988
▁Fre	-6989
▁lin	-6990
▁Ideas	-6991
▁spaces	-6992
▁destroy	-6993
▁looks▁like	-6994
ele	-6995
iors	-6996
▁forces	-6997
▁lead▁to	-6998
▁exposure	-6999
▁even▁though	-7000
▁in▁the▁first	-7001
ban	-7002
Res	-7003
itable	-7004
▁pursu	-7005
ed▁about	-7006
▁that▁you▁are	-7007
▁Jim	-7008
▁auto	-7009
▁Chris	-7010
▁capable	-7011
▁Webs	-7012
▁Wild	-7013
▁integ	-7014
▁luxury	-7015
▁dedicated▁to	-7016
va	-7017
bles	-7018
iences	-7019
▁as▁soon	-7020
▁Sometimes	-7021
gas	-7022
▁Dou	-7023
▁bear	-7024
▁proposal	-7025
▁interpret	-7026
▁You▁may	-7027
▁desired	-7028
▁Victor	-7029
▁designed	-7030
▁for▁you▁to	-7031
▁NE	-7032
▁Trust	-7033
▁dates	-7034
▁is▁it	-7035
▁becoming	-7036
under	-7037
▁View	-7038
▁dental	-7039
▁if▁your	-7040
ed▁at▁the	-7041
Us	-7042
s▁first	-7043
▁carbon	-7044
▁end▁up	-7045
▁agencies	-7046
▁last▁week	-7047
Ke	-7048
▁cute	-7049
▁Place	-7050
▁and▁see	-7051
ennis	-7052
▁Small	-7053
▁team▁of	-7054
▁hat	-7055
▁surrounding	-7056
IV	-7057
▁draft	-7058
▁stretch	-7059
▁records	-7060
▁experiment	-7061
▁Haw	-7062
▁atmosphere	-7063
s▁too	-7064
▁upcoming	-7065
▁architecture	-7066
▁kne	-7067
▁it▁can	-7068
▁serves	-7069
▁one▁of▁our	-7070
otton	-7071
▁Second	-7072
▁it▁is▁not	-7073
Well	-7074
▁Spring	-7075
▁unlike	-7076
ca	-7077
illiant	-7078
▁incident	-7079
ations▁are	-7080
oup	-7081
ographic	-7082
▁friends▁and	-7083
ML	-7084
wo	-7085
host	-7086
▁filter	-7087
▁Library	-7088
VD	-7089
edia	-7090
shire	-7091
▁committed▁to	-7092
▁mere	-7093
▁said▁that	-7094
▁Van	-7095
▁in▁K	-7096
▁MA	-7097
class	-7098
▁peak	-7099
▁all▁your	-7100
▁arrest	-7101
▁il	-7102
▁Note	-7103
▁guard	-7104
▁index	-7105
fa	-7106
▁Bur	-7107
▁delay	-7108
▁cooper	-7109
▁booking	-7110
▁going▁on	-7111
▁qualified	-7112
ed▁from▁the	-7113
▁in▁the▁future	-7114
▁grew	-7115
▁Bre	-7116
▁inch	-7117
▁tiny	-7118
▁both▁the	-7119
▁originally	-7120
yan	-7121
▁superior	-7122
Ar	-7123
GB	-7124
▁has▁the	-7125
▁allowing	-7126
▁years▁old	-7127
orb	-7128
▁the▁book	-7129
▁functions	-7130
site	-7131
▁Scot	-7132
▁empt	-7133
▁tried	-7134
▁effects	-7135
▁understanding	-7136
t▁even	-7137
▁memories	-7138
▁possibility	-7139
’,	-7140
Pre	-7141
ingu	-7142
▁spin	-7143
▁sides	-7144
▁solve	-7145
▁motion	-7146
▁proven	-7147
▁symbol	-7148
▁attorney	-7149
▁the▁full	-7150
▁MS	-7151
▁tall	-7152
▁honor	-7153
▁hearing	-7154
▁that▁can▁be	-7155
vy	-7156
s▁why	-7157
▁and▁K	-7158
ress▁and	-7159
▁wish▁to	-7160
▁as▁well▁as▁the	-7161
then	-7162
▁complain	-7163
▁identity	-7164
▁OS	-7165
▁no▁one	-7166
▁principles	-7167
BI	-7168
ouch	-7169
▁tack	-7170
▁whenever	-7171
iti	-7172
ugh	-7173
olved	-7174
▁Mont	-7175
▁thin	-7176
▁blank	-7177
ated▁in	-7178
s▁so	-7179
▁Key	-7180
astern	-7181
▁or▁two	-7182
▁to▁his	-7183
▁We▁also	-7184
▁compare	-7185
ipl	-7186
ogue	-7187
▁vul	-7188
▁flavor	-7189
▁has▁not	-7190
TC	-7191
alle	-7192
anche	-7193
▁sizes	-7194
▁tickets	-7195
▁Phys	-7196
▁incl	-7197
▁formal	-7198
▁Tru	-7199
▁fif	-7200
▁Mo	-7201
celer	-7202
▁of▁E	-7203
▁I▁found	-7204
▁Kitchen	-7205
▁decades	-7206
▁I▁really	-7207
esides	-7208
▁Account	-7209
▁Bed	-7210
rates	-7211
▁rein	-7212
▁arrive	-7213
▁ordered	-7214
▁contribute	-7215
roph	-7216
▁Pub	-7217
ers▁who	-7218
ads	-7219
▁array	-7220
▁vacation	-7221
▁tap	-7222
level	-7223
▁seal	-7224
▁Coast	-7225
▁storm	-7226
▁accomp	-7227
▁presentation	-7228
▁Game	-7229
▁couple	-7230
poration	-7231
▁funding	-7232
▁Vill	-7233
pection	-7234
▁It▁also	-7235
▁attached	-7236
▁permanent	-7237
lands	-7238
▁that▁have	-7239
▁Next	-7240
▁wash	-7241
▁Print	-7242
▁lighting	-7243
▁extension	-7244
▁in▁the▁past	-7245
▁outstanding	-7246
▁recommended	-7247
▁Author	-7248
▁until▁the	-7249
▁Congress	-7250
ava	-7251
date	-7252
lets	-7253
riger	-7254
▁graduate	-7255
▁immediate	-7256
▁the▁bl	-7257
▁pun	-7258
▁assets	-7259
▁exceed	-7260
▁close▁to	-7261
▁and▁enjoy	-7262
▁Hope	-7263
amental	-7264
▁allows▁you▁to	-7265
▁as▁to	-7266
▁basket	-7267
▁extract	-7268
▁festival	-7269
▁mic	-7270
▁Angeles	-7271
▁constant	-7272
As▁a	-7273
eder	-7274
▁scan	-7275
▁narrow	-7276
▁teachers	-7277
sell	-7278
ed▁of	-7279
eline	-7280
▁flood	-7281
▁a▁list	-7282
▁weekly	-7283
▁Manager	-7284
▁correspond	-7285
ala	-7286
▁Dev	-7287
▁ang	-7288
▁Louis	-7289
▁it▁out	-7290
▁do▁this	-7291
▁Virginia	-7292
▁is▁being	-7293
▁comparison	-7294
▁because▁of▁the	-7295
▁cake	-7296
▁types	-7297
ulations	-7298
build	-7299
▁girls	-7300
▁definition	-7301
▁Ep	-7302
▁SP	-7303
▁stake	-7304
▁widely	-7305
▁back▁in	-7306
▁mechanism	-7307
uls	-7308
▁may▁not▁be	-7309
▁capabilities	-7310
born	-7311
▁rice	-7312
▁combined	-7313
cut	-7314
▁suc	-7315
▁the▁car	-7316
mary	-7317
ospit	-7318
ecutive	-7319
▁chapter	-7320
▁happened	-7321
▁into▁your	-7322
▁years▁and	-7323
▁combination▁of	-7324
▁proof	-7325
▁critic	-7326
▁operate	-7327
▁prove	-7328
▁along▁the	-7329
es▁on	-7330
▁Prem	-7331
▁leaving	-7332
▁negoti	-7333
▁passeng	-7334
▁a▁number▁of	-7335
abet	-7336
▁Log	-7337
▁overw	-7338
FC	-7339
▁heav	-7340
▁as▁long	-7341
▁finance	-7342
▁levels▁of	-7343
▁distribution	-7344
bi	-7345
long	-7346
ed▁my	-7347
▁has▁also	-7348
▁accessible	-7349
▁rose	-7350
▁Chief	-7351
▁Pass	-7352
▁anticip	-7353
▁enables	-7354
▁possess	-7355
▁citizens	-7356
lessly	-7357
▁views	-7358
▁ultimate	-7359
▁template	-7360
▁identified	-7361
inds	-7362
s▁more	-7363
▁terms	-7364
▁pocket	-7365
."
"	-7366
▁Cir	-7367
▁Americans	-7368
▁Instagram	-7369
▁continued	-7370
▁photography	-7371
luding	-7372
▁gallery	-7373
▁charm	-7374
▁the▁H	-7375
▁to▁us	-7376
▁column	-7377
▁offices	-7378
▁electrical	-7379
▁Professional	-7380
▁flower	-7381
▁USB	-7382
▁chief	-7383
▁trave	-7384
▁made▁a	-7385
▁ultimately	-7386
▁chose	-7387
▁engag	-7388
illy	-7389
▁Arab	-7390
loor	-7391
▁concl	-7392
▁Society	-7393
▁mortgage	-7394
tle	-7395
onto	-7396
urse	-7397
os▁Angeles	-7398
pack	-7399
▁or▁to	-7400
ations▁of	-7401
▁concerns	-7402
Fi	-7403
ugin	-7404
entle	-7405
▁episode	-7406
▁religious	-7407
▁accomplish	-7408
ulum	-7409
▁Den	-7410
▁LED	-7411
▁mes	-7412
▁as▁many	-7413
▁ongoing	-7414
▁flexible	-7415
stal	-7416
▁achie	-7417
▁stores	-7418
▁reduction	-7419
▁consumption	-7420
▁believe▁that	-7421
▁collaboration	-7422
▁SEO	-7423
Last	-7424
▁recy	-7425
I▁love	-7426
▁relief	-7427
▁Support	-7428
▁counsel	-7429
▁describe	-7430
▁colle	-7431
▁Ireland	-7432
▁offer▁a	-7433
cks	-7434
▁and▁one	-7435
▁charges	-7436
▁designer	-7437
▁eligible	-7438
▁differences	-7439
▁are▁available	-7440
▁sac	-7441
Click	-7442
▁Store	-7443
▁judge	-7444
▁refund	-7445
▁approval	-7446
▁crucial	-7447
▁Inte	-7448
▁Zeal	-7449
▁Of▁course	-7450
▁the▁bottom	-7451
▁as▁a▁result	-7452
flow	-7453
▁violence	-7454
ta	-7455
icket	-7456
quality	-7457
▁no▁matter	-7458
RS	-7459
▁hidden	-7460
▁and▁now	-7461
▁I▁want▁to	-7462
▁creating▁a	-7463
▁investigation	-7464
▁cells	-7465
▁Carolina	-7466
hew	-7467
ership	-7468
ushing	-7469
▁Digital	-7470
▁made▁it	-7471
▁alongside	-7472
▁members▁of▁the	-7473
gypt	-7474
ranch	-7475
▁funds	-7476
▁compat	-7477
▁genuine	-7478
▁talk▁about	-7479
▁You▁can▁also	-7480
Oh	-7481
inem	-7482
▁cod	-7483
▁enem	-7484
▁in▁T	-7485
▁degrees	-7486
▁but▁that	-7487
▁exceptional	-7488
▁in▁place	-7489
▁magazine	-7490
▁nutrition	-7491
PC	-7492
oured	-7493
▁rais	-7494
▁The▁S	-7495
▁align	-7496
▁breast	-7497
▁carpet	-7498
▁approved	-7499
▁somewhere	-7500
▁to▁support	-7501
▁expectations	-7502
▁Joe	-7503
proof	-7504
▁Charl	-7505
pat	-7506
▁hook	-7507
▁are▁you	-7508
▁remains	-7509
▁dangerous	-7510
▁you▁have▁to	-7511
▁vulner	-7512
▁this▁one	-7513
▁provides▁a	-7514
▁credit▁card	-7515
▁information▁on	-7516
hap	-7517
▁Ok	-7518
▁king	-7519
rivate	-7520
▁rating	-7521
▁criminal	-7522
▁combination	-7523
▁Very	-7524
▁muscle	-7525
▁having▁to	-7526
▁tips	-7527
▁missing	-7528
▁sustainable	-7529
▁transportation	-7530
▁anx	-7531
inally	-7532
▁to▁it	-7533
▁Comput	-7534
▁tiss	-7535
▁compr	-7536
▁minut	-7537
▁Richard	-7538
▁allowed	-7539
CD	-7540
▁dogs	-7541
▁worst	-7542
▁Spanish	-7543
s▁of▁your	-7544
▁meetings	-7545
▁portfolio	-7546
▁cabinet	-7547
▁awareness	-7548
▁restaurants	-7549
▁Loc	-7550
cover	-7551
▁clar	-7552
▁in▁N	-7553
▁the▁R	-7554
▁lesson	-7555
▁stamp	-7556
▁crisis	-7557
▁lights	-7558
▁contribution	-7559
▁will▁be▁able▁to	-7560
!)	-7561
RC	-7562
▁runs	-7563
▁the▁N	-7564
▁investors	-7565
▁enterprise	-7566
s▁B	-7567
oking	-7568
▁debut	-7569
friendly	-7570
▁Further	-7571
s▁in▁your	-7572
▁seems▁to	-7573
rans	-7574
ifies	-7575
▁mone	-7576
▁resistance	-7577
▁relationships	-7578
real	-7579
ulty	-7580
▁Cur	-7581
▁tub	-7582
▁leav	-7583
ogether	-7584
▁increasingly	-7585
▁introduction	-7586
mend	-7587
▁privacy	-7588
▁instructions	-7589
rich	-7590
ancer	-7591
▁so▁we	-7592
▁wooden	-7593
▁diagram	-7594
▁to▁play	-7595
▁measures	-7596
,▁(	-7597
▁Kn	-7598
▁rig	-7599
cling	-7600
s▁acc	-7601
▁Georg	-7602
▁smile	-7603
ventional	-7604
th▁century	-7605
Qu	-7606
More	-7607
▁LLC	-7608
rowse	-7609
▁Fair	-7610
▁boot	-7611
▁fitt	-7612
▁trim	-7613
▁us▁a	-7614
lisher	-7615
ayer	-7616
▁bigger	-7617
▁houses	-7618
▁id	-7619
rier	-7620
ologist	-7621
▁Zealand	-7622
▁subsequ	-7623
▁the▁sur	-7624
▁make▁your	-7625
▁High▁School	-7626
df	-7627
▁Id	-7628
▁hyp	-7629
▁shoes	-7630
▁Assist	-7631
▁Little	-7632
edly	-7633
▁Opt	-7634
▁jew	-7635
▁minimal	-7636
▁vegetables	-7637
▁Times	-7638
▁seeing	-7639
▁Website	-7640
▁is▁more	-7641
▁to▁come	-7642
▁are▁also	-7643
▁certified	-7644
?”	-7645
agon	-7646
▁Smart	-7647
▁a▁day	-7648
▁mixture	-7649
▁primarily	-7650
▁quality▁of	-7651
▁preserv	-7652
▁Hospital	-7653
▁in▁the▁same	-7654
▁je	-7655
▁Win	-7656
unior	-7657
▁Italy	-7658
▁Learn	-7659
▁rural	-7660
▁transp	-7661
▁how▁many	-7662
iat	-7663
pel	-7664
▁Mid	-7665
▁hung	-7666
▁hurt	-7667
▁is▁your	-7668
▁attractive	-7669
▁Live	-7670
▁Enjoy	-7671
▁songs	-7672
▁need▁for	-7673
▁that▁she	-7674
comes	-7675
▁naturally	-7676
▁Cy	-7677
▁coat	-7678
ellect	-7679
osm	-7680
that	-7681
▁Ford	-7682
▁lapt	-7683
▁Middle	-7684
▁whilst	-7685
ages▁and	-7686
▁Students	-7687
▁where▁you	-7688
ii	-7689
▁a▁p	-7690
▁Cost	-7691
▁Know	-7692
▁magic	-7693
▁fourth	-7694
▁liquid	-7695
▁Guide	-7696
▁roles	-7697
▁scheme	-7698
ed▁their	-7699
▁ancient	-7700
▁compliance	-7701
▁focused▁on	-7702
▁percentage	-7703
▁regardless	-7704
Sc	-7705
ules	-7706
▁We▁can	-7707
▁to▁make▁a	-7708
MP	-7709
worth	-7710
▁Jeff	-7711
▁deal▁with	-7712
▁incredibly	-7713
ulpt	-7714
▁Martin	-7715
▁payments	-7716
BD	-7717
▁urg	-7718
▁Penn	-7719
Although	-7720
▁introduced	-7721
▁and▁support	-7722
▁the▁perfect	-7723
Or	-7724
ishes	-7725
▁Cath	-7726
▁prison	-7727
▁provide▁you	-7728
Ph	-7729
▁sew	-7730
▁adults	-7731
▁female	-7732
▁and▁she	-7733
▁was▁born	-7734
▁features▁a	-7735
▁san	-7736
▁plays	-7737
ivities	-7738
▁generate	-7739
gor	-7740
▁Av	-7741
Over	-7742
▁Disc	-7743
▁part▁of▁a	-7744
iano	-7745
▁CEO	-7746
▁Cup	-7747
▁FOR	-7748
▁Conf	-7749
▁fasc	-7750
▁because▁I	-7751
▁this▁is▁a	-7752
▁There▁is▁a	-7753
▁inspiration	-7754
▁mel	-7755
▁smell	-7756
▁find▁it	-7757
▁categories	-7758
ced▁to	-7759
▁guitar	-7760
▁the▁fin	-7761
GE	-7762
▁Men	-7763
We▁have	-7764
▁use▁it	-7765
▁increas	-7766
▁it▁would	-7767
▁where▁he	-7768
▁behind▁the	-7769
▁resume	-7770
s▁of▁this	-7771
CO	-7772
Te	-7773
bel	-7774
zer	-7775
uses	-7776
AA	-7777
▁CO	-7778
▁km	-7779
Tube	-7780
▁Applic	-7781
▁younger	-7782
▁raw	-7783
iking	-7784
▁athlet	-7785
▁insert	-7786
▁prior▁to	-7787
▁accessories	-7788
▁extent	-7789
▁fitness	-7790
▁Financial	-7791
ours	-7792
▁twe	-7793
▁Brand	-7794
▁resid	-7795
▁my▁own	-7796
▁overwhel	-7797
▁basically	-7798
uct	-7799
▁recognize	-7800
▁Search	-7801
▁museum	-7802
▁careful	-7803
▁the▁more	-7804
▁health▁and	-7805
HS	-7806
ali	-7807
▁SU	-7808
▁Right	-7809
▁industries	-7810
▁Ap	-7811
▁Sn	-7812
▁layout	-7813
novation	-7814
▁down▁to	-7815
ansas	-7816
lying	-7817
iverse	-7818
▁is▁one	-7819
Ind	-7820
Tra	-7821
▁deposit	-7822
▁zone	-7823
One▁of▁the	-7824
▁entry▁was▁post	-7825
DP	-7826
EA	-7827
ers▁can	-7828
▁MP	-7829
▁aside	-7830
▁entit	-7831
▁Proper	-7832
▁you▁must	-7833
▁attach	-7834
▁fairly	-7835
▁gorgeous	-7836
s▁together	-7837
▁the▁whole	-7838
▁grass	-7839
▁sufficient	-7840
zil	-7841
s▁ar	-7842
▁flash	-7843
▁Garden	-7844
▁enforce	-7845
▁from▁this	-7846
▁seriously	-7847
▁photographer	-7848
▁satisfaction	-7849
bury	-7850
▁Try	-7851
▁dispos	-7852
▁texture	-7853
▁involves	-7854
▁in▁touch	-7855
▁realized	-7856
ura	-7857
▁Shop	-7858
▁Term	-7859
▁Point	-7860
▁merch	-7861
▁sitting	-7862
▁stim	-7863
▁analyt	-7864
▁of▁K	-7865
▁receiving	-7866
▁New▁Zealand	-7867
▁mile	-7868
▁synt	-7869
▁fixed	-7870
▁showing	-7871
▁people▁to	-7872
ican	-7873
s▁new	-7874
▁sick	-7875
▁theory	-7876
▁graphic	-7877
▁means▁that	-7878
oir	-7879
cend	-7880
▁the▁bu	-7881
▁understand▁the	-7882
Per	-7883
aken	-7884
▁dollars	-7885
▁recruit	-7886
alse	-7887
▁east	-7888
▁setup	-7889
▁bodies	-7890
Then	-7891
▁giv	-7892
s▁your	-7893
▁Airport	-7894
▁and▁it▁is	-7895
▁because▁of	-7896
▁Hy	-7897
▁Saf	-7898
print	-7899
▁About	-7900
▁stored	-7901
▁equival	-7902
oam	-7903
▁Pin	-7904
▁indeed	-7905
aze	-7906
inity	-7907
▁health▁care	-7908
HA	-7909
wall	-7910
▁Hen	-7911
ument	-7912
▁Expl	-7913
▁calls	-7914
iversary	-7915
▁and▁let	-7916
Pe	-7917
Today	-7918
▁spark	-7919
▁venue	-7920
ications	-7921
ione	-7922
▁Oil	-7923
▁Tri	-7924
▁vibr	-7925
▁institutions	-7926
Hi	-7927
otal	-7928
▁pipe	-7929
▁interact	-7930
▁the▁site	-7931
gent	-7932
▁looking▁to	-7933
▁Oak	-7934
▁frust	-7935
▁believes	-7936
cular	-7937
▁tear	-7938
▁divid	-7939
▁breath	-7940
▁out▁to	-7941
▁scored	-7942
▁visible	-7943
▁point▁of	-7944
▁convenience	-7945
▁think▁about	-7946
iki	-7947
▁Boy	-7948
▁Mur	-7949
▁Spirit	-7950
▁at▁our	-7951
▁Executive	-7952
▁development▁of	-7953
▁Link	-7954
▁involved▁in	-7955
▁necessarily	-7956
▁Watch	-7957
▁inner	-7958
▁viagra	-7959
▁reaction	-7960
▁philosoph	-7961
▁cro	-7962
▁vintage	-7963
▁challenging	-7964
▁possible▁to	-7965
lymp	-7966
▁Ohio	-7967
ant▁to	-7968
▁stars	-7969
▁Econom	-7970
▁Travel	-7971
▁margin	-7972
▁expenses	-7973
cm	-7974
▁Sea	-7975
▁Sky	-7976
▁Does	-7977
▁version▁of	-7978
stead	-7979
orders	-7980
▁champ	-7981
▁https	-7982
▁illness	-7983
▁injuries	-7984
iser	-7985
ing▁his	-7986
▁decade	-7987
▁efforts	-7988
▁which▁has	-7989
▁ocean	-7990
▁Columb	-7991
▁recognized	-7992
GA	-7993
quis	-7994
▁noise	-7995
▁nuclear	-7996
▁and▁most	-7997
Even	-7998
▁mand	-7999
▁susp	-8000
▁and▁A	-8001
▁split	-8002
▁behalf	-8003
▁causes	-8004
▁and▁over	-8005
▁attribut	-8006
▁stainless	-8007
▁the▁final	-8008
▁Bi	-8009
▁Hard	-8010
reement	-8011
▁browser	-8012
▁vert	-8013
▁is▁about	-8014
▁celebrate	-8015
▁institution	-8016
▁the▁L	-8017
Im	-8018
▁pod	-8019
▁scr	-8020
acular	-8021
▁strip	-8022
▁league	-8023
ipt	-8024
▁Ash	-8025
▁of▁G	-8026
▁exterior	-8027
▁framework	-8028
▁from▁their	-8029
▁is▁currently	-8030
haust	-8031
▁spoke	-8032
▁enroll	-8033
▁love▁to	-8034
vas	-8035
ogen	-8036
▁Area	-8037
▁Help	-8038
▁neut	-8039
▁beneficial	-8040
▁brush	-8041
▁he▁had	-8042
▁mining	-8043
▁underst	-8044
▁what▁it	-8045
▁Insurance	-8046
▁supplement	-8047
ao	-8048
gun	-8049
pons	-8050
▁ped	-8051
essel	-8052
▁dust	-8053
▁I▁get	-8054
ed▁away	-8055
t▁really	-8056
▁actions	-8057
▁communicate	-8058
▁Iran	-8059
▁Environment	-8060
▁ur	-8061
▁Max	-8062
▁inn	-8063
▁paying	-8064
oard	-8065
▁Sar	-8066
▁on▁to	-8067
▁the▁benef	-8068
teen	-8069
▁Pot	-8070
▁bab	-8071
▁Fort	-8072
▁navig	-8073
▁screw	-8074
▁Mexico	-8075
▁sounds	-8076
▁from▁all	-8077
▁filled▁with	-8078
elry	-8079
▁gym	-8080
▁Coll	-8081
▁you▁would	-8082
▁in▁terms▁of	-8083
ati	-8084
▁hole	-8085
▁the▁one	-8086
▁drinking	-8087
▁will▁not▁be	-8088
▁without▁the	-8089
▁Ut	-8090
▁Mult	-8091
▁alert	-8092
▁Disney	-8093
▁Mobile	-8094
s▁are▁not	-8095
atell	-8096
stream	-8097
▁slowly	-8098
▁forever	-8099
▁in▁fact	-8100
lder	-8101
aniel	-8102
▁Site	-8103
▁Price	-8104
▁Which	-8105
▁Uk	-8106
inch	-8107
▁shirt	-8108
▁work▁and	-8109
elly	-8110
iances	-8111
ed▁over	-8112
▁terror	-8113
▁Federal	-8114
▁examples	-8115
▁managed▁to	-8116
▁electricity	-8117
▁including▁a	-8118
!!!
	-8119
▁wave	-8120
▁Country	-8121
▁prospect	-8122
▁warranty	-8123
May	-8124
▁up▁a	-8125
▁driven	-8126
▁elegant	-8127
▁With▁the	-8128
▁coloring	-8129
Dr	-8130
Of	-8131
arry	-8132
▁everyth	-8133
▁protest	-8134
▁Francisco	-8135
izza	-8136
arger	-8137
fford	-8138
▁shipp	-8139
▁Forest	-8140
▁recover	-8141
▁marriage	-8142
▁These▁are	-8143
ording▁to▁the	-8144
Have	-8145
▁hack	-8146
employ	-8147
▁strict	-8148
▁upgrade	-8149
law	-8150
lyn	-8151
▁Es	-8152
▁yield	-8153
▁Pacific	-8154
▁YouTube	-8155
▁combine	-8156
▁wireless	-8157
afe	-8158
▁Human	-8159
ractice	-8160
▁Jersey	-8161
▁justice	-8162
er▁of▁the	-8163
▁proposed	-8164
▁brilliant	-8165
xic	-8166
rible	-8167
▁Obama	-8168
▁empty	-8169
duate	-8170
▁abuse	-8171
▁stuck	-8172
▁signature	-8173
▁approach▁to	-8174
▁Box	-8175
▁err	-8176
▁Young	-8177
▁funny	-8178
ated▁and	-8179
▁of▁each	-8180
▁volunteer	-8181
▁CH	-8182
▁ham	-8183
▁FREE	-8184
▁at▁an	-8185
▁pride	-8186
▁be▁a	-8187
ers▁for	-8188
▁reform	-8189
▁commonly	-8190
▁Isl	-8191
▁Ariz	-8192
▁Thus	-8193
igure	-8194
▁beer	-8195
▁illeg	-8196
▁inches	-8197
▁guidelines	-8198
▁talking▁about	-8199
▁lect	-8200
▁cookies	-8201
▁For▁more	-8202
▁CP	-8203
▁Mov	-8204
▁led	-8205
▁preferred	-8206
▁it▁would▁be	-8207
live	-8208
▁pink	-8209
▁with▁any	-8210
▁revolution	-8211
▁zero	-8212
▁brands	-8213
▁we▁had	-8214
▁victory	-8215
hors	-8216
▁the▁T	-8217
▁wanted	-8218
▁time▁of	-8219
▁recognition	-8220
onym	-8221
▁Mat	-8222
▁anyway	-8223
▁recall	-8224
When▁you	-8225
▁Johnson	-8226
asic	-8227
odge	-8228
▁clip	-8229
icture	-8230
▁twenty	-8231
▁out▁and	-8232
▁not▁just	-8233
▁packages	-8234
▁refriger	-8235
▁the▁entire	-8236
▁<	-8237
low	-8238
▁Cast	-8239
▁withd	-8240
▁conclud	-8241
▁topics	-8242
▁is▁only	-8243
▁workout	-8244
▁Software	-8245
▁per▁cent	-8246
▁occasion	-8247
LS	-8248
▁Bob	-8249
▁fib	-8250
▁Stat	-8251
▁which▁is▁a	-8252
▁on▁Saturday	-8253
▁Page	-8254
▁watching	-8255
ed▁that▁the	-8256
▁contractor	-8257
Ab	-8258
unn	-8259
▁Cre	-8260
▁plug	-8261
▁territ	-8262
▁estimated	-8263
▁will▁be▁a	-8264
bed	-8265
It▁was	-8266
▁and▁J	-8267
▁correctly	-8268
▁soph	-8269
ensity	-8270
▁Should	-8271
▁Andrew	-8272
ings▁are	-8273
▁forms	-8274
▁plugin	-8275
urrently	-8276
▁division	-8277
xual	-8278
▁runn	-8279
▁it▁can▁be	-8280
Int	-8281
ere	-8282
▁narr	-8283
liament	-8284
▁Living	-8285
▁Silver	-8286
▁Connect	-8287
▁Welcome	-8288
▁instant	-8289
▁provision	-8290
▁is▁the▁most	-8291
▁idea▁of	-8292
s▁against	-8293
▁expression	-8294
DS	-8295
htt	-8296
▁Die	-8297
▁it▁a	-8298
▁from▁my	-8299
▁to▁share	-8300
asm	-8301
inent	-8302
▁Army	-8303
▁mold	-8304
s▁to▁a	-8305
▁penal	-8306
▁the▁G	-8307
akistan	-8308
▁during▁a	-8309
oom	-8310
agues	-8311
▁in▁order	-8312
▁WordPress	-8313
▁literally	-8314
▁potentially	-8315
oof	-8316
t▁wait	-8317
▁giant	-8318
▁turning	-8319
▁sin	-8320
▁to▁any	-8321
▁diamond	-8322
▁the▁pot	-8323
▁Heart	-8324
▁age▁of	-8325
This▁is▁a	-8326
▁somewhat	-8327
iour	-8328
▁Ent	-8329
ureau	-8330
page	-8331
▁cond	-8332
▁sets	-8333
▁Night	-8334
▁utility	-8335
cons	-8336
▁agric	-8337
ocratic	-8338
▁flour	-8339
▁in▁and	-8340
▁in▁many	-8341
EST	-8342
cies	-8343
▁rug	-8344
▁dozen	-8345
▁Process	-8346
▁making▁a	-8347
▁attempt▁to	-8348
raid	-8349
▁ram	-8350
▁Turn	-8351
▁Olymp	-8352
▁goods	-8353
holders	-8354
▁History	-8355
▁everywhere	-8356
▁the▁person	-8357
▁Son	-8358
▁bell	-8359
▁cloth	-8360
▁sharp	-8361
▁Police	-8362
▁the▁course	-8363
▁the▁system	-8364
▁Did	-8365
press	-8366
▁family▁and	-8367
▁in▁the▁middle	-8368
▁Ref	-8369
▁him▁to	-8370
▁mirror	-8371
▁moments	-8372
▁access▁to▁the	-8373
ups	-8374
itution	-8375
▁It▁has	-8376
▁outcome	-8377
bow	-8378
▁Mos	-8379
ic▁and	-8380
▁likes	-8381
isation	-8382
▁alumin	-8383
t▁forget	-8384
▁know▁what	-8385
▁HP	-8386
▁Fact	-8387
▁Steve	-8388
▁Jewish	-8389
▁Section	-8390
▁in▁these	-8391
▁ingredient	-8392
aked	-8393
amber	-8394
▁calendar	-8395
▁living▁room	-8396
▁you▁can▁see	-8397
▁SS	-8398
▁entrance	-8399
▁is▁not▁a	-8400
▁the▁business	-8401
izz	-8402
▁?
	-8403
unicip	-8404
▁moder	-8405
▁ratio	-8406
▁largely	-8407
▁with▁me	-8408
▁aren	-8409
▁Decor	-8410
▁in▁it	-8411
bration	-8412
formance	-8413
inos	-8414
▁Hor	-8415
▁permission	-8416
er▁for	-8417
▁snack	-8418
▁hospit	-8419
▁to▁pay	-8420
▁said▁the	-8421
▁importance	-8422
▁inspection	-8423
▁to▁be▁able▁to	-8424
▁factory	-8425
▁extended	-8426
raq	-8427
▁Stone	-8428
▁tooth	-8429
▁capable▁of	-8430
nce	-8431
▁crime	-8432
ating▁a	-8433
▁Though	-8434
▁installed	-8435
▁use▁of▁the	-8436
▁to▁help▁you	-8437
LY	-8438
▁Tit	-8439
▁alt	-8440
I▁don	-8441
tocol	-8442
ollywood	-8443
▁things▁to	-8444
iana	-8445
▁mur	-8446
▁to▁her	-8447
▁from▁an	-8448
▁the▁top	-8449
▁very▁much	-8450
Rem	-8451
▁in▁R	-8452
▁usage	-8453
▁was▁to	-8454
▁following▁the	-8455
bro	-8456
▁adm	-8457
▁Egypt	-8458
▁Academy	-8459
▁the▁future	-8460
▁ru	-8461
avor	-8462
leep	-8463
etary	-8464
▁seam	-8465
▁greatly	-8466
▁on▁that	-8467
▁used▁by	-8468
▁priority	-8469
▁very▁best	-8470
▁creativity	-8471
Each	-8472
▁wra	-8473
▁drag	-8474
▁rust	-8475
▁an▁hour	-8476
Man	-8477
▁Such	-8478
▁Video	-8479
▁keeps	-8480
▁where▁we	-8481
Whe	-8482
igent	-8483
quest	-8484
▁Ball	-8485
▁in▁G	-8486
▁Bell	-8487
▁Limited	-8488
▁letters	-8489
▁struggle	-8490
AB	-8491
▁Lee	-8492
▁Yet	-8493
▁till	-8494
▁county	-8495
▁clothes	-8496
▁candidate	-8497
Next	-8498
▁hur	-8499
▁suffer	-8500
▁for▁every	-8501
bell	-8502
asting	-8503
gorith	-8504
▁importance▁of	-8505
▁kil	-8506
ive▁and	-8507
▁chances	-8508
▁went▁to	-8509
s▁in▁this	-8510
ed▁in▁this	-8511
s▁from▁the	-8512
▁could▁not	-8513
▁the▁public	-8514
▁regulations	-8515
▁certification	-8516
foot	-8517
iders	-8518
ardens	-8519
▁Machine	-8520
▁ceremon	-8521
▁Ham	-8522
ading	-8523
▁hydro	-8524
▁joined	-8525
▁termin	-8526
▁was▁also	-8527
▁which▁can	-8528
▁looking▁at	-8529
▁nerv	-8530
▁Queen	-8531
▁Ocean	-8532
▁sculpt	-8533
▁circuit	-8534
▁promise	-8535
▁that▁it▁is	-8536
▁suffe	-8537
▁Do▁you	-8538
▁legend	-8539
▁supporting	-8540
▁PS	-8541
▁Ken	-8542
making	-8543
▁closer	-8544
ates▁the	-8545
▁organisation	-8546
.;	-8547
▁Est	-8548
▁Fun	-8549
▁Lin	-8550
▁phr	-8551
asure	-8552
▁Girl	-8553
▁married	-8554
▁Ram	-8555
▁agents	-8556
▁a▁week	-8557
▁intent	-8558
▁DC	-8559
Read	-8560
aine	-8561
iger	-8562
asters	-8563
▁laptop	-8564
▁Charles	-8565
▁retirement	-8566
▁Ess	-8567
▁phen	-8568
▁unex	-8569
ifully	-8570
▁Asian	-8571
▁passed	-8572
▁Additionally	-8573
The▁first	-8574
iled	-8575
▁hill	-8576
▁pace	-8577
▁Vegas	-8578
▁when▁a	-8579
▁refresh	-8580
▁time▁for	-8581
▁I▁have▁been	-8582
▁where▁you▁can	-8583
ateful	-8584
▁papers	-8585
▁was▁an	-8586
▁Personal	-8587
▁subject▁to	-8588
Bu	-8589
Go	-8590
▁Dan	-8591
▁or▁in	-8592
▁to▁look	-8593
▁about▁how	-8594
oli	-8595
Where	-8596
▁lets	-8597
▁tablet	-8598
▁standing	-8599
▁the▁front	-8600
▁interactive	-8601
Note	-8602
holder	-8603
▁Boston	-8604
▁Colorado	-8605
’.	-8606
sis	-8607
ppers	-8608
▁poet	-8609
▁Cross	-8610
▁to▁its	-8611
▁to▁show	-8612
uis	-8613
▁Non	-8614
ics▁and	-8615
▁Toronto	-8616
▁has▁been▁a	-8617
▁adequ	-8618
▁foods	-8619
▁exhaust	-8620
ed▁within	-8621
ja	-8622
emark	-8623
▁deeper	-8624
▁stages	-8625
▁with▁that	-8626
▁literature	-8627
▁are▁a	-8628
▁plans▁to	-8629
▁without▁a	-8630
▁your▁child	-8631
▁communications	-8632
umes	-8633
s▁inv	-8634
▁Record	-8635
▁There▁is	-8636
▁Williams	-8637
▁like▁that	-8638
▁functional	-8639
och	-8640
▁era	-8641
▁por	-8642
▁crazy	-8643
▁but▁he	-8644
▁visiting	-8645
▁innovation	-8646
VER	-8647
kers	-8648
▁McC	-8649
Great	-8650
▁Mike	-8651
▁of▁A	-8652
▁bridge	-8653
▁escape	-8654
re▁going▁to	-8655
▁CR	-8656
▁apps	-8657
▁assume	-8658
▁complim	-8659
▁fulfill	-8660
▁downtown	-8661
ATION	-8662
▁cann	-8663
▁laws	-8664
ruption	-8665
▁and▁make	-8666
▁This▁will	-8667
▁the▁school	-8668
▁intelligence	-8669
TER	-8670
burgh	-8671
▁ages	-8672
▁Steel	-8673
▁string	-8674
▁herself	-8675
▁in▁the▁U	-8676
▁treatments	-8677
▁available▁for	-8678
okes	-8679
▁spray	-8680
▁and▁on	-8681
▁officer	-8682
▁stopped	-8683
ums	-8684
coin	-8685
▁tor	-8686
ensus	-8687
▁twist	-8688
▁humans	-8689
▁That▁is	-8690
▁pick▁up	-8691
ellectual	-8692
▁opposite	-8693
sue	-8694
****	-8695
▁Ros	-8696
▁Four	-8697
▁Spain	-8698
▁langu	-8699
▁argument	-8700
▁estimate	-8701
▁suffering	-8702
▁equivalent	-8703
)▁-	-8704
Mar	-8705
▁bull	-8706
▁sink	-8707
una	-8708
▁bare	-8709
▁chip	-8710
▁male	-8711
riculum	-8712
urniture	-8713
▁Jackson	-8714
ilet	-8715
▁recipes	-8716
▁According▁to	-8717
iac	-8718
▁Mic	-8719
▁anymore	-8720
▁swimming	-8721
▁which▁means	-8722
▁mm	-8723
▁Tax	-8724
atoes	-8725
▁orange	-8726
▁she▁is	-8727
▁starts	-8728
▁sensitive	-8729
AY	-8730
▁cock	-8731
▁of▁The	-8732
▁vessel	-8733
▁in▁case	-8734
ing▁to▁do	-8735
▁subscrib	-8736
MC	-8737
izer	-8738
tail	-8739
▁He▁is	-8740
▁I▁have▁a	-8741
▁introduce	-8742
▁obviously	-8743
▁very▁well	-8744
▁tournament	-8745
Book	-8746
▁Low	-8747
or▁and	-8748
▁Bible	-8749
▁Order	-8750
▁blind	-8751
▁Student	-8752
▁liability	-8753
▁applicable	-8754
▁found▁that	-8755
▁the▁second	-8756
olt	-8757
icious	-8758
▁she▁said	-8759
▁sky	-8760
▁reader	-8761
▁his▁own	-8762
ing▁for▁a	-8763
▁experience▁in	-8764
inois	-8765
ylvan	-8766
▁Three	-8767
▁you▁do	-8768
ate▁your	-8769
stract	-8770
▁Force	-8771
▁Quest	-8772
▁Follow	-8773
▁Kingdom	-8774
d▁like▁to	-8775
▁to▁build	-8776
▁interaction	-8777
▁the▁first▁time	-8778
ucky	-8779
▁belt	-8780
s▁of▁our	-8781
▁defined	-8782
▁Standard	-8783
▁unable▁to	-8784
▁authorities	-8785
▁stainless▁steel	-8786
acon	-8787
yers	-8788
▁lad	-8789
▁Line	-8790
▁ther	-8791
▁recre	-8792
s▁for▁your	-8793
▁surprising	-8794
▁This▁is▁the	-8795
sen	-8796
▁WH	-8797
▁Jon	-8798
▁Ven	-8799
▁debate	-8800
▁council	-8801
imp	-8802
iform	-8803
▁isol	-8804
▁tape	-8805
s▁best	-8806
▁total▁of	-8807
neys	-8808
etter	-8809
▁blow	-8810
▁gate	-8811
▁walls	-8812
▁decent	-8813
▁desktop	-8814
▁shouldn	-8815
▁supports	-8816
▁in▁the▁UK	-8817
▁programming	-8818
athy	-8819
▁Brook	-8820
▁Drive	-8821
▁taxes	-8822
▁claims	-8823
▁only▁one	-8824
▁AR	-8825
▁Kim	-8826
▁Sum	-8827
ologies	-8828
▁area▁of	-8829
▁for▁both	-8830
▁Du	-8831
▁mob	-8832
ifier	-8833
▁for▁one	-8834
▁the▁game	-8835
▁the▁custom	-8836
▁is▁the▁best	-8837
▁av	-8838
▁Job	-8839
eters	-8840
▁Orig	-8841
▁Never	-8842
▁drawn	-8843
▁on▁top	-8844
▁Station	-8845
▁keyword	-8846
▁like▁it	-8847
▁Cloud	-8848
▁brick	-8849
▁links	-8850
▁clicking	-8851
ed▁for▁the	-8852
▁Engineering	-8853
▁functionality	-8854
▁?	-8855
Play	-8856
▁hors	-8857
▁stack	-8858
▁gentle	-8859
▁ranking	-8860
▁versions	-8861
▁Marketing	-8862
▁getting▁a	-8863
▁strengthen	-8864
▁Conc	-8865
▁permit	-8866
▁subsid	-8867
▁accordance	-8868
▁continues▁to	-8869
▁stem	-8870
led▁to	-8871
▁Division	-8872
▁the▁body	-8873
▁other▁than	-8874
▁information▁and	-8875
▁•	-8876
eras	-8877
person	-8878
▁fields	-8879
▁considering	-8880
▁do▁I	-8881
▁juice	-8882
▁Arizona	-8883
Sm	-8884
piece	-8885
▁lies	-8886
▁Jones	-8887
eah	-8888
▁unw	-8889
▁generated	-8890
▁where▁they	-8891
▁personality	-8892
▁Cra	-8893
cific	-8894
▁Clin	-8895
▁Kong	-8896
▁Village	-8897
▁trained	-8898
ing▁together	-8899
▁depending▁on	-8900
….	-8901
▁displ	-8902
▁Not▁only	-8903
▁if▁you▁want▁to	-8904
▁CON	-8905
▁Roll	-8906
▁warn	-8907
amsung	-8908
▁plain	-8909
▁web▁site	-8910
▁templates	-8911
▁Collection	-8912
▁it▁will▁be	-8913
anna	-8914
igen	-8915
olis	-8916
▁Dog	-8917
▁Sci	-8918
utter	-8919
▁fing	-8920
▁Autom	-8921
▁Roman	-8922
▁fault	-8923
▁the▁two	-8924
▁repeated	-8925
▁working▁on	-8926
bre	-8927
uten	-8928
▁crop	-8929
▁Agency	-8930
▁Systems	-8931
▁that▁our	-8932
▁recording	-8933
▁source▁of	-8934
▁temporary	-8935
urious	-8936
▁layer	-8937
▁golden	-8938
▁and▁you▁can	-8939
▁Unfortunately	-8940
▁recommendations	-8941
stra	-8942
▁Ell	-8943
▁Cook	-8944
▁obst	-8945
▁bench	-8946
▁Finally	-8947
▁homeown	-8948
▁savings	-8949
▁areas▁of	-8950
▁strongly	-8951
▁suggestions	-8952
Love	-8953
▁Bal	-8954
▁At▁the	-8955
▁gender	-8956
▁improv	-8957
▁or▁any	-8958
▁versat	-8959
▁designed▁for	-8960
rame	-8961
▁Walk	-8962
▁the▁pres	-8963
▁every▁time	-8964
icing	-8965
s▁ind	-8966
▁Foot	-8967
▁Georgia	-8968
▁removed	-8969
▁state▁of	-8970
▁procedures	-8971
▁majority▁of	-8972
▁representative	-8973
ibert	-8974
▁Prime	-8975
▁handling	-8976
▁conscious	-8977
olv	-8978
wan	-8979
Make	-8980
▁indoor	-8981
▁something▁that	-8982
cue	-8983
▁DI	-8984
star	-8985
▁iPad	-8986
▁sail	-8987
▁spell	-8988
▁visited	-8989
▁relative	-8990
▁pra	-8991
liances	-8992
▁objective	-8993
▁Meet	-8994
limited	-8995
▁releas	-8996
▁accounts	-8997
▁seems▁to▁be	-8998
"▁(	-8999
hour	-9000
▁hel	-9001
otive	-9002
▁to▁read	-9003
rypt	-9004
wear	-9005
acing	-9006
▁leak	-9007
▁Would	-9008
▁alarm	-9009
▁days▁of	-9010
▁hosting	-9011
s▁to▁help	-9012
▁drain	-9013
ing▁to▁be	-9014
▁that▁were	-9015
po	-9016
▁Ren	-9017
▁nutri	-9018
ylvania	-9019
▁equally	-9020
▁would▁not	-9021
▁could▁have	-9022
BM	-9023
Use	-9024
▁admit	-9025
▁Are▁you	-9026
▁rate▁of	-9027
▁pleasure	-9028
Good	-9029
▁bow	-9030
▁bug	-9031
▁hub	-9032
or▁to	-9033
▁lucky	-9034
▁placed	-9035
▁figures	-9036
▁in▁the▁country	-9037
RL	-9038
jo	-9039
laim	-9040
▁Him	-9041
tense	-9042
▁Iraq	-9043
▁laugh	-9044
resents	-9045
s▁across	-9046
▁Training	-9047
▁but▁it▁is	-9048
▁bid	-9049
▁Prom	-9050
▁Rose	-9051
market	-9052
rating	-9053
▁it▁and	-9054
▁therap	-9055
▁very▁good	-9056
argest	-9057
▁steam	-9058
▁tasks	-9059
▁Joseph	-9060
abb	-9061
▁uk	-9062
▁Give	-9063
▁dual	-9064
▁devot	-9065
▁Avenue	-9066
▁on▁its	-9067
roduction	-9068
▁SO	-9069
Check	-9070
aylor	-9071
▁Muslim	-9072
ed▁around	-9073
▁gives▁you	-9074
According▁to	-9075
▁composition	-9076
rite	-9077
▁loving	-9078
▁keeping	-9079
▁muscles	-9080
▁clothing	-9081
▁hours▁of	-9082
▁medication	-9083
▁with▁these	-9084
▁should▁have	-9085
▁substantial	-9086
▁The▁C	-9087
▁a▁full	-9088
▁comprom	-9089
▁telephone	-9090
▁up▁to▁the	-9091
▁depression	-9092
▁understood	-9093
▁Conserv	-9094
▁Professor	-9095
▁gap	-9096
▁Brad	-9097
▁Again	-9098
▁dishes	-9099
▁forgot	-9100
▁transmission	-9101
oming	-9102
▁Image	-9103
▁mixed	-9104
▁lessons	-9105
▁locally	-9106
▁aircraft	-9107
▁printing	-9108
▁childhood	-9109
▁consultation	-9110
▁respectively	-9111
▁SE	-9112
▁amend	-9113
▁landscap	-9114
▁occurred	-9115
▁followed▁by	-9116
▁productivity	-9117
RP	-9118
nda	-9119
▁PDF	-9120
▁plot	-9121
▁crash	-9122
▁it▁in	-9123
▁a▁more	-9124
▁If▁your	-9125
▁started▁to	-9126
▁as▁well▁as▁a	-9127
da	-9128
itis	-9129
▁Sales	-9130
▁scope	-9131
▁suite	-9132
▁deeply	-9133
▁explan	-9134
▁on▁her	-9135
▁had▁the	-9136
▁the▁che	-9137
▁algorith	-9138
▁evolution	-9139
▁is▁in▁the	-9140
▁to▁improve	-9141
arl	-9142
pan	-9143
▁mg	-9144
Americ	-9145
m▁sure	-9146
▁Still	-9147
▁posted	-9148
▁Studies	-9149
▁is▁actually	-9150
▁performances	-9151
ml	-9152
llo	-9153
oken	-9154
heast	-9155
▁buff	-9156
▁to▁put	-9157
ers▁have	-9158
▁many▁of▁the	-9159
▁students▁to	-9160
▁BE	-9161
▁Happy	-9162
ccer	-9163
▁fraud	-9164
looking	-9165
▁served	-9166
▁catalog	-9167
▁speaker	-9168
▁initiative	-9169
▁on▁the▁other	-9170
▁parts▁of▁the	-9171
▁participating	-9172
ouston	-9173
ing▁they	-9174
▁employe	-9175
▁succeed	-9176
▁based▁in	-9177
▁over▁time	-9178
▁statements	-9179
▁PA	-9180
▁Cru	-9181
atics	-9182
▁codes	-9183
▁officials	-9184
ifer	-9185
▁hes	-9186
stery	-9187
▁Sale	-9188
▁crypt	-9189
▁plane	-9190
▁bottle	-9191
▁branch	-9192
▁showed	-9193
▁the▁main	-9194
▁to▁have▁a	-9195
▁in▁the▁field	-9196
▁gamb	-9197
▁globe	-9198
s▁offer	-9199
▁wiring	-9200
▁container	-9201
▁featuring	-9202
▁wondering	-9203
Will	-9204
▁imper	-9205
▁shell	-9206
▁As▁the	-9207
▁invite	-9208
▁ceiling	-9209
▁strange	-9210
▁fundamental	-9211
FA	-9212
▁Local	-9213
ificial	-9214
▁arrival	-9215
▁disclos	-9216
▁history▁of	-9217
▁consequences	-9218
atal	-9219
call	-9220
▁ast	-9221
▁que	-9222
▁alter	-9223
▁acquis	-9224
▁baking	-9225
▁only▁be	-9226
▁pair▁of	-9227
▁stylish	-9228
▁forecast	-9229
▁always▁been	-9230
▁spectacular	-9231
▁lie	-9232
▁surve	-9233
▁or▁her	-9234
▁segment	-9235
▁western	-9236
▁They▁were	-9237
▁on▁Friday	-9238
Mr	-9239
Before	-9240
essert	-9241
▁and▁W	-9242
▁knowing	-9243
▁Singapore	-9244
▁workplace	-9245
▁LO	-9246
▁amen	-9247
▁wise	-9248
▁we▁do	-9249
Am	-9250
See	-9251
▁voc	-9252
uster	-9253
jection	-9254
▁Modern	-9255
▁experim	-9256
▁continuous	-9257
▁represents	-9258
SC	-9259
▁DO	-9260
▁Ha	-9261
inyl	-9262
▁DVD	-9263
▁fascin	-9264
▁stronger	-9265
▁living▁in	-9266
▁calm	-9267
▁vitamin	-9268
▁operator	-9269
▁all▁about	-9270
▁carried▁out	-9271
▁scholarship	-9272
ho	-9273
▁In▁a	-9274
▁Studio	-9275
▁faculty	-9276
▁at▁a▁time	-9277
▁next▁year	-9278
▁without▁any	-9279
▁the▁number▁of	-9280
power	-9281
▁Film	-9282
▁nail	-9283
▁chronic	-9284
▁rapidly	-9285
▁the▁day	-9286
▁along▁with▁the	-9287
athered	-9288
▁regarding▁the	-9289
PN	-9290
Rec	-9291
adium	-9292
▁He▁has	-9293
atellite	-9294
▁live▁in	-9295
▁the▁sun	-9296
▁receive▁a	-9297
▁look▁at▁the	-9298
ounge	-9299
stein	-9300
▁producing	-9301
▁secondary	-9302
▁provided▁by	-9303
▁consistently	-9304
▁Ter	-9305
usual	-9306
▁just▁as	-9307
▁diseases	-9308
▁the▁ball	-9309
In▁this	-9310
▁rarely	-9311
▁rising	-9312
▁Quality	-9313
▁acceler	-9314
▁cost▁of	-9315
▁fishing	-9316
▁suspect	-9317
▁attitude	-9318
Su	-9319
▁to▁add	-9320
▁how▁you	-9321
▁complicated	-9322
▁research▁and	-9323
aft	-9324
odd	-9325
▁bact	-9326
letter	-9327
▁knock	-9328
▁the▁U	-9329
comfort	-9330
▁reserve	-9331
ment▁of▁the	-9332
MI	-9333
war	-9334
▁Mom	-9335
▁sed	-9336
▁semi	-9337
olving	-9338
▁satisfied	-9339
▁some▁time	-9340
▁limited▁to	-9341
▁conventional	-9342
vision	-9343
▁coupon	-9344
▁behaviour	-9345
▁Golden	-9346
▁intention	-9347
▁API	-9348
▁haz	-9349
▁Writ	-9350
▁coal	-9351
▁acknow	-9352
▁Medicine	-9353
▁Southern	-9354
▁breaking	-9355
iary	-9356
step	-9357
▁tone	-9358
▁boast	-9359
style	-9360
▁corn	-9361
▁tend▁to	-9362
▁venture	-9363
▁pul	-9364
cycle	-9365
▁Cover	-9366
▁a▁single	-9367
▁one▁of▁my	-9368
▁two▁years	-9369
▁consists▁of	-9370
▁batt	-9371
▁The▁H	-9372
▁stead	-9373
▁Friend	-9374
▁tagged	-9375
▁creates	-9376
▁work▁in	-9377
▁allowed▁to	-9378
Other	-9379
▁Event	-9380
▁loyal	-9381
▁life▁and	-9382
▁Illinois	-9383
▁say▁that	-9384
▁to▁begin	-9385
pir	-9386
gers	-9387
rics	-9388
plate	-9389
▁meals	-9390
▁newly	-9391
▁Policy	-9392
▁The▁only	-9393
▁how▁they	-9394
▁broadcast	-9395
▁improving	-9396
▁look▁like	-9397
▁availability	-9398
mun	-9399
iami	-9400
▁neither	-9401
▁watched	-9402
▁a▁person	-9403
▁being▁the	-9404
▁can▁also▁be	-9405
Post	-9406
inton	-9407
▁hunt	-9408
rations	-9409
ers▁of▁the	-9410
TV	-9411
▁Aff	-9412
▁lov	-9413
▁heal	-9414
▁stir	-9415
▁Games	-9416
ed▁through	-9417
▁inventory	-9418
s▁and▁their	-9419
▁includes▁a	-9420
▁The▁company	-9421
Gu	-9422
ige	-9423
eness	-9424
ed▁off	-9425
▁Annual	-9426
▁on▁all	-9427
▁titles	-9428
▁protected	-9429
▁wallpaper	-9430
If▁you▁have	-9431
▁operational	-9432
▁participant	-9433
adel	-9434
brid	-9435
onder	-9436
▁Come	-9437
mercial	-9438
▁module	-9439
▁Capital	-9440
▁Without	-9441
▁There▁is▁no	-9442
oes	-9443
▁nom	-9444
ashed	-9445
▁who▁had	-9446
▁personnel	-9447
▁to▁develop	-9448
keep	-9449
▁Viet	-9450
▁shed	-9451
▁Contin	-9452
▁missed	-9453
▁Remember	-9454
▁diversity	-9455
swe	-9456
▁ly	-9457
▁Sol	-9458
anger	-9459
quart	-9460
▁horiz	-9461
▁tests	-9462
▁Consult	-9463
▁engines	-9464
▁ended▁up	-9465
▁holidays	-9466
▁reception	-9467
▁residence	-9468
Up	-9469
Take	-9470
amel	-9471
▁tent	-9472
itched	-9473
▁cotton	-9474
▁tissue	-9475
▁pricing	-9476
▁for▁over	-9477
▁networking	-9478
ih	-9479
bra	-9480
racy	-9481
▁prime	-9482
▁Father	-9483
▁arrang	-9484
▁convey	-9485
▁stable	-9486
▁criteria	-9487
▁perfect▁for	-9488
ains	-9489
▁bone	-9490
▁grab	-9491
antasy	-9492
Because	-9493
anwhile	-9494
▁consent	-9495
▁she▁has	-9496
▁encourag	-9497
▁is▁always	-9498
▁millions▁of	-9499
▁preparation	-9500
onic	-9501
icate	-9502
▁Auto	-9503
▁Radio	-9504
▁Championship	-9505
aya	-9506
mble	-9507
▁ski	-9508
▁tro	-9509
▁Hold	-9510
▁nest	-9511
▁oppon	-9512
▁reject	-9513
▁one▁day	-9514
▁initially	-9515
▁which▁the	-9516
▁impression	-9517
▁anniversary	-9518
this	-9519
▁Space	-9520
▁grace	-9521
▁patio	-9522
▁the▁pat	-9523
%.	-9524
bered	-9525
▁define	-9526
▁Install	-9527
umer	-9528
▁I▁feel	-9529
▁facing	-9530
▁incent	-9531
▁opened	-9532
▁Looking	-9533
ordan	-9534
▁Sher	-9535
▁border	-9536
ers▁from	-9537
ers▁will	-9538
▁generic	-9539
▁the▁cap	-9540
▁but▁this	-9541
UL	-9542
rus	-9543
annels	-9544
▁abund	-9545
▁pollut	-9546
▁graphics	-9547
▁Secretary	-9548
▁advantages	-9549
▁figure▁out	-9550
ILL	-9551
▁I▁want	-9552
▁repeat	-9553
▁persons	-9554
Pr	-9555
lend	-9556
▁sear	-9557
ve▁seen	-9558
▁borrow	-9559
earn	-9560
erning	-9561
▁Level	-9562
▁it▁up	-9563
▁pitch	-9564
▁Square	-9565
cing▁the	-9566
▁Catholic	-9567
▁engineer	-9568
ller	-9569
ong▁Kong	-9570
▁electron	-9571
▁year▁old	-9572
▁has▁become	-9573
▁attention▁to	-9574
▁of▁the▁world	-9575
Fe	-9576
ME	-9577
▁pic	-9578
▁tum	-9579
▁tact	-9580
Thanks	-9581
sylvania	-9582
▁tourist	-9583
▁wildlife	-9584
▁a▁long▁time	-9585
▁any▁questions	-9586
AND	-9587
oto	-9588
ista	-9589
andon	-9590
organ	-9591
▁vine	-9592
▁When▁I	-9593
▁acquire	-9594
▁a▁better	-9595
▁entrepreneur	-9596
▁($	-9597
iffe	-9598
▁Fac	-9599
▁Exam	-9600
screen	-9601
▁Crusher	-9602
▁Agreement	-9603
▁ownership	-9604
▁necessary▁to	-9605
ags	-9606
nut	-9607
irts	-9608
sole	-9609
▁Tool	-9610
▁sofa	-9611
▁honey	-9612
ies▁are	-9613
ating▁to	-9614
▁networks	-9615
▁include▁a	-9616
▁the▁biggest	-9617
)▁(	-9618
hire	-9619
▁rou	-9620
▁rack	-9621
t▁want	-9622
▁can▁you	-9623
▁to▁that	-9624
▁suffered	-9625
▁tomorrow	-9626
▁authentic	-9627
▁for▁these	-9628
▁referred▁to	-9629
▁Ox	-9630
roduct	-9631
▁tired	-9632
opyright	-9633
▁directory	-9634
▁infection	-9635
sect	-9636
sized	-9637
▁scal	-9638
▁false	-9639
▁tells	-9640
▁exampl	-9641
missions	-9642
▁Michigan	-9643
▁advertise	-9644
ba	-9645
omy	-9646
Find	-9647
rend	-9648
▁Hon	-9649
▁math	-9650
▁wrap	-9651
aching	-9652
ass▁of	-9653
▁refus	-9654
▁safet	-9655
▁Casino	-9656
▁Sports	-9657
▁gaming	-9658
▁worship	-9659
ated▁with	-9660
▁trademark	-9661
▁and▁it▁was	-9662
▁one▁of▁the▁best	-9663
▁EN	-9664
▁Made	-9665
ous▁to	-9666
▁Broad	-9667
ordinary	-9668
▁does▁it	-9669
▁regions	-9670
▁currency	-9671
▁among▁the	-9672
▁aspects▁of	-9673
▁compliment	-9674
▁reputation	-9675
▁a▁little▁bit	-9676
▁other▁people	-9677
▁arg	-9678
▁Base	-9679
▁Photo	-9680
▁on▁any	-9681
▁creation	-9682
▁vertical	-9683
▁presented	-9684
▁certificate	-9685
▁possibilities	-9686
▁gre	-9687
ated▁the	-9688
▁professor	-9689
▁consideration	-9690
▁representatives	-9691
▁in▁W	-9692
▁Plant	-9693
▁errors	-9694
▁overse	-9695
▁authority	-9696
▁copyright	-9697
▁keep▁your	-9698
ed▁into▁the	-9699
uma	-9700
▁Tech	-9701
urning	-9702
ing▁away	-9703
ions▁and	-9704
▁harvest	-9705
▁injured	-9706
▁our▁own	-9707
▁meaningful	-9708
▁to▁make▁it	-9709
from	-9710
▁Dub	-9711
▁Pop	-9712
▁Put	-9713
▁seats	-9714
▁we▁all	-9715
▁can▁be▁a	-9716
▁mattress	-9717
s▁to▁get	-9718
▁authors	-9719
▁doctors	-9720
▁formula	-9721
▁screens	-9722
▁grateful	-9723
▁tutorial	-9724
rog	-9725
uty	-9726
▁PRO	-9727
▁encounter	-9728
▁surprised	-9729
▁you▁have▁a	-9730
FT	-9731
onda	-9732
▁mood	-9733
▁feels	-9734
▁hyper	-9735
▁moves	-9736
▁drawing	-9737
▁jewelry	-9738
▁Scotland	-9739
▁are▁some	-9740
▁of▁the▁year	-9741
Ed	-9742
kel	-9743
outs	-9744
uous	-9745
▁Nav	-9746
▁fiber	-9747
▁merely	-9748
▁applies	-9749
▁Building	-9750
▁objectives	-9751
▁universities	-9752
d▁be	-9753
enny	-9754
ingle	-9755
▁lake	-9756
▁sour	-9757
▁let▁me	-9758
▁artwork	-9759
▁asked▁to	-9760
▁that▁you▁have	-9761
pton	-9762
bourne	-9763
▁Trail	-9764
▁broke	-9765
▁During	-9766
▁how▁it	-9767
▁purchas	-9768
▁and▁every	-9769
▁specified	-9770
▁getting▁the	-9771
aug	-9772
▁FL	-9773
xygen	-9774
▁laid	-9775
▁wake	-9776
orship	-9777
▁gifts	-9778
▁react	-9779
▁Members	-9780
▁or▁just	-9781
▁Everyone	-9782
▁performed	-9783
▁once▁again	-9784
▁about▁their	-9785
▁you▁will▁find	-9786
heim	-9787
▁spa	-9788
raine	-9789
▁Santa	-9790
▁wider	-9791
▁heating	-9792
▁excited▁to	-9793
▁prescription	-9794
▁Administration	-9795
rif	-9796
ided	-9797
▁printer	-9798
▁shoulder	-9799
PM	-9800
oz	-9801
▁€	-9802
▁arts	-9803
▁so▁the	-9804
▁powered	-9805
▁essentially	-9806
ila	-9807
▁prize	-9808
▁allerg	-9809
▁exclus	-9810
▁Wedding	-9811
▁illegal	-9812
▁complaint	-9813
edge	-9814
ydney	-9815
▁afraid	-9816
▁as▁it▁is	-9817
▁decrease	-9818
▁stability	-9819
▁connections	-9820
▁MO	-9821
▁ink	-9822
▁Korea	-9823
▁Gallery	-9824
▁where▁I	-9825
▁the▁small	-9826
▁an▁important	-9827
▁compensation	-9828
abeth	-9829
▁cord	-9830
abetes	-9831
▁that▁all	-9832
▁beautifully	-9833
▁when▁you▁are	-9834
ART	-9835
erman	-9836
▁This▁was	-9837
▁such▁as▁the	-9838
▁for▁everyone	-9839
▁OK	-9840
▁Cro	-9841
▁a▁low	-9842
▁smoke	-9843
▁within▁a	-9844
ers▁in▁the	-9845
▁specializ	-9846
▁compatible	-9847
▁Los▁Angeles	-9848
▁subscription	-9849
FF	-9850
umni	-9851
▁conce	-9852
▁Summer	-9853
▁frequency	-9854
▁on▁Monday	-9855
▁can▁help▁you	-9856
▁·	-9857
ERS	-9858
▁Bh	-9859
rage	-9860
▁sorry	-9861
▁With▁a	-9862
▁if▁not	-9863
▁protocol	-9864
▁suddenly	-9865
▁use▁this	-9866
▁conclusion	-9867
Reg	-9868
▁Ur	-9869
everal	-9870
▁the▁work	-9871
vironments	-9872
▁uncertain	-9873
▁Jr	-9874
aska	-9875
days	-9876
▁Ban	-9877
▁Run	-9878
▁weapon	-9879
▁citizen	-9880
▁durable	-9881
▁who▁were	-9882
▁languages	-9883
▁needs▁and	-9884
▁that▁could	-9885
▁at▁any▁time	-9886
▁allow▁you▁to	-9887
ded	-9888
▁..	-9889
▁Sus	-9890
▁films	-9891
▁legit	-9892
▁lived	-9893
urities	-9894
▁mineral	-9895
▁caused▁by	-9896
▁each▁year	-9897
Sim	-9898
run	-9899
▁chem	-9900
▁hide	-9901
viously	-9902
▁Select	-9903
▁explor	-9904
For▁more	-9905
▁Strateg	-9906
▁role▁in	-9907
▁presents	-9908
ated▁in▁the	-9909
▁one▁of▁those	-9910
t▁see	-9911
▁Band	-9912
▁or▁an	-9913
▁strike	-9914
▁cheaper	-9915
▁speakers	-9916
▁interests	-9917
▁interest▁in	-9918
▁bes	-9919
▁tie	-9920
▁gran	-9921
▁refe	-9922
s▁work	-9923
▁made▁the	-9924
▁that▁time	-9925
▁Arm	-9926
▁Stock	-9927
▁Employ	-9928
▁calling	-9929
▁association	-9930
▁many▁people	-9931
▁the▁benefit	-9932
▁the▁potential	-9933
▁IC	-9934
▁lip	-9935
regon	-9936
▁salad	-9937
ness▁and	-9938
▁inspire	-9939
▁appliances	-9940
▁legislation	-9941
%,	-9942
GO	-9943
Part	-9944
▁Ray	-9945
phones	-9946
rieved	-9947
▁thrill	-9948
including	-9949
▁sophistic	-9950
▁colleagues	-9951
▁South▁Africa	-9952
ems	-9953
▁Ly	-9954
s▁Day	-9955
effect	-9956
▁robust	-9957
▁sought	-9958
▁heavily	-9959
▁Ministry	-9960
▁always▁a	-9961
▁abilities	-9962
▁more▁and▁more	-9963
Who	-9964
▁rib	-9965
inery	-9966
▁lens	-9967
▁stre	-9968
riving	-9969
▁Eastern	-9970
▁compact	-9971
▁restore	-9972
anes	-9973
gree	-9974
▁Blu	-9975
▁Jac	-9976
found	-9977
store	-9978
▁Model	-9979
▁The▁M	-9980
▁cater	-9981
▁forth	-9982
▁northern	-9983
▁admission	-9984
▁on▁Sunday	-9985
▁Thanks▁for	-9986
▁foundation	-9987
▁increase▁in	-9988
ols	-9989
▁NO	-9990
▁Po	-9991
▁scar	-9992
ervice	-9993
▁Credit	-9994
▁happening	-9995
▁conversion	-9996
"
"	-9997
dep	-9998
ormal	-9999
▁holding	-10000
▁resolve	-10001
▁shooting	-10002
▁withdraw	-10003
▁expansion	-10004
▁wide▁variety▁of	-10005
▁SC	-10006
▁SH	-10007
plant	-10008
▁cong	-10009
▁skills▁and	-10010
▁integration	-10011
▁dealing▁with	-10012
acc	-10013
alm	-10014
exp	-10015
▁Dam	-10016
orous	-10017
▁pilot	-10018
ers▁were	-10019
▁exhibit	-10020
▁matches	-10021
▁assistant	-10022
▁complement	-10023
isa	-10024
orce	-10025
▁Think	-10026
ing▁act	-10027
s▁to▁your	-10028
▁majority	-10029
▁Pen	-10030
▁Bear	-10031
▁prohib	-10032
ious▁and	-10033
▁plan▁to	-10034
▁EX	-10035
olesale	-10036
▁Austin	-10037
▁settlement	-10038
▁would▁like	-10039
zes	-10040
medi	-10041
issions	-10042
▁casual	-10043
▁quotes	-10044
▁and▁help	-10045
▁platforms	-10046
▁which▁can▁be	-10047
fee	-10048
rot	-10049
▁duty	-10050
▁clock	-10051
▁orient	-10052
▁keyboard	-10053
▁the▁size	-10054
▁respective	-10055
walk	-10056
month	-10057
iously	-10058
pendent	-10059
▁affili	-10060
▁elsewhere	-10061
▁many▁other	-10062
▁regulation	-10063
▁people▁with	-10064
▁accommodation	-10065
alo	-10066
uum	-10067
▁in▁F	-10068
▁pend	-10069
▁ware	-10070
▁loose	-10071
▁Manufact	-10072
▁and▁work	-10073
▁array▁of	-10074
▁Stan	-10075
▁lamp	-10076
▁do▁so	-10077
▁Common	-10078
▁heaven	-10079
▁permitt	-10080
▁knowledge▁and	-10081
arest	-10082
eding	-10083
onial	-10084
▁worn	-10085
▁patent	-10086
▁rubber	-10087
▁Philipp	-10088
▁and▁two	-10089
▁applied	-10090
▁produces	-10091
▁called▁the	-10092
xid	-10093
▁DE	-10094
t▁just	-10095
▁Greek	-10096
ify▁the	-10097
▁Theatre	-10098
ing▁a▁new	-10099
▁passionate	-10100
▁things▁that	-10101
awa	-10102
aced	-10103
▁knee	-10104
▁stro	-10105
nesota	-10106
▁trash	-10107
▁weird	-10108
▁Resort	-10109
▁and▁as	-10110
▁prayer	-10111
▁printed	-10112
▁warning	-10113
▁is▁often	-10114
In▁addition	-10115
▁about▁what	-10116
Spe	-10117
uan	-10118
▁PR	-10119
▁Ice	-10120
▁lob	-10121
▁safely	-10122
▁from▁his	-10123
ing▁system	-10124
▁choose▁from	-10125
▁all▁the▁time	-10126
aha	-10127
▁ft	-10128
▁Dream	-10129
▁Irish	-10130
▁boxes	-10131
▁Northern	-10132
▁The▁best	-10133
▁who▁will	-10134
PL	-10135
erial	-10136
▁conj	-10137
ifting	-10138
▁accum	-10139
s▁today	-10140
▁damaged	-10141
▁assembly	-10142
▁is▁really	-10143
▁apparently	-10144
oper	-10145
▁Ang	-10146
▁Lot	-10147
▁tile	-10148
▁Despite	-10149
▁the▁law	-10150
▁supplier	-10151
▁regulatory	-10152
▁version▁of▁the	-10153
lee	-10154
ribe	-10155
▁exit	-10156
▁hate	-10157
giving	-10158
upreme	-10159
▁absorb	-10160
inations	-10161
▁remodel	-10162
▁wearing	-10163
▁channels	-10164
▁Make▁sure	-10165
▁amenities	-10166
ing▁with▁the	-10167
▁Dri	-10168
▁Map	-10169
▁grid	-10170
▁out▁a	-10171
▁compete	-10172
▁demonstrate	-10173
▁flexibility	-10174
▁Ont	-10175
▁Own	-10176
▁pad	-10177
scale	-10178
▁if▁he	-10179
▁it▁be	-10180
▁Mother	-10181
▁equity	-10182
▁can▁get	-10183
▁people▁and	-10184
▁received▁a	-10185
aud	-10186
▁mole	-10187
▁Mount	-10188
▁Treat	-10189
s▁still	-10190
▁cameras	-10191
▁automatic	-10192
geon	-10193
▁pup	-10194
amous	-10195
▁Creek	-10196
▁Field	-10197
▁Estate	-10198
▁abroad	-10199
▁is▁for	-10200
▁wisdom	-10201
ditional	-10202
▁about▁our	-10203
▁acquisition	-10204
▁available▁to	-10205
▁environments	-10206
▁riv	-10207
athan	-10208
th▁and	-10209
ass▁and	-10210
▁seemed	-10211
▁telling	-10212
▁when▁she	-10213
▁services▁and	-10214
ERE	-10215
ador	-10216
iate	-10217
▁mac	-10218
▁brew	-10219
▁if▁a	-10220
s▁away	-10221
ed▁them	-10222
s▁really	-10223
▁mechanical	-10224
▁New▁York▁City	-10225
etch	-10226
▁ends	-10227
▁lett	-10228
▁and▁take	-10229
▁developers	-10230
▁cm	-10231
onna	-10232
▁Alp	-10233
▁Pow	-10234
▁Eliz	-10235
▁leaf	-10236
s▁only	-10237
achelor	-10238
ing▁all	-10239
▁in▁every	-10240
▁fact▁that	-10241
▁organized	-10242
▁unexpected	-10243
▁on▁the▁market	-10244
chain	-10245
▁explo	-10246
▁semin	-10247
▁How▁to	-10248
▁copies	-10249
▁choice▁of	-10250
▁on▁how▁to	-10251
oric	-10252
▁mask	-10253
▁slee	-10254
rovers	-10255
▁remem	-10256
▁refuge	-10257
▁The▁new	-10258
▁examine	-10259
▁neutral	-10260
▁Moreover	-10261
▁near▁the	-10262
▁be▁able▁to	-10263
▁tu	-10264
andy	-10265
▁dad	-10266
▁hip	-10267
▁hol	-10268
▁Holy	-10269
▁pursue	-10270
▁it▁was▁a	-10271
▁my▁first	-10272
▁universe	-10273
je	-10274
hyth	-10275
rait	-10276
▁rum	-10277
▁Motor	-10278
▁perce	-10279
▁Express	-10280
▁scratch	-10281
▁Property	-10282
▁phenomen	-10283
▁officially	-10284
▁percent▁of	-10285
▁is▁going▁to	-10286
dri	-10287
Work	-10288
▁Join	-10289
▁finger	-10290
▁sensor	-10291
▁cancell	-10292
▁and▁just	-10293
▁cabinets	-10294
▁southern	-10295
▁easier▁to	-10296
▁because▁we	-10297
▁someone▁else	-10298
▁at▁B	-10299
▁volt	-10300
▁or▁so	-10301
ll▁find	-10302
theless	-10303
▁circle	-10304
▁I▁still	-10305
▁the▁right▁to	-10306
▁;	-10307
cest	-10308
ften	-10309
suit	-10310
▁Mah	-10311
▁Pur	-10312
s▁own	-10313
world	-10314
▁lawn	-10315
▁and▁V	-10316
▁picking	-10317
▁and▁with	-10318
▁politics	-10319
▁recorded	-10320
▁any▁of▁the	-10321
▁experience▁and	-10322
gel	-10323
John	-10324
lean	-10325
using	-10326
▁Senior	-10327
▁Justice	-10328
▁made▁by	-10329
▁feelings	-10330
▁to▁other	-10331
ught	-10332
▁ALL	-10333
▁Cut	-10334
mates	-10335
▁not▁a	-10336
▁decline	-10337
▁began▁to	-10338
▁romantic	-10339
▁choose▁to	-10340
▁celebration	-10341
▁in▁the▁area	-10342
erver	-10343
▁dies	-10344
▁yoga	-10345
iamond	-10346
▁but▁a	-10347
▁hesit	-10348
▁Simply	-10349
▁and▁add	-10350
▁intense	-10351
▁ministry	-10352
rer	-10353
opher	-10354
▁Anal	-10355
▁advise	-10356
▁let▁us	-10357
▁mistake	-10358
▁qualify	-10359
s▁to▁make	-10360
▁diagnosis	-10361
▁curriculum	-10362
▁arrangement	-10363
▁the▁fact▁that	-10364
,▁'	-10365
▁iOS	-10366
▁User	-10367
▁antib	-10368
▁phones	-10369
▁abandon	-10370
▁writers	-10371
▁existence	-10372
▁the▁found	-10373
▁researchers	-10374
▁someone▁who	-10375
inf	-10376
irk	-10377
abil	-10378
aron	-10379
rape	-10380
▁Sym	-10381
oween	-10382
▁Rail	-10383
▁alive	-10384
▁approv	-10385
▁sexual	-10386
▁made▁of	-10387
▁Architect	-10388
▁enjoy▁the	-10389
▁to▁find▁out	-10390
▁Toy	-10391
▁admin	-10392
▁receipt	-10393
▁vibrant	-10394
s▁largest	-10395
▁moved▁to	-10396
▁developer	-10397
aka	-10398
▁SA	-10399
abled	-10400
▁oblig	-10401
▁Daniel	-10402
▁admitt	-10403
ives▁and	-10404
ology▁and	-10405
▁employer	-10406
▁described	-10407
▁reduce▁the	-10408
▁examination	-10409
agu	-10410
aire	-10411
▁mit	-10412
ries▁and	-10413
▁Bathroom	-10414
▁pest	-10415
▁solo	-10416
iology	-10417
▁the▁E	-10418
▁Oregon	-10419
▁utilize	-10420
▁Learning	-10421
▁instantly	-10422
dale	-10423
home	-10424
▁Gro	-10425
▁sen	-10426
enced	-10427
▁fewer	-10428
▁Palest	-10429
▁surely	-10430
▁somehow	-10431
▁was▁found	-10432
▁students▁and	-10433
ias	-10434
▁DJ	-10435
▁Far	-10436
ospel	-10437
▁shade	-10438
Whether	-10439
▁But▁the	-10440
▁one▁another	-10441
Sec	-10442
inson	-10443
▁hint	-10444
▁Advis	-10445
▁races	-10446
▁salary	-10447
▁work▁on	-10448
▁Diego	-10449
▁meets	-10450
▁quart	-10451
▁Atlanta	-10452
▁are▁all	-10453
▁precious	-10454
▁Protection	-10455
▁effects▁of	-10456
▁remarkable	-10457
▁structures	-10458
minute	-10459
▁vocal	-10460
▁charity	-10461
▁survive	-10462
▁It▁was▁a	-10463
▁measured	-10464
▁is▁a▁good	-10465
▁newspaper	-10466
ji	-10467
yes	-10468
▁AL	-10469
▁HT	-10470
aret	-10471
▁angle	-10472
▁centers	-10473
▁During▁the	-10474
▁purchasing	-10475
▁manufacturers	-10476
].	-10477
sk	-10478
uris	-10479
after	-10480
undry	-10481
▁eggs	-10482
▁evil	-10483
charge	-10484
▁stood	-10485
unicipal	-10486
▁What▁is	-10487
▁travell	-10488
▁may▁also	-10489
▁means▁of	-10490
▁outcomes	-10491
▁assist▁you	-10492
▁determined	-10493
▁every▁year	-10494
▁manufactured	-10495
▁Choose	-10496
▁backup	-10497
▁quality▁and	-10498
▁the▁largest	-10499
▁Sound	-10500
▁Visit	-10501
▁floors	-10502
▁as▁your	-10503
▁tonight	-10504
▁investor	-10505
▁I▁believe	-10506
▁documentation	-10507
gency	-10508
▁Front	-10509
▁Sport	-10510
▁reply	-10511
▁combat	-10512
▁emphas	-10513
▁multip	-10514
▁Edition	-10515
▁It▁will	-10516
▁waiting	-10517
criptions	-10518
▁never▁been	-10519
▁volunteers	-10520
▁implementation	-10521
TI	-10522
Two	-10523
▁loud	-10524
▁Share	-10525
▁Change	-10526
▁Safety	-10527
▁amongst	-10528
▁Columbia	-10529
▁overview	-10530
▁the▁sign	-10531
s▁that▁the	-10532
lass	-10533
▁cul	-10534
▁ore	-10535
▁Barn	-10536
▁cush	-10537
▁ward	-10538
ultane	-10539
▁banks	-10540
▁digest	-10541
▁hotels	-10542
▁dessert	-10543
▁positions	-10544
▁scientists	-10545
best	-10546
▁Hol	-10547
▁jaw	-10548
▁Adam	-10549
▁Bridge	-10550
▁Doctor	-10551
▁for▁a▁few	-10552
▁is▁required	-10553
MW	-10554
rix	-10555
aver	-10556
▁gram	-10557
▁ster	-10558
▁Produ	-10559
▁Server	-10560
▁samples	-10561
▁managing	-10562
▁start▁to	-10563
▁symptoms	-10564
▁connected	-10565
rup	-10566
▁of▁W	-10567
▁The▁P	-10568
▁talented	-10569
▁reporting	-10570
▁if▁you▁don	-10571
▁pretty▁much	-10572
Col	-10573
oda	-10574
sters	-10575
▁Henry	-10576
▁Regist	-10577
▁winners	-10578
▁and▁keep	-10579
▁variable	-10580
▁assignment	-10581
▁that▁you▁will	-10582
▁please▁contact	-10583
Stud	-10584
agen	-10585
▁shops	-10586
osystem	-10587
unch▁of	-10588
▁unknown	-10589
ationally	-10590
▁overcome	-10591
▁Minnesota	-10592
cho	-10593
▁LA	-10594
!!!!	-10595
▁fits	-10596
▁and▁no	-10597
▁defect	-10598
▁set▁to	-10599
▁passing	-10600
▁proport	-10601
▁the▁per	-10602
nell	-10603
anted	-10604
▁can▁I	-10605
▁a▁book	-10606
▁do▁that	-10607
▁consolid	-10608
▁emphasis	-10609
▁a▁certain	-10610
▁created▁a	-10611
▁measurement	-10612
▁chest	-10613
▁do▁the	-10614
▁fiction	-10615
▁principal	-10616
▁consultant	-10617
▁intellectual	-10618
ns	-10619
zing	-10620
▁Kids	-10621
▁rated	-10622
▁Seattle	-10623
▁massage	-10624
▁Advanced	-10625
▁displays	-10626
▁heritage	-10627
▁just▁one	-10628
▁NC	-10629
▁SD	-10630
angle	-10631
▁Barb	-10632
▁foam	-10633
▁wound	-10634
▁sign▁up	-10635
▁informed	-10636
▁Transport	-10637
▁on▁Tuesday	-10638
▁chef	-10639
ing▁ar	-10640
▁apple	-10641
▁ultra	-10642
▁losing	-10643
▁to▁try	-10644
▁came▁to	-10645
▁healing	-10646
▁objects	-10647
s▁will▁be	-10648
▁Customer	-10649
In▁a	-10650
Like	-10651
▁fest	-10652
▁than▁a	-10653
▁skilled	-10654
▁Exchange	-10655
▁acquired	-10656
▁aluminum	-10657
▁in▁India	-10658
▁always▁be	-10659
▁enorm	-10660
rection	-10661
▁in▁both	-10662
▁added▁to	-10663
▁third▁party	-10664
▁Rod	-10665
▁Rub	-10666
▁dil	-10667
▁The▁F	-10668
▁conver	-10669
▁Content	-10670
▁Computer	-10671
▁make▁you	-10672
▁with▁two	-10673
▁physician	-10674
▁training▁and	-10675
link	-10676
▁Bon	-10677
▁Mix	-10678
▁melt	-10679
▁oral	-10680
ing▁too	-10681
▁immune	-10682
▁occurs	-10683
▁officers	-10684
▁scenario	-10685
▁virtually	-10686
▁being▁able▁to	-10687
SI	-10688
TE	-10689
ko	-10690
▁or▁by	-10691
▁discovery	-10692
UM	-10693
I▁can	-10694
▁amaz	-10695
▁hood	-10696
▁Kevin	-10697
▁Natural	-10698
▁satisfy	-10699
▁managers	-10700
▁picked▁up	-10701
▁Blog	-10702
▁mild	-10703
▁Short	-10704
▁wants	-10705
▁Repair	-10706
s▁in▁our	-10707
▁We▁were	-10708
▁all▁that	-10709
▁bringing	-10710
▁is▁also▁a	-10711
▁principle	-10712
▁and▁in▁the	-10713
▁smartphone	-10714
▁thoroughly	-10715
HP	-10716
NS	-10717
cop	-10718
iot	-10719
▁LE	-10720
▁rod	-10721
athon	-10722
child	-10723
igious	-10724
ilarly	-10725
as▁Vegas	-10726
▁Finance	-10727
▁Stephen	-10728
▁New▁Year	-10729
▁pleasant	-10730
▁continued▁to	-10731
ATE	-10732
ello	-10733
▁actor	-10734
▁deserv	-10735
▁superb	-10736
▁home▁to	-10737
▁dramatic	-10738
▁minister	-10739
▁needs▁of	-10740
▁go▁to▁the	-10741
▁monitoring	-10742
▁the▁problem	-10743
UD	-10744
▁)	-10745
oin	-10746
▁Harry	-10747
▁cocon	-10748
▁parad	-10749
Are▁you	-10750
▁stations	-10751
▁scheduled	-10752
▁and▁therefore	-10753
Step	-10754
ounce	-10755
▁Type	-10756
ocracy	-10757
▁coconut	-10758
▁to▁stay	-10759
▁Sciences	-10760
axy	-10761
cope	-10762
▁adj	-10763
▁cha	-10764
ennes	-10765
esthetic	-10766
▁to▁bring	-10767
▁just▁like	-10768
▁Everything	-10769
▁references	-10770
▁Rom	-10771
break	-10772
▁dash	-10773
▁alloc	-10774
▁On▁the	-10775
▁begins	-10776
▁I▁guess	-10777
▁listing	-10778
▁forms▁of	-10779
▁meet▁the	-10780
▁concerning	-10781
icide	-10782
▁grey	-10783
isters	-10784
▁Having	-10785
graduate	-10786
▁even▁if	-10787
▁food▁and	-10788
▁just▁about	-10789
▁transformation	-10790
logg	-10791
▁Emer	-10792
▁has▁no	-10793
ognitive	-10794
▁empower	-10795
▁expense	-10796
▁an▁email	-10797
▁at▁night	-10798
▁years▁to	-10799
▁result▁in	-10800
▁that▁makes	-10801
OK	-10802
Bay	-10803
disc	-10804
▁coupl	-10805
▁scrap	-10806
urchase	-10807
▁discus	-10808
His	-10809
vit	-10810
swered	-10811
▁Princ	-10812
▁grain	-10813
▁drinks	-10814
▁programm	-10815
▁to▁protect	-10816
▁worry▁about	-10817
ibl	-10818
▁bat	-10819
▁Kent	-10820
▁Unit	-10821
estone	-10822
▁faces	-10823
Finally	-10824
▁planned	-10825
▁up▁your	-10826
▁Condition	-10827
▁business▁and	-10828
▁intervention	-10829
oret	-10830
ve▁had	-10831
▁know▁the	-10832
▁period▁of	-10833
▁Republican	-10834
▁is▁that▁the	-10835
▁feel▁free▁to	-10836
▁Bit	-10837
▁Doc	-10838
andid	-10839
▁lemon	-10840
▁pound	-10841
through	-10842
▁distingu	-10843
▁basketball	-10844
▁on▁Thursday	-10845
▁If▁you▁want▁to	-10846
CP	-10847
▁cher	-10848
▁alike	-10849
▁crown	-10850
▁filed	-10851
▁see▁a	-10852
▁Perhaps	-10853
▁physically	-10854
aza	-10855
▁Guys	-10856
▁holds	-10857
▁Rights	-10858
▁Taylor	-10859
▁She▁was	-10860
▁new▁and	-10861
▁patterns	-10862
▁practition	-10863
▁an▁excellent	-10864
cor	-10865
aming	-10866
▁okay	-10867
▁terr	-10868
iberal	-10869
▁Glass	-10870
▁Paper	-10871
▁come▁in	-10872
▁hunting	-10873
▁value▁of	-10874
▁neighbour	-10875
▁in▁the▁market	-10876
▁look▁forward▁to	-10877
ghan	-10878
tery	-10879
▁Ask	-10880
▁Due	-10881
▁drugs	-10882
▁maker	-10883
▁turned	-10884
▁Univers	-10885
▁loss▁of	-10886
▁suppliers	-10887
▁the▁build	-10888
▁opposition	-10889
occ	-10890
whe	-10891
▁Forum	-10892
▁Labor	-10893
▁Trade	-10894
▁rehab	-10895
▁as▁she	-10896
▁comply	-10897
▁mathem	-10898
▁ordinary	-10899
▁the▁result	-10900
▁something▁to	-10901
▁characteristic	-10902
▁Name	-10903
▁Prim	-10904
▁slip	-10905
incess	-10906
ressed	-10907
▁Awards	-10908
▁Ontario	-10909
m▁going▁to	-10910
▁computers	-10911
▁overnight	-10912
▁efforts▁to	-10913
▁the▁family	-10914
▁questions▁and	-10915
asty	-10916
requ	-10917
▁Has	-10918
▁cruise	-10919
▁Explore	-10920
▁seem▁to	-10921
▁so▁they	-10922
▁uniform	-10923
▁Interior	-10924
▁promotion	-10925
▁this▁season	-10926
▁North▁America	-10927
!”	-10928
ethe	-10929
▁flaw	-10930
utical	-10931
section	-10932
▁led▁to	-10933
▁decided	-10934
▁and▁only	-10935
▁what▁was	-10936
▁come▁from	-10937
▁subsequent	-10938
▁other▁words	-10939
▁you▁can▁get	-10940
pay	-10941
quet	-10942
re▁a	-10943
▁gal	-10944
▁Golf	-10945
▁Self	-10946
▁Using	-10947
ffordable	-10948
▁Partners	-10949
▁it▁doesn	-10950
▁Corporation	-10951
▁products▁are	-10952
▁Ol	-10953
▁TR	-10954
code	-10955
▁coin	-10956
assion	-10957
▁handy	-10958
▁is▁my	-10959
▁assured	-10960
▁to▁get▁a	-10961
▁were▁not	-10962
▁New▁Jersey	-10963
▁change▁the	-10964
▁all▁over▁the	-10965
▁Ba	-10966
View	-10967
ilty	-10968
▁vib	-10969
▁pizza	-10970
▁to▁save	-10971
▁to▁become	-10972
▁will▁help▁you	-10973
▁Li	-10974
even	-10975
http	-10976
▁ele	-10977
iscons	-10978
▁moved	-10979
▁spare	-10980
▁nursing	-10981
▁these▁are	-10982
▁development▁and	-10983
vo	-10984
Net	-10985
oen	-10986
s▁P	-10987
abel	-10988
lers	-10989
test	-10990
▁Sav	-10991
aysia	-10992
▁Story	-10993
umpster	-10994
▁Korean	-10995
isconsin	-10996
▁magical	-10997
Of▁course	-10998
▁substance	-10999
▁waiting▁for	-11000
▁ads	-11001
allel	-11002
ckets	-11003
ifest	-11004
s▁act	-11005
s▁top	-11006
▁Save	-11007
▁swing	-11008
▁damages	-11009
▁inspect	-11010
▁retired	-11011
▁over▁the▁past	-11012
boy	-11013
high	-11014
▁lean	-11015
▁beginn	-11016
▁told▁me	-11017
▁and▁I▁am	-11018
▁portable	-11019
▁efficiently	-11020
CL	-11021
HD	-11022
▁fr	-11023
▁pig	-11024
reach	-11025
▁Song	-11026
▁bund	-11027
You▁are	-11028
▁I▁knew	-11029
▁Jordan	-11030
▁studied	-11031
▁territory	-11032
▁just▁a▁few	-11033
▁located▁in	-11034
▁publication	-11035
NT	-11036
aded	-11037
anny	-11038
rator	-11039
verty	-11040
▁Nick	-11041
▁lawyer	-11042
▁makeup	-11043
▁gambling	-11044
▁administrative	-11045
s▁who	-11046
▁able	-11047
s▁what	-11048
▁tempt	-11049
▁Advent	-11050
▁excite	-11051
▁oldest	-11052
▁oxygen	-11053
t▁have▁a	-11054
▁Officer	-11055
▁actively	-11056
▁happiness	-11057
,▁$	-11058
uto	-11059
unter	-11060
▁is▁on	-11061
s▁often	-11062
▁Board▁of	-11063
▁a▁couple	-11064
▁reducing	-11065
▁algorithm	-11066
▁ISO	-11067
▁I▁saw	-11068
▁nomin	-11069
▁opens	-11070
ing▁acc	-11071
▁is▁this	-11072
▁moisture	-11073
▁you▁just	-11074
▁controvers	-11075
▁reflection	-11076
aux	-11077
Cons	-11078
▁sees	-11079
mazing	-11080
▁racing	-11081
▁analyst	-11082
▁captured	-11083
▁the▁link	-11084
▁take▁care	-11085
▁versatile	-11086
▁when▁I▁was	-11087
▁competitors	-11088
▁you▁can▁find	-11089
▁extraordinary	-11090
owa	-11091
was	-11092
elve	-11093
▁Sat	-11094
bound	-11095
▁Ryan	-11096
▁The▁D	-11097
▁Brazil	-11098
▁Senate	-11099
▁Perfect	-11100
ating▁and	-11101
▁champion	-11102
▁long▁term	-11103
▁publisher	-11104
BO	-11105
▁TX	-11106
loom	-11107
▁Bad	-11108
▁hob	-11109
▁me▁a	-11110
▁soup	-11111
▁holes	-11112
les▁and	-11113
▁franch	-11114
▁how▁we	-11115
▁jacket	-11116
▁strive	-11117
▁He▁also	-11118
▁deserve	-11119
▁line▁of	-11120
▁trusted	-11121
%)	-11122
sea	-11123
aters	-11124
hythm	-11125
▁Guard	-11126
istical	-11127
▁Britain	-11128
▁Victoria	-11129
▁religion	-11130
▁and▁others	-11131
QL	-11132
s▁F	-11133
▁pp	-11134
▁ske	-11135
istent	-11136
▁Govern	-11137
▁limits	-11138
▁would▁you	-11139
SL	-11140
iced	-11141
▁bin	-11142
encil	-11143
gener	-11144
▁gene	-11145
▁to▁re	-11146
▁day▁of	-11147
▁Retrieved	-11148
▁They▁have	-11149
▁concerned	-11150
s▁are▁available	-11151
fin	-11152
fire	-11153
▁puzz	-11154
▁Albert	-11155
▁closet	-11156
▁or▁your	-11157
▁artistic	-11158
▁emerging	-11159
▁found▁in	-11160
▁tracking	-11161
▁dependent	-11162
▁failed▁to	-11163
▁given▁the	-11164
▁As▁a▁result	-11165
sl	-11166
nie	-11167
Comp	-11168
icks	-11169
▁Cou	-11170
▁finest	-11171
▁meters	-11172
▁poverty	-11173
▁world▁of	-11174
▁Elizabeth	-11175
▁enforcement	-11176
erk	-11177
▁god	-11178
achus	-11179
▁Wars	-11180
▁boil	-11181
▁divide	-11182
▁is▁our	-11183
▁plates	-11184
▁recogniz	-11185
ability▁and	-11186
▁You▁should	-11187
obe	-11188
▁Rs	-11189
edic	-11190
itud	-11191
▁a▁huge	-11192
s▁of▁all	-11193
▁producer	-11194
▁World▁War	-11195
▁packaging	-11196
▁five▁years	-11197
▁statistics	-11198
▁Furthermore	-11199
▁concentration	-11200
Art	-11201
▁rac	-11202
▁Anth	-11203
▁scenes	-11204
ization▁of	-11205
▁attraction	-11206
▁from▁other	-11207
▁to▁create▁a	-11208
▁suitable▁for	-11209
▁climate▁change	-11210
def	-11211
rett	-11212
itche	-11213
smith	-11214
▁Host	-11215
▁panels	-11216
▁seasons	-11217
▁treated	-11218
▁spacious	-11219
▁addresses	-11220
▁for▁a▁while	-11221
▁mp	-11222
▁nose	-11223
▁anyth	-11224
▁laser	-11225
▁weigh	-11226
▁I▁felt	-11227
▁and▁at	-11228
▁desert	-11229
▁portion	-11230
▁Magazine	-11231
▁and▁after	-11232
▁to▁prevent	-11233
▁more▁than▁a	-11234
mat	-11235
yth	-11236
▁Harr	-11237
▁dirt	-11238
▁twin	-11239
▁bills	-11240
▁compe	-11241
▁I▁am▁not	-11242
▁Regional	-11243
▁wherever	-11244
▁estimates	-11245
lah	-11246
▁Ra	-11247
oker	-11248
week	-11249
▁vice	-11250
▁a▁bad	-11251
▁do▁we	-11252
▁us▁at	-11253
▁perhap	-11254
▁pleased	-11255
▁Industry	-11256
▁Material	-11257
▁think▁that	-11258
▁the▁correct	-11259
▁Guy	-11260
▁sitt	-11261
▁vacc	-11262
▁Saint	-11263
▁killed	-11264
▁Indones	-11265
▁all▁over	-11266
▁discussed	-11267
▁that▁has▁been	-11268
aki	-11269
▁dos	-11270
▁solely	-11271
▁who▁can	-11272
▁price▁of	-11273
▁sentence	-11274
▁interested	-11275
▁on▁Wednesday	-11276
▁should▁not▁be	-11277
Sub	-11278
ami	-11279
People	-11280
semble	-11281
▁welcom	-11282
▁Private	-11283
▁streets	-11284
▁tremend	-11285
▁delivers	-11286
▁the▁film	-11287
▁above▁the	-11288
MT	-11289
,▁‘	-11290
Car	-11291
auc	-11292
▁pdf	-11293
▁zip	-11294
scape	-11295
▁.▁.▁.	-11296
▁union	-11297
▁societ	-11298
▁Check▁out	-11299
▁simultane	-11300
▁evaluation	-11301
Down	-11302
vity	-11303
being	-11304
guard	-11305
▁awards	-11306
▁fundra	-11307
▁had▁no	-11308
▁Solutions	-11309
▁at▁the▁end	-11310
▁provide▁the	-11311
▁for▁yourself	-11312
ez	-11313
ima	-11314
▁BC	-11315
▁IL	-11316
phia	-11317
▁oak	-11318
ishop	-11319
▁bars	-11320
▁elder	-11321
▁Prince	-11322
▁free▁of	-11323
▁optimal	-11324
▁eliminate	-11325
▁increase▁the	-11326
▁participation	-11327
hr	-11328
ITH	-11329
ito	-11330
▁Kat	-11331
▁Ron	-11332
▁arms	-11333
▁drum	-11334
umbing	-11335
▁I▁like	-11336
▁renown	-11337
▁was▁in	-11338
▁endless	-11339
▁differently	-11340
▁dining▁room	-11341
▁Ms	-11342
▁Fil	-11343
▁siz	-11344
▁Vers	-11345
▁spir	-11346
▁strap	-11347
▁horses	-11348
▁to▁hear	-11349
▁advertis	-11350
▁from▁one	-11351
▁optional	-11352
▁note▁that	-11353
▁created▁by	-11354
▁pleased▁to	-11355
tes	-11356
▁MD	-11357
ashes	-11358
elson	-11359
linary	-11360
▁olive	-11361
▁wines	-11362
▁leads▁to	-11363
▁occasionally	-11364
▁effectiveness	-11365
”)	-11366
abis	-11367
vant	-11368
wart	-11369
▁Nut	-11370
▁Rog	-11371
▁mos	-11372
▁legs	-11373
▁Regard	-11374
▁Samsung	-11375
▁performing	-11376
▁exclusively	-11377
MO	-11378
ori	-11379
abric	-11380
▁Fred	-11381
▁ende	-11382
▁crisp	-11383
▁width	-11384
ifetime	-11385
winning	-11386
▁Includ	-11387
▁outfit	-11388
▁versus	-11389
▁per▁day	-11390
▁podcast	-11391
▁unusual	-11392
▁Beautiful	-11393
▁ideal▁for	-11394
TO	-11395
ITY	-11396
airy	-11397
cure	-11398
ritten	-11399
sembly	-11400
▁fluid	-11401
▁the▁A	-11402
ropical	-11403
▁buyers	-11404
▁varied	-11405
▁vendor	-11406
▁trigger	-11407
▁Electric	-11408
▁excellence	-11409
▁organisations	-11410
oment	-11411
▁losses	-11412
▁in▁love	-11413
▁have▁not	-11414
▁becoming▁a	-11415
▁similar▁to	-11416
▁that▁they▁are	-11417
▁Fox	-11418
ighth	-11419
▁Core	-11420
▁bags	-11421
▁lease	-11422
▁gotten	-11423
▁recept	-11424
ifferent	-11425
aceutical	-11426
▁compound	-11427
▁the▁fore	-11428
▁think▁of	-11429
▁configuration	-11430
▁Was	-11431
▁chur	-11432
▁risks	-11433
▁look▁for	-11434
▁controlled	-11435
▁to▁get▁the	-11436
▁complete▁the	-11437
▁your▁personal	-11438
iev	-11439
Keep	-11440
iley	-11441
▁Tree	-11442
▁keen	-11443
▁logg	-11444
intend	-11445
▁Davis	-11446
▁bacteria	-11447
▁initiatives	-11448
▁over▁the▁years	-11449
Som	-11450
aus	-11451
▁Inde	-11452
forward	-11453
▁struck	-11454
▁tender	-11455
American	-11456
▁servers	-11457
▁trip▁to	-11458
▁disaster	-11459
uba	-11460
▁Dead	-11461
▁banking	-11462
▁operates	-11463
▁discussions	-11464
s▁D	-11465
▁BB	-11466
▁HR	-11467
anies	-11468
itative	-11469
▁garlic	-11470
▁we▁don	-11471
adelphia	-11472
▁made▁me	-11473
▁show▁you	-11474
▁Halloween	-11475
▁exercises	-11476
aware	-11477
▁Baby	-11478
▁disk	-11479
▁knife	-11480
▁shots	-11481
closure	-11482
▁Valent	-11483
▁spokes	-11484
▁unlock	-11485
▁returns	-11486
▁back▁and	-11487
▁gathered	-11488
▁mistakes	-11489
▁most▁people	-11490
▁providing▁a	-11491
▁FA	-11492
cker	-11493
ipes	-11494
▁Inn	-11495
Point	-11496
▁Camb	-11497
▁Need	-11498
▁putt	-11499
▁snap	-11500
ll▁get	-11501
▁Pharm	-11502
▁reven	-11503
▁desper	-11504
▁exists	-11505
▁key▁to	-11506
▁summary	-11507
▁became▁a	-11508
▁ecosystem	-11509
▁hopefully	-11510
▁in▁the▁US	-11511
FO	-11512
rary	-11513
▁pets	-11514
How▁to	-11515
ritical	-11516
▁as▁far	-11517
▁ceremony	-11518
▁a▁list▁of	-11519
▁must▁have	-11520
▁service▁and	-11521
▁Pennsylvania	-11522
▁most▁popular	-11523
lix	-11524
▁CL	-11525
Best	-11526
grade	-11527
▁burg	-11528
▁cats	-11529
▁Nature	-11530
▁subtle	-11531
▁startup	-11532
▁fabulous	-11533
▁operated	-11534
▁will▁get	-11535
▁traveling	-11536
▁our▁customers	-11537
.▁.	-11538
▁din	-11539
▁Number	-11540
▁broker	-11541
▁mix▁of	-11542
▁at▁work	-11543
▁followed	-11544
▁frequent	-11545
▁that▁may	-11546
▁detection	-11547
▁beef	-11548
▁libr	-11549
ies▁of	-11550
▁deleg	-11551
ing▁art	-11552
▁on▁how	-11553
▁you▁won	-11554
▁of▁water	-11555
▁per▁year	-11556
▁this▁is▁the	-11557
▁the▁other▁hand	-11558
TR	-11559
tons	-11560
▁Dur	-11561
herent	-11562
▁Grant	-11563
▁Donald	-11564
▁Within	-11565
▁each▁day	-11566
▁is▁usually	-11567
▁incorporate	-11568
▁close▁to▁the	-11569
▁Environmental	-11570
LO	-11571
▁sid	-11572
acent	-11573
ouver	-11574
▁attain	-11575
▁drives	-11576
▁hiking	-11577
▁pushed	-11578
▁spoken	-11579
▁tennis	-11580
▁did▁you	-11581
▁variety	-11582
▁for▁about	-11583
▁announcement	-11584
▁young▁people	-11585
▁Vi	-11586
▁Sure	-11587
▁padd	-11588
▁retreat	-11589
▁believed	-11590
▁emotions	-11591
▁peaceful	-11592
▁difficulty	-11593
▁follow▁the	-11594
▁friendship	-11595
▁supposed▁to	-11596
▁ranging▁from	-11597
bean	-11598
enth	-11599
▁Mess	-11600
▁horm	-11601
▁a▁month	-11602
▁reverse	-11603
▁where▁it	-11604
▁one▁of▁these	-11605
agg	-11606
hou	-11607
▁(“	-11608
▁Lew	-11609
▁Nic	-11610
omach	-11611
▁Large	-11612
▁leads	-11613
▁up▁in	-11614
▁aggreg	-11615
ize▁your	-11616
▁dentist	-11617
▁diagnos	-11618
▁Equipment	-11619
▁matter▁of	-11620
▁Sep	-11621
▁Insp	-11622
▁Break	-11623
▁Chall	-11624
▁patch	-11625
▁roast	-11626
▁differ	-11627
ing▁to▁a	-11628
▁and▁new	-11629
▁anxiety	-11630
▁exchang	-11631
▁whereas	-11632
▁unemploy	-11633
▁have▁to▁be	-11634
WA	-11635
WS	-11636
open	-11637
s▁very	-11638
ed▁into▁a	-11639
▁diabetes	-11640
▁your▁needs	-11641
▁alternatives	-11642
▁Op	-11643
agan	-11644
quiry	-11645
t▁mean	-11646
▁pepper	-11647
▁in▁need	-11648
▁safe▁and	-11649
▁Dun	-11650
▁Sche	-11651
▁acres	-11652
▁popul	-11653
s▁right	-11654
▁corpor	-11655
▁lowest	-11656
▁Working	-11657
▁productive	-11658
▁this▁month	-11659
IGH	-11660
▁Sem	-11661
▁Tal	-11662
▁Ult	-11663
doors	-11664
▁Virt	-11665
▁hired	-11666
▁virus	-11667
▁compil	-11668
▁phrase	-11669
ance▁and	-11670
ers▁with	-11671
ing▁there	-11672
▁the▁food	-11673
▁making▁the	-11674
▁there▁was▁a	-11675
Co	-11676
ICE	-11677
lope	-11678
▁NFL	-11679
quire	-11680
▁ought	-11681
▁junior	-11682
▁surviv	-11683
▁entries	-11684
▁fun▁and	-11685
▁that▁my	-11686
▁vendors	-11687
▁sections	-11688
▁suggested	-11689
▁There▁were	-11690
▁translation	-11691
▁unp	-11692
ieces	-11693
▁Capt	-11694
▁hasn	-11695
▁pour	-11696
ailand	-11697
▁joining	-11698
▁Complete	-11699
▁controls	-11700
▁terrible	-11701
▁supported	-11702
▁the▁light	-11703
''	-11704
cal	-11705
ctic	-11706
ocur	-11707
▁cow	-11708
ipped	-11709
agraph	-11710
▁neuro	-11711
▁earned	-11712
▁secured	-11713
▁obligation	-11714
▁family▁members	-11715
aul	-11716
eman	-11717
Under	-11718
▁grat	-11719
itches	-11720
▁renov	-11721
ing▁her	-11722
▁settle	-11723
▁into▁an	-11724
▁roughly	-11725
▁influenc	-11726
▁terminal	-11727
▁to▁these	-11728
▁and▁white	-11729
)▁–	-11730
rec	-11731
’.
	-11732
▁Bow	-11733
▁adop	-11734
t▁work	-11735
▁sandw	-11736
▁Member	-11737
▁Planning	-11738
▁releases	-11739
▁processor	-11740
▁to▁another	-11741
▁most▁likely	-11742
▁exactly▁what	-11743
UST	-11744
enz	-11745
▁!
	-11746
loved	-11747
▁tackle	-11748
ractions	-11749
▁dropped	-11750
▁homework	-11751
gal	-11752
▁gig	-11753
isure	-11754
▁Desk	-11755
▁rush	-11756
▁Block	-11757
▁clinic	-11758
▁iconic	-11759
▁of▁two	-11760
▁Hong▁Kong	-11761
▁They▁also	-11762
▁addiction	-11763
▁all▁the▁way	-11764
▁you▁and▁your	-11765
oln	-11766
cery	-11767
▁Pra	-11768
ouses	-11769
▁Kenn	-11770
▁span	-11771
covery	-11772
uisine	-11773
▁Delhi	-11774
▁Action	-11775
▁Do▁not	-11776
▁is▁what	-11777
▁adequate	-11778
▁of▁being	-11779
▁with▁him	-11780
▁realistic	-11781
▁recipient	-11782
▁for▁the▁next	-11783
▁or▁any▁other	-11784
▁included▁in▁the	-11785
mo	-11786
▁!	-11787
rine	-11788
▁jam	-11789
ia▁and	-11790
▁annoy	-11791
▁logic	-11792
▁hardly	-11793
▁Classic	-11794
▁and▁non	-11795
▁such▁as▁a	-11796
▁turned▁out	-11797
▁demonstrated	-11798
inda	-11799
lette	-11800
▁keys	-11801
▁metab	-11802
▁sampl	-11803
▁immigr	-11804
▁trends	-11805
▁We▁offer	-11806
▁combines	-11807
lay	-11808
ummy	-11809
▁Kar	-11810
imens	-11811
ack▁of	-11812
▁Below	-11813
▁Brian	-11814
▁Manual	-11815
▁encount	-11816
▁via▁the	-11817
▁preserve	-11818
▁explained	-11819
▁all▁of▁your	-11820
▁recommendation	-11821
?"	-11822
don	-11823
uana	-11824
▁fru	-11825
▁Lock	-11826
▁had▁an	-11827
▁closing	-11828
▁my▁life	-11829
▁weapons	-11830
▁a▁larger	-11831
▁we▁offer	-11832
▁you▁were	-11833
▁customized	-11834
▁sophisticated	-11835
str	-11836
mann	-11837
▁at▁C	-11838
▁gray	-11839
▁cyber	-11840
▁spots	-11841
▁I▁went	-11842
▁browse	-11843
▁such▁an	-11844
▁annually	-11845
▁of▁other	-11846
▁all▁these	-11847
▁narrative	-11848
▁returned▁to	-11849
mont	-11850
offee	-11851
▁dough	-11852
▁folder	-11853
▁myster	-11854
▁sectors	-11855
▁Contract	-11856
▁opinions	-11857
▁surfaces	-11858
▁search▁for	-11859
▁a▁variety▁of	-11860
▁more▁than▁one	-11861
IE	-11862
etts	-11863
itzer	-11864
▁boys	-11865
▁enemy	-11866
▁prest	-11867
▁Excell	-11868
▁outlet	-11869
▁have▁no	-11870
▁Memorial	-11871
▁answered	-11872
▁confront	-11873
▁is▁great	-11874
▁survival	-11875
▁Authority	-11876
▁The▁result	-11877
▁designated	-11878
▁examples▁of	-11879
▁importantly	-11880
▁include▁the	-11881
▁education▁and	-11882
▁technology▁and	-11883
▁oh	-11884
uther	-11885
▁of▁St	-11886
▁toler	-11887
▁and▁use	-11888
▁build▁a	-11889
▁precisely	-11890
▁this▁page	-11891
▁changes▁in	-11892
▁services▁to	-11893
▁North▁Carolina	-11894
dam	-11895
▁stimul	-11896
▁in▁turn	-11897
▁Atlantic	-11898
▁at▁their	-11899
▁baseball	-11900
▁dialogue	-11901
▁they▁had	-11902
▁It▁is▁also	-11903
▁we▁need▁to	-11904
▁immigration	-11905
Out	-11906
▁Nob	-11907
▁Sir	-11908
▁arbit	-11909
ed▁upon	-11910
▁I▁mean	-11911
▁guilty	-11912
▁crystal	-11913
itutional	-11914
▁I▁couldn	-11915
ternational	-11916
▁click▁on▁the	-11917
▁Az	-11918
▁GP	-11919
card	-11920
such	-11921
▁III	-11922
▁NAS	-11923
olice	-11924
bridge	-11925
▁Based	-11926
▁firms	-11927
▁greet	-11928
▁stopp	-11929
▁acting	-11930
▁and▁if	-11931
--------	-11932
▁aims▁to	-11933
▁seasonal	-11934
▁was▁very	-11935
▁his▁first	-11936
VA	-11937
ALL	-11938
bec	-11939
ela	-11940
▁AG	-11941
fund	-11942
▁adds	-11943
▁tube	-11944
▁analyze	-11945
▁nervous	-11946
▁Consider	-11947
▁modified	-11948
▁the▁team	-11949
▁and▁women	-11950
▁pregnancy	-11951
▁personalized	-11952
▁which▁includes	-11953
rep	-11954
▁carb	-11955
▁hits	-11956
▁loop	-11957
s▁great	-11958
▁babies	-11959
▁delete	-11960
▁timely	-11961
▁is▁well	-11962
▁generous	-11963
▁too▁many	-11964
▁one▁thing	-11965
▁Industrial	-11966
▁I▁wanted▁to	-11967
▁’	-11968
mod	-11969
bits	-11970
bors	-11971
jack	-11972
▁Jenn	-11973
▁army	-11974
▁exec	-11975
gments	-11976
▁Holid	-11977
▁and▁by	-11978
▁diameter	-11979
▁enhanced	-11980
▁enormous	-11981
▁made▁from	-11982
▁submission	-11983
▁used▁in▁the	-11984
▁AB	-11985
Does	-11986
▁DIY	-11987
▁Var	-11988
▁one▁is	-11989
▁it▁with	-11990
▁coaching	-11991
DC	-11992
Mark	-11993
▁COM	-11994
check	-11995
ing▁p	-11996
▁drama	-11997
▁only▁a	-11998
▁the▁sk	-11999
▁returned	-12000
▁to▁do▁so	-12001
▁visit▁the	-12002
▁newsletter	-12003
▁in▁the▁last	-12004
▁San▁Francisco	-12005
▁commitment▁to	-12006
▁search▁engine	-12007
t▁a	-12008
▁bio	-12009
▁Bang	-12010
▁Sarah	-12011
ves▁and	-12012
▁Portug	-12013
▁alumni	-12014
▁Vietnam	-12015
▁disability	-12016
imm	-12017
Look	-12018
quer	-12019
▁Jam	-12020
o▁and	-12021
author	-12022
▁of▁life	-12023
▁workshe	-12024
▁reserved	-12025
▁ensure▁that	-12026
▁Construction	-12027
▁many▁different	-12028
ESS	-12029
▁Psych	-12030
▁shorter	-12031
▁still▁be	-12032
▁Certified	-12033
▁might▁have	-12034
▁the▁highest	-12035
▁confidential	-12036
▁entrepreneurs	-12037
▁would▁have▁been	-12038
hot	-12039
osit	-12040
▁Comb	-12041
▁closest	-12042
▁indicates	-12043
▁comes▁with	-12044
▁inside▁the	-12045
▁Performance	-12046
TP	-12047
ediat	-12048
▁Swed	-12049
▁lung	-12050
▁peer	-12051
▁drill	-12052
▁slide	-12053
▁academ	-12054
▁referr	-12055
▁the▁basic	-12056
▁comes▁from	-12057
▁manufacture	-12058
ey	-12059
▁Ten	-12060
▁Cart	-12061
▁bomb	-12062
▁guides	-12063
▁disrupt	-12064
▁disturb	-12065
▁profits	-12066
▁tailored	-12067
▁which▁we	-12068
▁support▁and	-12069
▁support▁for	-12070
▁to▁the▁next	-12071
▁Philadelphia	-12072
re▁looking▁for	-12073
han	-12074
lan	-12075
▁Civil	-12076
▁Month	-12077
▁rescue	-12078
▁strain	-12079
▁utiliz	-12080
▁Clinton	-12081
▁Houston	-12082
▁affected	-12083
▁overseas	-12084
▁designers	-12085
▁click▁here	-12086
▁wanting▁to	-12087
▁EC	-12088
▁bold	-12089
At▁the	-12090
t▁been	-12091
▁manip	-12092
▁causing	-12093
▁shortly	-12094
▁which▁I	-12095
▁pregnant	-12096
▁the▁situ	-12097
▁the▁skin	-12098
▁much▁better	-12099
iah	-12100
roit	-12101
▁toy	-12102
iscal	-12103
▁Josh	-12104
▁a▁lim	-12105
▁straw	-12106
ve▁never	-12107
▁Brother	-12108
▁Restaur	-12109
▁and▁put	-12110
▁announc	-12111
▁name▁is	-12112
▁When▁the	-12113
▁this▁was	-12114
▁School▁of	-12115
▁is▁a▁very	-12116
▁scientist	-12117
▁you▁can▁use	-12118
▁transactions	-12119
aton	-12120
oust	-12121
pire	-12122
▁Cli	-12123
▁amp	-12124
▁fur	-12125
▁sne	-12126
▁Must	-12127
▁recru	-12128
▁colleg	-12129
▁Bookmark	-12130
▁receives	-12131
▁Available	-12132
▁purchases	-12133
▁on▁the▁road	-12134
▁Hi	-12135
▁Grow	-12136
incoln	-12137
lahoma	-12138
▁sized	-12139
▁accent	-12140
▁believ	-12141
commerce	-12142
▁Pakistan	-12143
▁disorder	-12144
▁satellite	-12145
▁accommodate	-12146
rin	-12147
▁cit	-12148
bally	-12149
▁Bern	-12150
▁caut	-12151
▁royal	-12152
▁copper	-12153
▁hiring	-12154
▁nights	-12155
▁wheels	-12156
▁for▁two	-12157
▁privile	-12158
▁wellness	-12159
▁few▁years	-12160
▁qualities	-12161
alyt	-12162
avid	-12163
tech	-12164
▁Gate	-12165
Do▁you	-12166
▁Guest	-12167
Looking	-12168
▁one▁that	-12169
▁water▁and	-12170
▁starting▁to	-12171
▁mental▁health	-12172
▁in▁the▁morning	-12173
FS	-12174
ouri	-12175
▁PhD	-12176
▁radi	-12177
anship	-12178
▁Jason	-12179
▁Youth	-12180
▁quilt	-12181
▁Easter	-12182
▁entity	-12183
▁ignore	-12184
▁harmful	-12185
▁tourism	-12186
▁from▁you	-12187
▁indicate	-12188
▁doing▁the	-12189
▁inspiring	-12190
▁considerable	-12191
▁whether▁or▁not	-12192
▁bass	-12193
▁deem	-12194
rapeut	-12195
▁couch	-12196
▁on▁one	-12197
▁stomach	-12198
achusetts	-12199
▁Football	-12200
▁accuracy	-12201
▁bedrooms	-12202
▁for▁years	-12203
▁capability	-12204
▁goal▁is▁to	-12205
▁philosophy	-12206
▁in▁particular	-12207
▁thinking▁about	-12208
Free	-12209
orse	-12210
lined	-12211
party	-12212
▁Case	-12213
▁pupp	-12214
onymous	-12215
▁arrived	-12216
▁follows	-12217
▁genetic	-12218
▁reduces	-12219
▁to▁allow	-12220
▁disappear	-12221
▁in▁London	-12222
▁collective	-12223
▁having▁the	-12224
▁on▁Facebook	-12225
▁planning▁to	-12226
▁For▁instance	-12227
isan	-12228
pool	-12229
▁Bul	-12230
▁Flo	-12231
▁Rid	-12232
▁fer	-12233
Start	-12234
chair	-12235
▁tire	-12236
▁Things	-12237
▁visits	-12238
ancouver	-12239
▁noticed	-12240
▁Thailand	-12241
▁accepted	-12242
▁helps▁to	-12243
▁This▁means	-12244
▁three▁years	-12245
▁will▁also▁be	-12246
akh	-12247
▁Os	-12248
elle	-12249
▁bub	-12250
er▁or	-12251
▁Iron	-12252
▁stair	-12253
▁Season	-12254
▁shadow	-12255
▁to▁receive	-12256
Did	-12257
Both	-12258
Very	-12259
a▁is	-12260
prof	-12261
valu	-12262
▁Quick	-12263
▁bit▁of	-12264
▁flying	-12265
▁universal	-12266
▁as▁much▁as	-12267
▁FR	-12268
▁RO	-12269
▁na	-12270
unes	-12271
▁Eric	-12272
▁got▁a	-12273
▁Reserv	-12274
▁specialists	-12275
▁improvements	-12276
UC	-12277
elebr	-12278
lieve	-12279
▁Daily	-12280
▁an▁in	-12281
▁fleet	-12282
▁of▁how	-12283
▁tested	-12284
▁painted	-12285
▁smoking	-12286
▁magnetic	-12287
▁spectrum	-12288
▁this▁book	-12289
▁underlying	-12290
▁championship	-12291
unct	-12292
allas	-12293
ostic	-12294
▁Text	-12295
▁cosm	-12296
▁Linux	-12297
▁irrit	-12298
▁titled	-12299
▁You▁don	-12300
▁anytime	-12301
▁derived	-12302
▁for▁use	-12303
anchester	-12304
▁and▁when	-12305
▁searching▁for	-12306
▁there▁will▁be	-12307
▁Dar	-12308
▁Imp	-12309
▁Allen	-12310
▁login	-12311
▁Nether	-12312
ines▁and	-12313
ividually	-12314
Hz	-12315
▁ME	-12316
▁CBD	-12317
▁Lic	-12318
▁Vice	-12319
urpose	-12320
▁harder	-12321
▁is▁good	-12322
▁troubles	-12323
▁dimension	-12324
▁prominent	-12325
fish	-12326
▁gel	-12327
▁Budd	-12328
▁Hawai	-12329
▁shore	-12330
▁trips	-12331
▁Channel	-12332
▁colored	-12333
▁deadline	-12334
▁doing▁so	-12335
▁findings	-12336
▁situated	-12337
▁you▁with	-12338
s▁interest	-12339
▁Experience	-12340
▁in▁advance	-12341
▁restrictions	-12342
▁to▁determine	-12343
▁technological	-12344
KE	-12345
UI	-12346
▁с	-12347
aired	-12348
▁dipl	-12349
papers	-12350
▁I▁see	-12351
▁Steven	-12352
▁Winter	-12353
▁themes	-12354
▁down▁and	-12355
▁conversations	-12356
▁sq	-12357
Call	-12358
agle	-12359
hill	-12360
pert	-12361
rior	-12362
ruce	-12363
▁Stay	-12364
▁ampl	-12365
season	-12366
▁The▁L	-12367
▁recon	-12368
▁Orange	-12369
▁hybrid	-12370
▁waters	-12371
▁for▁him	-12372
▁it▁wasn	-12373
▁than▁ever	-12374
▁the▁field	-12375
▁amounts▁of	-12376
▁parameters	-12377
▁in▁addition▁to	-12378
PR	-12379
▁CS	-12380
Comm	-12381
apse	-12382
▁Wire	-12383
▁explos	-12384
▁vacuum	-12385
▁auction	-12386
▁observe	-12387
▁Creative	-12388
▁abstract	-12389
▁a▁bit▁of	-12390
▁Furniture	-12391
▁everybody	-12392
▁and▁can▁be	-12393
▁through▁our	-12394
.
>	-12395
claim	-12396
▁Tell	-12397
▁Vent	-12398
necess	-12399
▁immun	-12400
▁scent	-12401
▁vinyl	-12402
▁Method	-12403
▁testim	-12404
▁Ukraine	-12405
▁managed	-12406
▁role▁of	-12407
▁declared	-12408
▁to▁reach	-12409
s▁and▁more	-12410
▁artificial	-12411
▁outside▁the	-12412
High	-12413
burn	-12414
▁Feel	-12415
▁myth	-12416
▁edges	-12417
▁Altern	-12418
▁took▁a	-12419
▁For▁the	-12420
▁posting	-12421
▁the▁four	-12422
▁containing	-12423
▁known▁as▁the	-12424
ju	-12425
.▁-	-12426
ockey	-12427
▁Snow	-12428
Christ	-12429
opping	-12430
▁robot	-12431
▁burning	-12432
▁radical	-12433
▁I▁always	-12434
▁judgment	-12435
▁at▁the▁top	-12436
▁improve▁the	-12437
bird	-12438
mount	-12439
urisd	-12440
ijuana	-12441
ussion	-12442
▁mature	-12443
▁I▁never	-12444
▁Nations	-12445
▁Center▁for	-12446
▁at▁least▁one	-12447
m▁a	-12448
▁ax	-12449
▁Cool	-12450
▁Mini	-12451
▁diff	-12452
The▁new	-12453
▁obstac	-12454
▁poster	-12455
▁propri	-12456
▁suspend	-12457
▁appreciated	-12458
▁half▁of▁the	-12459
▁Rh	-12460
alem	-12461
▁DNA	-12462
▁Hyd	-12463
▁anch	-12464
▁folks	-12465
ors▁are	-12466
▁but▁you	-12467
▁Products	-12468
▁remained	-12469
▁occasions	-12470
▁on▁the▁right	-12471
km	-12472
Back	-12473
▁nic	-12474
ourse	-12475
▁Round	-12476
▁cinem	-12477
igenous	-12478
________	-12479
▁nations	-12480
▁neglect	-12481
▁striking	-12482
▁terms▁and	-12483
▁and▁we▁are	-12484
▁discipline	-12485
▁Rent	-12486
▁dose	-12487
ing▁ac	-12488
▁cultiv	-12489
▁danger	-12490
▁depict	-12491
▁murder	-12492
▁nicely	-12493
▁focused	-12494
▁we▁know	-12495
▁earnings	-12496
▁time▁you	-12497
▁indicated	-12498
▁Hom	-12499
▁eBay	-12500
▁begun	-12501
▁Resume	-12502
▁get▁to	-12503
▁purple	-12504
▁a▁break	-12505
▁effort▁to	-12506
▁should▁not	-12507
▁investments	-12508
▁put▁together	-12509
PP	-12510
rogen	-12511
▁barely	-12512
▁has▁to	-12513
▁backyard	-12514
▁they▁don	-12515
▁defensive	-12516
▁excessive	-12517
rous	-12518
charg	-12519
▁Much	-12520
▁Past	-12521
▁jail	-12522
▁pant	-12523
▁thro	-12524
apolis	-12525
igeria	-12526
ortion	-12527
▁grill	-12528
▁showc	-12529
▁of▁new	-12530
▁seating	-12531
▁engaging	-12532
▁parallel	-12533
▁read▁the	-12534
▁Hollywood	-12535
▁but▁still	-12536
▁exploring	-12537
▁ice▁cream	-12538
▁aggressive	-12539
▁up▁to▁date	-12540
▁Eve	-12541
▁tar	-12542
table	-12543
arency	-12544
▁Polit	-12545
▁and▁do	-12546
▁chairs	-12547
▁divorce	-12548
▁embrace	-12549
▁leave▁a	-12550
▁veteran	-12551
▁can▁take	-12552
▁then▁the	-12553
▁Assistant	-12554
▁us▁a▁call	-12555
▁your▁body	-12556
▁into▁account	-12557
▁they▁are▁not	-12558
▁away▁from▁the	-12559
dem	-12560
vet	-12561
ixel	-12562
▁Deal	-12563
▁Size	-12564
▁Hills	-12565
▁christ	-12566
▁poetry	-12567
▁Chapter	-12568
▁The▁most	-12569
▁far▁more	-12570
s▁with▁the	-12571
▁collected	-12572
▁in▁Europe	-12573
▁pieces▁of	-12574
▁and▁will▁be	-12575
▁our▁clients	-12576
mind	-12577
▁Tel	-12578
vents	-12579
▁slic	-12580
malink	-12581
▁acros	-12582
▁blast	-12583
s▁a▁good	-12584
▁and▁feel	-12585
▁with▁one	-12586
▁a▁lot▁more	-12587
▁in▁the▁city	-12588
▁is▁important	-12589
ante	-12590
ixed	-12591
▁Ast	-12592
owers	-12593
▁Fast	-12594
▁Screen	-12595
▁it▁for	-12596
▁carries	-12597
▁as▁their	-12598
▁balanced	-12599
s▁are▁also	-12600
▁and▁learn	-12601
▁has▁to▁be	-12602
▁instances	-12603
▁suggestion	-12604
▁the▁customer	-12605
ECT	-12606
▁CN	-12607
aped	-12608
▁Dark	-12609
t▁take	-12610
▁Laure	-12611
▁The▁G	-12612
▁as▁if	-12613
▁pounds	-12614
▁the▁sim	-12615
expensive	-12616
▁exception	-12617
▁healthier	-12618
mg	-12619
▁gem	-12620
▁sli	-12621
acity	-12622
otted	-12623
shirt	-12624
▁tang	-12625
ething	-12626
ritish	-12627
s▁life	-12628
▁a▁light	-12629
▁said▁he	-12630
▁are▁very	-12631
▁keep▁the	-12632
▁merchand	-12633
▁province	-12634
▁Parliament	-12635
▁surrounded▁by	-12636
ui	-12637
aph	-12638
▁Ali	-12639
▁nin	-12640
otype	-12641
▁grad	-12642
▁shoe	-12643
ennessee	-12644
▁accounting	-12645
▁enthusiast	-12646
DI	-12647
har	-12648
▁noth	-12649
irable	-12650
▁at▁my	-12651
▁cours	-12652
itivity	-12653
▁enabled	-12654
▁attended	-12655
▁manifest	-12656
▁prosecut	-12657
▁Currently	-12658
▁if▁you▁can	-12659
▁towards▁the	-12660
▁phone▁number	-12661
▁refrigerator	-12662
▁along▁the▁way	-12663
cs	-12664
▁Ah	-12665
size	-12666
▁poem	-12667
▁gently	-12668
▁dismiss	-12669
▁granted	-12670
▁used▁the	-12671
▁After▁all	-12672
▁accomplished	-12673
▁an▁individual	-12674
▁is▁designed▁to	-12675
PD	-12676
adi	-12677
lord	-12678
onia	-12679
emade	-12680
▁gluten	-12681
▁thanks	-12682
▁colorful	-12683
▁in▁other	-12684
▁unlikely	-12685
▁This▁year	-12686
▁beyond▁the	-12687
▁is▁another	-12688
▁conservation	-12689
wl	-12690
inar	-12691
▁Corp	-12692
Follow	-12693
called	-12694
▁spouse	-12695
▁Supreme	-12696
▁gardens	-12697
▁worried	-12698
▁countless	-12699
▁last▁night	-12700
▁network▁of	-12701
▁overwhelming	-12702
▁Kit	-12703
amics	-12704
▁Marc	-12705
ful▁of	-12706
▁Third	-12707
▁impos	-12708
▁comedy	-12709
▁ending	-12710
▁and▁had	-12711
▁in▁each	-12712
▁in▁life	-12713
▁at▁first	-12714
▁I▁need▁to	-12715
▁forced▁to	-12716
▁guaranteed	-12717
▁instructor	-12718
▁want▁to▁be	-12719
▁has▁already	-12720
▁continuously	-12721
MB	-12722
iva	-12723
sub	-12724
uer	-12725
▁Ave	-12726
▁Dyn	-12727
books	-12728
rooms	-12729
▁font	-12730
▁intu	-12731
▁wedd	-12732
▁But▁it	-12733
▁Parent	-12734
▁blog▁post	-12735
▁returning	-12736
▁the▁sound	-12737
▁for▁children	-12738
▁over▁the▁last	-12739
rint	-12740
▁Typ	-12741
▁VPN	-12742
▁nit	-12743
Gener	-12744
▁tort	-12745
▁Letter	-12746
▁agenda	-12747
▁caused	-12748
▁gained	-12749
s▁office	-12750
▁come▁up	-12751
▁inflamm	-12752
▁rolling	-12753
▁donation	-12754
▁money▁to	-12755
▁way▁that	-12756
▁we▁would	-12757
▁headquart	-12758
▁operators	-12759
▁sponsored	-12760
▁in▁general	-12761
▁before▁they	-12762
▁specialized	-12763
▁Ce	-12764
kind	-12765
t▁go	-12766
▁Lux	-12767
Which	-12768
▁Bull	-12769
▁Ever	-12770
▁boss	-12771
▁Rober	-12772
▁is▁at	-12773
▁Oxford	-12774
▁sevent	-12775
▁editing	-12776
▁laundry	-12777
▁home▁and	-12778
▁and▁social	-12779
▁intended▁to	-12780
▁lightweight	-12781
mate	-12782
about	-12783
raint	-12784
▁Being	-12785
▁liked	-12786
▁resil	-12787
▁cooling	-12788
▁or▁less	-12789
▁threaten	-12790
▁batteries	-12791
▁enjoyable	-12792
.-	-12793
opp	-12794
pot	-12795
bris	-12796
ishe	-12797
▁ANY	-12798
▁neat	-12799
▁Marsh	-12800
▁Veter	-12801
▁ethnic	-12802
▁hazard	-12803
▁venues	-12804
▁of▁some	-12805
▁rely▁on	-12806
▁tension	-12807
▁them▁in	-12808
▁memorable	-12809
▁months▁of	-12810
▁you▁can▁do	-12811
▁Association▁of	-12812
'.	-12813
▁SW	-12814
s▁me	-12815
▁gut	-12816
▁WITH	-12817
▁YOUR	-12818
ulator	-12819
ised▁to	-12820
▁Bureau	-12821
▁Have▁you	-12822
▁and▁we▁will	-12823
▁for▁those▁who	-12824
▁more▁about▁the	-12825
otte	-12826
dated	-12827
shore	-12828
ingham	-12829
▁Latin	-12830
acy▁and	-12831
▁regime	-12832
▁blanket	-12833
▁letting	-12834
▁tons▁of	-12835
▁fighting	-12836
▁Resources	-12837
▁while▁you	-12838
▁governments	-12839
▁materials▁and	-12840
▁Rus	-12841
allow	-12842
there	-12843
▁Among	-12844
▁tiles	-12845
▁yards	-12846
▁canvas	-12847
novative	-12848
▁is▁here	-12849
▁is▁open	-12850
▁voltage	-12851
t▁need▁to	-12852
▁on▁these	-12853
▁the▁money	-12854
▁unlimited	-12855
▁of▁the▁day	-12856
▁is▁the▁only	-12857
▁available▁in	-12858
▁United▁Kingdom	-12859
Eng	-12860
Loc	-12861
▁Ca	-12862
bage	-12863
▁cust	-12864
▁migr	-12865
▁wins	-12866
rowave	-12867
▁Impro	-12868
▁a▁law	-12869
▁deter	-12870
▁invit	-12871
▁Chrome	-12872
▁Double	-12873
▁so▁you	-12874
▁Feature	-12875
▁raising	-12876
▁the▁word	-12877
▁weakness	-12878
▁Wisconsin	-12879
▁structural	-12880
▁entertaining	-12881
▁architectural	-12882
who	-12883
▁jar	-12884
▁Lane	-12885
▁Index	-12886
▁vegan	-12887
Through	-12888
▁dreams	-12889
▁its▁in	-12890
▁lender	-12891
▁painful	-12892
▁side▁of	-12893
▁Scottish	-12894
▁shows▁that	-12895
▁technicians	-12896
▁the▁permalink	-12897
ANT	-12898
erge	-12899
▁cyl	-12900
▁tune	-12901
▁tracks	-12902
▁up▁for	-12903
▁assault	-12904
▁buttons	-12905
▁trailer	-12906
▁The▁main	-12907
▁matching	-12908
▁sequence	-12909
▁delivering	-12910
▁view▁of▁the	-12911
Ass	-12912
s▁T	-12913
▁Ak	-12914
conf	-12915
stock	-12916
▁Cond	-12917
etooth	-12918
ickets	-12919
▁Marine	-12920
▁Patrick	-12921
▁ratings	-12922
▁Interest	-12923
▁and▁easy	-12924
▁the▁fund	-12925
m▁not▁sure	-12926
▁Entertain	-12927
ed▁together	-12928
gs	-12929
%.
	-12930
fly	-12931
ika	-12932
▁GA	-12933
good	-12934
plus	-12935
▁wax	-12936
▁Jean	-12937
▁winn	-12938
umbers	-12939
▁to▁run	-12940
▁and▁don	-12941
ated▁from	-12942
▁Heritage	-12943
▁can▁make	-12944
▁the▁base	-12945
ustainable	-12946
▁the▁better	-12947
▁using▁this	-12948
▁part▁of▁our	-12949
Vis	-12950
amed	-12951
rors	-12952
heart	-12953
▁Bird	-12954
▁Kind	-12955
▁indu	-12956
▁Email	-12957
▁disag	-12958
▁reloc	-12959
s▁are▁a	-12960
▁duties	-12961
▁frozen	-12962
▁Islamic	-12963
▁bring▁the	-12964
▁collaborative	-12965
aa	-12966
▁AI	-12967
imum	-12968
itty	-12969
▁Jun	-12970
agine	-12971
orious	-12972
▁piano	-12973
▁Miller	-12974
▁can▁do	-12975
▁singer	-12976
With▁the	-12977
▁premier	-12978
▁to▁watch	-12979
▁brand▁new	-12980
▁Commercial	-12981
▁building▁a	-12982
▁events▁and	-12983
▁to▁see▁the	-12984
▁down▁to▁the	-12985
▁information▁is	-12986
▁CT	-12987
amon	-12988
▁Appro	-12989
▁Champ	-12990
▁audit	-12991
▁falling	-12992
▁hard▁work	-12993
▁where▁she	-12994
ing▁forward	-12995
▁notification	-12996
pa	-12997
oria	-12998
▁URL	-12999
oenix	-13000
reece	-13001
▁mira	-13002
attery	-13003
makers	-13004
owered	-13005
▁Fresh	-13006
▁The▁R	-13007
▁outer	-13008
▁soccer	-13009
▁toilet	-13010
▁lawyers	-13011
▁comes▁in	-13012
▁money▁and	-13013
▁right▁away	-13014
▁the▁moment	-13015
via	-13016
▁NJ	-13017
▁WW	-13018
oche	-13019
▁Moon	-13020
▁fert	-13021
▁soap	-13022
▁weld	-13023
elling	-13024
▁chips	-13025
▁a▁life	-13026
▁dealer	-13027
▁and▁why	-13028
▁in▁China	-13029
▁sleeping	-13030
▁the▁name	-13031
▁chance▁of	-13032
▁indicator	-13033
▁preferences	-13034
▁transparent	-13035
▁National▁Park	-13036
▁between▁the▁two	-13037
VC	-13038
only	-13039
pers	-13040
plic	-13041
they	-13042
▁Cry	-13043
amboo	-13044
▁Door	-13045
▁pron	-13046
▁Dress	-13047
▁Study	-13048
▁appet	-13049
▁excit	-13050
I▁would	-13051
▁Effect	-13052
▁pillow	-13053
s▁can▁be	-13054
▁bottles	-13055
▁to▁join	-13056
▁to▁move	-13057
▁Assembly	-13058
▁from▁the▁c	-13059
▁cooperation	-13060
▁promotional	-13061
▁knowledgeable	-13062
',	-13063
INE	-13064
Rep	-13065
full	-13066
t▁do	-13067
▁Hub	-13068
ython	-13069
arring	-13070
mother	-13071
▁ended	-13072
s▁a▁lot	-13073
etheless	-13074
iplinary	-13075
▁easiest	-13076
▁identifi	-13077
▁publicly	-13078
▁Vancouver	-13079
▁graduates	-13080
▁next▁week	-13081
▁invitation	-13082
▁reason▁why	-13083
▁safety▁and	-13084
▁arrangements	-13085
▁there▁are▁no	-13086
▁understand▁that	-13087
ntil	-13088
th▁of	-13089
ced▁in	-13090
olitan	-13091
▁buyer	-13092
s▁again	-13093
ve▁ever	-13094
▁rhythm	-13095
▁paragraph	-13096
PG	-13097
Day	-13098
hav	-13099
apel	-13100
▁Tan	-13101
▁USD	-13102
Those	-13103
attan	-13104
▁Poly	-13105
▁Side	-13106
▁Tele	-13107
age▁of	-13108
▁Miami	-13109
▁Style	-13110
▁costly	-13111
▁Diamond	-13112
ing▁after	-13113
▁right▁to	-13114
▁applicant	-13115
▁classical	-13116
▁specially	-13117
▁the▁court	-13118
▁this▁post	-13119
▁to▁make▁the	-13120
▁people▁who▁are	-13121
▁MC	-13122
▁Mu	-13123
▁Luc	-13124
▁add▁a	-13125
▁candy	-13126
▁analyz	-13127
▁that▁one	-13128
▁Alexander	-13129
▁employers	-13130
▁precision	-13131
▁of▁the▁new	-13132
▁by▁clicking	-13133
▁benefit▁from	-13134
▁so▁that▁you▁can	-13135
drop	-13136
mart	-13137
asket	-13138
i▁and	-13139
driven	-13140
eramic	-13141
▁invas	-13142
▁seller	-13143
▁separately	-13144
s▁across▁the	-13145
▁conferences	-13146
▁instruments	-13147
▁sounds▁like	-13148
▁prior▁to▁the	-13149
▁unfortunately	-13150
PI	-13151
shot	-13152
▁Lyn	-13153
erald	-13154
ragon	-13155
▁Brew	-13156
▁jazz	-13157
▁fifth	-13158
▁waves	-13159
▁preced	-13160
▁is▁quite	-13161
▁restored	-13162
▁have▁some	-13163
▁photographs	-13164
Her	-13165
▁hed	-13166
andal	-13167
ontal	-13168
ottage	-13169
ruptcy	-13170
▁Clark	-13171
▁Peace	-13172
▁brace	-13173
▁comic	-13174
inction	-13175
▁intrig	-13176
▁jurisd	-13177
▁of▁one	-13178
▁thirty	-13179
▁verify	-13180
▁Indiana	-13181
▁I▁haven	-13182
▁Teacher	-13183
▁curious	-13184
▁for▁new	-13185
▁preview	-13186
▁and▁very	-13187
▁method▁of	-13188
▁they▁would	-13189
▁prospective	-13190
▁on▁the▁ground	-13191
▁involved▁in▁the	-13192
▁Eth	-13193
ometer	-13194
▁genre	-13195
▁lists	-13196
▁toxic	-13197
▁Intell	-13198
Download	-13199
▁Oklahoma	-13200
▁ensuring	-13201
▁placement	-13202
▁specialty	-13203
▁the▁story	-13204
ued	-13205
ikes	-13206
▁Sony	-13207
▁outs	-13208
commun	-13209
▁I▁said	-13210
▁and▁go	-13211
▁and▁give	-13212
▁parts▁of	-13213
▁showcase	-13214
▁sorts▁of	-13215
▁return▁to	-13216
▁additionally	-13217
▁recent▁years	-13218
▁blood▁pressure	-13219
▁small▁business	-13220
DR	-13221
iper	-13222
▁Dom	-13223
▁Hay	-13224
le▁of	-13225
▁Roof	-13226
▁hass	-13227
▁hell	-13228
▁junk	-13229
▁passes	-13230
▁temple	-13231
▁she▁had	-13232
▁evaluate	-13233
▁to▁those	-13234
▁worked▁with	-13235
▁will▁be▁held	-13236
▁is▁the▁perfect	-13237
▁characteristics	-13238
wa	-13239
stop	-13240
ateral	-13241
▁shelf	-13242
etition	-13243
▁Simple	-13244
▁barrel	-13245
▁thesis	-13246
▁Success	-13247
▁grocery	-13248
▁tell▁me	-13249
▁we▁also	-13250
ilitation	-13251
▁choosing	-13252
During▁the	-13253
▁seemed▁to	-13254
▁we▁have▁a	-13255
▁I▁remember	-13256
cin	-13257
hyd	-13258
Learn	-13259
▁Date	-13260
▁lady	-13261
▁moon	-13262
▁Along	-13263
▁Early	-13264
▁addict	-13265
▁debris	-13266
▁kilomet	-13267
▁the▁bar	-13268
▁the▁land	-13269
▁experiencing	-13270
▁and▁the▁other	-13271
yr	-13272
Bel	-13273
Time	-13274
▁jet	-13275
depth	-13276
▁Bush	-13277
▁Cancer	-13278
▁riding	-13279
ing▁tool	-13280
▁Factory	-13281
▁coastal	-13282
▁of▁mind	-13283
▁penalty	-13284
▁built▁in	-13285
▁grinding	-13286
▁nonprofit	-13287
▁to▁change	-13288
▁seems▁like	-13289
▁intelligent	-13290
▁Institute▁of	-13291
▁there▁are▁many	-13292
oca	-13293
▁UC	-13294
anned	-13295
erest	-13296
green	-13297
▁Anne	-13298
▁maps	-13299
▁is▁un	-13300
▁Israeli	-13301
▁Template	-13302
▁to▁check	-13303
▁and▁start	-13304
▁followers	-13305
▁adjustment	-13306
▁approaches	-13307
gov	-13308
uke	-13309
aled	-13310
a▁de	-13311
▁caf	-13312
ocrat	-13313
olves	-13314
▁trek	-13315
▁Chang	-13316
▁up▁on	-13317
ism▁and	-13318
▁fortun	-13319
▁washing	-13320
ing▁process	-13321
▁Democratic	-13322
▁protective	-13323
▁continually	-13324
▁our▁website	-13325
▁in▁the▁early	-13326
ed▁information	-13327
▁an▁additional	-13328
▁an▁appointment	-13329
.
–	-13330
ACK	-13331
aco	-13332
iel	-13333
▁Burn	-13334
▁bulk	-13335
▁exem	-13336
▁booth	-13337
irthday	-13338
▁Single	-13339
▁Turkey	-13340
▁cancel	-13341
▁worker	-13342
▁thing▁to	-13343
▁and▁share	-13344
▁Enterprise	-13345
▁take▁a▁look	-13346
▁in▁the▁event	-13347
▁simultaneously	-13348
▁compared▁to▁the	-13349
El	-13350
ults	-13351
▁Mrs	-13352
▁Navy	-13353
t▁like	-13354
▁Craft	-13355
▁Lewis	-13356
▁gross	-13357
▁turns	-13358
▁assert	-13359
▁at▁The	-13360
▁foster	-13361
s▁website	-13362
▁Palestin	-13363
▁calories	-13364
▁is▁there	-13365
▁degree▁in	-13366
▁luxurious	-13367
▁million▁in	-13368
▁to▁believe	-13369
▁Even▁though	-13370
▁for▁another	-13371
ll▁be▁able▁to	-13372
▁temperatures	-13373
rub	-13374
beat	-13375
game	-13376
post	-13377
▁Wind	-13378
▁Death	-13379
▁are▁in	-13380
▁exclud	-13381
▁insist	-13382
▁on▁both	-13383
▁why▁not	-13384
▁the▁bank	-13385
▁the▁post	-13386
▁I▁started	-13387
▁centuries	-13388
▁anyone▁who	-13389
▁be▁sure▁to	-13390
bes	-13391
▁WA	-13392
town	-13393
upid	-13394
▁grip	-13395
▁Attor	-13396
▁dwell	-13397
▁lobby	-13398
▁Yellow	-13399
▁console	-13400
▁electro	-13401
▁signals	-13402
s▁on▁your	-13403
▁expanded	-13404
▁franchise	-13405
▁meditation	-13406
▁work▁together	-13407
▁RA	-13408
▁ris	-13409
ulent	-13410
▁Bowl	-13411
▁is▁as	-13412
▁steep	-13413
▁by▁our	-13414
▁embedd	-13415
▁tempor	-13416
s▁a▁great	-13417
▁athletes	-13418
s▁into▁the	-13419
▁Represent	-13420
s▁important	-13421
▁minutes▁to	-13422
▁some▁other	-13423
ification▁of	-13424
▁а	-13425
jan	-13426
ella	-13427
uing	-13428
otion	-13429
▁Dave	-13430
▁Hart	-13431
▁Java	-13432
argain	-13433
Despite	-13434
ategory	-13435
itarian	-13436
▁I▁made	-13437
▁divers	-13438
▁nearest	-13439
▁semester	-13440
▁subjects	-13441
▁are▁still	-13442
▁forgotten	-13443
▁incorrect	-13444
▁with▁more	-13445
▁celebrated	-13446
▁decorative	-13447
▁facilitate	-13448
▁invited▁to	-13449
▁experimental	-13450
▁at▁the▁moment	-13451
▁as▁part▁of▁the	-13452
EX	-13453
▁Ark	-13454
health	-13455
▁Kelly	-13456
▁argue	-13457
▁of▁ac	-13458
▁Sydney	-13459
▁defeat	-13460
▁habits	-13461
▁Christians	-13462
▁take▁place	-13463
▁to▁deliver	-13464
▁tremendous	-13465
▁visibility	-13466
▁of▁the▁same	-13467
▁management▁and	-13468
Home	-13469
▁Mir	-13470
▁mush	-13471
▁revers	-13472
▁attacks	-13473
▁taking▁a	-13474
▁We▁have▁a	-13475
▁applied▁to	-13476
▁marketplace	-13477
▁the▁process	-13478
BN	-13479
gien	-13480
ilver	-13481
ipher	-13482
ropri	-13483
▁aged	-13484
▁tweet	-13485
verages	-13486
▁latter	-13487
▁couples	-13488
▁curtain	-13489
s▁time▁to	-13490
▁at▁times	-13491
▁based▁on▁a	-13492
▁achievement	-13493
LD	-13494
iy	-13495
▁Aqu	-13496
▁Easy	-13497
▁Jane	-13498
▁Pick	-13499
▁Flash	-13500
▁beans	-13501
▁suits	-13502
▁sweat	-13503
▁thumb	-13504
▁essays	-13505
▁shapes	-13506
You▁will	-13507
ers▁that	-13508
▁flooring	-13509
▁prescrib	-13510
▁is▁on▁the	-13511
▁your▁life	-13512
ing▁the▁best	-13513
▁it▁comes▁to	-13514
▁reliability	-13515
▁on▁this▁site	-13516
PT	-13517
rell	-13518
▁pit	-13519
▁tray	-13520
▁lover	-13521
ise▁the	-13522
▁sprink	-13523
▁wardro	-13524
▁best▁to	-13525
▁partial	-13526
▁Practice	-13527
▁have▁you	-13528
▁licensed	-13529
▁neighbors	-13530
▁profession	-13531
▁substitute	-13532
iro	-13533
otes	-13534
visor	-13535
▁Carib	-13536
▁Money	-13537
▁chill	-13538
▁embra	-13539
▁it▁on	-13540
▁moral	-13541
▁Remove	-13542
▁Olympic	-13543
▁Several	-13544
▁out▁for	-13545
▁you▁see	-13546
▁overlook	-13547
▁It▁is▁not	-13548
▁associate	-13549
▁attendance	-13550
▁range▁from	-13551
▁focusing▁on	-13552
▁company▁that	-13553
▁patients▁with	-13554
,▁&	-13555
fend	-13556
olen	-13557
▁beds	-13558
ourage	-13559
ascular	-13560
▁thrown	-13561
▁She▁has	-13562
▁beloved	-13563
▁tell▁us	-13564
effective	-13565
t▁believe	-13566
▁opponent	-13567
▁streaming	-13568
▁legitimate	-13569
▁presentations	-13570
▁cub	-13571
track	-13572
hedral	-13573
master	-13574
▁Phone	-13575
▁incur	-13576
▁mouse	-13577
▁modify	-13578
▁Century	-13579
▁Portland	-13580
▁hope▁you	-13581
▁steps▁to	-13582
▁departure	-13583
▁paintings	-13584
▁air▁condition	-13585
▁the▁information	-13586
VP	-13587
eta	-13588
s▁my	-13589
▁Beat	-13590
▁Sant	-13591
advant	-13592
arness	-13593
▁potato	-13594
▁stands	-13595
▁or▁call	-13596
▁crushing	-13597
▁analytics	-13598
▁disorders	-13599
▁concept▁of	-13600
▁easy▁to▁use	-13601
▁stakeholders	-13602
▁Thank▁you▁for	-13603
▁period▁of▁time	-13604
▁cab	-13605
▁Iowa	-13606
iberty	-13607
▁Phill	-13608
▁Coffee	-13609
▁holder	-13610
▁signed	-13611
▁configur	-13612
▁data▁and	-13613
▁explains	-13614
▁gradually	-13615
▁shows▁the	-13616
▁comes▁with▁a	-13617
▁difficulties	-13618
!"	-13619
▁Age	-13620
ll▁see	-13621
▁exped	-13622
▁mutual	-13623
▁all▁day	-13624
▁are▁now	-13625
▁shelter	-13626
▁staying	-13627
▁theater	-13628
▁what▁he	-13629
▁achieved	-13630
▁and▁play	-13631
▁people▁have	-13632
▁portion▁of▁the	-13633
▁VR	-13634
acht	-13635
arat	-13636
▁Agric	-13637
▁Cabin	-13638
▁barri	-13639
▁drove	-13640
▁analys	-13641
▁courts	-13642
▁failed	-13643
▁favorites	-13644
▁involving	-13645
▁nationwide	-13646
▁Whether▁you	-13647
▁a▁different	-13648
▁along▁with▁a	-13649
ucks	-13650
▁GPS	-13651
oucher	-13652
prises	-13653
▁Track	-13654
▁saved	-13655
ishment	-13656
▁Morgan	-13657
▁infect	-13658
▁appears	-13659
▁on▁them	-13660
▁will▁go	-13661
▁won▁the	-13662
▁studying	-13663
▁accompany	-13664
▁attending	-13665
▁Middle▁East	-13666
▁in▁addition	-13667
▁weight▁loss	-13668
▁quality▁of▁the	-13669
phy	-13670
ench	-13671
andel	-13672
attoo	-13673
▁bite	-13674
▁tong	-13675
I▁just	-13676
▁Anton	-13677
▁birds	-13678
fulness	-13679
▁cookie	-13680
▁in▁San	-13681
▁dispute	-13682
▁farmers	-13683
▁Cleaning	-13684
▁get▁your	-13685
▁means▁to	-13686
▁requests	-13687
▁linked▁to	-13688
▁make▁this	-13689
▁directions	-13690
▁contractors	-13691
▁imagination	-13692
IB	-13693
cr	-13694
igned	-13695
odium	-13696
▁hike	-13697
▁Dutch	-13698
▁shine	-13699
▁sweep	-13700
▁Always	-13701
▁legacy	-13702
▁discret	-13703
▁Here▁are	-13704
▁by▁using	-13705
▁criticism	-13706
▁describes	-13707
▁In▁order▁to	-13708
▁every▁single	-13709
▁for▁instance	-13710
▁the▁ability▁to	-13711
▁the▁government	-13712
SW	-13713
some	-13714
uros	-13715
wick	-13716
adays	-13717
hesis	-13718
▁THIS	-13719
▁delet	-13720
▁hopes	-13721
▁blocks	-13722
▁Premium	-13723
▁be▁sure	-13724
▁from▁any	-13725
▁I▁will▁be	-13726
▁leave▁the	-13727
▁variation	-13728
▁that▁their	-13729
▁takes▁place	-13730
kee	-13731
Cent	-13732
esty	-13733
▁Pear	-13734
I▁know	-13735
▁Is▁it	-13736
▁fired	-13737
ictures	-13738
▁Dining	-13739
▁her▁own	-13740
▁lasting	-13741
necessary	-13742
▁only▁the	-13743
▁on▁April	-13744
▁fascinating	-13745
Ge	-13746
SM	-13747
plex	-13748
udio	-13749
anean	-13750
▁sits	-13751
▁dropp	-13752
▁fancy	-13753
▁harsh	-13754
ed▁down	-13755
▁portal	-13756
rapeutic	-13757
▁on▁each	-13758
▁ready▁for	-13759
▁workforce	-13760
▁responsive	-13761
▁Philippines	-13762
▁agricultural	-13763
▁children▁and	-13764
▁disabilities	-13765
▁WE	-13766
▁od	-13767
auge	-13768
▁clay	-13769
▁flip	-13770
▁glow	-13771
▁peel	-13772
▁turb	-13773
orient	-13774
▁stere	-13775
▁Besides	-13776
▁contents	-13777
▁of▁the▁B	-13778
▁targeted	-13779
▁took▁the	-13780
▁and▁so▁on	-13781
▁confusion	-13782
Set	-13783
Supp	-13784
vard	-13785
▁Panel	-13786
▁scroll	-13787
▁Premier	-13788
▁cuisine	-13789
▁on▁what	-13790
▁repairs	-13791
▁cocktail	-13792
▁to▁visit	-13793
▁Technical	-13794
▁people▁in	-13795
▁but▁it▁was	-13796
▁hospitality	-13797
▁passion▁for	-13798
▁optimization	-13799
▁make▁sure▁you	-13800
Red	-13801
osph	-13802
stru	-13803
wing	-13804
▁▁▁▁	-13805
adget	-13806
▁Greg	-13807
▁wage	-13808
quisite	-13809
▁Unlike	-13810
▁fallen	-13811
specific	-13812
▁care▁of	-13813
▁Dumpster	-13814
▁covering	-13815
▁manually	-13816
▁There▁was	-13817
▁seem▁to▁be	-13818
▁customers▁and	-13819
?!	-13820
▁Jay	-13821
▁Mall	-13822
acy▁of	-13823
usions	-13824
▁immers	-13825
▁Anthony	-13826
▁evident	-13827
▁it▁does	-13828
▁offense	-13829
▁sending	-13830
▁love▁the	-13831
▁magnific	-13832
▁mobility	-13833
▁is▁already	-13834
▁quickly▁and	-13835
▁will▁provide	-13836
▁straightforward	-13837
xide	-13838
▁Vit	-13839
elect	-13840
▁finds	-13841
▁give▁a	-13842
▁serial	-13843
▁then▁you	-13844
▁emissions	-13845
▁used▁as▁a	-13846
▁accurately	-13847
▁for▁the▁best	-13848
▁take▁advantage	-13849
TM	-13850
ollar	-13851
▁Gulf	-13852
▁Thai	-13853
▁intake	-13854
▁scores	-13855
▁Anderson	-13856
▁is▁known	-13857
▁pollution	-13858
ated▁by▁the	-13859
▁completion	-13860
▁consistency	-13861
ing▁the▁right	-13862
▁focus▁on▁the	-13863
▁in▁the▁industry	-13864
mers	-13865
▁mad	-13866
As▁the	-13867
▁burst	-13868
▁humid	-13869
If▁your	-13870
aintiff	-13871
otation	-13872
▁Better	-13873
▁Cooper	-13874
▁advanc	-13875
▁at▁its	-13876
▁Can▁you	-13877
▁figured	-13878
▁explicit	-13879
▁relaxing	-13880
▁reserves	-13881
▁which▁he	-13882
▁passenger	-13883
▁The▁second	-13884
▁biological	-13885
▁There▁are▁many	-13886
uv	-13887
eron	-13888
▁Hum	-13889
achel	-13890
anium	-13891
ensed	-13892
trans	-13893
▁Cell	-13894
▁blame	-13895
▁convin	-13896
▁devast	-13897
▁formed	-13898
▁marine	-13899
▁highway	-13900
▁honored	-13901
▁in▁the▁next	-13902
▁years▁later	-13903
▁coloring▁pages	-13904
▁Bry	-13905
▁So▁I	-13906
▁Excel	-13907
▁rings	-13908
▁valve	-13909
▁Source	-13910
▁frames	-13911
▁shield	-13912
▁fantasy	-13913
▁know▁how	-13914
▁into▁their	-13915
▁is▁nothing	-13916
▁that▁these	-13917
▁do▁not▁have	-13918
▁knowledge▁of	-13919
FP	-13920
cha	-13921
▁Gas	-13922
▁Hav	-13923
▁Five	-13924
▁ties	-13925
▁Making	-13926
▁trying	-13927
▁at▁some	-13928
▁consume	-13929
▁it▁also	-13930
▁soldiers	-13931
▁us▁today	-13932
▁identical	-13933
▁Restaurant	-13934
▁focuses▁on	-13935
▁on▁the▁same	-13936
▁really▁good	-13937
▁because▁it▁is	-13938
Wow	-13939
tal	-13940
▁ye	-13941
▁Hur	-13942
▁Les	-13943
arios	-13944
emale	-13945
▁merg	-13946
▁pione	-13947
▁I▁wasn	-13948
▁you▁in	-13949
s▁inside	-13950
▁easy▁and	-13951
▁of▁the▁S	-13952
▁we▁could	-13953
▁democracy	-13954
▁per▁month	-13955
▁tools▁and	-13956
▁transferred	-13957
▁the▁original	-13958
udi	-13959
▁ET	-13960
phan	-13961
▁Pain	-13962
▁lear	-13963
▁skip	-13964
in▁and	-13965
▁decad	-13966
▁facts	-13967
▁fence	-13968
▁queen	-13969
▁Course	-13970
irection	-13971
▁cannabis	-13972
▁audiences	-13973
▁vulnerable	-13974
▁for▁several	-13975
▁Thanksgiving	-13976
▁Prime▁Minister	-13977
mir	-13978
pes	-13979
apor	-13980
will	-13981
▁Dry	-13982
▁Moh	-13983
abama	-13984
iterr	-13985
▁Script	-13986
▁When▁we	-13987
▁at▁that	-13988
▁sponsor	-13989
▁from▁its	-13990
▁can▁cause	-13991
▁with▁many	-13992
▁adjustable	-13993
▁is▁that▁it	-13994
▁distinctive	-13995
▁restoration	-13996
▁part▁of▁your	-13997
Mon	-13998
itts	-13999
name	-14000
David	-14001
▁bump	-14002
▁orth	-14003
d▁like	-14004
▁heads	-14005
▁transf	-14006
otherapy	-14007
outheast	-14008
▁leisure	-14009
▁the▁low	-14010
▁Chairman	-14011
▁Malaysia	-14012
▁You▁have	-14013
▁directors	-14014
▁one▁of▁them	-14015
▁developments	-14016
veland	-14017
▁Edward	-14018
▁journe	-14019
▁voices	-14020
fections	-14021
ologists	-14022
▁readily	-14023
▁distract	-14024
▁makes▁me	-14025
▁and▁water	-14026
▁attorneys	-14027
▁confirmed	-14028
▁integrity	-14029
▁it▁to▁the	-14030
▁listen▁to	-14031
▁that▁it▁was	-14032
▁likely▁to▁be	-14033
▁to▁work▁with	-14034
▁outside▁of▁the	-14035
List	-14036
chet	-14037
t▁let	-14038
▁If▁a	-14039
▁Leon	-14040
▁Marg	-14041
▁Berlin	-14042
▁one▁to	-14043
▁was▁so	-14044
▁lecture	-14045
▁the▁pop	-14046
▁under▁a	-14047
▁Alliance	-14048
▁Together	-14049
▁disabled	-14050
▁seemingly	-14051
▁navigation	-14052
▁destruction	-14053
▁you▁can▁also	-14054
Fl	-14055
igue	-14056
▁Raj	-14057
▁Heat	-14058
▁lately	-14059
ediatric	-14060
▁descend	-14061
ed▁without	-14062
s▁a▁little	-14063
▁Pinterest	-14064
▁campaigns	-14065
▁for▁other	-14066
▁marijuana	-14067
▁show▁that	-14068
▁vegetable	-14069
▁energy▁and	-14070
▁Application	-14071
IVE	-14072
oore	-14073
icular	-14074
redict	-14075
▁Could	-14076
▁Intel	-14077
▁I▁use	-14078
▁Train	-14079
▁steal	-14080
Contact	-14081
▁forced	-14082
▁is▁free	-14083
▁viewing	-14084
▁From▁the	-14085
▁honestly	-14086
▁somebody	-14087
▁to▁write	-14088
▁accidents	-14089
▁after▁all	-14090
s▁that▁will	-14091
▁and▁beyond	-14092
▁as▁they▁are	-14093
▁or▁otherwise	-14094
▁treatment▁of	-14095
▁for▁more▁than	-14096
uts	-14097
grad	-14098
ials	-14099
▁Hal	-14100
▁SER	-14101
imore	-14102
▁dear	-14103
▁The▁T	-14104
▁ventil	-14105
▁charged	-14106
▁dissert	-14107
▁execute	-14108
▁Economic	-14109
▁disposal	-14110
▁revealed	-14111
▁movements	-14112
▁responses	-14113
▁encourages	-14114
▁struggling	-14115
utomatically	-14116
▁relating▁to	-14117
▁combined▁with	-14118
▁experience▁of	-14119
UE	-14120
hist	-14121
onge	-14122
owned	-14123
shine	-14124
father	-14125
▁as▁of	-14126
▁owned	-14127
▁Kansas	-14128
▁breaks	-14129
▁what▁a	-14130
▁but▁are	-14131
▁entities	-14132
▁is▁to▁be	-14133
▁years▁in	-14134
There▁is▁a	-14135
▁White▁House	-14136
▁connected▁to	-14137
▁transparency	-14138
omic	-14139
ector	-14140
▁Whit	-14141
If▁the	-14142
around	-14143
resist	-14144
▁marks	-14145
▁Nation	-14146
▁clever	-14147
▁powers	-14148
▁Matthew	-14149
▁an▁easy	-14150
▁made▁to	-14151
▁and▁were	-14152
▁in▁South	-14153
▁lifetime	-14154
▁The▁other	-14155
▁integrate	-14156
▁these▁days	-14157
▁written▁by	-14158
▁Some▁of▁the	-14159
▁decision▁to	-14160
▁the▁surface	-14161
URE	-14162
].
	-14163
▁GO	-14164
bass	-14165
otyp	-14166
▁Hug	-14167
▁Turk	-14168
▁dont	-14169
onomic	-14170
writer	-14171
▁Plans	-14172
▁Highway	-14173
▁delicate	-14174
▁homemade	-14175
▁love▁and	-14176
▁compassion	-14177
▁in▁New▁York	-14178
▁in▁accordance	-14179
Ok	-14180
mn	-14181
▁Ze	-14182
▁Rand	-14183
▁hence	-14184
clusive	-14185
▁a▁link	-14186
▁ranked	-14187
▁handles	-14188
▁love▁it	-14189
▁seminar	-14190
▁the▁box	-14191
▁save▁you	-14192
▁and▁found	-14193
▁an▁online	-14194
▁that▁will▁be	-14195
HL	-14196
Inc	-14197
ctu	-14198
▁PL	-14199
agers	-14200
amera	-14201
count	-14202
▁Shar	-14203
▁Prize	-14204
▁Return	-14205
▁Visual	-14206
▁render	-14207
▁writes	-14208
▁Springs	-14209
▁fingers	-14210
▁mystery	-14211
▁outline	-14212
▁singing	-14213
▁suppose	-14214
▁and▁from	-14215
▁Valentine	-14216
▁about▁you	-14217
▁Leadership	-14218
▁laboratory	-14219
▁progressive	-14220
xx	-14221
aga	-14222
aro	-14223
oub	-14224
▁IV	-14225
cled	-14226
▁HERE	-14227
▁bene	-14228
▁epic	-14229
s▁good	-14230
▁Pages	-14231
▁cheer	-14232
chestra	-14233
▁Fellow	-14234
▁a▁free	-14235
▁in▁time	-14236
▁onto▁the	-14237
▁to▁enjoy	-14238
▁users▁to	-14239
▁carry▁out	-14240
▁excitement	-14241
▁your▁website	-14242
La	-14243
wed	-14244
rets	-14245
▁rend	-14246
▁synd	-14247
ichael	-14248
▁Often	-14249
▁Beauty	-14250
▁Scient	-14251
▁emails	-14252
▁it▁may	-14253
▁nobody	-14254
▁wallet	-14255
▁legally	-14256
▁theatre	-14257
▁agreed▁to	-14258
▁journalist	-14259
▁the▁present	-14260
▁and▁maintain	-14261
▁Entertainment	-14262
▁complimentary	-14263
emn	-14264
lace	-14265
▁bay	-14266
▁pine	-14267
▁pond	-14268
On▁the	-14269
parent	-14270
berries	-14271
▁I▁wish	-14272
▁She▁is	-14273
▁fridge	-14274
wareness	-14275
▁coming▁to	-14276
▁benefits▁of	-14277
▁distributed	-14278
▁if▁you▁want	-14279
▁whether▁the	-14280
▁anything▁else	-14281
▁email▁address	-14282
▁equipped▁with	-14283
cat	-14284
angh	-14285
inge	-14286
rene	-14287
▁Alt	-14288
oline	-14289
ayment	-14290
▁upset	-14291
▁stroll	-14292
▁to▁win	-14293
▁about▁my	-14294
▁homeless	-14295
▁outdoors	-14296
▁surgical	-14297
▁offensive	-14298
▁warehouse	-14299
▁because▁he	-14300
▁documentary	-14301
▁merchandise	-14302
▁institutional	-14303
▁together▁with	-14304
▁percent▁of▁the	-14305
AG	-14306
▁Six	-14307
enery	-14308
▁bicy	-14309
▁bind	-14310
▁rival	-14311
▁seeds	-14312
▁shark	-14313
attered	-14314
▁enjoys	-14315
▁of▁many	-14316
▁body▁and	-14317
▁place▁of	-14318
▁contracts	-14319
▁financing	-14320
▁require▁a	-14321
▁containers	-14322
▁opposed▁to	-14323
▁preference	-14324
▁priorities	-14325
▁remembered	-14326
▁took▁place	-14327
▁discuss▁the	-14328
▁encouraging	-14329
▁individually	-14330
▁solutions▁to	-14331
.’	-14332
Off	-14333
ahoo	-14334
ivic	-14335
▁Carl	-14336
▁Gene	-14337
▁Rain	-14338
▁Talk	-14339
▁Utah	-14340
▁irre	-14341
▁Total	-14342
▁digit	-14343
▁gonna	-14344
▁trace	-14345
▁Knight	-14346
function	-14347
▁begin▁to	-14348
▁relation	-14349
▁the▁camp	-14350
▁variables	-14351
▁because▁you	-14352
Em	-14353
dig	-14354
s▁L	-14355
arer	-14356
▁Had	-14357
▁Tai	-14358
ed▁him	-14359
▁paste	-14360
▁Editor	-14361
▁cleans	-14362
▁hungry	-14363
▁is▁too	-14364
▁Detroit	-14365
▁cleaner	-14366
▁eastern	-14367
iterranean	-14368
▁perception	-14369
▁each▁of▁the	-14370
▁in▁different	-14371
▁with▁respect	-14372
bn	-14373
▁las	-14374
liest	-14375
▁Hair	-14376
▁Target	-14377
▁sheets	-14378
olitical	-14379
▁Holiday	-14380
▁bearing	-14381
▁of▁a▁new	-14382
▁companion	-14383
▁loved▁one	-14384
▁workshops	-14385
▁and▁around	-14386
▁know▁how▁to	-14387
▁saying▁that	-14388
Hel	-14389
bul	-14390
idth	-14391
▁Upon	-14392
le▁and	-14393
▁inhib	-14394
▁noted	-14395
compass	-14396
ulating	-14397
▁Wilson	-14398
▁immense	-14399
[...]
