<pad>	0
</s>	0
<unk>	0
<mask>	0
<n>	0
<0x00>	0
<0x01>	0
<0x02>	0
<0x03>	0
<0x04>	0
<0x05>	0
<0x06>	0
<0x07>	0
<0x08>	0
<0x09>	0
<0x0A>	0
<0x0B>	0
<0x0C>	0
<0x0D>	0
<0x0E>	0
<0x0F>	0
<0x10>	0
<0x11>	0
<0x12>	0
<0x13>	0
<0x14>	0
<0x15>	0
<0x16>	0
<0x17>	0
<0x18>	0
<0x19>	0
<0x1A>	0
<0x1B>	0
<0x1C>	0
<0x1D>	0
<0x1E>	0
<0x1F>	0
<0x20>	0
<0x21>	0
<0x22>	0
<0x23>	0
<0x24>	0
<0x25>	0
<0x26>	0
<0x27>	0
<0x28>	0
<0x29>	0
<0x2A>	0
<0x2B>	0
<0x2C>	0
<0x2D>	0
<0x2E>	0
<0x2F>	0
<0x30>	0
<0x31>	0
<0x32>	0
<0x33>	0
<0x34>	0
<0x35>	0
<0x36>	0
<0x37>	0
<0x38>	0
<0x39>	0
<0x3A>	0
<0x3B>	0
<0x3C>	0
<0x3D>	0
<0x3E>	0
<0x3F>	0
<0x40>	0
<0x41>	0
<0x42>	0
<0x43>	0
<0x44>	0
<0x45>	0
<0x46>	0
<0x47>	0
<0x48>	0
<0x49>	0
<0x4A>	0
<0x4B>	0
<0x4C>	0
<0x4D>	0
<0x4E>	0
<0x4F>	0
<0x50>	0
<0x51>	0
<0x52>	0
<0x53>	0
<0x54>	0
<0x55>	0
<0x56>	0
<0x57>	0
<0x58>	0
<0x59>	0
<0x5A>	0
<0x5B>	0
<0x5C>	0
<0x5D>	0
<0x5E>	0
<0x5F>	0
<0x60>	0
<0x61>	0
<0x62>	0
<0x63>	0
<0x64>	0
<0x65>	0
<0x66>	0
<0x67>	0
<0x68>	0
<0x69>	0
<0x6A>	0
<0x6B>	0
<0x6C>	0
<0x6D>	0
<0x6E>	0
<0x6F>	0
<0x70>	0
<0x71>	0
<0x72>	0
<0x73>	0
<0x74>	0
<0x75>	0
<0x76>	0
<0x77>	0
<0x78>	0
<0x79>	0
<0x7A>	0
<0x7B>	0
<0x7C>	0
<0x7D>	0
<0x7E>	0
<0x7F>	0
<0x80>	0
<0x81>	0
<0x82>	0
<0x83>	0
<0x84>	0
<0x85>	0
<0x86>	0
<0x87>	0
<0x88>	0
<0x89>	0
<0x8A>	0
<0x8B>	0
<0x8C>	0
<0x8D>	0
<0x8E>	0
<0x8F>	0
<0x90>	0
<0x91>	0
<0x92>	0
<0x93>	0
<0x94>	0
<0x95>	0
<0x96>	0
<0x97>	0
<0x98>	0
<0x99>	0
<0x9A>	0
<0x9B>	0
<0x9C>	0
<0x9D>	0
<0x9E>	0
<0x9F>	0
<0xA0>	0
<0xA1>	0
<0xA2>	0
<0xA3>	0
<0xA4>	0
<0xA5>	0
<0xA6>	0
<0xA7>	0
<0xA8>	0
<0xA9>	0
<0xAA>	0
<0xAB>	0
<0xAC>	0
<0xAD>	0
<0xAE>	0
<0xAF>	0
<0xB0>	0
<0xB1>	0
<0xB2>	0
<0xB3>	0
<0xB4>	0
<0xB5>	0
<0xB6>	0
<0xB7>	0
<0xB8>	0
<0xB9>	0
<0xBA>	0
<0xBB>	0
<0xBC>	0
<0xBD>	0
<0xBE>	0
<0xBF>	0
<0xC0>	0
<0xC1>	0
<0xC2>	0
<0xC3>	0
<0xC4>	0
<0xC5>	0
<0xC6>	0
<0xC7>	0
<0xC8>	0
<0xC9>	0
<0xCA>	0
<0xCB>	0
<0xCC>	0
<0xCD>	0
<0xCE>	0
<0xCF>	0
<0xD0>	0
<0xD1>	0
<0xD2>	0
<0xD3>	0
<0xD4>	0
<0xD5>	0
<0xD6>	0
<0xD7>	0
<0xD8>	0
<0xD9>	0
<0xDA>	0
<0xDB>	0
<0xDC>	0
<0xDD>	0
<0xDE>	0
<0xDF>	0
<0xE0>	0
<0xE1>	0
<0xE2>	0
<0xE3>	0
<0xE4>	0
<0xE5>	0
<0xE6>	0
<0xE7>	0
<0xE8>	0
<0xE9>	0
<0xEA>	0
<0xEB>	0
<0xEC>	0
<0xED>	0
<0xEE>	0
<0xEF>	0
<0xF0>	0
<0xF1>	0
<0xF2>	0
<0xF3>	0
<0xF4>	0
<0xF5>	0
<0xF6>	0
<0xF7>	0
<0xF8>	0
<0xF9>	0
<0xFA>	0
<0xFB>	0
<0xFC>	0
<0xFD>	0
<0xFE>	0
<0xFF>	0
▁t	-0
▁a	-1
in	-2
he	-3
re	-4
▁o	-5
▁the	-6
er	-7
▁s	-8
▁w	-9
nd	-10
at	-11
▁c	-12
on	-13
ou	-14
or	-15
it	-16
es	-17
is	-18
ing	-19
▁f	-20
▁b	-21
en	-22
▁p	-23
ed	-24
▁to	-25
an	-26
▁m	-27
al	-28
▁and	-29
▁in	-30
ar	-31
▁of	-32
▁d	-33
le	-34
ic	-35
om	-36
▁h	-37
as	-38
▁th	-39
ion	-40
.
	-41
▁y	-42
il	-43
▁l	-44
ent	-45
▁e	-46
ve	-47
▁you	-48
▁n	-49
ro	-50
us	-51
▁re	-52
▁g	-53
▁I	-54
ct	-55
ly	-56
▁be	-57
▁is	-58
▁T	-59
id	-60
ut	-61
▁on	-62
▁for	-63
et	-64
ot	-65
ur	-66
▁S	-67
ow	-68
st	-69
ay	-70
im	-71
▁C	-72
am	-73
ce	-74
▁A	-75
ol	-76
ch	-77
ig	-78
ith	-79
ad	-80
ver	-81
▁that	-82
▁st	-83
▁with	-84
ll	-85
ation	-86
▁we	-87
▁it	-88
ir	-89
se	-90
ill	-91
▁he	-92
▁an	-93
▁pro	-94
▁are	-95
▁wh	-96
ra	-97
ers	-98
▁as	-99
▁M	-100
▁P	-101
un	-102
ul	-103
▁ha	-104
if	-105
ke	-106
ge	-107
ter	-108
▁your	-109
▁or	-110
▁W	-111
ess	-112
▁The	-113
▁com	-114
▁B	-115
▁at	-116
pp	-117
oo	-118
ate	-119
▁of▁the	-120
▁con	-121
▁ne	-122
her	-123
ck	-124
ment	-125
▁mo	-126
ld	-127
▁se	-128
▁de	-129
▁H	-130
▁r	-131
est	-132
▁fr	-133
▁ex	-134
ort	-135
ist	-136
ab	-137
pe	-138
ure	-139
▁D	-140
ant	-141
igh	-142
▁F	-143
qu	-144
▁was	-145
ity	-146
▁can	-147
ive	-148
▁have	-149
▁R	-150
▁v	-151
th	-152
▁this	-153
ust	-154
▁sh	-155
▁su	-156
ain	-157
art	-158
▁from	-159
▁will	-160
ies	-161
op	-162
▁us	-163
▁N	-164
ome	-165
os	-166
▁not	-167
▁in▁the	-168
▁(	-169
em	-170
▁E	-171
nt	-172
▁G	-173
▁u	-174
res	-175
▁ch	-176
▁L	-177
all	-178
ide	-179
ight	-180
iv	-181
um	-182
▁al	-183
ie	-184
ud	-185
out	-186
▁by	-187
▁le	-188
and	-189
s▁and	-190
ard	-191
▁do	-192
▁O	-193
▁ab	-194
ed▁to	-195
▁wor	-196
ip	-197
ally	-198
our	-199
per	-200
gh	-201
▁pl	-202
▁all	-203
ect	-204
ast	-205
ib	-206
rou	-207
▁so	-208
el	-209
ould	-210
are	-211
▁ma	-212
▁k	-213
▁j	-214
ice	-215
king	-216
ear	-217
▁comp	-218
▁out	-219
ine	-220
age	-221
ere	-222
ac	-223
▁tr	-224
▁me	-225
ff	-226
▁has	-227
▁our	-228
ial	-229
ag	-230
▁up	-231
▁whe	-232
lo	-233
▁ad	-234
▁en	-235
ther	-236
▁but	-237
ich	-238
able	-239
ack	-240
▁te	-241
▁more	-242
oc	-243
▁J	-244
ire	-245
ing▁the	-246
ime	-247
The	-248
▁im	-249
pt	-250
▁int	-251
▁Th	-252
▁co	-253
very	-254
orm	-255
s▁to	-256
ase	-257
ong	-258
▁they	-259
one	-260
ind	-261
s▁of	-262
▁cont	-263
iz	-264
ite	-265
reat	-266
▁about	-267
▁ta	-268
▁one	-269
cc	-270
ame	-271
ign	-272
ore	-273
▁inc	-274
act	-275
ous	-276
ail	-277
▁my	-278
ry	-279
▁pr	-280
od	-281
▁U	-282
ood	-283
ing▁to	-284
▁Y	-285
▁un	-286
▁fe	-287
ook	-288
▁In	-289
du	-290
▁app	-291
▁go	-292
ike	-293
▁on▁the	-294
ult	-295
ub	-296
so	-297
ions	-298
▁who	-299
▁which	-300
▁res	-301
now	-302
ap	-303
erv	-304
▁qu	-305
▁man	-306
ile	-307
ach	-308
▁other	-309
ated	-310
ace	-311
▁cl	-312
..	-313
port	-314
▁dis	-315
▁time	-316
og	-317
ance	-318
▁get	-319
▁per	-320
ue	-321
▁"	-322
▁his	-323
ree	-324
ical	-325
▁any	-326
ence	-327
▁year	-328
vel	-329
▁It	-330
▁to▁the	-331
ep	-332
form	-333
▁K	-334
ans	-335
te	-336
▁ev	-337
▁work	-338
▁for▁the	-339
▁off	-340
▁new	-341
▁Ch	-342
ound	-343
▁know	-344
▁also	-345
ass	-346
▁is▁a	-347
▁like	-348
av	-349
ia	-350
ations	-351
ick	-352
ents	-353
ary	-354
ount	-355
nder	-356
▁pe	-357
ction	-358
▁what	-359
▁if	-360
▁some	-361
ost	-362
ress	-363
▁sp	-364
▁St	-365
▁part	-366
▁ag	-367
ild	-368
▁and▁the	-369
▁with▁the	-370
ish	-371
!
	-372
▁We	-373
▁V	-374
▁been	-375
▁des	-376
ber	-377
ough	-378
▁when	-379
ark	-380
pl	-381
wn	-382
ays	-383
▁a▁l	-384
▁sc	-385
▁pre	-386
▁over	-387
▁sa	-388
ater	-389
▁rec	-390
ition	-391
itt	-392
▁col	-393
▁would	-394
ors	-395
▁no	-396
▁may	-397
▁bec	-398
▁just	-399
ade	-400
▁than	-401
low	-402
▁there	-403
lp	-404
▁“	-405
ople	-406
ang	-407
ory	-408
ens	-409
own	-410
▁ro	-411
ru	-412
rough	-413
use	-414
▁-	-415
lic	-416
vers	-417
red	-418
▁spe	-419
ord	-420
ing▁a	-421
▁had	-422
ove	-423
▁comm	-424
▁make	-425
▁This	-426
▁help	-427
▁into	-428
▁em	-429
int	-430
▁how	-431
fter	-432
▁their	-433
ak	-434
▁the▁b	-435
ful	-436
▁people	-437
hed	-438
ond	-439
▁serv	-440
irst	-441
▁ar	-442
ings	-443
ed▁by	-444
fere	-445
ose	-446
ne	-447
▁prov	-448
gr	-449
▁produ	-450
▁will▁be	-451
▁acc	-452
▁bu	-453
▁supp	-454
▁ind	-455
▁most	-456
▁am	-457
▁at▁the	-458
?
	-459
ink	-460
old	-461
▁need	-462
▁want	-463
lud	-464
s▁are	-465
▁stud	-466
ates	-467
▁add	-468
▁every	-469
ible	-470
▁exper	-471
ause	-472
▁only	-473
▁tra	-474
we	-475
ces	-476
ian	-477
▁through	-478
ft	-479
ices	-480
▁them	-481
▁see	-482
▁were	-483
ual	-484
ious	-485
round	-486
▁well	-487
ities	-488
▁first	-489
amp	-490
cess	-491
s▁in	-492
▁You	-493
les	-494
▁includ	-495
▁He	-496
▁its	-497
▁use	-498
iness	-499
ning	-500
▁way	-501
▁inv	-502
▁bet	-503
tern	-504
any	-505
▁sm	-506
lect	-507
▁eff	-508
ed▁in	-509
ise	-510
▁under	-511
s▁a	-512
ool	-513
▁ph	-514
▁from▁the	-515
▁home	-516
▁$	-517
▁tw	-518
cial	-519
▁bus	-520
▁back	-521
hip	-522
▁sy	-523
hen	-524
xt	-525
▁her	-526
▁with▁a	-527
sel	-528
fore	-529
oth	-530
▁to▁be	-531
ject	-532
bs	-533
▁che	-534
▁ent	-535
erson	-536
uch	-537
▁very	-538
▁design	-539
pect	-540
▁of▁a	-541
▁Re	-542
▁If	-543
day	-544
▁Wh	-545
li	-546
air	-547
▁Com	-548
▁–	-549
ange	-550
▁own	-551
▁many	-552
▁is▁the	-553
ily	-554
ments	-555
ing▁and	-556
row	-557
▁in▁a	-558
▁where	-559
▁dec	-560
aw	-561
▁cons	-562
ph	-563
▁rem	-564
ience	-565
▁down	-566
▁you▁can	-567
ov	-568
con	-569
urn	-570
▁ra	-571
ility	-572
▁great	-573
ife	-574
▁sec	-575
▁good	-576
mer	-577
▁loc	-578
ks	-579
ict	-580
▁play	-581
▁take	-582
ri	-583
ed▁the	-584
▁even	-585
ased	-586
ract	-587
▁And	-588
▁day	-589
▁dif	-590
s▁the	-591
▁ke	-592
alth	-593
ific	-594
▁pos	-595
velop	-596
▁inst	-597
ward	-598
▁two	-599
ren	-600
▁for▁a	-601
▁because	-602
get	-603
ident	-604
arch	-605
▁made	-606
ational	-607
▁business	-608
oy	-609
▁now	-610
arn	-611
ced	-612
iss	-613
oor	-614
▁inform	-615
▁product	-616
line	-617
▁act	-618
▁don	-619
▁imp	-620
▁Con	-621
lease	-622
Th	-623
▁much	-624
▁right	-625
ble	-626
nce	-627
▁ac	-628
▁call	-629
▁person	-630
me	-631
ature	-632
▁read	-633
▁should	-634
rit	-635
der	-636
▁find	-637
▁such	-638
olog	-639
stem	-640
ating	-641
▁can▁be	-642
ty	-643
ull	-644
▁she	-645
▁here	-646
▁after	-647
ob	-648
▁att	-649
▁fin	-650
▁him	-651
▁as▁a	-652
▁ins	-653
▁disc	-654
iew	-655
▁cur	-656
▁set	-657
▁last	-658
▁gu	-659
▁again	-660
▁the▁s	-661
ug	-662
ular	-663
▁ass	-664
▁requ	-665
s▁that	-666
ven	-667
▁br	-668
▁said	-669
▁fam	-670
▁does	-671
▁look	-672
▁Ne	-673
▁wee	-674
ustom	-675
▁could	-676
▁develop	-677
▁ed	-678
arket	-679
other	-680
▁before	-681
ize	-682
▁min	-683
es▁and	-684
chn	-685
gram	-686
ert	-687
▁reg	-688
ality	-689
▁high	-690
ative	-691
▁exp	-692
▁team	-693
▁pres	-694
▁start	-695
▁support	-696
▁Un	-697
ock	-698
ower	-699
▁An	-700
oint	-701
▁str	-702
▁sur	-703
y▁and	-704
▁years	-705
hing	-706
less	-707
▁those	-708
ys	-709
ually	-710
▁cle	-711
▁did	-712
ank	-713
pr	-714
com	-715
▁mon	-716
▁information	-717
ons	-718
ting	-719
▁process	-720
▁gr	-721
▁life	-722
und	-723
▁Pro	-724
▁then	-725
ics	-726
gan	-727
ener	-728
self	-729
▁rel	-730
▁provid	-731
▁system	-732
erm	-733
▁car	-734
ix	-735
ath	-736
oot	-737
ient	-738
▁differe	-739
chool	-740
▁the▁f	-741
▁while	-742
▁custom	-743
▁As	-744
▁too	-745
omet	-746
▁comple	-747
cy	-748
kes	-749
ather	-750
erest	-751
ional	-752
).	-753
hes	-754
▁pur	-755
▁long	-756
We	-757
ger	-758
ince	-759
vail	-760
▁place	-761
orn	-762
▁end	-763
),	-764
oh	-765
▁prof	-766
▁it▁is	-767
az	-768
rib	-769
ages	-770
▁effect	-771
ork	-772
▁eas	-773
▁each	-774
atch	-775
ives	-776
▁care	-777
ooking	-778
▁the▁p	-779
▁market	-780
▁show	-781
▁experience	-782
▁hand	-783
▁though	-784
ple	-785
way	-786
ever	-787
y▁to	-788
ately	-789
▁few	-790
▁both	-791
▁lead	-792
▁still	-793
led	-794
▁med	-795
ec	-796
ts	-797
▁vis	-798
ublic	-799
▁import	-800
▁you▁are	-801
ior	-802
ouse	-803
▁game	-804
▁health	-805
."	-806
▁really	-807
up	-808
▁&	-809
arm	-810
▁fol	-811
▁form	-812
▁sim	-813
▁count	-814
▁need▁to	-815
▁cre	-816
▁met	-817
▁sub	-818
irect	-819
▁commun	-820
In	-821
ake	-822
▁love	-823
vailable	-824
ety	-825
▁program	-826
conom	-827
ee	-828
io	-829
▁Sc	-830
▁bl	-831
▁post	-832
▁trans	-833
▁company	-834
▁service	-835
▁op	-836
▁ser	-837
▁creat	-838
▁have▁a	-839
gg	-840
▁rep	-841
ished	-842
▁techn	-843
▁think	-844
▁world	-845
ied	-846
▁det	-847
▁best	-848
▁found	-849
uss	-850
▁ext	-851
▁num	-852
▁ref	-853
▁dr	-854
▁ret	-855
▁inter	-856
ason	-857
▁run	-858
▁keep	-859
▁build	-860
▁want▁to	-861
cer	-862
ric	-863
fect	-864
▁water	-865
ave	-866
▁ide	-867
ivers	-868
▁small	-869
ene	-870
▁They	-871
▁appro	-872
▁report	-873
ural	-874
ered	-875
imes	-876
ness	-877
▁child	-878
aut	-879
▁sign	-880
▁share	-881
▁these	-882
▁tax	-883
s▁for	-884
▁free	-885
ax	-886
ell	-887
cept	-888
land	-889
read	-890
olut	-891
ittle	-892
▁allow	-893
ng	-894
ata	-895
ider	-896
rent	-897
▁might	-898
▁around	-899
▁project	-900
...	-901
iqu	-902
▁pol	-903
▁poss	-904
▁There	-905
ox	-906
ash	-907
ween	-908
plo	-909
por	-910
▁dur	-911
▁vide	-912
▁Al	-913
rist	-914
▁art	-915
▁plan	-916
▁as▁well	-917
▁of▁your	-918
▁cor	-919
▁happ	-920
erg	-921
man	-922
▁Fr	-923
▁sk	-924
blem	-925
▁say	-926
▁being	-927
▁has▁been	-928
ues	-929
ield	-930
ines	-931
▁How	-932
▁between	-933
▁different	-934
▁Sh	-935
▁adv	-936
ed▁and	-937
▁result	-938
▁interest	-939
ired	-940
▁.	-941
▁Ad	-942
▁So	-943
▁fl	-944
▁ty	-945
▁cost	-946
▁sure	-947
▁round	-948
▁family	-949
▁follow	-950
roup	-951
▁come	-952
▁have▁been	-953
▁important	-954
ital	-955
orth	-956
▁def	-957
▁book	-958
▁list	-959
ody	-960
reen	-961
ving	-962
▁ear	-963
▁fil	-964
ed▁with	-965
ology	-966
▁word	-967
▁econom	-968
▁that▁the	-969
▁ve	-970
rain	-971
▁But	-972
stand	-973
▁and▁a	-974
▁problem	-975
uc	-976
▁Q	-977
ont	-978
▁Tr	-979
This	-980
▁val	-981
▁main	-982
▁Le	-983
▁mus	-984
▁to▁a	-985
arge	-986
alk	-987
iend	-988
ccess	-989
▁feel	-990
illion	-991
▁gener	-992
▁direct	-993
ner	-994
▁De	-995
▁ob	-996
▁bel	-997
ically	-998
It	-999
ci	-1000
ien	-1001
ton	-1002
▁opt	-1003
▁area	-1004
▁pass	-1005
▁since	-1006
▁three	-1007
ling	-1008
▁For	-1009
▁cour	-1010
▁another	-1011
ale	-1012
▁dist	-1013
als	-1014
door	-1015
ited	-1016
ploy	-1017
▁top	-1018
▁somet	-1019
▁if▁you	-1020
▁Or	-1021
▁var	-1022
▁on▁a	-1023
ves	-1024
▁At	-1025
ed▁a	-1026
le▁to	-1027
▁open	-1028
be	-1029
pend	-1030
thing	-1031
▁next	-1032
▁week	-1033
ference	-1034
ways	-1035
▁such▁as	-1036
If	-1037
ros	-1038
nect	-1039
▁better	-1040
▁partic	-1041
aim	-1042
ars	-1043
ten	-1044
▁el	-1045
▁sl	-1046
▁fun	-1047
▁real	-1048
▁month	-1049
▁treat	-1050
▁going▁to	-1051
▁services	-1052
view	-1053
▁New	-1054
▁rest	-1055
▁is▁not	-1056
).
	-1057
▁ca	-1058
ames	-1059
ries	-1060
▁must	-1061
joy	-1062
▁Cl	-1063
amin	-1064
work	-1065
▁organ	-1066
Wh	-1067
▁cap	-1068
▁mem	-1069
▁webs	-1070
▁Christ	-1071
▁proper	-1072
▁quality	-1073
▁working	-1074
▁opp	-1075
▁provide	-1076
over	-1077
▁put	-1078
▁hour	-1079
▁land	-1080
▁invest	-1081
▁available	-1082
▁conf	-1083
▁making	-1084
ation▁of	-1085
▁current	-1086
▁perform	-1087
▁one▁of▁the	-1088
▁Be	-1089
▁Pl	-1090
▁Sp	-1091
▁got	-1092
ention	-1093
▁indust	-1094
▁things	-1095
iversity	-1096
▁contact	-1097
▁perfect	-1098
med	-1099
uth	-1100
rand	-1101
▁less	-1102
▁phot	-1103
▁I▁was	-1104
▁students	-1105
ures	-1106
ision	-1107
meric	-1108
▁cent	-1109
▁online	-1110
▁within	-1111
▁without	-1112
▁including	-1113
▁wr	-1114
▁All	-1115
▁blo	-1116
▁dep	-1117
▁full	-1118
▁offer	-1119
▁it▁was	-1120
of	-1121
ope	-1122
▁Te	-1123
ants	-1124
iron	-1125
ized	-1126
▁est	-1127
▁let	-1128
▁pay	-1129
▁That	-1130
▁meet	-1131
▁name	-1132
▁number	-1133
▁On	-1134
oard	-1135
▁fac	-1136
iving	-1137
▁prom	-1138
▁chang	-1139
▁heart	-1140
▁never	-1141
▁contin	-1142
▁feature	-1143
▁looking	-1144
ery	-1145
its	-1146
ieve	-1147
oice	-1148
▁God	-1149
es▁of	-1150
▁applic	-1151
▁second	-1152
▁about▁the	-1153
ocus	-1154
ortun	-1155
▁educ	-1156
▁profess	-1157
▁Ar	-1158
▁cr	-1159
▁rece	-1160
▁resp	-1161
▁clean	-1162
ers▁and	-1163
▁friend	-1164
▁able▁to	-1165
att	-1166
ify	-1167
ream	-1168
▁hard	-1169
▁head	-1170
▁quest	-1171
sc	-1172
▁‘	-1173
es▁to	-1174
ribut	-1175
▁grow	-1176
▁used	-1177
ability	-1178
ivid	-1179
▁and▁I	-1180
▁state	-1181
▁school	-1182
You	-1183
▁learn	-1184
▁order	-1185
▁the▁c	-1186
▁understand	-1187
gin	-1188
▁gl	-1189
▁a▁lot	-1190
▁If▁you	-1191
▁outdoor	-1192
▁possible	-1193
de	-1194
ohn	-1195
▁fact	-1196
▁to▁make	-1197
ote	-1198
▁pa	-1199
▁Man	-1200
▁a▁b	-1201
▁data	-1202
▁oper	-1203
▁point	-1204
uck	-1205
ury	-1206
here	-1207
side	-1208
ware	-1209
▁prot	-1210
▁seem	-1211
▁along	-1212
▁beaut	-1213
▁group	-1214
ww	-1215
yr	-1216
▁i	-1217
ateg	-1218
tend	-1219
▁food	-1220
▁class	-1221
▁the▁l	-1222
▁always	-1223
▁of▁our	-1224
▁success	-1225
af	-1226
ump	-1227
▁cut	-1228
▁Comp	-1229
▁With	-1230
ing▁in	-1231
▁check	-1232
▁level	-1233
▁local	-1234
▁pract	-1235
▁visit	-1236
▁more▁than	-1237
."
	-1238
▁dev	-1239
ently	-1240
▁char	-1241
▁cond	-1242
▁give	-1243
istory	-1244
▁claim	-1245
▁contro	-1246
▁pop	-1247
▁rug	-1248
▁try	-1249
arent	-1250
ients	-1251
▁card	-1252
▁create	-1253
▁special	-1254
▁for▁your	-1255
ah	-1256
to	-1257
oun	-1258
▁di	-1259
▁tem	-1260
▁near	-1261
▁rese	-1262
▁video	-1263
▁Americ	-1264
▁against	-1265
▁complete	-1266
inal	-1267
ured	-1268
lement	-1269
▁color	-1270
▁house	-1271
▁website	-1272
▁personal	-1273
ral	-1274
outh	-1275
▁iss	-1276
▁old	-1277
urity	-1278
▁What	-1279
▁days	-1280
▁spec	-1281
▁music	-1282
▁stand	-1283
▁to▁get	-1284
urs	-1285
ator	-1286
▁sit	-1287
viron	-1288
▁Cent	-1289
▁When	-1290
▁enjoy	-1291
▁event	-1292
▁light	-1293
▁sever	-1294
▁that▁you	-1295
eng	-1296
▁la	-1297
oura	-1298
▁ann	-1299
▁bro	-1300
▁site	-1301
▁writ	-1302
▁connect	-1303
▁that▁is	-1304
ift	-1305
▁Ro	-1306
bers	-1307
▁the▁best	-1308
ats	-1309
omen	-1310
ruct	-1311
▁Col	-1312
▁mean	-1313
▁turn	-1314
▁const	-1315
▁several	-1316
vironment	-1317
til	-1318
icle	-1319
raph	-1320
▁colle	-1321
▁incre	-1322
aterial	-1323
▁do▁not	-1324
▁employ	-1325
▁may▁be	-1326
ier	-1327
oin	-1328
ved	-1329
▁Ex	-1330
cent	-1331
mend	-1332
▁air	-1333
▁enc	-1334
▁move	-1335
▁elect	-1336
▁price	-1337
▁today	-1338
▁become	-1339
▁present	-1340
.
"	-1341
ina	-1342
ley	-1343
oney	-1344
tain	-1345
▁May	-1346
▁Res	-1347
▁equ	-1348
▁why	-1349
▁impro	-1350
▁power	-1351
▁purch	-1352
▁thing	-1353
artment	-1354
▁community	-1355
iful	-1356
▁buy	-1357
▁John	-1358
▁focus	-1359
▁by▁the	-1360
RE	-1361
▁—	-1362
fer	-1363
ipp	-1364
s▁on	-1365
▁ask	-1366
aking	-1367
nment	-1368
▁redu	-1369
▁a▁few	-1370
ing▁your	-1371
▁individ	-1372
▁install	-1373
▁they▁are	-1374
▁law	-1375
▁mod	-1376
▁pat	-1377
▁camp	-1378
▁vers	-1379
ilities	-1380
▁intern	-1381
▁effective	-1382
▁professional	-1383
▁I▁have	-1384
▁please	-1385
▁return	-1386
▁something	-1387
alf	-1388
ugh	-1389
ably	-1390
ctor	-1391
ique	-1392
iven	-1393
▁beh	-1394
▁job	-1395
▁leg	-1396
▁par	-1397
▁win	-1398
aster	-1399
▁case	-1400
▁gover	-1401
▁times	-1402
▁as▁the	-1403
ation▁and	-1404
ism	-1405
ron	-1406
rop	-1407
▁Se	-1408
▁To	-1409
▁ever	-1410
ing▁on	-1411
▁until	-1412
▁would▁be	-1413
ann	-1414
▁Our	-1415
▁hum	-1416
atter	-1417
▁done	-1418
▁prev	-1419
ion▁of	-1420
▁is▁to	-1421
▁fav	-1422
▁kind	-1423
▁sing	-1424
ertain	-1425
▁is▁an	-1426
▁children	-1427
▁into▁the	-1428
,”	-1429
oci	-1430
uro	-1431
enef	-1432
▁saf	-1433
▁I▁am	-1434
▁fish	-1435
▁train	-1436
▁detail	-1437
cl	-1438
oss	-1439
ubl	-1440
xim	-1441
lose	-1442
▁Ind	-1443
ed▁for	-1444
▁using	-1445
▁contain	-1446
▁material	-1447
app	-1448
ret	-1449
rip	-1450
▁eng	-1451
▁net	-1452
▁tre	-1453
▁mult	-1454
▁test	-1455
atural	-1456
▁based	-1457
▁minut	-1458
▁access	-1459
▁of▁this	-1460
▁products	-1461
▁research	-1462
▁individual	-1463
jor	-1464
the	-1465
mitt	-1466
raft	-1467
ified	-1468
▁miss	-1469
▁pack	-1470
▁least	-1471
▁short	-1472
ed▁in▁the	-1473
ium	-1474
rid	-1475
ners	-1476
▁Apr	-1477
▁ens	-1478
▁inf	-1479
ample	-1480
▁item	-1481
ential	-1482
▁makes	-1483
▁recom	-1484
▁thought	-1485
▁environment	-1486
ead	-1487
icy	-1488
▁sal	-1489
ories	-1490
▁activ	-1491
▁study	-1492
ression	-1493
▁enough	-1494
▁expect	-1495
▁However	-1496
▁You▁can	-1497
▁you▁have	-1498
▁recommend	-1499
▁development	-1500
.,	-1501
yn	-1502
inc	-1503
mon	-1504
amer	-1505
ists	-1506
oose	-1507
▁big	-1508
ed▁on	-1509
uture	-1510
▁expl	-1511
▁film	-1512
▁four	-1513
▁These	-1514
▁major	-1515
▁was▁a	-1516
ruction	-1517
▁University	-1518
sw	-1519
ird	-1520
ush	-1521
ense	-1522
olid	-1523
reak	-1524
▁bas	-1525
▁lot	-1526
▁trad	-1527
▁Count	-1528
▁image	-1529
ing▁for	-1530
▁all▁the	-1531
▁addition	-1532
my	-1533
▁Gu	-1534
ones	-1535
▁low	-1536
▁body	-1537
▁story	-1538
olution	-1539
▁weight	-1540
▁include	-1541
▁industry	-1542
▁opportun	-1543
▁which▁is	-1544
FL	-1545
cle	-1546
ung	-1547
▁Bl	-1548
ared	-1549
▁Har	-1550
▁foot	-1551
▁past	-1552
▁side	-1553
▁view	-1554
gether	-1555
▁invol	-1556
▁often	-1557
▁reason	-1558
▁we▁are	-1559
▁you▁to	-1560
cu	-1561
ait	-1562
che	-1563
▁Pr	-1564
▁Wor	-1565
▁inj	-1566
ember	-1567
ental	-1568
ready	-1569
▁term	-1570
cially	-1571
▁below	-1572
▁doesn	-1573
▁email	-1574
▁night	-1575
AL	-1576
ER	-1577
▁X	-1578
aff	-1579
ott	-1580
▁occ	-1581
▁step	-1582
▁April	-1583
▁cover	-1584
▁change	-1585
OP	-1586
sh	-1587
ets	-1588
par	-1589
▁No	-1590
▁Su	-1591
cing	-1592
▁She	-1593
▁oil	-1594
fully	-1595
▁deli	-1596
▁same	-1597
▁money	-1598
▁quick	-1599
▁course	-1600
▁public	-1601
▁taking	-1602
▁customers	-1603
▁government	-1604
,"	-1605
ams	-1606
ape	-1607
let	-1608
room	-1609
▁Cal	-1610
▁Can	-1611
▁mar	-1612
▁typ	-1613
urope	-1614
▁away	-1615
ources	-1616
▁begin	-1617
▁print	-1618
▁that▁I	-1619
▁encoura	-1620
▁student	-1621
▁to▁your	-1622
!!	-1623
mb	-1624
oe	-1625
▁My	-1626
istr	-1627
▁His	-1628
▁arr	-1629
▁left	-1630
▁pick	-1631
▁rate	-1632
▁stair	-1633
▁discuss	-1634
▁protect	-1635
▁beautiful	-1636
lin	-1637
load	-1638
▁aff	-1639
▁hig	-1640
▁hot	-1641
▁page	-1642
agement	-1643
▁travel	-1644
▁country	-1645
▁outdoor▁rug	-1646
wh	-1647
ken	-1648
opp	-1649
▁Me	-1650
ross	-1651
▁mom	-1652
▁tot	-1653
▁veh	-1654
uthor	-1655
▁room	-1656
▁already	-1657
▁million	-1658
▁on▁your	-1659
▁security	-1660
ON	-1661
▁Ph	-1662
ency	-1663
itor	-1664
most	-1665
road	-1666
▁mob	-1667
▁ris	-1668
onder	-1669
ource	-1670
wards	-1671
▁live	-1672
itamin	-1673
itions	-1674
▁benef	-1675
▁in▁this	-1676
▁natural	-1677
▁require	-1678
▁we▁have	-1679
▁a▁lot▁of	-1680
▁consider	-1681
▁you▁will	-1682
idd	-1683
irm	-1684
ney	-1685
pos	-1686
▁En	-1687
▁es	-1688
▁sw	-1689
come	-1690
ised	-1691
ript	-1692
▁Your	-1693
▁hear	-1694
ograph	-1695
▁close	-1696
▁women	-1697
▁Europe	-1698
▁offers	-1699
s▁of▁the	-1700
▁specific	-1701
▁number▁of	-1702
.▁"	-1703
edd	-1704
min	-1705
yle	-1706
s▁or	-1707
▁Mar	-1708
▁ill	-1709
ivide	-1710
▁once	-1711
s▁with	-1712
▁early	-1713
▁later	-1714
▁in▁your	-1715
▁the▁same	-1716
▁there▁are	-1717
▁technology	-1718
apt	-1719
▁Do	-1720
fact	-1721
list	-1722
ster	-1723
▁ste	-1724
▁didn	-1725
▁fund	-1726
▁held	-1727
▁pain	-1728
idence	-1729
▁games	-1730
▁School	-1731
▁search	-1732
▁strong	-1733
ing▁that	-1734
▁control	-1735
mit	-1736
▁Is	-1737
▁US	-1738
abor	-1739
ires	-1740
▁pot	-1741
itive	-1742
▁at▁a	-1743
▁mind	-1744
▁rele	-1745
▁to▁see	-1746
▁should▁be	-1747
▁Z	-1748
For	-1749
ases	-1750
ergy	-1751
iver	-1752
▁ant	-1753
▁far	-1754
▁lim	-1755
indow	-1756
▁comb	-1757
▁join	-1758
urther	-1759
ividend	-1760
▁County	-1761
▁certain	-1762
▁content	-1763
▁experien	-1764
▁particip	-1765
AT	-1766
uge	-1767
▁Dep	-1768
▁mil	-1769
▁answ	-1770
▁fail	-1771
▁plac	-1772
▁clear	-1773
▁means	-1774
▁whole	-1775
▁common	-1776
▁from▁a	-1777
▁organiz	-1778
▁strateg	-1779
ed▁by▁the	-1780
▁as▁well▁as	-1781
▁x	-1782
ilt	-1783
oll	-1784
rap	-1785
▁Bu	-1786
▁Fe	-1787
▁Fl	-1788
esus	-1789
rect	-1790
▁upd	-1791
ither	-1792
lling	-1793
▁says	-1794
▁took	-1795
▁went	-1796
es▁are	-1797
▁It▁is	-1798
▁large	-1799
▁others	-1800
▁parent	-1801
▁review	-1802
▁we▁can	-1803
ording▁to	-1804
▁everyone	-1805
ik	-1806
els	-1807
iod	-1808
▁Co	-1809
ffic	-1810
ored	-1811
rodu	-1812
unch	-1813
▁pie	-1814
▁idea	-1815
▁orig	-1816
▁phys	-1817
▁text	-1818
ed▁that	-1819
▁little	-1820
▁way▁to	-1821
▁customer	-1822
enn	-1823
ids	-1824
rew	-1825
ball	-1826
ched	-1827
fort	-1828
iber	-1829
itut	-1830
rown	-1831
urch	-1832
▁Car	-1833
▁non	-1834
ledge	-1835
▁hold	-1836
▁talk	-1837
urance	-1838
▁comes	-1839
▁assist	-1840
▁attend	-1841
▁depend	-1842
▁effort	-1843
pecially	-1844
▁at▁least	-1845
▁together	-1846
An	-1847
.
“	-1848
end	-1849
ief	-1850
uly	-1851
▁Qu	-1852
When	-1853
book	-1854
▁ele	-1855
ed▁up	-1856
istic	-1857
aching	-1858
er▁and	-1859
▁press	-1860
▁range	-1861
▁compet	-1862
▁account	-1863
▁purchase	-1864
▁the▁most	-1865
br	-1866
How	-1867
▁ago	-1868
▁cou	-1869
▁men	-1870
anies	-1871
ue▁to	-1872
▁came	-1873
▁type	-1874
▁vari	-1875
▁Jesus	-1876
▁defin	-1877
▁white	-1878
▁property	-1879
▁education	-1880
▁treatment	-1881
▁with▁your	-1882
▁everything	-1883
OR	-1884
by	-1885
▁'	-1886
▁Br	-1887
▁Dr	-1888
▁UK	-1889
▁ey	-1890
ills	-1891
▁App	-1892
▁Pre	-1893
▁dem	-1894
▁fat	-1895
▁wait	-1896
▁camer	-1897
▁space	-1898
▁super	-1899
▁the▁d	-1900
▁called	-1901
▁compos	-1902
▁during	-1903
▁ensure	-1904
▁happen	-1905
▁he▁was	-1906
▁period	-1907
▁for▁you	-1908
▁usually	-1909
▁standard	-1910
yl	-1911
ume	-1912
une	-1913
medi	-1914
▁mot	-1915
▁swe	-1916
a▁and	-1917
ising	-1918
▁flow	-1919
▁gold	-1920
▁hope	-1921
▁mess	-1922
▁so▁I	-1923
▁chall	-1924
▁future	-1925
▁mobile	-1926
▁season	-1927
▁believe	-1928
▁currently	-1929
St	-1930
▁Gal	-1931
astic	-1932
ggest	-1933
▁pict	-1934
▁soft	-1935
▁soon	-1936
▁World	-1937
▁brand	-1938
▁doing	-1939
▁favor	-1940
▁paper	-1941
ers▁are	-1942
▁income	-1943
▁necess	-1944
▁wonder	-1945
▁example	-1946
▁suggest	-1947
▁provides	-1948
ok	-1949
ips	-1950
aign	-1951
itch	-1952
▁a▁h	-1953
▁won	-1954
azing	-1955
orpor	-1956
▁City	-1957
▁anal	-1958
▁blog	-1959
▁size	-1960
▁above	-1961
▁known	-1962
▁moder	-1963
▁almost	-1964
▁energy	-1965
▁select	-1966
▁improve	-1967
▁minutes	-1968
▁a▁little	-1969
▁building	-1970
▁required	-1971
ID	-1972
ex	-1973
lf	-1974
sp	-1975
▁#	-1976
ane	-1977
nov	-1978
osp	-1979
ply	-1980
son	-1981
ilar	-1982
rant	-1983
resh	-1984
▁Air	-1985
▁exc	-1986
▁red	-1987
arden	-1988
▁docu	-1989
▁gain	-1990
ing▁of	-1991
▁After	-1992
▁up▁to	-1993
▁value	-1994
s▁to▁be	-1995
▁Intern	-1996
▁and▁we	-1997
▁social	-1998
▁respons	-1999
.”	-2000
AS	-2001
co	-2002
ese	-2003
ler	-2004
lim	-2005
y▁S	-2006
....	-2007
atur	-2008
▁Mal	-2009
based	-2010
icult	-2011
▁insp	-2012
▁line	-2013
▁publ	-2014
▁stay	-2015
▁ideas	-2016
▁staff	-2017
ination	-2018
▁appear	-2019
▁behind	-2020
▁immedi	-2021
▁likely	-2022
▁single	-2023
▁have▁to	-2024
▁American	-2025
▁Department	-2026
▁performance	-2027
IN	-2028
oph	-2029
▁et	-2030
What	-2031
crib	-2032
ison	-2033
▁Ass	-2034
▁Eng	-2035
▁NFL	-2036
▁Not	-2037
▁mov	-2038
icial	-2039
▁Inst	-2040
▁Stud	-2041
▁base	-2042
▁crit	-2043
▁easy	-2044
▁tell	-2045
▁March	-2046
▁plant	-2047
▁takes	-2048
▁how▁to	-2049
▁record	-2050
▁address	-2051
▁changes	-2052
▁time▁to	-2053
▁anything	-2054
▁over▁the	-2055
▁knowledge	-2056
for	-2057
cell	-2058
chol	-2059
ived	-2060
play	-2061
▁AOP	-2062
▁Saf	-2063
▁dou	-2064
▁meas	-2065
▁port	-2066
▁and▁S	-2067
▁break	-2068
▁given	-2069
▁Public	-2070
▁choose	-2071
▁having	-2072
▁located	-2073
▁this▁is	-2074
▁to▁help	-2075
▁various	-2076
▁vitamin	-2077
▁through▁the	-2078
As	-2079
do	-2080
bal	-2081
▁Rep	-2082
▁dig	-2083
ufact	-2084
▁face	-2085
▁mach	-2086
▁wedd	-2087
If▁you	-2088
▁field	-2089
▁finan	-2090
▁manag	-2091
▁media	-2092
▁words	-2093
▁events	-2094
▁series	-2095
▁Company	-2096
▁charact	-2097
▁history	-2098
▁players	-2099
▁someone	-2100
▁does▁not	-2101
OL	-2102
ask	-2103
uff	-2104
atic	-2105
▁Che	-2106
▁One	-2107
▁dise	-2108
▁wide	-2109
▁spend	-2110
▁stock	-2111
▁total	-2112
▁remain	-2113
▁simple	-2114
▁further	-2115
▁outside	-2116
▁used▁to	-2117
▁that▁they	-2118
▁Em	-2119
adem	-2120
aily	-2121
ites	-2122
reet	-2123
reme	-2124
ules	-2125
vert	-2126
▁Des	-2127
▁aut	-2128
▁bar	-2129
▁flo	-2130
▁mag	-2131
ators	-2132
atory	-2133
ought	-2134
place	-2135
▁clos	-2136
▁spot	-2137
▁wall	-2138
atform	-2139
iously	-2140
ission	-2141
▁has▁a	-2142
▁shall	-2143
▁to▁do	-2144
▁Please	-2145
▁moment	-2146
s▁in▁the	-2147
▁popular	-2148
▁of▁their	-2149
▁distribut	-2150
SA	-2151
lu	-2152
ouch	-2153
▁War	-2154
▁etc	-2155
▁squ	-2156
▁sum	-2157
▁yet	-2158
▁chem	-2159
▁coll	-2160
▁cult	-2161
▁of▁S	-2162
▁apply	-2163
▁smart	-2164
▁sound	-2165
▁worth	-2166
ibility	-2167
▁amount	-2168
▁entire	-2169
▁higher	-2170
▁getting	-2171
▁companies	-2172
▁especially	-2173
AR	-2174
abl	-2175
ides	-2176
▁Inc	-2177
There	-2178
imate	-2179
s▁not	-2180
▁diff	-2181
▁road	-2182
ensive	-2183
resent	-2184
s▁like	-2185
▁I▁had	-2186
▁voice	-2187
▁weeks	-2188
▁author	-2189
▁I▁think	-2190
▁members	-2191
▁started	-2192
▁vehicle	-2193
▁and▁then	-2194
▁when▁you	-2195
▁questions	-2196
▁depression	-2197
▁particular	-2198
▁application	-2199
DF	-2200
▁:	-2201
ony	-2202
ades	-2203
ches	-2204
empt	-2205
iple	-2206
▁Dis	-2207
▁cal	-2208
▁ess	-2209
▁sol	-2210
▁date	-2211
▁door	-2212
▁thin	-2213
▁enter	-2214
▁famil	-2215
▁going	-2216
▁human	-2217
▁prior	-2218
▁quite	-2219
▁modern	-2220
▁rather	-2221
▁This▁is	-2222
▁billion	-2223
▁like▁to	-2224
▁receive	-2225
ing▁their	-2226
▁actually	-2227
▁encourag	-2228
▁maintain	-2229
▁Christian	-2230
▁throughout	-2231
ES	-2232
On	-2233
But	-2234
bor	-2235
pro	-2236
▁Mr	-2237
anks	-2238
time	-2239
▁abs	-2240
▁spr	-2241
ially	-2242
where	-2243
▁Cont	-2244
▁anim	-2245
▁deal	-2246
▁fall	-2247
▁fast	-2248
▁file	-2249
▁save	-2250
es▁the	-2251
ety▁of	-2252
s▁from	-2253
▁I▁can	-2254
▁decid	-2255
▁store	-2256
▁taken	-2257
cholars	-2258
▁concer	-2259
▁convers	-2260
▁healthy	-2261
▁of▁these	-2262
Our	-2263
oid	-2264
ille	-2265
mber	-2266
▁bad	-2267
▁tal	-2268
▁vol	-2269
cript	-2270
itely	-2271
light	-2272
▁cred	-2273
▁goal	-2274
▁or▁a	-2275
▁priv	-2276
▁prob	-2277
verage	-2278
▁Galax	-2279
▁board	-2280
▁built	-2281
ificant	-2282
▁but▁it	-2283
▁chance	-2284
▁comput	-2285
▁images	-2286
▁into▁a	-2287
▁not▁be	-2288
▁out▁of	-2289
ing▁with	-2290
▁is▁that	-2291
▁medical	-2292
▁writing	-2293
▁communic	-2294
▁question	-2295
▁yourself	-2296
▁necessary	-2297
tt	-2298
aur	-2299
ipe	-2300
itiz	-2301
reng	-2302
▁deb	-2303
▁key	-2304
ances	-2305
spect	-2306
▁note	-2307
▁nurs	-2308
▁seen	-2309
▁tour	-2310
arning	-2311
ing▁it	-2312
ipment	-2313
selves	-2314
▁accom	-2315
▁areas	-2316
▁cause	-2317
▁reach	-2318
▁We▁are	-2319
▁collect	-2320
▁correct	-2321
▁wedding	-2322
ed▁to▁the	-2323
▁have▁the	-2324
▁platform	-2325
▁you▁know	-2326
▁difficult	-2327
▁marketing	-2328
▁the▁first	-2329
▁Conference	-2330
▁completely	-2331
su	-2332
And	-2333
new	-2334
gest	-2335
▁Add	-2336
▁Off	-2337
▁lov	-2338
▁sav	-2339
▁web	-2340
ables	-2341
er▁to	-2342
lobal	-2343
▁Comm	-2344
▁Pres	-2345
▁Some	-2346
▁fore	-2347
▁half	-2348
▁risk	-2349
▁safe	-2350
es▁for	-2351
▁among	-2352
▁emerg	-2353
▁and▁it	-2354
▁doctor	-2355
▁landsc	-2356
▁regard	-2357
▁college	-2358
▁features	-2359
▁there▁is	-2360
▁immediately	-2361
ai	-2362
dd	-2363
gu	-2364
fin	-2365
ins	-2366
key	-2367
lex	-2368
ogn	-2369
ube	-2370
▁Sm	-2371
head	-2372
▁Int	-2373
▁bal	-2374
▁obs	-2375
ed▁as	-2376
iforn	-2377
ister	-2378
oring	-2379
▁else	-2380
ension	-2381
itting	-2382
▁South	-2383
▁daily	-2384
▁front	-2385
▁needs	-2386
▁phone	-2387
▁remov	-2388
▁It▁was	-2389
▁United	-2390
▁either	-2391
▁comfort	-2392
▁kind▁of	-2393
▁countries	-2394
▁relations	-2395
▁variety▁of	-2396
So	-2397
.▁(	-2398
err	-2399
tty	-2400
wor	-2401
▁II	-2402
back	-2403
eral	-2404
gery	-2405
ians	-2406
term	-2407
▁Ant	-2408
▁exh	-2409
▁fre	-2410
▁six	-2411
acher	-2412
anced	-2413
istry	-2414
ively	-2415
orman	-2416
▁Serv	-2417
▁be▁a	-2418
▁feed	-2419
▁link	-2420
amsung	-2421
idents	-2422
▁Bible	-2423
▁extra	-2424
▁had▁a	-2425
▁leave	-2426
▁watch	-2427
ifornia	-2428
▁Safety	-2429
▁and▁is	-2430
▁garden	-2431
▁option	-2432
▁pretty	-2433
▁simply	-2434
▁continu	-2435
▁release	-2436
▁economic	-2437
▁practice	-2438
cholarship	-2439
▁part▁of▁the	-2440
▁significant	-2441
▁construction	-2442
AM	-2443
ew	-2444
adu	-2445
ato	-2446
org	-2447
raw	-2448
uct	-2449
▁Pe	-2450
omes	-2451
▁Ste	-2452
▁cir	-2453
▁fig	-2454
▁ful	-2455
▁sus	-2456
ering	-2457
udget	-2458
uring	-2459
▁Russ	-2460
▁city	-2461
▁five	-2462
▁meth	-2463
▁norm	-2464
▁qual	-2465
▁self	-2466
▁send	-2467
though	-2468
▁North	-2469
▁minim	-2470
▁touch	-2471
▁young	-2472
▁choice	-2473
▁streng	-2474
▁unique	-2475
▁deliver	-2476
▁however	-2477
▁similar	-2478
▁Galaxy▁S	-2479
▁location	-2480
▁contribut	-2481
▁California	-2482
▁opportunity	-2483
AY	-2484
To	-2485
aid	-2486
gar	-2487
gle	-2488
ibr	-2489
ude	-2490
▁Tur	-2491
board	-2492
phone	-2493
▁Park	-2494
▁gift	-2495
▁news	-2496
▁prep	-2497
▁prim	-2498
▁rail	-2499
▁role	-2500
▁situ	-2501
▁While	-2502
▁match	-2503
▁metal	-2504
▁track	-2505
ank▁you	-2506
itional	-2507
ulation	-2508
▁corpor	-2509
▁matter	-2510
▁videos	-2511
▁History	-2512
▁disease	-2513
▁explain	-2514
▁mention	-2515
▁request	-2516
▁with▁an	-2517
▁manufact	-2518
Sub	-2519
ees	-2520
ett	-2521
not	-2522
reg	-2523
▁hy	-2524
▁ur	-2525
vent	-2526
y▁of	-2527
▁aud	-2528
▁bed	-2529
▁dam	-2530
aches	-2531
aring	-2532
arter	-2533
itten	-2534
▁fill	-2535
▁imag	-2536
▁sell	-2537
▁suit	-2538
oliday	-2539
▁China	-2540
▁Harry	-2541
▁State	-2542
▁but▁I	-2543
▁of▁my	-2544
▁piece	-2545
▁third	-2546
ructure	-2547
ve▁been	-2548
▁Center	-2549
▁Norman	-2550
▁camera	-2551
▁coming	-2552
▁impact	-2553
▁method	-2554
▁recent	-2555
▁attempt	-2556
▁concern	-2557
▁who▁are	-2558
▁approach	-2559
▁learning	-2560
▁partners	-2561
▁prospect	-2562
▁insurance	-2563
▁investment	-2564
▁management	-2565
"
	-2566
aps	-2567
▁By	-2568
▁ut	-2569
ache	-2570
angu	-2571
eter	-2572
ival	-2573
wood	-2574
▁Feb	-2575
▁Per	-2576
▁Reg	-2577
▁fit	-2578
▁hop	-2579
▁Just	-2580
▁cook	-2581
▁cool	-2582
▁inde	-2583
▁skin	-2584
▁walk	-2585
ashing	-2586
▁black	-2587
▁effic	-2588
▁green	-2589
▁guide	-2590
▁in▁an	-2591
▁limit	-2592
▁serve	-2593
▁cancer	-2594
▁determ	-2595
▁establ	-2596
▁expert	-2597
▁months	-2598
▁player	-2599
▁amazing	-2600
▁extreme	-2601
▁network	-2602
▁version	-2603
▁you▁may	-2604
▁favorite	-2605
▁interact	-2606
▁in▁order	-2607
▁probably	-2608
▁trying▁to	-2609
//	-2610
ET	-2611
He	-2612
▁Am	-2613
▁Gl	-2614
▁IT	-2615
▁bi	-2616
▁fa	-2617
ague	-2618
ried	-2619
ught	-2620
▁Sec	-2621
▁age	-2622
eries	-2623
icket	-2624
ports	-2625
▁caus	-2626
▁fire	-2627
ers▁to	-2628
▁bring	-2629
▁style	-2630
▁teams	-2631
▁consum	-2632
▁device	-2633
▁itself	-2634
▁object	-2635
▁window	-2636
ing▁them	-2637
▁benefit	-2638
▁introdu	-2639
▁options	-2640
▁parking	-2641
▁running	-2642
▁systems	-2643
mitted▁by	-2644
▁collabor	-2645
▁for▁this	-2646
▁might▁be	-2647
▁original	-2648
▁that▁are	-2649
▁financial	-2650
▁activities	-2651
▁production	-2652
▁Department▁of	-2653
Ch	-2654
▁z	-2655
irt	-2656
oud	-2657
▁Ed	-2658
With	-2659
irth	-2660
ustr	-2661
▁Med	-2662
▁Now	-2663
▁PDF	-2664
▁deg	-2665
▁mor	-2666
▁hous	-2667
▁told	-2668
▁tool	-2669
▁user	-2670
▁as▁an	-2671
▁gives	-2672
▁hotel	-2673
▁party	-2674
▁trust	-2675
▁accept	-2676
▁anyone	-2677
▁indoor	-2678
▁inside	-2679
▁in▁his	-2680
▁issues	-2681
▁policy	-2682
▁recogn	-2683
▁Samsung	-2684
▁clients	-2685
▁easy▁to	-2686
▁quickly	-2687
▁respect	-2688
▁whether	-2689
▁There▁are	-2690
▁looking▁for	-2691
Man	-2692
egr	-2693
ges	-2694
nam	-2695
ted	-2696
▁IN	-2697
▁Ke	-2698
lock	-2699
ship	-2700
year	-2701
▁Tra	-2702
▁adj	-2703
▁bit	-2704
▁emb	-2705
▁hav	-2706
▁mix	-2707
▁neg	-2708
▁sym	-2709
▁via	-2710
atest	-2711
earch	-2712
ed▁at	-2713
▁June	-2714
▁dest	-2715
▁earn	-2716
▁leav	-2717
▁rent	-2718
t▁know	-2719
▁drive	-2720
▁ident	-2721
▁medic	-2722
▁the▁t	-2723
ospital	-2724
▁demand	-2725
▁finish	-2726
▁reduce	-2727
▁economy	-2728
▁picture	-2729
▁subject	-2730
▁that▁we	-2731
▁in▁which	-2732
▁national	-2733
▁what▁you	-2734
▁President	-2735
▁and▁other	-2736
▁resources	-2737
▁definitely	-2738
Submitted▁by	-2739
▁relationship	-2740
▁Public▁Safety	-2741
Ke	-2742
NA	-2743
,▁“	-2744
://	-2745
cil	-2746
eth	-2747
ttp	-2748
▁bo	-2749
▁lo	-2750
erve	-2751
ises	-2752
omin	-2753
pose	-2754
urer	-2755
▁Day	-2756
▁Don	-2757
▁Val	-2758
▁box	-2759
▁hon	-2760
▁log	-2761
▁mid	-2762
▁feet	-2763
▁nice	-2764
▁trip	-2765
chieve	-2766
ership	-2767
ground	-2768
rought	-2769
▁maxim	-2770
▁trend	-2771
▁budget	-2772
▁excell	-2773
▁ground	-2774
▁injury	-2775
s▁to▁the	-2776
▁I▁would	-2777
▁general	-2778
▁National	-2779
▁campaign	-2780
▁contract	-2781
▁decision	-2782
▁finished	-2783
▁projects	-2784
▁character	-2785
go	-2786
ij	-2787
na	-2788
ele	-2789
urt	-2790
www	-2791
▁Up	-2792
▁ap	-2793
ancy	-2794
oman	-2795
rict	-2796
ysis	-2797
ed▁it	-2798
order	-2799
▁in▁M	-2800
▁sent	-2801
▁exist	-2802
▁final	-2803
▁polit	-2804
▁separ	-2805
▁Spider	-2806
▁altern	-2807
▁promot	-2808
ximately	-2809
▁back▁to	-2810
▁display	-2811
▁and▁more	-2812
▁directly	-2813
▁document	-2814
▁function	-2815
▁includes	-2816
▁position	-2817
▁problems	-2818
▁recently	-2819
▁equipment	-2820
▁during▁the	-2821
▁successful	-2822
▁according▁to	-2823
DA	-2824
MP	-2825
,▁"	-2826
All	-2827
ara	-2828
ida	-2829
rom	-2830
umb	-2831
unt	-2832
body	-2833
face	-2834
roid	-2835
▁Fin	-2836
▁cat	-2837
▁gra	-2838
▁lay	-2839
ength	-2840
usive	-2841
▁Part	-2842
▁conc	-2843
▁init	-2844
▁jour	-2845
▁paid	-2846
▁path	-2847
▁sett	-2848
▁slow	-2849
▁song	-2850
▁stop	-2851
▁and▁D	-2852
▁click	-2853
▁dress	-2854
▁explo	-2855
▁invit	-2856
▁model	-2857
▁works	-2858
ministr	-2859
ountain	-2860
▁associ	-2861
▁in▁our	-2862
▁longer	-2863
▁office	-2864
▁photos	-2865
▁proced	-2866
▁transl	-2867
▁describ	-2868
▁reading	-2869
▁computer	-2870
▁download	-2871
▁when▁the	-2872
AN	-2873
OG	-2874
GAL	-2875
arb	-2876
aul	-2877
eal	-2878
▁Ag	-2879
ined	-2880
lier	-2881
ller	-2882
▁Det	-2883
▁Jan	-2884
▁war	-2885
gress	-2886
icles	-2887
olute	-2888
▁Road	-2889
▁acqu	-2890
▁cove	-2891
▁fant	-2892
▁heat	-2893
▁lock	-2894
ession	-2895
stream	-2896
▁Green	-2897
▁a▁new	-2898
▁grain	-2899
▁in▁my	-2900
▁items	-2901
▁lives	-2902
▁skill	-2903
▁table	-2904
ated▁to	-2905
▁growth	-2906
▁integr	-2907
▁listen	-2908
▁of▁his	-2909
cription	-2910
▁but▁the	-2911
▁comment	-2912
▁devices	-2913
▁is▁also	-2914
▁package	-2915
▁results	-2916
▁to▁work	-2917
▁based▁on	-2918
▁increase	-2919
▁with▁you	-2920
▁condition	-2921
▁published	-2922
▁wonderful	-2923
▁International	-2924
▁approximately	-2925
):	-2926
PS	-2927
▁@	-2928
ada	-2929
anc	-2930
asy	-2931
avy	-2932
ute	-2933
utt	-2934
amed	-2935
apan	-2936
ares	-2937
iter	-2938
SAGAL	-2939
ached	-2940
arant	-2941
arget	-2942
inary	-2943
oices	-2944
▁Char	-2945
▁Prof	-2946
▁fair	-2947
▁rout	-2948
▁shoe	-2949
▁true	-2950
▁wish	-2951
▁adult	-2952
▁expos	-2953
▁stain	-2954
ate▁the	-2955
lection	-2956
▁I▁will	-2957
▁affect	-2958
▁allows	-2959
▁for▁an	-2960
▁needed	-2961
▁attract	-2962
▁digital	-2963
▁himself	-2964
▁must▁be	-2965
▁private	-2966
▁that▁it	-2967
▁type▁of	-2968
ification	-2969
▁official	-2970
▁physical	-2971
▁corporate	-2972
▁for▁their	-2973
▁to▁create	-2974
▁conference	-2975
▁international	-2976
IT	-2977
ek	-2978
aby	-2979
acy	-2980
elt	-2981
ged	-2982
pic	-2983
ris	-2984
rug	-2985
▁sn	-2986
iday	-2987
like	-2988
void	-2989
well	-2990
▁lar	-2991
▁sat	-2992
▁sil	-2993
▁Well	-2994
▁deep	-2995
▁firm	-2996
▁hair	-2997
▁shop	-2998
▁citiz	-2999
▁fresh	-3000
▁speak	-3001
▁write	-3002
usiness	-3003
▁Malays	-3004
▁annual	-3005
▁bought	-3006
▁except	-3007
▁of▁all	-3008
▁percent	-3009
▁quarter	-3010
▁written	-3011
▁dividend	-3012
▁not▁only	-3013
▁your▁own	-3014
▁extremely	-3015
▁represent	-3016
▁this▁year	-3017
▁some▁of▁the	-3018
AC	-3019
OS	-3020
iet	-3021
ino	-3022
uel	-3023
dule	-3024
ibly	-3025
lege	-3026
nown	-3027
ores	-3028
▁Pat	-3029
▁Pol	-3030
▁Tom	-3031
▁cop	-3032
▁kid	-3033
▁mat	-3034
ingly	-3035
inter	-3036
istor	-3037
▁Capt	-3038
▁Face	-3039
▁arch	-3040
▁doll	-3041
▁late	-3042
ofield	-3043
▁block	-3044
▁cheap	-3045
▁issue	-3046
▁legal	-3047
▁noise	-3048
▁sales	-3049
▁sense	-3050
anguage	-3051
ed▁from	-3052
▁Friday	-3053
▁abroad	-3054
▁action	-3055
▁and▁in	-3056
▁gather	-3057
▁nation	-3058
▁summer	-3059
▁supply	-3060
▁to▁you	-3061
▁what▁I	-3062
▁when▁I	-3063
▁Program	-3064
▁article	-3065
▁average	-3066
▁covered	-3067
▁details	-3068
▁holiday	-3069
▁surgery	-3070
▁teacher	-3071
▁to▁have	-3072
▁positive	-3073
▁remember	-3074
▁potential	-3075
Al	-3076
EL	-3077
▁,	-3078
.
•	-3079
ION	-3080
sub	-3081
augh	-3082
hood	-3083
icro	-3084
irit	-3085
leep	-3086
lish	-3087
pper	-3088
ptom	-3089
yrus	-3090
▁Any	-3091
▁bag	-3092
▁cra	-3093
▁dri	-3094
ed▁me	-3095
lines	-3096
orida	-3097
ruary	-3098
▁Even	-3099
▁Here	-3100
▁Then	-3101
▁farm	-3102
▁stat	-3103
▁tend	-3104
▁town	-3105
ing▁an	-3106
ing▁up	-3107
t▁have	-3108
▁Japan	-3109
▁New▁Y	-3110
▁belie	-3111
▁entry	-3112
▁fight	-3113
▁fully	-3114
▁hours	-3115
▁occur	-3116
▁relig	-3117
▁sugar	-3118
igation	-3119
▁States	-3120
▁colour	-3121
▁commit	-3122
▁living	-3123
▁screen	-3124
andatory	-3125
▁respond	-3126
▁They▁are	-3127
▁and▁that	-3128
▁and▁they	-3129
▁and▁your	-3130
▁challeng	-3131
▁electric	-3132
▁in▁their	-3133
▁range▁of	-3134
▁resident	-3135
▁solution	-3136
▁thinking	-3137
▁wanted▁to	-3138
▁additional	-3139
▁businesses	-3140
▁supplement	-3141
At	-3142
Be	-3143
au	-3144
sm	-3145
ole	-3146
val	-3147
▁TH	-3148
▁Us	-3149
amid	-3150
enge	-3151
ocol	-3152
ties	-3153
unte	-3154
wide	-3155
▁fix	-3156
▁gen	-3157
▁jud	-3158
After	-3159
iddle	-3160
utter	-3161
venue	-3162
▁Camp	-3163
▁East	-3164
▁From	-3165
▁Will	-3166
▁bill	-3167
▁gets	-3168
▁http	-3169
▁lost	-3170
▁suff	-3171
isions	-3172
listat	-3173
▁Cyrus	-3174
▁a▁bit	-3175
▁blood	-3176
▁death	-3177
▁decor	-3178
▁faith	-3179
▁haven	-3180
▁motor	-3181
▁of▁an	-3182
▁subst	-3183
▁thank	-3184
▁truly	-3185
ion▁and	-3186
▁across	-3187
▁adjust	-3188
▁center	-3189
▁church	-3190
▁couple	-3191
▁disapp	-3192
▁global	-3193
▁if▁the	-3194
▁prefer	-3195
▁sector	-3196
▁source	-3197
▁target	-3198
ulations	-3199
▁America	-3200
▁College	-3201
▁English	-3202
▁Florida	-3203
▁and▁you	-3204
▁created	-3205
▁measure	-3206
▁prevent	-3207
▁replace	-3208
▁so▁much	-3209
▁symptom	-3210
▁Malaysia	-3211
▁can▁help	-3212
▁cleaning	-3213
▁hospital	-3214
▁released	-3215
▁facilities	-3216
▁scholarship	-3217
▁applications	-3218
▁United▁States	-3219
▁opportunities	-3220
My	-3221
Sh	-3222
gn	-3223
mas	-3224
▁Ir	-3225
aces	-3226
hold	-3227
uild	-3228
▁End	-3229
▁Min	-3230
▁dry	-3231
▁tim	-3232
▁ton	-3233
arily	-3234
elebr	-3235
ivity	-3236
rench	-3237
s▁off	-3238
▁Cour	-3239
▁Gold	-3240
▁born	-3241
▁goes	-3242
▁rain	-3243
ustain	-3244
vision	-3245
▁Techn	-3246
▁alone	-3247
▁exact	-3248
▁lower	-3249
▁stuff	-3250
▁users	-3251
▁wrong	-3252
You▁can	-3253
▁engine	-3254
▁highly	-3255
▁prices	-3256
▁Captain	-3257
▁a▁great	-3258
▁consist	-3259
▁friends	-3260
▁of▁them	-3261
▁part▁of	-3262
▁February	-3263
▁incorpor	-3264
▁software	-3265
▁to▁their	-3266
▁president	-3267
▁with▁this	-3268
▁collection	-3269
▁organization	-3270
▁social▁media	-3271
".	-3272
LS	-3273
ga	-3274
ky	-3275
ze	-3276
bur	-3277
mod	-3278
sec	-3279
▁Ab	-3280
▁ic	-3281
▁kn	-3282
amic	-3283
bian	-3284
cher	-3285
▁Ent	-3286
▁Let	-3287
▁Mon	-3288
▁den	-3289
▁eat	-3290
▁rad	-3291
▁smo	-3292
ystem	-3293
▁Many	-3294
▁Post	-3295
▁blue	-3296
▁capt	-3297
▁host	-3298
▁loss	-3299
▁sche	-3300
▁sold	-3301
▁stru	-3302
▁wire	-3303
▁yard	-3304
ightly	-3305
▁Black	-3306
▁Class	-3307
▁agree	-3308
▁happy	-3309
▁princ	-3310
▁trade	-3311
ovember	-3312
vention	-3313
▁Office	-3314
▁academ	-3315
▁answer	-3316
▁became	-3317
▁commer	-3318
▁credit	-3319
▁do▁you	-3320
▁for▁me	-3321
▁nearly	-3322
▁region	-3323
▁temper	-3324
▁try▁to	-3325
▁complex	-3326
▁did▁not	-3327
▁guarant	-3328
▁meeting	-3329
▁monitor	-3330
▁overall	-3331
▁parents	-3332
▁so▁that	-3333
ashington	-3334
▁New▁York	-3335
▁creative	-3336
▁facility	-3337
▁movement	-3338
▁multiple	-3339
▁strength	-3340
▁time▁and	-3341
▁under▁the	-3342
▁decided▁to	-3343
mm	-3344
iar	-3345
oly	-3346
oul	-3347
y▁B	-3348
▁Ac	-3349
▁Sw	-3350
▁ge	-3351
aint	-3352
ales	-3353
anel	-3354
chen	-3355
ming	-3356
nces	-3357
▁Act	-3358
▁Cor	-3359
▁cry	-3360
▁ded	-3361
▁din	-3362
▁enh	-3363
▁ing	-3364
▁isn	-3365
▁ple	-3366
acing	-3367
erous	-3368
ll▁be	-3369
ondon	-3370
ooper	-3371
overy	-3372
ridge	-3373
unday	-3374
usion	-3375
ville	-3376
▁Plus	-3377
▁brow	-3378
▁cand	-3379
▁circ	-3380
▁code	-3381
▁gave	-3382
▁huge	-3383
▁kill	-3384
▁lack	-3385
▁subs	-3386
ed▁out	-3387
iction	-3388
idered	-3389
illage	-3390
ity▁of	-3391
overed	-3392
porary	-3393
yramid	-3394
▁Elect	-3395
▁and▁p	-3396
▁draft	-3397
▁exhib	-3398
▁ready	-3399
▁sched	-3400
▁the▁m	-3401
▁to▁me	-3402
ization	-3403
olutely	-3404
▁advant	-3405
▁figure	-3406
▁member	-3407
▁propos	-3408
▁stairc	-3409
▁useful	-3410
olutions	-3411
▁brought	-3412
▁for▁all	-3413
▁if▁they	-3414
▁machine	-3415
▁on▁this	-3416
▁was▁the	-3417
▁when▁it	-3418
▁Scofield	-3419
▁activity	-3420
▁institut	-3421
▁the▁world	-3422
▁difference	-3423
▁experienced	-3424
▁you▁need▁to	-3425
▁environmental	-3426
ern	-3427
ham	-3428
▁Gr	-3429
▁Kn	-3430
▁ft	-3431
ampl	-3432
iant	-3433
ocal	-3434
yond	-3435
▁San	-3436
▁Yes	-3437
▁kit	-3438
▁lif	-3439
▁scr	-3440
▁ult	-3441
ammed	-3442
rical	-3443
verse	-3444
▁Also	-3445
▁Each	-3446
▁Home	-3447
▁Sept	-3448
▁cast	-3449
▁dead	-3450
▁doub	-3451
▁draw	-3452
▁eyes	-3453
▁kids	-3454
▁ones	-3455
▁reli	-3456
change	-3457
ing▁or	-3458
▁books	-3459
▁brain	-3460
▁guest	-3461
▁influ	-3462
▁innov	-3463
▁neigh	-3464
▁the▁C	-3465
▁veget	-3466
aughter	-3467
s▁after	-3468
▁Associ	-3469
▁Awards	-3470
▁at▁all	-3471
▁a▁long	-3472
▁campus	-3473
▁nature	-3474
▁remove	-3475
ed▁to▁be	-3476
ing▁this	-3477
▁forward	-3478
▁maximum	-3479
▁restaur	-3480
▁sources	-3481
▁to▁keep	-3482
▁November	-3483
▁provided	-3484
▁surround	-3485
ing▁on▁the	-3486
▁implement	-3487
▁that▁will	-3488
▁the▁right	-3489
▁Washington	-3490
▁photograph	-3491
▁experiences	-3492
▁interesting	-3493
▁rather▁than	-3494
▁will▁be▁held	-3495
▁encouraged▁to	-3496
RU	-3497
zz	-3498
LAY	-3499
Now	-3500
OGY	-3501
ari	-3502
irl	-3503
kin	-3504
oon	-3505
see	-3506
vis	-3507
▁Er	-3508
▁Of	-3509
▁Tw	-3510
."
"	-3511
ault	-3512
haps	-3513
kend	-3514
ober	-3515
rate	-3516
uary	-3517
▁Bro	-3518
▁dog	-3519
▁rid	-3520
▁row	-3521
▁saw	-3522
▁ten	-3523
▁tit	-3524
▁wel	-3525
LAYOL	-3526
enior	-3527
▁Book	-3528
▁Free	-3529
▁High	-3530
▁July	-3531
▁cart	-3532
▁jack	-3533
▁mark	-3534
▁mass	-3535
▁sort	-3536
▁upon	-3537
▁wear	-3538
coming	-3539
ctions	-3540
▁agent	-3541
▁autom	-3542
▁award	-3543
▁files	-3544
▁shoot	-3545
▁the▁S	-3546
ed▁to▁a	-3547
▁attack	-3548
▁client	-3549
▁couldn	-3550
▁length	-3551
▁obtain	-3552
▁of▁God	-3553
▁safety	-3554
LAYOLOGY	-3555
s▁on▁the	-3556
▁and▁his	-3557
▁are▁the	-3558
▁instead	-3559
▁leading	-3560
▁message	-3561
▁out▁the	-3562
▁regular	-3563
▁to▁take	-3564
▁Republic	-3565
▁chemical	-3566
▁citizens	-3567
▁internet	-3568
▁language	-3569
▁pressure	-3570
▁received	-3571
▁teaching	-3572
▁that▁was	-3573
▁training	-3574
▁with▁our	-3575
▁economics	-3576
▁essential	-3577
▁make▁sure	-3578
▁much▁more	-3579
▁procedure	-3580
▁will▁also	-3581
▁considered	-3582
▁in▁order▁to	-3583
▁traditional	-3584
EN	-3585
Re	-3586
UT	-3587
fr	-3588
ja	-3589
One	-3590
igu	-3591
rel	-3592
tee	-3593
ulk	-3594
Here	-3595
aper	-3596
ceed	-3597
vant	-3598
vest	-3599
▁Get	-3600
▁Non	-3601
▁Red	-3602
▁Sur	-3603
▁del	-3604
▁gas	-3605
▁hor	-3606
▁pen	-3607
ATION	-3608
antly	-3609
ester	-3610
orage	-3611
works	-3612
▁Hope	-3613
▁Mich	-3614
▁West	-3615
▁band	-3616
▁bott	-3617
▁elig	-3618
▁fell	-3619
▁of▁b	-3620
▁onto	-3621
▁poor	-3622
▁sale	-3623
▁sens	-3624
▁shot	-3625
▁wood	-3626
ctober	-3627
ing▁as	-3628
ing▁is	-3629
▁I▁don	-3630
▁carry	-3631
▁delic	-3632
▁floor	-3633
▁rates	-3634
▁sites	-3635
▁steel	-3636
▁surpr	-3637
ohammed	-3638
▁Health	-3639
▁London	-3640
▁Street	-3641
▁and▁to	-3642
▁career	-3643
▁easier	-3644
▁easily	-3645
▁moving	-3646
▁myself	-3647
▁square	-3648
▁stress	-3649
▁to▁use	-3650
▁update	-3651
ervation	-3652
ological	-3653
▁concept	-3654
▁mission	-3655
▁passion	-3656
▁reflect	-3657
▁talking	-3658
▁weekend	-3659
▁could▁be	-3660
▁down▁the	-3661
▁patients	-3662
▁previous	-3663
▁progress	-3664
▁amount▁of	-3665
▁excellent	-3666
▁perfectly	-3667
▁structure	-3668
▁commercial	-3669
▁conditions	-3670
▁each▁other	-3671
▁protection	-3672
▁responsible	-3673
.)	-3674
OM	-3675
pm	-3676
sy	-3677
▁…	-3678
Com	-3679
agn	-3680
arr	-3681
erc	-3682
iff	-3683
iji	-3684
owl	-3685
uke	-3686
▁Mc	-3687
▁Oh	-3688
band	-3689
mark	-3690
oday	-3691
rast	-3692
rupt	-3693
wise	-3694
with	-3695
▁Acc	-3696
▁Out	-3697
▁Sim	-3698
▁fan	-3699
▁gun	-3700
▁pet	-3701
alice	-3702
attle	-3703
press	-3704
right	-3705
▁Coun	-3706
▁King	-3707
▁Mond	-3708
▁drug	-3709
▁repe	-3710
▁tele	-3711
fortun	-3712
icycle	-3713
inally	-3714
raight	-3715
▁Build	-3716
▁Group	-3717
▁House	-3718
▁Super	-3719
▁and▁F	-3720
▁capac	-3721
▁heard	-3722
▁helps	-3723
▁ideal	-3724
▁is▁in	-3725
▁plans	-3726
▁pregn	-3727
▁satis	-3728
▁sweet	-3729
▁us▁to	-3730
▁charge	-3731
▁cheese	-3732
▁due▁to	-3733
▁ingred	-3734
▁stream	-3735
▁a▁large	-3736
▁greater	-3737
▁increas	-3738
▁morning	-3739
▁reality	-3740
▁serious	-3741
▁we▁will	-3742
abilities	-3743
▁European	-3744
▁independ	-3745
▁requires	-3746
▁Christmas	-3747
▁administr	-3748
▁challenge	-3749
▁efficient	-3750
▁emergency	-3751
▁following	-3752
▁per▁share	-3753
▁because▁of	-3754
▁within▁the	-3755
▁as▁possible	-3756
▁manufacturer	-3757
AD	-3758
gy	-3759
ny	-3760
▁+	-3761
BID	-3762
iam	-3763
isc	-3764
off	-3765
pen	-3766
rag	-3767
vin	-3768
▁TV	-3769
▁ru	-3770
ffee	-3771
rest	-3772
▁Cur	-3773
▁imm	-3774
▁jun	-3775
▁obv	-3776
Keiji	-3777
itude	-3778
known	-3779
oogle	-3780
ulous	-3781
▁Aust	-3782
▁Care	-3783
▁More	-3784
▁Time	-3785
▁acid	-3786
▁as▁I	-3787
▁bank	-3788
▁cold	-3789
▁diet	-3790
▁prec	-3791
▁uses	-3792
▁warm	-3793
▁wild	-3794
Please	-3795
aduate	-3796
ers▁in	-3797
ifying	-3798
opping	-3799
▁Other	-3800
▁and▁m	-3801
▁brown	-3802
▁categ	-3803
▁costs	-3804
▁frame	-3805
▁occas	-3806
▁pages	-3807
▁photo	-3808
▁sleep	-3809
ing▁our	-3810
▁Commun	-3811
▁Indian	-3812
▁Monday	-3813
▁Sunday	-3814
▁damage	-3815
▁decide	-3816
▁double	-3817
▁father	-3818
▁histor	-3819
▁normal	-3820
▁notice	-3821
▁one▁of	-3822
▁or▁the	-3823
▁set▁up	-3824
▁strugg	-3825
▁use▁of	-3826
▁airport	-3827
▁capital	-3828
▁entries	-3829
▁produce	-3830
▁that▁he	-3831
▁to▁this	-3832
▁volunte	-3833
▁Facebook	-3834
▁Research	-3835
▁continue	-3836
▁evidence	-3837
▁families	-3838
▁shall▁be	-3839
▁strategy	-3840
▁types▁of	-3841
▁September	-3842
▁World▁War	-3843
▁using▁the	-3844
▁which▁was	-3845
▁out▁of▁the	-3846
▁people▁who	-3847
▁themselves	-3848
▁you▁should	-3849
▁established	-3850
▁University▁of	-3851
",	-3852
Ar	-3853
ED	-3854
IC	-3855
bo	-3856
gl	-3857
isp	-3858
lor	-3859
pri	-3860
uds	-3861
▁El	-3862
▁Ge	-3863
▁Im	-3864
▁cy	-3865
They	-3866
anos	-3867
ging	-3868
izes	-3869
oost	-3870
ouis	-3871
reek	-3872
▁Nin	-3873
▁See	-3874
▁fab	-3875
▁ord	-3876
▁wal	-3877
▁www	-3878
These	-3879
itary	-3880
orrow	-3881
state	-3882
subas	-3883
ugust	-3884
▁Germ	-3885
▁Room	-3886
▁club	-3887
▁coun	-3888
▁fear	-3889
▁fine	-3890
▁jump	-3891
▁park	-3892
▁pers	-3893
▁spin	-3894
▁tast	-3895
atives	-3896
uesday	-3897
unched	-3898
urning	-3899
▁Inter	-3900
▁Scout	-3901
▁The▁N	-3902
▁added	-3903
▁basic	-3904
▁frequ	-3905
▁maybe	-3906
▁raise	-3907
▁rules	-3908
▁the▁B	-3909
▁youth	-3910
aturday	-3911
ed▁in▁a	-3912
ure▁and	-3913
▁Tsubas	-3914
▁and▁he	-3915
▁celebr	-3916
▁estate	-3917
▁expand	-3918
▁latest	-3919
▁make▁a	-3920
▁recipe	-3921
ation▁is	-3922
▁purpose	-3923
▁stories	-3924
▁traffic	-3925
▁Interest	-3926
▁Services	-3927
▁accident	-3928
▁analysis	-3929
▁and▁will	-3930
▁discover	-3931
▁landscap	-3932
▁on▁their	-3933
▁straight	-3934
ations▁and	-3935
▁certainly	-3936
▁fantastic	-3937
▁last▁year	-3938
▁your▁home	-3939
▁If▁you▁are	-3940
▁background	-3941
▁smartphone	-3942
▁with▁their	-3943
▁temperature	-3944
▁important▁to	-3945
OT	-3946
Ph	-3947
RA	-3948
aj	-3949
ps	-3950
zh	-3951
FOR	-3952
PRE	-3953
asc	-3954
bit	-3955
het	-3956
rey	-3957
wes	-3958
▁Af	-3959
That	-3960
chie	-3961
hest	-3962
iest	-3963
lies	-3964
rial	-3965
roud	-3966
s▁up	-3967
▁Ann	-3968
▁Cle	-3969
▁Whe	-3970
▁ath	-3971
▁ban	-3972
▁los	-3973
▁sun	-3974
While	-3975
mbuds	-3976
or▁of	-3977
s▁all	-3978
uries	-3979
▁Ange	-3980
▁Cost	-3981
▁anti	-3982
▁by▁a	-3983
▁cell	-3984
▁dark	-3985
▁prem	-3986
▁ship	-3987
▁surv	-3988
▁wine	-3989
enture	-3990
ousand	-3991
▁Every	-3992
▁First	-3993
▁analy	-3994
▁and▁L	-3995
▁appli	-3996
▁glass	-3997
▁guess	-3998
▁novel	-3999
▁pleas	-4000
▁recip	-4001
▁shape	-4002
▁theft	-4003
ance▁of	-4004
ing▁out	-4005
ment▁of	-4006
▁Design	-4007
▁French	-4008
▁I▁know	-4009
▁Window	-4010
▁advert	-4011
▁and▁be	-4012
▁animal	-4013
▁colors	-4014
▁covers	-4015
▁gutter	-4016
▁places	-4017
▁points	-4018
▁shared	-4019
▁unless	-4020
mbudsman	-4021
ross▁the	-4022
▁January	-4023
▁and▁get	-4024
▁choices	-4025
▁express	-4026
▁finally	-4027
▁nothing	-4028
▁pattern	-4029
▁schedul	-4030
▁setting	-4031
▁to▁find	-4032
▁weather	-4033
▁we▁were	-4034
There▁are	-4035
▁capacity	-4036
▁comments	-4037
▁familiar	-4038
▁on▁April	-4039
▁planning	-4040
▁presence	-4041
▁SLAYOLOGY	-4042
▁advantage	-4043
▁employees	-4044
▁in▁Europe	-4045
▁staircase	-4046
▁this▁time	-4047
▁those▁who	-4048
▁transform	-4049
▁years▁ago	-4050
▁if▁you▁are	-4051
▁continue▁to	-4052
▁going▁to▁be	-4053
▁particularly	-4054
▁interested▁in	-4055
ST	-4056
”.	-4057
See	-4058
ava	-4059
ero	-4060
ext	-4061
how	-4062
ifi	-4063
leg	-4064
ops	-4065
put	-4066
▁$.	-4067
▁NC	-4068
▁ep	-4069
FORM	-4070
akes	-4071
arth	-4072
care	-4073
free	-4074
hens	-4075
iles	-4076
t▁be	-4077
▁Net	-4078
▁bra	-4079
▁due	-4080
▁fru	-4081
▁mir	-4082
▁mis	-4083
▁nut	-4084
▁son	-4085
▁tow	-4086
▁tri	-4087
▁vac	-4088
aries	-4089
ure▁S	-4090
▁Cons	-4091
▁Ital	-4092
▁Once	-4093
▁Read	-4094
▁baby	-4095
▁corn	-4096
▁exec	-4097
▁pred	-4098
▁scen	-4099
▁vary	-4100
BID▁IN	-4101
encing	-4102
▁Trans	-4103
▁Water	-4104
▁appre	-4105
▁cards	-4106
▁coach	-4107
▁dream	-4108
▁lines	-4109
▁looks	-4110
▁reput	-4111
▁templ	-4112
▁trick	-4113
atively	-4114
ultural	-4115
▁announ	-4116
▁as▁you	-4117
▁beauty	-4118
▁combin	-4119
▁contem	-4120
▁driver	-4121
▁extend	-4122
▁favour	-4123
▁giving	-4124
▁golden	-4125
▁intend	-4126
▁involv	-4127
▁spring	-4128
▁states	-4129
▁ticket	-4130
ed▁about	-4131
▁Tuesday	-4132
▁achieve	-4133
▁are▁not	-4134
▁conduct	-4135
▁housing	-4136
▁minimum	-4137
▁nursing	-4138
▁profile	-4139
▁studies	-4140
▁the▁new	-4141
▁the▁way	-4142
▁to▁be▁a	-4143
▁what▁we	-4144
FORMATION	-4145
ating▁the	-4146
▁contains	-4147
▁had▁been	-4148
▁or▁other	-4149
▁powerful	-4150
▁programs	-4151
▁Ombudsman	-4152
▁and▁there	-4153
▁encourage	-4154
▁selection	-4155
▁solutions	-4156
▁sometimes	-4157
▁they▁were	-4158
▁where▁the	-4159
▁industrial	-4160
andatory▁Pre	-4161
ation▁of▁the	-4162
▁between▁the	-4163
▁conversation	-4164
BID▁INFORMATION	-4165
Pl	-4166
yd	-4167
ye	-4168
▁[	-4169
.
(	-4170
ING	-4171
She	-4172
ads	-4173
alu	-4174
duc	-4175
iol	-4176
ios	-4177
oli	-4178
▁li	-4179
ayer	-4180
icip	-4181
iger	-4182
made	-4183
rees	-4184
roll	-4185
yard	-4186
▁Ben	-4187
▁Hol	-4188
▁Ken	-4189
▁Law	-4190
▁Mac	-4191
▁Rem	-4192
▁ble	-4193
▁dyn	-4194
▁rat	-4195
▁thr	-4196
▁yog	-4197
house	-4198
lando	-4199
lying	-4200
ograp	-4201
ollow	-4202
onent	-4203
ronic	-4204
▁Fire	-4205
▁Love	-4206
▁Most	-4207
▁cerv	-4208
▁debt	-4209
▁forg	-4210
▁guys	-4211
▁quot	-4212
▁roll	-4213
▁sole	-4214
▁ways	-4215
ecause	-4216
ishing	-4217
usband	-4218
wesome	-4219
▁A▁Non	-4220
▁Louis	-4221
▁Tommy	-4222
▁agric	-4223
▁breat	-4224
▁indic	-4225
▁knows	-4226
▁of▁it	-4227
▁optim	-4228
▁peace	-4229
▁proud	-4230
▁relax	-4231
▁scene	-4232
▁shipp	-4233
▁stage	-4234
▁teach	-4235
▁waste	-4236
ampions	-4237
mission	-4238
picious	-4239
▁Canada	-4240
▁End▁of	-4241
▁Google	-4242
▁In▁the	-4243
▁Thanks	-4244
▁Thanos	-4245
▁forget	-4246
▁mental	-4247
▁skills	-4248
▁such▁a	-4249
Mohammed	-4250
able▁and	-4251
▁Develop	-4252
▁October	-4253
▁Orlando	-4254
▁century	-4255
▁compens	-4256
▁element	-4257
▁for▁our	-4258
▁offered	-4259
▁off▁the	-4260
▁primary	-4261
▁sustain	-4262
▁welcome	-4263
▁you▁get	-4264
ed▁on▁the	-4265
▁appropri	-4266
▁can▁also	-4267
▁comes▁to	-4268
▁delivery	-4269
▁eligible	-4270
▁they▁can	-4271
▁the▁last	-4272
▁the▁past	-4273
▁thousand	-4274
▁years▁of	-4275
▁Thank▁you	-4276
▁beginning	-4277
▁couple▁of	-4278
▁generally	-4279
▁less▁than	-4280
▁of▁course	-4281
▁through▁a	-4282
▁absolutely	-4283
▁confidence	-4284
▁restaurant	-4285
▁alternative	-4286
▁incorporated	-4287
▁Captain▁Tsubas	-4288
--	-4289
CT	-4290
OW	-4291
SC	-4292
”,	-4293
alm	-4294
ama	-4295
ban	-4296
enc	-4297
ili	-4298
nal	-4299
nes	-4300
odd	-4301
ode	-4302
▁jo	-4303
Your	-4304
cast	-4305
orge	-4306
rote	-4307
ying	-4308
▁...	-4309
▁Mus	-4310
▁Par	-4311
▁Tem	-4312
▁Ver	-4313
▁egg	-4314
▁fee	-4315
▁nor	-4316
▁tip	-4317
▁ver	-4318
ament	-4319
apter	-4320
asons	-4321
ed▁an	-4322
ening	-4323
ician	-4324
ights	-4325
inery	-4326
m▁not	-4327
oming	-4328
orial	-4329
▁Case	-4330
▁Educ	-4331
▁Erdo	-4332
▁Paul	-4333
▁Town	-4334
▁desk	-4335
▁emot	-4336
▁glad	-4337
▁issu	-4338
▁opin	-4339
▁pump	-4340
▁slot	-4341
▁tree	-4342
▁yarn	-4343
We▁are	-4344
ederal	-4345
iences	-4346
s▁were	-4347
▁Ninja	-4348
▁Trump	-4349
▁ahead	-4350
▁basis	-4351
▁birth	-4352
▁catch	-4353
▁excit	-4354
▁goals	-4355
▁joint	-4356
▁liter	-4357
▁named	-4358
▁spons	-4359
▁truck	-4360
▁truth	-4361
able▁to	-4362
imately	-4363
itation	-4364
▁August	-4365
▁He▁was	-4366
▁aspect	-4367
▁candid	-4368
▁former	-4369
▁inspir	-4370
▁like▁a	-4371
▁remind	-4372
▁Airport	-4373
▁Android	-4374
▁and▁our	-4375
▁appreci	-4376
▁balance	-4377
▁consult	-4378
▁enhance	-4379
▁failure	-4380
▁husband	-4381
▁impress	-4382
▁partner	-4383
▁princip	-4384
▁station	-4385
▁what▁is	-4386
▁Saturday	-4387
▁academic	-4388
▁accommod	-4389
▁elements	-4390
▁friendly	-4391
▁instruct	-4392
▁launched	-4393
▁military	-4394
▁ready▁to	-4395
▁wireless	-4396
▁with▁his	-4397
ing▁around	-4398
ing▁to▁the	-4399
▁Therefore	-4400
▁This▁is▁a	-4401
▁away▁from	-4402
▁practices	-4403
▁processes	-4404
▁reference	-4405
▁the▁other	-4406
▁when▁they	-4407
▁which▁are	-4408
fortunately	-4409
▁discovered	-4410
▁end▁of▁the	-4411
▁The▁Company	-4412
▁ingredients	-4413
Mandatory▁Pre	-4414
▁outdoor▁rugs	-4415
▁requirements	-4416
▁opportunity▁to	-4417
▁throughout▁the	-4418
HA	-4419
LE	-4420
uk	-4421
Get	-4422
ald	-4423
awi	-4424
box	-4425
hem	-4426
isl	-4427
oes	-4428
rat	-4429
san	-4430
urd	-4431
▁Cr	-4432
▁PM	-4433
▁SP	-4434
abin	-4435
anch	-4436
chan	-4437
ford	-4438
gers	-4439
igan	-4440
inct	-4441
part	-4442
phas	-4443
s▁no	-4444
tery	-4445
▁Are	-4446
▁Bel	-4447
▁Ber	-4448
▁Cap	-4449
▁Wel	-4450
▁bod	-4451
▁lab	-4452
aiden	-4453
ences	-4454
iment	-4455
iquid	-4456
itter	-4457
ocial	-4458
ounce	-4459
smith	-4460
▁Barb	-4461
▁Game	-4462
▁bond	-4463
▁dang	-4464
▁deck	-4465
▁fash	-4466
▁flex	-4467
▁gone	-4468
▁hang	-4469
▁pair	-4470
▁pull	-4471
▁task	-4472
rehens	-4473
s▁also	-4474
▁Afric	-4475
▁Rober	-4476
▁Since	-4477
▁as▁he	-4478
▁as▁it	-4479
▁hands	-4480
▁on▁my	-4481
▁polic	-4482
▁scout	-4483
▁woman	-4484
ed▁as▁a	-4485
istrict	-4486
▁Corpor	-4487
▁Detail	-4488
▁Gaiden	-4489
▁Market	-4490
▁People	-4491
▁Resume	-4492
▁artist	-4493
▁batter	-4494
▁execut	-4495
▁in▁any	-4496
▁launch	-4497
▁made▁a	-4498
▁manage	-4499
▁mother	-4500
▁police	-4501
▁scient	-4502
▁spirit	-4503
▁up▁the	-4504
▁who▁is	-4505
entially	-4506
ure▁Slim	-4507
▁Central	-4508
▁We▁have	-4509
▁and▁are	-4510
▁and▁has	-4511
▁bicycle	-4512
▁classic	-4513
▁effects	-4514
▁exactly	-4515
▁happens	-4516
▁organic	-4517
▁section	-4518
▁surface	-4519
▁with▁us	-4520
▁creating	-4521
▁critical	-4522
▁election	-4523
▁for▁more	-4524
▁help▁you	-4525
▁neighbor	-4526
▁recovery	-4527
▁selected	-4528
▁slightly	-4529
▁the▁next	-4530
▁I▁thought	-4531
▁I▁want▁to	-4532
▁attention	-4533
▁every▁day	-4534
▁landscape	-4535
▁needed▁to	-4536
▁political	-4537
▁providing	-4538
▁that▁this	-4539
▁their▁own	-4540
▁transport	-4541
▁typically	-4542
ed▁with▁the	-4543
▁Technology	-4544
▁The▁End▁of	-4545
▁connection	-4546
▁processing	-4547
▁university	-4548
▁with▁other	-4549
▁partnership	-4550
▁real▁estate	-4551
▁you▁can▁see	-4552
▁Ninja▁Gaiden	-4553
▁investigation	-4554
BO	-4555
MD	-4556
No	-4557
PM	-4558
td	-4559
ya	-4560
ym	-4561
zy	-4562
▁/	-4563
dom	-4564
osh	-4565
osm	-4566
pre	-4567
ubb	-4568
umn	-4569
xic	-4570
▁PC	-4571
▁po	-4572
aged	-4573
asty	-4574
atre	-4575
bean	-4576
cles	-4577
down	-4578
imin	-4579
more	-4580
olic	-4581
pool	-4582
race	-4583
rock	-4584
ropp	-4585
sequ	-4586
s▁at	-4587
tein	-4588
vere	-4589
what	-4590
▁Bet	-4591
▁Her	-4592
▁Mor	-4593
▁Que	-4594
▁gam	-4595
▁gar	-4596
▁spl	-4597
▁und	-4598
adata	-4599
aging	-4600
ellow	-4601
igger	-4602
iques	-4603
obile	-4604
orney	-4605
▁Disc	-4606
▁Jose	-4607
▁Miss	-4608
▁Oper	-4609
▁Over	-4610
▁Prot	-4611
▁Real	-4612
▁Rich	-4613
▁bath	-4614
▁lift	-4615
▁of▁G	-4616
▁pool	-4617
▁rich	-4618
▁rock	-4619
▁shut	-4620
▁util	-4621
▁valu	-4622
estern	-4623
s▁have	-4624
yright	-4625
▁Court	-4626
▁Found	-4627
▁Quest	-4628
▁and▁t	-4629
▁an▁un	-4630
▁avoid	-4631
▁aware	-4632
▁began	-4633
▁estim	-4634
▁evalu	-4635
▁exerc	-4636
▁fiber	-4637
▁force	-4638
▁go▁to	-4639
▁heavy	-4640
▁initi	-4641
▁names	-4642
▁offic	-4643
▁oppos	-4644
▁plent	-4645
▁sheet	-4646
▁speed	-4647
▁worry	-4648
ed▁by▁a	-4649
ers▁who	-4650
▁Direct	-4651
▁Russia	-4652
▁System	-4653
▁actual	-4654
▁appeal	-4655
▁a▁huge	-4656
▁excess	-4657
▁faster	-4658
▁incred	-4659
▁jacket	-4660
▁mostly	-4661
▁prepar	-4662
▁that▁a	-4663
▁to▁our	-4664
▁to▁say	-4665
▁visual	-4666
irection	-4667
▁Austral	-4668
▁Council	-4669
▁Student	-4670
▁Windows	-4671
▁ability	-4672
▁arrange	-4673
▁confirm	-4674
▁default	-4675
▁experts	-4676
▁for▁any	-4677
▁growing	-4678
▁highest	-4679
▁illness	-4680
▁kitchen	-4681
▁numbers	-4682
▁plastic	-4683
▁prepare	-4684
▁revenue	-4685
▁session	-4686
▁using▁a	-4687
s▁and▁the	-4688
▁District	-4689
▁Orlistat	-4690
▁There▁is	-4691
▁having▁a	-4692
▁properly	-4693
▁reported	-4694
▁than▁the	-4695
▁transfer	-4696
▁interview	-4697
▁materials	-4698
▁residents	-4699
▁situation	-4700
▁what▁they	-4701
▁about▁your	-4702
▁all▁of▁the	-4703
▁around▁the	-4704
▁associated	-4705
▁population	-4706
▁to▁provide	-4707
▁will▁not▁be	-4708
▁round▁indoor	-4709
Is	-4710
PA	-4711
RC	-4712
ef	-4713
".
	-4714
Don	-4715
New	-4716
Pro	-4717
add	-4718
amb	-4719
bum	-4720
cul	-4721
eed	-4722
ius	-4723
izz	-4724
spe	-4725
uda	-4726
▁--	-4727
▁pm	-4728
ager	-4729
anta	-4730
avor	-4731
olve	-4732
sych	-4733
▁Dem	-4734
▁Flo	-4735
▁Ltd	-4736
▁Oil	-4737
▁THE	-4738
▁Web	-4739
▁cas	-4740
▁eye	-4741
▁hit	-4742
▁hyd	-4743
▁lic	-4744
▁ter	-4745
▁vot	-4746
aving	-4747
avior	-4748
es▁on	-4749
orter	-4750
ously	-4751
retch	-4752
uttle	-4753
▁Cong	-4754
▁Find	-4755
▁Form	-4756
▁Lear	-4757
▁Phot	-4758
▁Qual	-4759
▁clin	-4760
▁drum	-4761
▁felt	-4762
▁girl	-4763
▁mort	-4764
▁neck	-4765
▁shar	-4766
▁sink	-4767
▁unit	-4768
▁weld	-4769
achine	-4770
ibrary	-4771
igence	-4772
listed	-4773
▁Click	-4774
▁Gener	-4775
▁James	-4776
▁brows	-4777
▁cases	-4778
▁marri	-4779
▁meant	-4780
▁refer	-4781
▁to▁my	-4782
ive▁and	-4783
ordable	-4784
▁Valley	-4785
▁agency	-4786
▁athlet	-4787
▁border	-4788
▁cannot	-4789
▁conven	-4790
▁desire	-4791
▁discip	-4792
▁examin	-4793
▁for▁us	-4794
▁larger	-4795
▁leader	-4796
▁looked	-4797
▁mechan	-4798
▁shares	-4799
▁status	-4800
▁take▁a	-4801
▁threat	-4802
▁toward	-4803
▁as▁much	-4804
▁culture	-4805
▁earlier	-4806
▁entered	-4807
▁feeling	-4808
▁helping	-4809
▁meaning	-4810
▁pyramid	-4811
▁storage	-4812
▁to▁give	-4813
▁updated	-4814
▁use▁the	-4815
formation	-4816
rehensive	-4817
▁compared	-4818
▁football	-4819
▁for▁them	-4820
▁may▁also	-4821
▁produced	-4822
▁provider	-4823
▁restrict	-4824
▁the▁fact	-4825
▁to▁build	-4826
ampionship	-4827
▁determine	-4828
▁documents	-4829
▁practical	-4830
ed▁from▁the	-4831
▁Management	-4832
▁because▁it	-4833
▁commission	-4834
▁innovative	-4835
▁leadership	-4836
▁people▁are	-4837
▁properties	-4838
▁addition▁to	-4839
▁against▁the	-4840
▁competition	-4841
▁educational	-4842
▁instruction	-4843
▁World▁War▁II	-4844
▁distributors	-4845
▁communication	-4846
▁is▁one▁of▁the	-4847
AP	-4848
Te	-4849
mo	-4850
tr	-4851
.
–	-4852
:▁"	-4853
Why	-4854
eah	-4855
hab	-4856
iac	-4857
ixt	-4858
ker	-4859
olt	-4860
pet	-4861
win	-4862
▁IS	-4863
▁RE	-4864
▁ir	-4865
I▁am	-4866
airs	-4867
gage	-4868
izon	-4869
pite	-4870
rete	-4871
rowd	-4872
semb	-4873
▁Dav	-4874
▁Equ	-4875
▁Him	-4876
▁Pet	-4877
▁Who	-4878
▁emp	-4879
▁rev	-4880
▁sem	-4881
▁tom	-4882
aling	-4883
ayman	-4884
berry	-4885
es▁in	-4886
grade	-4887
iding	-4888
itect	-4889
itors	-4890
plant	-4891
while	-4892
▁Club	-4893
▁Have	-4894
▁Land	-4895
▁Lead	-4896
▁Publ	-4897
▁Word	-4898
▁excl	-4899
▁gett	-4900
▁it▁a	-4901
▁mail	-4902
▁race	-4903
▁rein	-4904
▁rise	-4905
▁rule	-4906
▁soci	-4907
▁trou	-4908
▁wife	-4909
ancing	-4910
atever	-4911
ers▁of	-4912
ickets	-4913
onents	-4914
ourage	-4915
ronics	-4916
s▁just	-4917
terior	-4918
ve▁got	-4919
▁Award	-4920
▁Check	-4921
▁Gover	-4922
▁Guang	-4923
▁Peter	-4924
▁broad	-4925
▁chann	-4926
▁compl	-4927
▁crack	-4928
▁cross	-4929
▁diagn	-4930
▁drink	-4931
▁foods	-4932
▁multi	-4933
▁plann	-4934
▁so▁we	-4935
▁theme	-4936
However	-4937
istered	-4938
ity▁and	-4939
tenance	-4940
▁Little	-4941
▁Orange	-4942
▁acquis	-4943
▁active	-4944
▁beyond	-4945
▁coffee	-4946
▁degree	-4947
▁export	-4948
▁letter	-4949
▁middle	-4950
▁models	-4951
▁of▁its	-4952
▁reform	-4953
▁saying	-4954
▁secure	-4955
▁smooth	-4956
▁theory	-4957
▁up▁and	-4958
ographer	-4959
▁Russian	-4960
▁Science	-4961
▁as▁they	-4962
▁cost▁of	-4963
▁journey	-4964
▁promote	-4965
▁selling	-4966
▁smaller	-4967
▁submitt	-4968
▁suspect	-4969
▁univers	-4970
▁who▁was	-4971
Thank▁you	-4972
ments▁and	-4973
▁Business	-4974
▁Michigan	-4975
▁about▁it	-4976
▁daughter	-4977
▁estimate	-4978
▁find▁out	-4979
▁homework	-4980
▁is▁about	-4981
▁like▁the	-4982
▁that▁has	-4983
▁the▁only	-4984
▁vehicles	-4985
▁will▁get	-4986
▁access▁to	-4987
▁expertise	-4988
▁reduction	-4989
▁technical	-4990
▁appearance	-4991
▁disappoint	-4992
▁resolution	-4993
▁there▁is▁a	-4994
▁Association	-4995
▁comfortable	-4996
▁communities	-4997
▁effectively	-4998
▁compensation	-4999
▁organizations	-5000
BC	-5001
IR	-5002
Or	-5003
ka	-5004
TRU	-5005
ado	-5006
ago	-5007
bon	-5008
ena	-5009
fit	-5010
nde	-5011
oke	-5012
oos	-5013
orp	-5014
top	-5015
▁Sk	-5016
angl	-5017
etic	-5018
iced	-5019
osen	-5020
rich	-5021
s▁by	-5022
▁Bra	-5023
▁DNA	-5024
▁Lee	-5025
▁Met	-5026
▁NMD	-5027
▁Rad	-5028
▁Str	-5029
▁Why	-5030
▁ice	-5031
▁ven	-5032
.....	-5033
TRUMP	-5034
craft	-5035
erved	-5036
istle	-5037
monst	-5038
ockey	-5039
which	-5040
▁Jack	-5041
▁Phil	-5042
▁Port	-5043
▁Supp	-5044
▁Test	-5045
▁cash	-5046
▁core	-5047
▁crim	-5048
▁doct	-5049
▁empt	-5050
▁harm	-5051
▁hook	-5052
▁load	-5053
▁nose	-5054
▁peas	-5055
▁ring	-5056
▁tech	-5057
In▁the	-5058
debian	-5059
ed▁his	-5060
itness	-5061
s▁of▁a	-5062
undred	-5063
ursday	-5064
▁Charl	-5065
▁Fence	-5066
▁Great	-5067
▁Trust	-5068
▁accur	-5069
▁album	-5070
▁asset	-5071
▁as▁we	-5072
▁boost	-5073
▁chain	-5074
▁eight	-5075
▁grant	-5076
▁he▁is	-5077
▁homes	-5078
▁north	-5079
▁notes	-5080
▁of▁us	-5081
▁pursu	-5082
▁seven	-5083
▁solar	-5084
▁spect	-5085
▁trail	-5086
▁valid	-5087
▁wheel	-5088
arently	-5089
ies▁and	-5090
ionally	-5091
ivision	-5092
lements	-5093
▁Centre	-5094
▁Church	-5095
▁Marvel	-5096
▁Turkey	-5097
▁advice	-5098
▁and▁an	-5099
▁assess	-5100
▁compar	-5101
▁depart	-5102
▁emphas	-5103
▁for▁my	-5104
▁master	-5105
▁or▁not	-5106
▁profit	-5107
▁rental	-5108
▁resist	-5109
▁retail	-5110
▁spread	-5111
▁street	-5112
ates▁and	-5113
ferences	-5114
ometimes	-5115
▁Because	-5116
▁Connect	-5117
▁Install	-5118
▁Profile	-5119
▁committ	-5120
▁curling	-5121
▁demonst	-5122
▁form▁of	-5123
▁look▁at	-5124
▁lots▁of	-5125
▁may▁not	-5126
▁of▁that	-5127
▁or▁more	-5128
▁she▁was	-5129
▁to▁them	-5130
▁Internet	-5131
▁and▁even	-5132
▁anywhere	-5133
▁baseball	-5134
▁concrete	-5135
▁exterior	-5136
▁how▁much	-5137
▁inspired	-5138
▁involved	-5139
▁pictures	-5140
▁piece▁of	-5141
▁place▁to	-5142
▁the▁book	-5143
s▁that▁are	-5144
▁after▁the	-5145
▁chance▁to	-5146
▁completed	-5147
▁delicious	-5148
▁extension	-5149
▁extensive	-5150
▁favourite	-5151
▁from▁your	-5152
▁increased	-5153
▁series▁of	-5154
▁technolog	-5155
▁to▁ensure	-5156
▁across▁the	-5157
▁along▁with	-5158
▁before▁you	-5159
▁electrical	-5160
▁more▁about	-5161
▁operations	-5162
▁so▁you▁can	-5163
▁ultimately	-5164
▁which▁is▁a	-5165
▁independent	-5166
▁landscaping	-5167
▁contemporary	-5168
▁neighborhood	-5169
▁to▁make▁sure	-5170
▁Captain▁Tsubasa	-5171
Cl	-5172
Do	-5173
Pe	-5174
fl	-5175
mp	-5176
ux	-5177
’.	-5178
Add	-5179
Bid	-5180
NFL	-5181
alt	-5182
eds	-5183
gen	-5184
hel	-5185
igr	-5186
imb	-5187
lee	-5188
log	-5189
pel	-5190
que	-5191
usi	-5192
vey	-5193
▁.
	-5194
▁Bi	-5195
▁Go	-5196
▁Ob	-5197
▁Wi	-5198
From	-5199
Just	-5200
edia	-5201
enom	-5202
grad	-5203
gypt	-5204
mega	-5205
onym	-5206
ords	-5207
tail	-5208
then	-5209
▁Aff	-5210
▁Bay	-5211
▁Pot	-5212
▁Rec	-5213
▁Spe	-5214
▁Spr	-5215
▁Sun	-5216
▁Tex	-5217
▁Wed	-5218
▁a▁s	-5219
▁boy	-5220
▁bur	-5221
▁guy	-5222
▁pow	-5223
▁ran	-5224
▁rul	-5225
▁suc	-5226
It▁is	-5227
I▁was	-5228
adesh	-5229
apers	-5230
ed▁or	-5231
eline	-5232
er▁is	-5233
izing	-5234
rency	-5235
under	-5236
▁....	-5237
▁As▁a	-5238
▁Head	-5239
▁Hill	-5240
▁Knox	-5241
▁List	-5242
▁Play	-5243
▁Tour	-5244
▁incl	-5245
▁knew	-5246
▁luck	-5247
▁magn	-5248
▁push	-5249
▁reve	-5250
▁root	-5251
▁soil	-5252
active	-5253
cember	-5254
icking	-5255
ing▁at	-5256
nesday	-5257
ushing	-5258
▁Guide	-5259
▁Where	-5260
▁Which	-5261
▁and▁G	-5262
▁and▁c	-5263
▁court	-5264
▁cream	-5265
▁dedic	-5266
▁fruit	-5267
▁grade	-5268
▁it▁to	-5269
▁paint	-5270
▁rated	-5271
▁river	-5272
▁shown	-5273
▁spent	-5274
▁stopp	-5275
▁yield	-5276
ated▁by	-5277
estival	-5278
ing▁his	-5279
ography	-5280
▁Comple	-5281
▁Contro	-5282
▁Island	-5283
▁League	-5284
▁attach	-5285
▁a▁look	-5286
▁belong	-5287
▁bright	-5288
▁button	-5289
▁but▁we	-5290
▁dinner	-5291
▁eating	-5292
▁editor	-5293
▁find▁a	-5294
▁format	-5295
▁hockey	-5296
▁in▁all	-5297
▁my▁own	-5298
▁of▁any	-5299
▁plants	-5300
▁receiv	-5301
▁signal	-5302
▁sports	-5303
▁submit	-5304
▁taught	-5305
▁values	-5306
▁wealth	-5307
▁worked	-5308
igua▁and	-5309
standing	-5310
▁Barbuda	-5311
▁Service	-5312
▁and▁how	-5313
▁answers	-5314
▁becomes	-5315
▁calling	-5316
▁designs	-5317
▁edition	-5318
▁have▁an	-5319
▁illustr	-5320
▁leather	-5321
▁payment	-5322
▁sharing	-5323
▁so▁many	-5324
▁them▁to	-5325
▁to▁know	-5326
▁when▁we	-5327
▁who▁has	-5328
d▁like▁to	-5329
ing▁these	-5330
▁Detailed	-5331
▁Japanese	-5332
▁Mountain	-5333
▁advanced	-5334
▁benefits	-5335
▁cervical	-5336
▁create▁a	-5337
▁discount	-5338
▁exposure	-5339
▁focus▁on	-5340
▁informal	-5341
▁may▁have	-5342
▁of▁the▁F	-5343
▁possibly	-5344
▁prepared	-5345
▁relevant	-5346
▁separate	-5347
▁shopping	-5348
▁speaking	-5349
▁suitable	-5350
▁to▁learn	-5351
▁websites	-5352
ed▁to▁have	-5353
▁Pure▁Slim	-5354
▁Wednesday	-5355
▁and▁their	-5356
▁chemistry	-5357
▁highlight	-5358
▁otherwise	-5359
▁there▁was	-5360
▁this▁week	-5361
▁until▁the	-5362
▁your▁body	-5363
▁exhibition	-5364
▁need▁to▁be	-5365
▁specialist	-5366
See▁Detailed	-5367
▁composition	-5368
▁designed▁to	-5369
▁interactive	-5370
▁other▁words	-5371
▁and▁Dividend	-5372
▁because▁they	-5373
▁is▁available	-5374
▁participants	-5375
▁comprehensive	-5376
▁following▁the	-5377
▁would▁like▁to	-5378
▁responsibility	-5379
igua▁and▁Barbuda	-5380
▁Company▁Profile	-5381
%.	-5382
EC	-5383
JV	-5384
MS	-5385
Me	-5386
Pr	-5387
SS	-5388
Up	-5389
bl	-5390
!!
	-5391
iny	-5392
oma	-5393
pan	-5394
▁AD	-5395
▁AM	-5396
▁ET	-5397
▁La	-5398
▁OF	-5399
Tube	-5400
adow	-5401
airy	-5402
arry	-5403
aver	-5404
dden	-5405
ed▁b	-5406
fast	-5407
flow	-5408
irty	-5409
irus	-5410
lict	-5411
reed	-5412
ston	-5413
ulum	-5414
umin	-5415
zhou	-5416
▁Art	-5417
▁Big	-5418
▁DPS	-5419
▁Use	-5420
▁aim	-5421
▁die	-5422
▁dut	-5423
▁har	-5424
▁map	-5425
▁nav	-5426
▁rap	-5427
▁soy	-5428
▁sty	-5429
acles	-5430
doors	-5431
field	-5432
iring	-5433
iture	-5434
itute	-5435
ocket	-5436
olina	-5437
ubber	-5438
water	-5439
▁Blue	-5440
▁Brit	-5441
▁Call	-5442
▁Farm	-5443
▁Iran	-5444
▁Star	-5445
▁Tech	-5446
▁Upon	-5447
▁Wood	-5448
▁bare	-5449
▁busy	-5450
▁cert	-5451
▁cute	-5452
▁drop	-5453
▁edge	-5454
▁in▁C	-5455
▁in▁D	-5456
▁menu	-5457
▁mill	-5458
▁mist	-5459
▁of▁C	-5460
▁pray	-5461
▁rais	-5462
▁tail	-5463
▁tube	-5464
▁viol	-5465
▁virt	-5466
▁wool	-5467
oddess	-5468
unting	-5469
▁Apple	-5470
▁Const	-5471
▁I▁got	-5472
▁Maybe	-5473
▁River	-5474
▁White	-5475
▁and▁R	-5476
▁doubt	-5477
▁dropp	-5478
▁earth	-5479
▁engag	-5480
▁forms	-5481
▁labor	-5482
▁lunch	-5483
▁miles	-5484
▁moved	-5485
▁movie	-5486
▁owner	-5487
▁proof	-5488
▁quant	-5489
▁quote	-5490
▁shows	-5491
▁solid	-5492
▁trave	-5493
▁tried	-5494
▁upper	-5495
▁whose	-5496
able▁of	-5497
ception	-5498
conomic	-5499
ed▁into	-5500
es▁that	-5501
ors▁and	-5502
resents	-5503
▁Cancer	-5504
▁Easter	-5505
▁asking	-5506
▁a▁good	-5507
▁a▁year	-5508
▁battle	-5509
▁fellow	-5510
▁groups	-5511
▁is▁now	-5512
▁leaves	-5513
▁legisl	-5514
▁minute	-5515
▁nearby	-5516
▁reveal	-5517
▁sudden	-5518
▁to▁pay	-5519
ions▁and	-5520
▁Machine	-5521
▁YouTube	-5522
▁appoint	-5523
▁bedroom	-5524
▁being▁a	-5525
▁clearly	-5526
▁complet	-5527
▁cooking	-5528
▁diverse	-5529
▁explore	-5530
▁fashion	-5531
▁federal	-5532
▁lack▁of	-5533
▁make▁it	-5534
▁massive	-5535
▁or▁even	-5536
▁patient	-5537
▁pick▁up	-5538
▁printer	-5539
▁protein	-5540
▁unknown	-5541
▁warrant	-5542
angladesh	-5543
▁Although	-5544
▁Campaign	-5545
▁December	-5546
▁Security	-5547
▁and▁also	-5548
▁and▁most	-5549
▁audience	-5550
▁controll	-5551
▁existing	-5552
▁going▁on	-5553
▁included	-5554
▁injuries	-5555
▁involves	-5556
▁make▁the	-5557
▁my▁heart	-5558
▁normally	-5559
▁occurred	-5560
▁offering	-5561
▁of▁those	-5562
▁substant	-5563
▁to▁share	-5564
▁upcoming	-5565
▁upstream	-5566
▁you▁must	-5567
▁Education	-5568
▁come▁with	-5569
▁confident	-5570
▁decisions	-5571
▁direction	-5572
▁influence	-5573
▁locations	-5574
▁mentioned	-5575
▁pregnancy	-5576
▁will▁take	-5577
▁worldwide	-5578
▁challenges	-5579
▁constantly	-5580
▁conversion	-5581
▁first▁time	-5582
▁healthcare	-5583
▁represents	-5584
▁strategies	-5585
▁with▁these	-5586
▁The▁History	-5587
▁citizenship	-5588
▁supplements	-5589
▁there▁is▁no	-5590
▁installation	-5591
▁successfully	-5592
Bid▁Conference	-5593
▁including▁the	-5594
▁professionals	-5595
AB	-5596
CA	-5597
GB	-5598
OU	-5599
Tr	-5600
UM	-5601
fe	-5602
DAQ	-5603
ady	-5604
asp	-5605
cel	-5606
los	-5607
run	-5608
ups	-5609
”.
	-5610
▁AN	-5611
▁AP	-5612
▁HD	-5613
▁SS	-5614
▁ju	-5615
!!!
	-5616
aust	-5617
born	-5618
ened	-5619
enty	-5620
hand	-5621
hern	-5622
iban	-5623
ilot	-5624
lder	-5625
lete	-5626
omer	-5627
onse	-5628
west	-5629
▁Aud	-5630
▁Bob	-5631
▁Haz	-5632
▁Lab	-5633
▁Mem	-5634
▁Mer	-5635
▁Pay	-5636
▁Sum	-5637
▁Vad	-5638
▁err	-5639
▁eth	-5640
▁lin	-5641
▁liv	-5642
▁rob	-5643
ASDAQ	-5644
amber	-5645
ented	-5646
ffect	-5647
hetic	-5648
iency	-5649
ilton	-5650
ordin	-5651
useum	-5652
▁Fall	-5653
▁Hall	-5654
▁Like	-5655
▁Lord	-5656
▁Main	-5657
▁Open	-5658
▁Plan	-5659
▁Year	-5660
▁argu	-5661
▁cere	-5662
▁conv	-5663
▁fans	-5664
▁milk	-5665
▁of▁V	-5666
▁pend	-5667
▁stri	-5668
▁surf	-5669
▁symb	-5670
▁whom	-5671
action	-5672
allery	-5673
iberal	-5674
phones	-5675
s▁your	-5676
ulator	-5677
ulture	-5678
weight	-5679
▁Child	-5680
▁I▁did	-5681
▁NMD▁X	-5682
▁Texas	-5683
▁Their	-5684
▁adapt	-5685
▁advoc	-5686
▁and▁B	-5687
▁brief	-5688
▁caulk	-5689
▁chart	-5690
▁choos	-5691
▁cryst	-5692
▁graph	-5693
▁micro	-5694
▁mouth	-5695
▁older	-5696
▁panel	-5697
▁pants	-5698
▁parts	-5699
▁renew	-5700
▁so▁it	-5701
▁sport	-5702
▁title	-5703
▁to▁go	-5704
▁veter	-5705
ety▁and	-5706
ineyard	-5707
▁Commer	-5708
▁I▁love	-5709
▁Malawi	-5710
▁bottom	-5711
▁chocol	-5712
▁claims	-5713
▁elimin	-5714
▁engage	-5715
▁famous	-5716
▁for▁it	-5717
▁it▁and	-5718
▁league	-5719
▁on▁his	-5720
▁purple	-5721
▁rights	-5722
▁satisf	-5723
▁silver	-5724
▁stated	-5725
▁stores	-5726
▁surviv	-5727
▁we▁had	-5728
ated▁and	-5729
atically	-5730
ions▁are	-5731
▁I▁could	-5732
▁Welcome	-5733
▁Whether	-5734
▁allowed	-5735
▁anticip	-5736
▁but▁not	-5737
▁changed	-5738
▁concent	-5739
▁desired	-5740
▁driving	-5741
▁efforts	-5742
▁get▁the	-5743
▁goddess	-5744
▁imagine	-5745
▁monthly	-5746
▁of▁time	-5747
▁perhaps	-5748
▁playing	-5749
▁putting	-5750
▁serving	-5751
▁the▁big	-5752
▁totally	-5753
▁up▁with	-5754
▁when▁he	-5755
▁with▁my	-5756
▁workers	-5757
ed▁at▁the	-5758
ittington	-5759
▁Coloring	-5760
▁Thursday	-5761
▁contrast	-5762
▁creation	-5763
▁is▁still	-5764
▁making▁a	-5765
▁one▁year	-5766
▁perspect	-5767
▁reliable	-5768
▁response	-5769
▁schedule	-5770
▁spending	-5771
▁visitors	-5772
▁you▁need	-5773
ion▁of▁the	-5774
▁enough▁to	-5775
▁expensive	-5776
▁in▁the▁UK	-5777
▁last▁week	-5778
▁of▁people	-5779
▁plenty▁of	-5780
▁qualified	-5781
▁religious	-5782
▁suffering	-5783
▁that▁your	-5784
s▁available	-5785
▁behind▁the	-5786
▁capable▁of	-5787
▁contact▁us	-5788
▁employment	-5789
▁figure▁out	-5790
▁looks▁like	-5791
▁suspicious	-5792
▁talk▁about	-5793
▁friends▁and	-5794
▁individuals	-5795
▁participate	-5796
▁you▁want▁to	-5797
▁According▁to	-5798
▁You▁can▁also	-5799
▁in▁the▁world	-5800
▁that▁you▁can	-5801
▁Orange▁County	-5802
▁collaboration	-5803
▁significantly	-5804
▁communications	-5805
▁border▁security	-5806
AX	-5807
EP	-5808
En	-5809
IG	-5810
IP	-5811
LC	-5812
TM	-5813
Un	-5814
Us	-5815
ae	-5816
df	-5817
rm	-5818
%.
	-5819
,▁(	-5820
AMe	-5821
Res	-5822
a▁T	-5823
equ	-5824
hib	-5825
inn	-5826
iou	-5827
men	-5828
nel	-5829
oni	-5830
ror	-5831
unk	-5832
yer	-5833
yth	-5834
▁NY	-5835
▁Ol	-5836
Once	-5837
agon	-5838
aser	-5839
away	-5840
bour	-5841
ecmo	-5842
eria	-5843
fill	-5844
gate	-5845
husi	-5846
iled	-5847
iral	-5848
kins	-5849
kish	-5850
make	-5851
olen	-5852
orry	-5853
ownt	-5854
pare	-5855
plic	-5856
pson	-5857
roit	-5858
utom	-5859
weet	-5860
▁Ext	-5861
▁Jew	-5862
▁Los	-5863
▁Lot	-5864
▁Men	-5865
▁Pal	-5866
▁Ped	-5867
▁Rel	-5868
▁Roy	-5869
▁Tax	-5870
▁Tre	-5871
▁bid	-5872
▁bre	-5873
▁cup	-5874
▁dom	-5875
▁fem	-5876
▁iPh	-5877
▁ske	-5878
▁wat	-5879
▁yes	-5880
Point	-5881
abled	-5882
ansas	-5883
arrow	-5884
ate▁a	-5885
ed▁of	-5886
inese	-5887
isher	-5888
issue	-5889
itate	-5890
t▁get	-5891
ulate	-5892
ulles	-5893
ushed	-5894
worth	-5895
▁Anal	-5896
▁Best	-5897
▁Long	-5898
▁Mult	-5899
▁Take	-5900
▁boat	-5901
▁brid	-5902
▁coup	-5903
▁diam	-5904
▁enem	-5905
▁hall	-5906
▁hero	-5907
▁hire	-5908
▁iron	-5909
▁jobs	-5910
▁lose	-5911
▁meal	-5912
▁sock	-5913
▁star	-5914
▁thor	-5915
▁vict	-5916
▁wash	-5917
▁wind	-5918
finity	-5919
ighter	-5920
nament	-5921
re▁not	-5922
s▁in▁a	-5923
▁Arbor	-5924
▁Egypt	-5925
▁Today	-5926
▁and▁C	-5927
▁assum	-5928
▁blend	-5929
▁crowd	-5930
▁gradu	-5931
▁horse	-5932
▁or▁to	-5933
▁prize	-5934
▁quiet	-5935
▁score	-5936
▁sight	-5937
▁steps	-5938
▁the▁M	-5939
▁thick	-5940
▁toner	-5941
▁valve	-5942
ate▁and	-5943
ersonal	-5944
ize▁the	-5945
▁Access	-5946
▁Applic	-5947
▁Cooper	-5948
▁France	-5949
▁I▁just	-5950
▁Mobile	-5951
▁Proper	-5952
▁Series	-5953
▁beginn	-5954
▁breath	-5955
▁butter	-5956
▁grains	-5957
▁handle	-5958
▁him▁to	-5959
▁lifest	-5960
▁on▁our	-5961
▁orange	-5962
▁or▁two	-5963
▁resear	-5964
▁shower	-5965
▁spaces	-5966
▁studio	-5967
▁temple	-5968
▁wouldn	-5969
ation▁in	-5970
▁Chalice	-5971
▁Chinese	-5972
▁Detroit	-5973
▁England	-5974
▁Quality	-5975
▁Village	-5976
▁Western	-5977
▁at▁home	-5978
▁awesome	-5979
▁biggest	-5980
▁command	-5981
▁complim	-5982
▁diagnos	-5983
▁enthusi	-5984
▁helpful	-5985
▁insight	-5986
▁in▁that	-5987
▁is▁very	-5988
▁limited	-5989
▁missing	-5990
▁open▁to	-5991
▁predict	-5992
▁stretch	-5993
▁trading	-5994
▁although	-5995
▁announce	-5996
▁back▁and	-5997
▁but▁also	-5998
▁close▁to	-5999
▁detailed	-6000
▁director	-6001
▁exchange	-6002
▁fabulous	-6003
▁feedback	-6004
▁for▁some	-6005
▁numerous	-6006
▁resource	-6007
▁symptoms	-6008
▁take▁the	-6009
▁versions	-6010
▁will▁not	-6011
▁Sometimes	-6012
▁adventure	-6013
▁any▁other	-6014
▁apartment	-6015
▁classroom	-6016
▁committee	-6017
▁entertain	-6018
▁household	-6019
▁investors	-6020
▁mechanism	-6021
▁no▁longer	-6022
▁operating	-6023
▁primarily	-6024
▁regarding	-6025
▁they▁have	-6026
▁this▁shoe	-6027
▁tradition	-6028
▁you▁could	-6029
▁assistance	-6030
▁candidates	-6031
▁department	-6032
▁discussion	-6033
▁eventually	-6034
▁frequently	-6035
▁generation	-6036
▁personally	-6037
▁previously	-6038
▁reduce▁the	-6039
▁reputation	-6040
▁techniques	-6041
▁there▁were	-6042
▁version▁of	-6043
▁Electronics	-6044
▁appropriate	-6045
▁at▁the▁time	-6046
▁because▁the	-6047
▁better▁than	-6048
▁destination	-6049
▁expected▁to	-6050
▁high▁school	-6051
▁in▁the▁same	-6052
▁maintenance	-6053
▁potentially	-6054
▁agricultural	-6055
▁goddess▁slot	-6056
▁thousands▁of	-6057
▁corporate▁tax	-6058
▁heart▁disease	-6059
▁online▁golden	-6060
Oh	-6061
TP	-6062
ey	-6063
mw	-6064
▁*	-6065
.▁.	-6066
.▁“	-6067
Spe	-6068
ana	-6069
awn	-6070
but	-6071
edy	-6072
ems	-6073
fig	-6074
ita	-6075
opt	-6076
ram	-6077
ray	-6078
rem	-6079
rer	-6080
set	-6081
upp	-6082
▁AC	-6083
▁AI	-6084
▁AK	-6085
▁Ga	-6086
▁Gy	-6087
▁Hy	-6088
▁MP	-6089
▁Ok	-6090
▁Os	-6091
▁PU	-6092
John	-6093
Some	-6094
anne	-6095
atal	-6096
cons	-6097
cont	-6098
ctic	-6099
greg	-6100
igor	-6101
oles	-6102
oral	-6103
oros	-6104
oudh	-6105
s▁an	-6106
uine	-6107
ulty	-6108
▁Adv	-6109
▁Att	-6110
▁Bar	-6111
▁Die	-6112
▁KJV	-6113
▁TLS	-6114
▁Top	-6115
▁Try	-6116
▁dos	-6117
▁ign	-6118
▁kay	-6119
▁mer	-6120
▁thy	-6121
Venom	-6122
amily	-6123
arger	-6124
azine	-6125
cient	-6126
eared	-6127
ennes	-6128
iance	-6129
icing	-6130
lical	-6131
older	-6132
ounds	-6133
s▁can	-6134
▁Asia	-6135
▁Bank	-6136
▁Cond	-6137
▁Good	-6138
▁Know	-6139
▁Life	-6140
▁Sing	-6141
▁Spot	-6142
▁Wild	-6143
▁ball	-6144
▁burn	-6145
▁clar	-6146
▁diss	-6147
▁dual	-6148
▁dust	-6149
▁flag	-6150
▁flat	-6151
▁grad	-6152
▁nine	-6153
▁plot	-6154
▁plus	-6155
▁rank	-6156
▁rare	-6157
▁rice	-6158
▁soap	-6159
▁stro	-6160
▁weak	-6161
Americ	-6162
amples	-6163
opular	-6164
orgy▁B	-6165
oughly	-6166
red▁to	-6167
t▁wait	-6168
▁Beaut	-6169
▁Brown	-6170
▁Coast	-6171
▁Color	-6172
▁Drive	-6173
▁Enter	-6174
▁Frank	-6175
▁Front	-6176
▁Glass	-6177
▁Music	-6178
▁Offic	-6179
▁Tecmo	-6180
▁Trail	-6181
▁abuse	-6182
▁align	-6183
▁and▁d	-6184
▁but▁a	-6185
▁coral	-6186
▁crime	-6187
▁domin	-6188
▁empty	-6189
▁habit	-6190
▁lease	-6191
▁motiv	-6192
▁smile	-6193
▁teeth	-6194
▁tough	-6195
▁to▁an	-6196
▁trees	-6197
▁twice	-6198
▁venue	-6199
▁wrote	-6200
▁you▁a	-6201
Another	-6202
anwhile	-6203
hing▁to	-6204
illiant	-6205
iveness	-6206
s▁first	-6207
▁Commit	-6208
▁Custom	-6209
▁Dulles	-6210
▁NMD▁XR	-6211
▁Racing	-6212
▁Winter	-6213
▁Within	-6214
▁accord	-6215
▁and▁st	-6216
▁arrive	-6217
▁chosen	-6218
▁compat	-6219
▁corner	-6220
▁enroll	-6221
▁factor	-6222
▁flight	-6223
▁is▁one	-6224
▁it▁all	-6225
▁mainly	-6226
▁manual	-6227
▁perman	-6228
▁placed	-6229
▁quotes	-6230
▁remark	-6231
▁severe	-6232
▁stairs	-6233
▁turned	-6234
▁unlike	-6235
▁worksh	-6236
fficient	-6237
ings▁and	-6238
ing▁from	-6239
ould▁you	-6240
▁Fencing	-6241
▁In▁this	-6242
▁Protect	-6243
▁Turkish	-6244
▁Twitter	-6245
▁accompl	-6246
▁advance	-6247
▁after▁a	-6248
▁at▁this	-6249
▁back▁in	-6250
▁booking	-6251
▁brother	-6252
▁cameras	-6253
▁central	-6254
▁chapter	-6255
▁context	-6256
▁degrees	-6257
▁delight	-6258
▁enterpr	-6259
▁exhaust	-6260
▁flowers	-6261
▁for▁his	-6262
▁has▁the	-6263
▁here▁to	-6264
▁initial	-6265
▁involve	-6266
▁in▁mind	-6267
▁largest	-6268
▁leaders	-6269
▁protest	-6270
▁rate▁of	-6271
▁reasons	-6272
▁secured	-6273
▁see▁the	-6274
▁society	-6275
▁soybean	-6276
▁succeed	-6277
▁to▁come	-6278
▁typical	-6279
▁with▁it	-6280
▁with▁no	-6281
▁Division	-6282
▁Gyorgy▁B	-6283
▁and▁what	-6284
▁attorney	-6285
▁become▁a	-6286
▁category	-6287
▁conflict	-6288
▁criminal	-6289
▁determin	-6290
▁exercise	-6291
▁expected	-6292
▁group▁of	-6293
▁interior	-6294
▁is▁not▁a	-6295
▁policies	-6296
▁priority	-6297
▁register	-6298
▁reps▁and	-6299
▁superior	-6300
▁supports	-6301
▁that▁can	-6302
▁vacation	-6303
▁wants▁to	-6304
▁whatever	-6305
ity▁of▁the	-6306
▁dependent	-6307
▁directory	-6308
▁having▁to	-6309
▁into▁your	-6310
▁know▁what	-6311
▁lifestyle	-6312
▁prospects	-6313
▁provide▁a	-6314
▁remaining	-6315
▁therefore	-6316
▁to▁make▁a	-6317
▁Bangladesh	-6318
▁Foundation	-6319
▁The▁NASDAQ	-6320
▁design▁and	-6321
▁disability	-6322
▁downstream	-6323
▁industries	-6324
▁situations	-6325
▁that▁would	-6326
▁vegetables	-6327
▁which▁will	-6328
▁If▁you▁have	-6329
▁This▁is▁the	-6330
▁Whittington	-6331
▁competitive	-6332
▁for▁example	-6333
▁people▁with	-6334
▁recommended	-6335
▁replacement	-6336
▁to▁help▁you	-6337
▁Gyorgy▁Boros	-6338
▁based▁on▁the	-6339
▁high▁quality	-6340
▁prescription	-6341
▁products▁and	-6342
▁study▁abroad	-6343
▁administration	-6344
▁something▁that	-6345
▁incorporated▁on	-6346
Am	-6347
Co	-6348
De	-6349
Ex	-6350
IS	-6351
LL	-6352
Sc	-6353
__	-6354
ms	-6355
’,	-6356
Any	-6357
Are	-6358
Let	-6359
Not	-6360
cal	-6361
cos	-6362
den	-6363
gal	-6364
ksh	-6365
mak	-6366
nut	-6367
obb	-6368
ora	-6369
owe	-6370
ras	-6371
ses	-6372
s▁w	-6373
urf	-6374
zen	-6375
”▁(	-6376
▁Je	-6377
▁NB	-6378
Matt	-6379
Stud	-6380
anny	-6381
gent	-6382
idas	-6383
igue	-6384
ilst	-6385
inem	-6386
ivil	-6387
lter	-6388
miss	-6389
ouri	-6390
rael	-6391
ring	-6392
rome	-6393
that	-6394
t▁do	-6395
▁Dou	-6396
▁Ham	-6397
▁Lat	-6398
▁Mad	-6399
▁Max	-6400
▁Mot	-6401
▁Sal	-6402
▁Van	-6403
▁amb	-6404
▁bon	-6405
▁dil	-6406
▁kil	-6407
▁lik	-6408
▁rod	-6409
▁shr	-6410
▁tag	-6411
▁tie	-6412
▁tut	-6413
▁uns	-6414
▁wid	-6415
First	-6416
after	-6417
amine	-6418
asure	-6419
atoes	-6420
build	-6421
chang	-6422
cific	-6423
eless	-6424
essor	-6425
force	-6426
irgin	-6427
itime	-6428
keley	-6429
night	-6430
ption	-6431
reens	-6432
s▁out	-6433
uther	-6434
▁Alex	-6435
▁Easy	-6436
▁Foot	-6437
▁Ohio	-6438
▁Only	-6439
▁Rail	-6440
▁Rock	-6441
▁Scot	-6442
▁Vist	-6443
▁Xbox	-6444
▁crew	-6445
▁decl	-6446
▁dish	-6447
▁edit	-6448
▁entr	-6449
▁fats	-6450
▁fuel	-6451
▁furn	-6452
▁if▁I	-6453
▁info	-6454
▁mere	-6455
▁mine	-6456
▁of▁D	-6457
▁of▁R	-6458
▁pure	-6459
▁seek	-6460
▁stom	-6461
▁synt	-6462
▁tank	-6463
▁trib	-6464
▁unre	-6465
▁vast	-6466
atters	-6467
essert	-6468
igital	-6469
intage	-6470
sembly	-6471
ternal	-6472
uction	-6473
▁Clean	-6474
▁Democ	-6475
▁He▁is	-6476
▁India	-6477
▁Irish	-6478
▁Media	-6479
▁Press	-6480
▁Thank	-6481
▁The▁M	-6482
▁asked	-6483
▁bless	-6484
▁brush	-6485
▁chees	-6486
▁depth	-6487
▁doors	-6488
▁forth	-6489
▁handy	-6490
▁label	-6491
▁mount	-6492
▁omega	-6493
▁overw	-6494
▁posts	-6495
▁rehab	-6496
▁route	-6497
▁scale	-6498
▁shock	-6499
▁tight	-6500
▁to▁it	-6501
ated▁in	-6502
oudhury	-6503
riculum	-6504
▁Employ	-6505
▁Robert	-6506
▁Script	-6507
▁adding	-6508
▁at▁our	-6509
▁bigger	-6510
▁compli	-6511
▁cooper	-6512
▁end▁of	-6513
▁forgot	-6514
▁iPhone	-6515
▁instru	-6516
▁invent	-6517
▁in▁one	-6518
▁just▁a	-6519
▁medium	-6520
▁module	-6521
▁nurses	-6522
▁owners	-6523
▁pieces	-6524
▁produc	-6525
▁refund	-6526
▁repair	-6527
▁reserv	-6528
▁seeing	-6529
▁senior	-6530
▁so▁far	-6531
▁stolen	-6532
▁symbol	-6533
▁therap	-6534
▁to▁buy	-6535
▁to▁run	-6536
▁winter	-6537
▁yellow	-6538
ates▁the	-6539
ennessee	-6540
▁Angeles	-6541
▁Another	-6542
▁General	-6543
▁Germany	-6544
▁In▁fact	-6545
▁about▁a	-6546
▁and▁not	-6547
▁and▁was	-6548
▁a▁local	-6549
▁be▁sure	-6550
▁case▁of	-6551
▁convert	-6552
▁coordin	-6553
▁excited	-6554
▁foreign	-6555
▁genuine	-6556
▁he▁said	-6557
▁hundred	-6558
▁is▁your	-6559
▁its▁own	-6560
▁it▁will	-6561
▁learned	-6562
▁library	-6563
▁manager	-6564
▁observe	-6565
▁obvious	-6566
▁opening	-6567
▁promise	-6568
▁reached	-6569
▁sort▁of	-6570
▁thyroid	-6571
▁trigger	-6572
▁ways▁to	-6573
▁witness	-6574
This▁is▁a	-6575
s▁of▁your	-6576
▁Airlines	-6577
▁Carolina	-6578
▁DPS▁Case	-6579
▁Infinity	-6580
▁allowing	-6581
▁and▁have	-6582
▁can▁take	-6583
▁changing	-6584
▁clinical	-6585
▁coaching	-6586
▁distance	-6587
▁for▁both	-6588
▁for▁that	-6589
▁greatest	-6590
▁identify	-6591
▁in▁place	-6592
▁known▁as	-6593
▁level▁of	-6594
▁metadata	-6595
▁mortgage	-6596
▁needs▁to	-6597
▁negative	-6598
▁protocol	-6599
▁repeated	-6600
▁the▁back	-6601
▁the▁size	-6602
▁used▁for	-6603
▁vineyard	-6604
▁where▁we	-6605
ers▁in▁the	-6606
ing▁in▁the	-6607
▁Committee	-6608
▁Guangzhou	-6609
▁addiction	-6610
▁agreement	-6611
▁announced	-6612
▁architect	-6613
▁can▁cause	-6614
▁carefully	-6615
▁establish	-6616
▁guarantee	-6617
▁hopefully	-6618
▁inclusive	-6619
▁it▁is▁not	-6620
▁know▁that	-6621
▁likely▁to	-6622
▁purchased	-6623
▁technique	-6624
▁that▁have	-6625
▁this▁book	-6626
▁unable▁to	-6627
▁vitamin▁B	-6628
re▁going▁to	-6629
▁ability▁to	-6630
▁about▁this	-6631
▁affordable	-6632
▁apparently	-6633
▁attractive	-6634
▁before▁the	-6635
▁compliment	-6636
▁developing	-6637
▁electronic	-6638
▁is▁a▁great	-6639
▁managed▁to	-6640
▁process▁of	-6641
▁registered	-6642
▁television	-6643
▁transition	-6644
▁volunteers	-6645
▁working▁on	-6646
▁For▁example	-6647
▁combination	-6648
▁involved▁in	-6649
▁requirement	-6650
▁rest▁of▁the	-6651
▁capabilities	-6652
▁institutions	-6653
▁instructions	-6654
▁in▁the▁first	-6655
▁specifically	-6656
▁technologies	-6657
▁you▁and▁your	-6658
▁Unfortunately	-6659
▁in▁the▁future	-6660
▁looking▁for▁a	-6661
▁mental▁health	-6662
▁most▁important	-6663
??	-6664
AA	-6665
By	-6666
Dr	-6667
Of	-6668
TS	-6669
UN	-6670
ki	-6671
yc	-6672
"▁(	-6673
,▁.	-6674
ALL	-6675
Acc	-6676
Can	-6677
Col	-6678
DIR	-6679
Des	-6680
ilm	-6681
nda	-6682
oop	-6683
thi	-6684
uan	-6685
▁Ak	-6686
▁CE	-6687
Free	-6688
Good	-6689
alls	-6690
berg	-6691
eady	-6692
elly	-6693
eper	-6694
er▁C	-6695
es▁a	-6696
ette	-6697
gain	-6698
iers	-6699
ilet	-6700
inis	-6701
lass	-6702
mail	-6703
mond	-6704
olis	-6705
pack	-6706
soft	-6707
this	-6708
▁Atl	-6709
▁Bib	-6710
▁Bre	-6711
▁Fac	-6712
▁Hel	-6713
▁Hot	-6714
▁Jer	-6715
▁Mil	-6716
▁Oak	-6717
▁Pap	-6718
▁Pas	-6719
▁Ret	-6720
▁Rob	-6721
▁Sen	-6722
▁bul	-6723
▁cru	-6724
▁dim	-6725
▁fer	-6726
▁haz	-6727
▁lit	-6728
▁pan	-6729
▁phr	-6730
▁unw	-6731
attan	-6732
class	-6733
gment	-6734
herry	-6735
icago	-6736
icken	-6737
ragon	-6738
raine	-6739
rated	-6740
reate	-6741
ridor	-6742
stery	-6743
stown	-6744
s▁why	-6745
tyard	-6746
▁Atos	-6747
▁Band	-6748
▁Bowl	-6749
▁Fact	-6750
▁Fore	-6751
▁Four	-6752
▁Fred	-6753
▁Fund	-6754
▁Happ	-6755
▁Lock	-6756
▁Look	-6757
▁SAMe	-6758
▁buck	-6759
▁clot	-6760
▁dock	-6761
▁hate	-6762
▁icon	-6763
▁intr	-6764
▁laws	-6765
▁mold	-6766
▁pace	-6767
▁plug	-6768
▁salt	-6769
▁seed	-6770
▁sequ	-6771
▁spac	-6772
▁terr	-6773
▁trim	-6774
ardens	-6775
employ	-6776
friend	-6777
ic▁and	-6778
iggers	-6779
orable	-6780
orship	-6781
ors▁to	-6782
s▁only	-6783
termac	-6784
unning	-6785
utical	-6786
▁Again	-6787
▁Board	-6788
▁Opera	-6789
▁Party	-6790
▁Produ	-6791
▁Steve	-6792
▁The▁S	-6793
▁Those	-6794
▁Train	-6795
▁absor	-6796
▁add▁a	-6797
▁and▁H	-6798
▁and▁M	-6799
▁and▁s	-6800
▁cable	-6801
▁cloth	-6802
▁coupl	-6803
▁dough	-6804
▁drain	-6805
▁grand	-6806
▁grass	-6807
▁guard	-6808
▁hydro	-6809
▁if▁it	-6810
▁navig	-6811
▁param	-6812
▁ratio	-6813
▁renov	-6814
▁seems	-6815
▁signs	-6816
▁stick	-6817
▁strip	-6818
▁throw	-6819
atholic	-6820
chester	-6821
ic▁acid	-6822
isation	-6823
quality	-6824
t▁think	-6825
unction	-6826
▁Author	-6827
▁Global	-6828
▁If▁the	-6829
▁Israel	-6830
▁Online	-6831
▁Social	-6832
▁aftern	-6833
▁agents	-6834
▁assign	-6835
▁belief	-6836
▁delive	-6837
▁dental	-6838
▁detect	-6839
▁dollar	-6840
▁edited	-6841
▁height	-6842
▁helped	-6843
▁in▁and	-6844
▁layout	-6845
▁levels	-6846
▁listed	-6847
▁losing	-6848
▁manner	-6849
▁multip	-6850
▁narrow	-6851
▁not▁to	-6852
▁on▁how	-6853
▁played	-6854
▁purpos	-6855
▁releas	-6856
▁set▁of	-6857
▁showed	-6858
▁stages	-6859
▁thanks	-6860
▁when▁a	-6861
▁yogurt	-6862
American	-6863
graduate	-6864
opyright	-6865
s▁around	-6866
▁Further	-6867
▁Instead	-6868
▁Johnson	-6869
▁Manager	-6870
▁You▁are	-6871
▁and▁her	-6872
▁ceremon	-6873
▁chalice	-6874
▁despite	-6875
▁dynamic	-6876
▁factory	-6877
▁fishing	-6878
▁follows	-6879
▁for▁its	-6880
▁full▁of	-6881
▁hard▁to	-6882
▁injured	-6883
▁journal	-6884
▁leaving	-6885
▁list▁of	-6886
▁muscles	-6887
▁readers	-6888
▁recipes	-6889
▁trouble	-6890
▁turning	-6891
▁used▁in	-6892
▁village	-6893
▁walking	-6894
▁we▁need	-6895
▁you▁don	-6896
ed▁with▁a	-6897
ing▁for▁a	-6898
▁and▁down	-6899
▁becoming	-6900
▁behavior	-6901
▁coverage	-6902
▁days▁ago	-6903
▁designed	-6904
▁during▁a	-6905
▁ended▁up	-6906
▁flexible	-6907
▁from▁one	-6908
▁from▁our	-6909
▁generate	-6910
▁happy▁to	-6911
▁hours▁of	-6912
▁how▁many	-6913
▁internal	-6914
▁lighting	-6915
▁orlistat	-6916
▁proposed	-6917
▁sciences	-6918
▁shipping	-6919
▁subscrib	-6920
▁the▁work	-6921
▁warranty	-6922
▁who▁have	-6923
▁workshop	-6924
If▁you▁are	-6925
▁Community	-6926
▁Tennessee	-6927
▁The▁first	-6928
▁all▁these	-6929
▁breakfast	-6930
▁component	-6931
▁composite	-6932
▁dangerous	-6933
▁for▁those	-6934
▁functions	-6935
▁levels▁of	-6936
▁machinery	-6937
▁made▁from	-6938
▁permanent	-6939
▁standards	-6940
▁up▁to▁the	-6941
▁vitamin▁K	-6942
▁will▁help	-6943
▁with▁them	-6944
▁years▁and	-6945
▁Government	-6946
▁attempt▁to	-6947
▁be▁able▁to	-6948
▁comes▁with	-6949
▁contribute	-6950
▁expression	-6951
▁history▁of	-6952
▁reasonable	-6953
▁researcher	-6954
▁strengthen	-6955
▁to▁receive	-6956
▁you▁have▁a	-6957
▁Regulations	-6958
▁Scholarship	-6959
▁as▁a▁result	-6960
▁differences	-6961
▁invitations	-6962
▁most▁common	-6963
▁possible▁to	-6964
▁residential	-6965
▁students▁to	-6966
▁weight▁loss	-6967
▁you▁will▁be	-6968
inal▁Campaign	-6969
▁Championship	-6970
▁believe▁that	-6971
▁disabilities	-6972
▁restrictions	-6973
▁selection▁of	-6974
▁universities	-6975
▁motor▁vehicle	-6976
▁if▁you▁want▁to	-6977
▁immediately▁at	-6978
▁metal▁staircase	-6979
▁one▁of▁the▁most	-6980
!)	-6981
::	-6982
?"	-6983
Ab	-6984
CH	-6985
Fi	-6986
Go	-6987
LI	-6988
Ne	-6989
RS	-6990
Sp	-6991
bi	-6992
ht	-6993
ma	-6994
vi	-6995
yz	-6996
….	-6997
.
-	-6998
?"
	-6999
App	-7000
EST	-7001
NER	-7002
VER	-7003
aft	-7004
amm	-7005
dem	-7006
era	-7007
han	-7008
imp	-7009
itu	-7010
oxy	-7011
pdf	-7012
rad	-7013
sue	-7014
uce	-7015
uls	-7016
▁ES	-7017
▁MW	-7018
▁NE	-7019
▁ol	-7020
As▁a	-7021
aire	-7022
apse	-7023
ears	-7024
ench	-7025
guac	-7026
imal	-7027
inyl	-7028
last	-7029
onin	-7030
pret	-7031
resp	-7032
rine	-7033
word	-7034
▁Alp	-7035
▁Buy	-7036
▁Did	-7037
▁Eas	-7038
▁Gar	-7039
▁Jon	-7040
▁NOT	-7041
▁Put	-7042
▁Rod	-7043
▁Sch	-7044
▁Two	-7045
▁USA	-7046
▁ang	-7047
▁div	-7048
▁fra	-7049
▁giv	-7050
▁iOS	-7051
▁joy	-7052
▁mut	-7053
▁nam	-7054
▁obl	-7055
▁tun	-7056
▁van	-7057
Today	-7058
Where	-7059
ading	-7060
agues	-7061
ander	-7062
apore	-7063
ennis	-7064
enses	-7065
idden	-7066
iller	-7067
inger	-7068
ishes	-7069
liers	-7070
olved	-7071
ong▁K	-7072
orton	-7073
s▁too	-7074
umber	-7075
utral	-7076
▁Anti	-7077
▁Back	-7078
▁Both	-7079
▁Card	-7080
▁Cert	-7081
▁Clin	-7082
▁Comb	-7083
▁Data	-7084
▁Does	-7085
▁Door	-7086
▁Ford	-7087
▁Join	-7088
▁Mary	-7089
▁Show	-7090
▁Sign	-7091
▁Stir	-7092
▁bowl	-7093
▁cake	-7094
▁calf	-7095
▁chip	-7096
▁cock	-7097
▁copy	-7098
▁cosm	-7099
▁defe	-7100
▁ease	-7101
▁fitt	-7102
▁gear	-7103
▁in▁S	-7104
▁kept	-7105
▁kitt	-7106
▁leak	-7107
▁mood	-7108
▁poll	-7109
▁rang	-7110
▁repl	-7111
▁ride	-7112
▁runn	-7113
▁soul	-7114
▁swim	-7115
It▁was	-7116
achler	-7117
armace	-7118
atient	-7119
earing	-7120
encies	-7121
ervice	-7122
esides	-7123
icians	-7124
imedia	-7125
iments	-7126
imited	-7127
inking	-7128
itches	-7129
orders	-7130
person	-7131
t▁even	-7132
ulated	-7133
▁Creek	-7134
▁Crock	-7135
▁Crown	-7136
▁David	-7137
▁Diego	-7138
▁Grand	-7139
▁I▁get	-7140
▁Micro	-7141
▁Niger	-7142
▁Plant	-7143
▁Queen	-7144
▁Scott	-7145
▁Smith	-7146
▁Store	-7147
▁Trade	-7148
▁and▁N	-7149
▁and▁V	-7150
▁and▁l	-7151
▁apart	-7152
▁audio	-7153
▁a▁day	-7154
▁badly	-7155
▁calls	-7156
▁catal	-7157
▁coast	-7158
▁craft	-7159
▁dates	-7160
▁fence	-7161
▁folks	-7162
▁grown	-7163
▁honor	-7164
▁it▁in	-7165
▁laugh	-7166
▁lemon	-7167
▁likes	-7168
▁loves	-7169
▁or▁so	-7170
▁radio	-7171
▁rapid	-7172
▁relat	-7173
▁saved	-7174
▁sides	-7175
▁taste	-7176
▁trial	-7177
▁urban	-7178
▁worst	-7179
ctually	-7180
ed▁bidd	-7181
ers▁can	-7182
ible▁to	-7183
ictions	-7184
ificial	-7185
ing▁off	-7186
ivities	-7187
ment▁to	-7188
related	-7189
surance	-7190
▁Common	-7191
▁Father	-7192
▁Kansas	-7193
▁Neguac	-7194
▁Spirit	-7195
▁We▁can	-7196
▁and▁so	-7197
▁arrest	-7198
▁a▁wide	-7199
▁behalf	-7200
▁calibr	-7201
▁causes	-7202
▁centre	-7203
▁decade	-7204
▁end▁up	-7205
▁explan	-7206
▁failed	-7207
▁fields	-7208
▁flavor	-7209
▁forces	-7210
▁fourth	-7211
▁had▁to	-7212
▁he▁has	-7213
▁honest	-7214
▁inches	-7215
▁is▁all	-7216
▁is▁for	-7217
▁let▁us	-7218
▁memory	-7219
▁origin	-7220
▁papers	-7221
▁proven	-7222
▁rating	-7223
▁sample	-7224
▁secret	-7225
▁server	-7226
▁suppos	-7227
▁switch	-7228
▁the▁bl	-7229
▁trends	-7230
▁unlock	-7231
▁vision	-7232
▁way▁of	-7233
▁we▁all	-7234
▁yester	-7235
ationale	-7236
ed▁their	-7237
ers▁will	-7238
ical▁and	-7239
ications	-7240
ious▁and	-7241
ong▁Kong	-7242
ophistic	-7243
▁British	-7244
▁Charles	-7245
▁Chicago	-7246
▁Complex	-7247
▁I▁haven	-7248
▁Process	-7249
▁William	-7250
▁and▁all	-7251
▁and▁its	-7252
▁at▁that	-7253
▁battery	-7254
▁closely	-7255
▁come▁to	-7256
▁conserv	-7257
▁contest	-7258
▁counter	-7259
▁factors	-7260
▁herself	-7261
▁if▁your	-7262
▁infrast	-7263
▁is▁just	-7264
▁is▁only	-7265
▁lessons	-7266
▁markets	-7267
▁opinion	-7268
▁or▁just	-7269
▁outcome	-7270
▁printed	-7271
▁related	-7272
▁reports	-7273
▁reprodu	-7274
▁reviews	-7275
▁savings	-7276
▁sitting	-7277
▁updates	-7278
▁was▁not	-7279
▁work▁on	-7280
s▁to▁help	-7281
s▁will▁be	-7282
▁Berkeley	-7283
▁Building	-7284
▁Children	-7285
▁Property	-7286
▁accurate	-7287
▁and▁make	-7288
▁attached	-7289
▁attitude	-7290
▁but▁they	-7291
▁coloring	-7292
▁complain	-7293
▁cultural	-7294
▁easy▁and	-7295
▁everyday	-7296
▁for▁each	-7297
▁happened	-7298
▁it▁was▁a	-7299
▁near▁the	-7300
▁not▁just	-7301
▁on▁March	-7302
▁operates	-7303
▁outdoors	-7304
▁regional	-7305
▁said▁the	-7306
▁seems▁to	-7307
▁shooting	-7308
▁surprise	-7309
▁terms▁of	-7310
▁the▁case	-7311
▁the▁fish	-7312
▁the▁game	-7313
▁this▁one	-7314
▁to▁offer	-7315
▁valuable	-7316
▁what▁the	-7317
▁with▁any	-7318
▁you▁ever	-7319
▁Ann▁Arbor	-7320
▁Australia	-7321
▁Choudhury	-7322
▁Crock▁Pot	-7323
▁about▁our	-7324
▁afternoon	-7325
▁alongside	-7326
▁and▁enjoy	-7327
▁and▁every	-7328
▁brilliant	-7329
▁cartridge	-7330
▁connected	-7331
▁container	-7332
▁developed	-7333
▁discussed	-7334
▁educators	-7335
▁is▁in▁the	-7336
▁locksmith	-7337
▁next▁year	-7338
▁no▁matter	-7339
▁ourselves	-7340
▁over▁time	-7341
▁people▁to	-7342
▁preferred	-7343
▁round▁rug	-7344
▁satisfact	-7345
▁since▁the	-7346
▁somewhere	-7347
▁statement	-7348
▁strategic	-7349
▁temporary	-7350
▁while▁the	-7351
▁with▁some	-7352
▁yesterday	-7353
s▁and▁other	-7354
vailability	-7355
▁Commercial	-7356
▁Controller	-7357
▁Convention	-7358
▁applicable	-7359
▁compatible	-7360
▁convenient	-7361
▁curriculum	-7362
▁excellence	-7363
▁focused▁on	-7364
▁identified	-7365
▁incredible	-7366
▁provides▁a	-7367
▁scientific	-7368
▁the▁latest	-7369
▁where▁they	-7370
According▁to	-7371
armaceutical	-7372
▁Development	-7373
▁Environment	-7374
▁Los▁Angeles	-7375
▁acquisition	-7376
▁a▁number▁of	-7377
▁health▁care	-7378
▁improve▁the	-7379
▁on▁Saturday	-7380
▁parking▁lot	-7381
▁passion▁for	-7382
▁perfect▁for	-7383
▁report▁of▁a	-7384
▁seems▁to▁be	-7385
▁square▁foot	-7386
▁such▁as▁the	-7387
▁symptoms▁of	-7388
▁the▁company	-7389
▁translation	-7390
▁without▁the	-7391
▁contribution	-7392
▁difficult▁to	-7393
▁is▁currently	-7394
▁photographer	-7395
▁side▁effects	-7396
ed▁bidders▁are	-7397
▁talking▁about	-7398
▁as▁well▁as▁the	-7399
▁infrastructure	-7400
▁very▁important	-7401
▁gutter▁cleaning	-7402
?”	-7403
IM	-7404
SI	-7405
ev	-7406
fm	-7407
ha	-7408
hr	-7409
no	-7410
rd	-7411
yp	-7412
▁▁	-7413
)▁-	-7414
.
*	-7415
ORT	-7416
Per	-7417
Reg	-7418
Sec	-7419
Wor	-7420
aka	-7421
cts	-7422
elf	-7423
fol	-7424
gov	-7425
iat	-7426
ica	-7427
ige	-7428
itz	-7429
nik	-7430
oup	-7431
pay	-7432
s▁C	-7433
ubs	-7434
uri	-7435
you	-7436
▁Aw	-7437
▁FT	-7438
▁IC	-7439
▁IP	-7440
▁RA	-7441
Like	-7442
Love	-7443
More	-7444
Most	-7445
Note	-7446
Only	-7447
Over	-7448
acle	-7449
asic	-7450
aska	-7451
aven	-7452
azon	-7453
even	-7454
ifts	-7455
inda	-7456
loom	-7457
ndez	-7458
ogen	-7459
onna	-7460
orse	-7461
o▁by	-7462
pass	-7463
ptoc	-7464
ruit	-7465
stan	-7466
uman	-7467
▁.▁.	-7468
▁Cup	-7469
▁Dar	-7470
▁Del	-7471
▁Den	-7472
▁Ell	-7473
▁FRE	-7474
▁Far	-7475
▁Ill	-7476
▁Old	-7477
▁Vis	-7478
▁Win	-7479
▁Wis	-7480
▁arg	-7481
▁bat	-7482
▁bmw	-7483
▁gro	-7484
▁rib	-7485
▁sew	-7486
▁tro	-7487
▁unb	-7488
▁vib	-7489
allas	-7490
arest	-7491
atics	-7492
ed▁Sh	-7493
erman	-7494
estic	-7495
eston	-7496
folio	-7497
front	-7498
groni	-7499
irmed	-7500
itian	-7501
ottom	-7502
secut	-7503
spout	-7504
s▁Day	-7505
s▁his	-7506
s▁own	-7507
veill	-7508
world	-7509
▁Carl	-7510
▁Desk	-7511
▁JNFL	-7512
▁Keep	-7513
▁Nash	-7514
▁Soft	-7515
▁Very	-7516
▁Warn	-7517
▁arts	-7518
▁cars	-7519
▁dial	-7520
▁dram	-7521
▁fort	-7522
▁grab	-7523
▁grey	-7524
▁gutt	-7525
▁herb	-7526
▁hunt	-7527
▁lect	-7528
▁mole	-7529
▁none	-7530
▁prol	-7531
▁sick	-7532
▁stir	-7533
▁unex	-7534
▁weap	-7535
▁west	-7536
▁wise	-7537
I▁have	-7538
apolis	-7539
arking	-7540
iented	-7541
illing	-7542
ing▁my	-7543
istics	-7544
iverse	-7545
ixture	-7546
lessly	-7547
otonin	-7548
profit	-7549
▁Earth	-7550
▁Enjoy	-7551
▁Jones	-7552
▁Learn	-7553
▁Night	-7554
▁Panel	-7555
▁Paris	-7556
▁Power	-7557
▁Seuss	-7558
▁Under	-7559
▁Using	-7560
▁Watch	-7561
▁Women	-7562
▁advis	-7563
▁amend	-7564
▁aside	-7565
▁a▁low	-7566
▁cabin	-7567
▁chief	-7568
▁climb	-7569
▁crude	-7570
▁dairy	-7571
▁if▁he	-7572
▁loved	-7573
▁magic	-7574
▁me▁to	-7575
▁newsp	-7576
▁noted	-7577
▁occup	-7578
▁plays	-7579
▁refin	-7580
▁refus	-7581
▁shift	-7582
▁to▁re	-7583
▁to▁us	-7584
▁traum	-7585
▁units	-7586
▁use▁a	-7587
▁worse	-7588
▁wrink	-7589
Finally	-7590
ed▁this	-7591
ence▁of	-7592
ice▁and	-7593
looking	-7594
orgeous	-7595
raising	-7596
s▁still	-7597
▁Academ	-7598
▁Cayman	-7599
▁German	-7600
▁I▁also	-7601
▁Second	-7602
▁Senior	-7603
▁Summer	-7604
▁Travel	-7605
▁Valent	-7606
▁admitt	-7607
▁brands	-7608
▁calcul	-7609
▁cities	-7610
▁closed	-7611
▁county	-7612
▁critic	-7613
▁deeper	-7614
▁equipp	-7615
▁expend	-7616
▁featur	-7617
▁female	-7618
▁frustr	-7619
▁if▁not	-7620
▁improv	-7621
▁in▁its	-7622
▁island	-7623
▁it▁for	-7624
▁it▁has	-7625
▁it▁out	-7626
▁liquid	-7627
▁output	-7628
▁passed	-7629
▁reader	-7630
▁roster	-7631
▁scheme	-7632
▁to▁all	-7633
▁volume	-7634
▁winner	-7635
▁you▁in	-7636
When▁you	-7637
friendly	-7638
▁African	-7639
▁And▁the	-7640
▁I▁found	-7641
▁Kingdom	-7642
▁Richard	-7643
▁What▁is	-7644
▁actions	-7645
▁an▁hour	-7646
▁arrival	-7647
▁as▁long	-7648
▁channel	-7649
▁cleaner	-7650
▁climate	-7651
▁coaches	-7652
▁conclud	-7653
▁desktop	-7654
▁dessert	-7655
▁homeown	-7656
▁how▁the	-7657
▁love▁to	-7658
▁matches	-7659
▁my▁life	-7660
▁neutral	-7661
▁of▁Atos	-7662
▁operate	-7663
▁ordered	-7664
▁parties	-7665
▁premium	-7666
▁purchas	-7667
▁railing	-7668
▁reduced	-7669
▁resolve	-7670
▁schools	-7671
▁shorter	-7672
▁shuttle	-7673
▁stomach	-7674
▁strokes	-7675
▁teaches	-7676
▁theatre	-7677
▁the▁job	-7678
▁tickets	-7679
▁to▁show	-7680
▁welding	-7681
▁writers	-7682
elligence	-7683
ling▁Road	-7684
s▁of▁this	-7685
t▁want▁to	-7686
veillance	-7687
▁Congress	-7688
▁Intermac	-7689
▁Personal	-7690
▁When▁you	-7691
▁You▁will	-7692
▁and▁keep	-7693
▁and▁some	-7694
▁a▁larger	-7695
▁believes	-7696
▁birthday	-7697
▁can▁be▁a	-7698
▁district	-7699
▁employer	-7700
▁find▁the	-7701
▁graduate	-7702
▁hardware	-7703
▁he▁would	-7704
▁investig	-7705
▁it▁would	-7706
▁leads▁to	-7707
▁maritime	-7708
▁marriage	-7709
▁opposite	-7710
▁overwhel	-7711
▁painting	-7712
▁pregnant	-7713
▁printing	-7714
▁prostate	-7715
▁purposes	-7716
▁religion	-7717
▁settings	-7718
▁standing	-7719
▁supplies	-7720
▁that▁she	-7721
▁time▁for	-7722
▁too▁much	-7723
▁to▁cover	-7724
▁tried▁to	-7725
▁was▁post	-7726
▁you▁want	-7727
ary▁School	-7728
th▁century	-7729
▁Administr	-7730
▁Institute	-7731
▁Published	-7732
▁along▁the	-7733
▁and▁it▁is	-7734
▁and▁where	-7735
▁and▁white	-7736
▁applicant	-7737
▁a▁perfect	-7738
▁basically	-7739
▁bring▁the	-7740
▁but▁it▁is	-7741
▁chocolate	-7742
▁delivered	-7743
▁exclusive	-7744
▁feel▁like	-7745
▁for▁every	-7746
▁increases	-7747
▁installed	-7748
▁like▁this	-7749
▁moving▁to	-7750
▁obviously	-7751
▁out▁there	-7752
▁residence	-7753
▁the▁benef	-7754
▁very▁best	-7755
▁while▁you	-7756
▁Coloring▁P	-7757
▁Manchester	-7758
▁assessment	-7759
▁beneficial	-7760
▁categories	-7761
▁characters	-7762
▁complement	-7763
▁contractor	-7764
▁controller	-7765
▁creating▁a	-7766
▁functional	-7767
▁impressive	-7768
▁initiative	-7769
▁integrated	-7770
▁introduced	-7771
▁looking▁at	-7772
▁network▁of	-7773
▁one▁of▁our	-7774
▁principles	-7775
▁quality▁of	-7776
▁received▁a	-7777
▁related▁to	-7778
▁seem▁to▁be	-7779
▁take▁place	-7780
▁tournament	-7781
▁treatments	-7782
▁underlying	-7783
▁would▁like	-7784
ophisticated	-7785
▁AOP▁Student	-7786
▁Corporation	-7787
▁I▁wanted▁to	-7788
▁Republicans	-7789
▁Science▁and	-7790
▁There▁is▁no	-7791
▁and▁we▁will	-7792
▁a▁long▁time	-7793
▁choose▁from	-7794
▁conferences	-7795
▁considering	-7796
▁description	-7797
▁electricity	-7798
▁improvement	-7799
▁medications	-7800
▁most▁of▁the	-7801
▁one▁another	-7802
▁perspective	-7803
▁regulations	-7804
▁smartphones	-7805
▁substantial	-7806
▁surrounding	-7807
▁takes▁place	-7808
▁I▁decided▁to	-7809
▁an▁important	-7810
▁committed▁to	-7811
▁depending▁on	-7812
▁distribution	-7813
▁expectations	-7814
▁introduction	-7815
▁likely▁to▁be	-7816
▁Stirling▁Road	-7817
▁allows▁you▁to	-7818
▁understanding	-7819
▁because▁of▁the	-7820
▁please▁contact	-7821
▁second▁quarter	-7822
▁in▁the▁industry	-7823
▁responsible▁for	-7824
▁security▁camera	-7825
Ad	-7826
BI	-7827
Bl	-7828
DP	-7829
DS	-7830
FO	-7831
Im	-7832
MA	-7833
PR	-7834
UR	-7835
VE	-7836
ih	-7837
vy	-7838
,▁$	-7839
DAP	-7840
IAR	-7841
Sim	-7842
Whe	-7843
bus	-7844
col	-7845
flu	-7846
fra	-7847
gun	-7848
oil	-7849
oky	-7850
ola	-7851
olf	-7852
olv	-7853
osc	-7854
oti	-7855
rie	-7856
rum	-7857
udd	-7858
uzz	-7859
vet	-7860
who	-7861
▁DC	-7862
▁Du	-7863
▁Ev	-7864
▁HR	-7865
▁JP	-7866
▁Lo	-7867
▁SA	-7868
▁TR	-7869
▁Uk	-7870
Many	-7871
Read	-7872
Well	-7873
abol	-7874
agan	-7875
aken	-7876
asks	-7877
cend	-7878
cony	-7879
demo	-7880
enes	-7881
grim	-7882
hent	-7883
icks	-7884
imon	-7885
ingu	-7886
inst	-7887
life	-7888
look	-7889
mosp	-7890
nger	-7891
ocon	-7892
ogan	-7893
olit	-7894
oris	-7895
osal	-7896
osit	-7897
rape	-7898
rawn	-7899
rier	-7900
s▁ac	-7901
thur	-7902
ummy	-7903
umni	-7904
urry	-7905
ynes	-7906
▁Ask	-7907
▁Ath	-7908
▁Boy	-7909
▁Cam	-7910
▁Cra	-7911
▁Dan	-7912
▁Dec	-7913
▁Dyn	-7914
▁Ide	-7915
▁Ing	-7916
▁Its	-7917
▁Jim	-7918
▁Kal	-7919
▁Leo	-7920
▁Mod	-7921
▁Oly	-7922
▁Opt	-7923
▁Pad	-7924
▁Sam	-7925
▁Six	-7926
▁Tay	-7927
▁Vol	-7928
▁adm	-7929
▁der	-7930
▁fif	-7931
▁fly	-7932
▁gap	-7933
▁jar	-7934
▁lbs	-7935
▁mit	-7936
▁pav	-7937
▁rot	-7938
▁sea	-7939
▁syn	-7940
▁wet	-7941
▁wis	-7942
Every	-7943
Manny	-7944
angle	-7945
cious	-7946
cknow	-7947
ether	-7948
etime	-7949
heart	-7950
iform	-7951
iggle	-7952
illed	-7953
ionne	-7954
ipari	-7955
itage	-7956
level	-7957
le▁of	-7958
odara	-7959
paren	-7960
pping	-7961
quart	-7962
ree▁S	-7963
ulner	-7964
using	-7965
▁Area	-7966
▁Dean	-7967
▁Kore	-7968
▁Lake	-7969
▁Make	-7970
▁Mart	-7971
▁Meet	-7972
▁Much	-7973
▁Next	-7974
▁Rain	-7975
▁Root	-7976
▁Rose	-7977
▁Soci	-7978
▁Vide	-7979
▁Wall	-7980
▁Yeah	-7981
▁adds	-7982
▁at▁S	-7983
▁bann	-7984
▁bird	-7985
▁boot	-7986
▁bust	-7987
▁calm	-7988
▁cats	-7989
▁chat	-7990
▁crop	-7991
▁duck	-7992
▁ends	-7993
▁guid	-7994
▁hack	-7995
▁ille	-7996
▁king	-7997
▁lets	-7998
▁mild	-7999
▁neon	-8000
▁of▁H	-8001
▁of▁P	-8002
▁phen	-8003
▁phil	-8004
▁prop	-8005
▁rear	-8006
▁roof	-8007
▁rose	-8008
▁sand	-8009
▁sept	-8010
▁slip	-8011
▁stim	-8012
▁tall	-8013
▁taxi	-8014
▁to▁S	-8015
▁vent	-8016
▁vert	-8017
▁vote	-8018
alties	-8019
amicom	-8020
arming	-8021
ass▁of	-8022
ced▁to	-8023
ceived	-8024
consin	-8025
ilgrim	-8026
ll▁get	-8027
lywood	-8028
ly▁and	-8029
making	-8030
ptocur	-8031
s▁been	-8032
s▁best	-8033
uthors	-8034
▁Angel	-8035
▁A▁lot	-8036
▁Chris	-8037
▁Dream	-8038
▁Floor	-8039
▁Franc	-8040
▁Level	-8041
▁Multi	-8042
▁Pedro	-8043
▁Pilot	-8044
▁Smart	-8045
▁Templ	-8046
▁The▁B	-8047
▁Vista	-8048
▁accum	-8049
▁admin	-8050
▁admit	-8051
▁adopt	-8052
▁and▁W	-8053
▁bills	-8054
▁bread	-8055
▁charg	-8056
▁deals	-8057
▁ebook	-8058
▁entit	-8059
▁freed	-8060
▁hitch	-8061
▁is▁so	-8062
▁it▁up	-8063
▁layer	-8064
▁legit	-8065
▁nutri	-8066
▁or▁an	-8067
▁or▁in	-8068
▁resid	-8069
▁rooms	-8070
▁scrub	-8071
▁simpl	-8072
▁smell	-8073
▁snack	-8074
▁songs	-8075
▁spots	-8076
▁stone	-8077
▁storm	-8078
▁sweat	-8079
▁taxes	-8080
▁the▁r	-8081
▁tired	-8082
▁tools	-8083
▁topic	-8084
▁trips	-8085
owntown	-8086
s▁and▁a	-8087
ve▁seen	-8088
▁Africa	-8089
▁At▁the	-8090
▁Family	-8091
▁Format	-8092
▁Garden	-8093
▁George	-8094
▁Horton	-8095
▁It▁has	-8096
▁Morgan	-8097
▁Osborn	-8098
▁Police	-8099
▁Prince	-8100
▁Review	-8101
▁alumin	-8102
▁and▁my	-8103
▁and▁re	-8104
▁anyway	-8105
▁assets	-8106
▁at▁The	-8107
▁a▁week	-8108
▁branch	-8109
▁brings	-8110
▁broken	-8111
▁but▁he	-8112
▁buying	-8113
▁carpet	-8114
▁caught	-8115
▁dating	-8116
▁dishes	-8117
▁fabric	-8118
▁flower	-8119
▁guests	-8120
▁hardly	-8121
▁hidden	-8122
▁imposs	-8123
▁junior	-8124
▁lights	-8125
▁mature	-8126
▁merely	-8127
▁missed	-8128
▁movies	-8129
▁over▁a	-8130
▁permit	-8131
▁phones	-8132
▁phrase	-8133
▁prohib	-8134
▁promin	-8135
▁prompt	-8136
▁render	-8137
▁rid▁of	-8138
▁spiral	-8139
▁steady	-8140
▁styles	-8141
▁suffer	-8142
▁trying	-8143
▁twenty	-8144
▁upload	-8145
▁victim	-8146
▁wanted	-8147
Although	-8148
er▁Cable	-8149
iniscent	-8150
interest	-8151
iverpool	-8152
mosphere	-8153
ographic	-8154
ollowing	-8155
s▁of▁all	-8156
▁Caliban	-8157
▁Discuss	-8158
▁Holland	-8159
▁It▁is▁a	-8160
▁Looking	-8161
▁Network	-8162
▁Popular	-8163
▁Ukraine	-8164
▁animals	-8165
▁applied	-8166
▁are▁you	-8167
▁as▁soon	-8168
▁a▁small	-8169
▁browser	-8170
▁capture	-8171
▁chances	-8172
▁compare	-8173
▁complic	-8174
▁courage	-8175
▁did▁you	-8176
▁does▁it	-8177
▁down▁to	-8178
▁employe	-8179
▁evening	-8180
▁extract	-8181
▁fantasy	-8182
▁fatigue	-8183
▁ferment	-8184
▁from▁my	-8185
▁fulfill	-8186
▁holding	-8187
▁is▁more	-8188
▁is▁over	-8189
▁kilomet	-8190
▁milligr	-8191
▁negroni	-8192
▁removed	-8193
▁routine	-8194
▁seconds	-8195
▁shelter	-8196
▁showing	-8197
▁time▁in	-8198
▁to▁meet	-8199
▁to▁save	-8200
▁to▁stay	-8201
▁travell	-8202
▁tremend	-8203
▁uniform	-8204
▁winning	-8205
▁with▁me	-8206
Of▁course	-8207
ibilities	-8208
istration	-8209
itionally	-8210
ventional	-8211
▁Hamilton	-8212
▁It▁was▁a	-8213
▁I▁am▁not	-8214
▁Scotland	-8215
▁Stachler	-8216
▁Vadodara	-8217
▁all▁your	-8218
▁and▁many	-8219
▁and▁this	-8220
▁approval	-8221
▁are▁also	-8222
▁asked▁to	-8223
▁bathroom	-8224
▁body▁and	-8225
▁bringing	-8226
▁cheapest	-8227
▁distinct	-8228
▁exciting	-8229
▁found▁in	-8230
▁historic	-8231
▁improved	-8232
▁instance	-8233
▁kayaking	-8234
▁know▁the	-8235
▁look▁for	-8236
▁love▁and	-8237
▁ministry	-8238
▁mountain	-8239
▁my▁first	-8240
▁need▁for	-8241
▁packages	-8242
▁she▁said	-8243
▁somewhat	-8244
▁starting	-8245
▁stronger	-8246
▁teachers	-8247
▁the▁name	-8248
▁the▁word	-8249
▁thing▁to	-8250
▁think▁of	-8251
▁thoughts	-8252
▁tutorial	-8253
▁with▁a▁l	-8254
▁Microsoft	-8255
▁Of▁course	-8256
▁Time▁Warn	-8257
▁Valentine	-8258
▁Wisconsin	-8259
▁addresses	-8260
▁advertise	-8261
▁among▁the	-8262
▁and▁share	-8263
▁awareness	-8264
▁celebrate	-8265
▁continues	-8266
▁dividends	-8267
▁even▁more	-8268
▁excessive	-8269
▁executive	-8270
▁few▁years	-8271
▁hoping▁to	-8272
▁immediate	-8273
▁incisions	-8274
▁is▁a▁good	-8275
▁movements	-8276
▁organized	-8277
▁platforms	-8278
▁said▁that	-8279
▁spiritual	-8280
▁stainless	-8281
▁streaming	-8282
▁templates	-8283
▁they▁will	-8284
▁this▁game	-8285
▁to▁have▁a	-8286
▁traveling	-8287
▁volunteer	-8288
▁with▁that	-8289
▁workplace	-8290
identifying	-8291
▁Leadership	-8292
▁Republican	-8293
▁and▁we▁are	-8294
▁at▁the▁top	-8295
▁comes▁from	-8296
▁delivering	-8297
▁directions	-8298
▁efficiency	-8299
▁enterprise	-8300
▁experiment	-8301
▁for▁you▁to	-8302
▁from▁their	-8303
▁guarantees	-8304
▁historical	-8305
▁if▁you▁can	-8306
▁income▁tax	-8307
▁increasing	-8308
▁is▁located	-8309
▁medication	-8310
▁multimedia	-8311
▁never▁been	-8312
▁originally	-8313
▁recognized	-8314
▁relatively	-8315
▁revolution	-8316
▁supporting	-8317
▁the▁source	-8318
▁to▁achieve	-8319
▁to▁support	-8320
▁transparen	-8321
▁was▁report	-8322
▁In▁addition	-8323
▁and▁you▁can	-8324
▁approach▁to	-8325
▁back▁to▁the	-8326
▁engineering	-8327
▁for▁several	-8328
▁getting▁the	-8329
▁if▁you▁have	-8330
▁inspiration	-8331
▁is▁the▁most	-8332
▁participant	-8333
▁referred▁to	-8334
▁reminiscent	-8335
▁things▁that	-8336
▁your▁doctor	-8337
▁available▁in	-8338
▁from▁Samsung	-8339
▁necessary▁to	-8340
▁presentation	-8341
▁air▁condition	-8342
▁and▁downspout	-8343
▁away▁from▁the	-8344
▁member▁of▁the	-8345
▁more▁than▁one	-8346
▁on▁the▁market	-8347
▁over▁the▁past	-8348
▁undergraduate	-8349
▁work▁together	-8350
▁along▁with▁the	-8351
▁baseball▁pants	-8352
▁combination▁of	-8353
▁is▁the▁perfect	-8354
▁responded▁to▁a	-8355
▁the▁government	-8356
▁understand▁the	-8357
▁performance▁and	-8358
▁will▁be▁able▁to	-8359
);	-8360
.:	-8361
/-	-8362
EX	-8363
El	-8364
HD	-8365
NG	-8366
OC	-8367
RI	-8368
RO	-8369
Sm	-8370
UD	-8371
VR	-8372
YL	-8373
fd	-8374
hi	-8375
oz	-8376
wr	-8377
xi	-8378
▁â	-8379
▁”	-8380
!!!	-8381
!"
	-8382
..
	-8383
Che	-8384
Con	-8385
ENT	-8386
HTP	-8387
Mar	-8388
Pad	-8389
Pre	-8390
TML	-8391
ael	-8392
alo	-8393
aus	-8394
avi	-8395
bow	-8396
can	-8397
cut	-8398
dep	-8399
ech	-8400
ete	-8401
ini	-8402
kia	-8403
nor	-8404
obe	-8405
oir	-8406
oln	-8407
pir	-8408
sey	-8409
s▁S	-8410
ugu	-8411
uis	-8412
’.
	-8413
▁($	-8414
▁EP	-8415
▁Hi	-8416
▁ON	-8417
▁Ot	-8418
▁Ox	-8419
▁ST	-8420
▁Ve	-8421
▁aw	-8422
▁ce	-8423
▁fo	-8424
▁km	-8425
▁mi	-8426
▁ox	-8427
Call	-8428
Even	-8429
LDAP	-8430
Make	-8431
Plus	-8432
acht	-8433
aker	-8434
alle	-8435
arsh	-8436
athe	-8437
burg	-8438
cuit	-8439
foli	-8440
foot	-8441
iano	-8442
iary	-8443
icit	-8444
ilit	-8445
isco	-8446
laim	-8447
oker	-8448
omas	-8449
prom	-8450
rior	-8451
supp	-8452
s▁as	-8453
s▁is	-8454
writ	-8455
▁AND	-8456
▁Arr	-8457
▁Cox	-8458
▁Dry	-8459
▁Est	-8460
▁GOP	-8461
▁Gas	-8462
▁IAD	-8463
▁Ian	-8464
▁Inn	-8465
▁Joy	-8466
▁Kay	-8467
▁Key	-8468
▁Kim	-8469
▁Kit	-8470
▁LLC	-8471
▁PUA	-8472
▁Tim	-8473
▁Way	-8474
▁Wow	-8475
▁Yam	-8476
▁a▁p	-8477
▁dat	-8478
▁dip	-8479
▁lan	-8480
▁pal	-8481
▁pra	-8482
▁tap	-8483
▁tea	-8484
Build	-8485
Great	-8486
adian	-8487
agram	-8488
akthi	-8489
arbon	-8490
burgh	-8491
celer	-8492
claim	-8493
count	-8494
ensed	-8495
ensus	-8496
etary	-8497
iling	-8498
inema	-8499
leece	-8500
orner	-8501
otive	-8502
otton	-8503
rease	-8504
sized	-8505
s▁you	-8506
▁Bath	-8507
▁Conf	-8508
▁Down	-8509
▁Food	-8510
▁Fuel	-8511
▁Holy	-8512
▁Jour	-8513
▁Linc	-8514
▁Mass	-8515
▁Pack	-8516
▁Rest	-8517
▁Such	-8518
▁Text	-8519
▁Whit	-8520
▁Work	-8521
▁Yell	-8522
▁amaz	-8523
▁beer	-8524
▁bend	-8525
▁caul	-8526
▁dent	-8527
▁drew	-8528
▁epis	-8529
▁gran	-8530
▁hors	-8531
▁hull	-8532
▁hurt	-8533
▁keys	-8534
▁kick	-8535
▁leaf	-8536
▁loud	-8537
▁male	-8538
▁meat	-8539
▁mile	-8540
▁mini	-8541
▁mone	-8542
▁narr	-8543
▁nerv	-8544
▁pink	-8545
▁pour	-8546
▁scan	-8547
▁seat	-8548
▁shap	-8549
▁snow	-8550
▁wasn	-8551
acific	-8552
al▁and	-8553
andard	-8554
ed▁off	-8555
ersion	-8556
iliate	-8557
ing▁ar	-8558
itable	-8559
itched	-8560
orrect	-8561
rapeut	-8562
review	-8563
screen	-8564
s▁more	-8565
s▁most	-8566
s▁name	-8567
s▁very	-8568
s▁wort	-8569
t▁help	-8570
t▁take	-8571
underb	-8572
▁Assum	-8573
▁Cabin	-8574
▁Explo	-8575
▁Focus	-8576
▁Guard	-8577
▁Innov	-8578
▁Kelly	-8579
▁Medic	-8580
▁Smoky	-8581
▁accus	-8582
▁alter	-8583
▁arena	-8584
▁a▁big	-8585
▁bound	-8586
▁chips	-8587
▁do▁so	-8588
▁essay	-8589
▁fatty	-8590
▁films	-8591
▁fixed	-8592
▁get▁a	-8593
▁gonna	-8594
▁grace	-8595
▁icing	-8596
▁imper	-8597
▁in▁it	-8598
▁is▁on	-8599
▁landl	-8600
▁minor	-8601
▁mixed	-8602
▁on▁an	-8603
▁on▁to	-8604
▁ought	-8605
▁out▁a	-8606
▁pride	-8607
▁prove	-8608
▁psych	-8609
▁recre	-8610
▁see▁a	-8611
▁smoke	-8612
▁split	-8613
▁spoke	-8614
▁the▁U	-8615
▁uncom	-8616
▁vinyl	-8617
▁whisp	-8618
amental	-8619
ced▁the	-8620
connect	-8621
ed▁on▁a	-8622
ered▁by	-8623
essions	-8624
es▁from	-8625
forming	-8626
ify▁the	-8627
isingly	-8628
ologist	-8629
ometric	-8630
outdoor	-8631
three▁S	-8632
▁Andrew	-8633
▁And▁we	-8634
▁As▁the	-8635
▁Attend	-8636
▁Avenue	-8637
▁Choose	-8638
▁Comput	-8639
▁Crowne	-8640
▁Dallas	-8641
▁Indust	-8642
▁Joseph	-8643
▁Luther	-8644
▁Result	-8645
▁Search	-8646
▁Secret	-8647
▁Spring	-8648
▁Virgin	-8649
▁and▁no	-8650
▁arrang	-8651
▁baking	-8652
▁believ	-8653
▁but▁is	-8654
▁centum	-8655
▁declin	-8656
▁defend	-8657
▁gender	-8658
▁grocer	-8659
▁houses	-8660
▁imagin	-8661
▁invite	-8662
▁it▁can	-8663
▁joined	-8664
▁lately	-8665
▁lender	-8666
▁let▁me	-8667
▁muscle	-8668
▁need▁a	-8669
▁only▁a	-8670
▁on▁top	-8671
▁pocket	-8672
▁poison	-8673
▁pursue	-8674
▁raised	-8675
▁retain	-8676
▁retire	-8677
▁robust	-8678
▁roller	-8679
▁rubber	-8680
▁seemed	-8681
▁taxpay	-8682
▁tennis	-8683
▁than▁a	-8684
▁them▁a	-8685
▁thirty	-8686
▁tissue	-8687
▁toilet	-8688
▁to▁add	-8689
▁to▁ask	-8690
▁undert	-8691
▁voices	-8692
▁vulner	-8693
▁was▁to	-8694
▁whilst	-8695
ance▁and	-8696
chieving	-8697
ment▁and	-8698
ress▁and	-8699
roaddemo	-8700
t▁have▁a	-8701
▁Academy	-8702
▁Alexand	-8703
▁Can▁you	-8704
▁Contact	-8705
▁Eastern	-8706
▁Entrant	-8707
▁Express	-8708
▁Famicom	-8709
▁Harbour	-8710
▁Italian	-8711
▁I▁guess	-8712
▁Lincoln	-8713
▁Philipp	-8714
▁Project	-8715
▁Simpson	-8716
▁That▁is	-8717
▁ancient	-8718
▁and▁add	-8719
▁and▁one	-8720
▁applies	-8721
▁artists	-8722
▁at▁work	-8723
▁blocked	-8724
▁cardiac	-8725
▁careful	-8726
▁care▁of	-8727
▁catalog	-8728
▁classes	-8729
▁combine	-8730
▁come▁in	-8731
▁compost	-8732
▁costume	-8733
▁counsel	-8734
▁decades	-8735
▁disclos	-8736
▁do▁this	-8737
▁drawing	-8738
▁empower	-8739
▁enables	-8740
▁evident	-8741
▁for▁her	-8742
▁freedom	-8743
▁harvest	-8744
▁her▁own	-8745
▁implant	-8746
▁inspire	-8747
▁into▁an	-8748
▁in▁life	-8749
▁in▁many	-8750
▁in▁time	-8751
▁it▁wasn	-8752
▁knowing	-8753
▁largely	-8754
▁liberal	-8755
▁license	-8756
▁lottery	-8757
▁made▁it	-8758
▁matters	-8759
▁mystery	-8760
▁on▁that	-8761
▁over▁to	-8762
▁pendant	-8763
▁precise	-8764
▁qualify	-8765
▁realize	-8766
▁remains	-8767
▁scratch	-8768
▁seem▁to	-8769
▁team▁of	-8770
▁texture	-8771
▁the▁pot	-8772
▁trailer	-8773
▁veteran	-8774
▁vibrant	-8775
▁vintage	-8776
▁visible	-8777
▁worship	-8778
▁younger	-8779
s▁to▁make	-8780
▁Catholic	-8781
▁Colorado	-8782
▁Football	-8783
▁I▁really	-8784
▁Learning	-8785
▁San▁Jose	-8786
▁The▁only	-8787
▁Thunderb	-8788
▁When▁the	-8789
▁all▁that	-8790
▁and▁time	-8791
▁articles	-8792
▁artistic	-8793
▁can▁make	-8794
▁cocktail	-8795
▁compound	-8796
▁corridor	-8797
▁designer	-8798
▁doctrine	-8799
▁employee	-8800
▁entirely	-8801
▁expenses	-8802
▁festival	-8803
▁give▁you	-8804
▁handmade	-8805
▁homeless	-8806
▁if▁it▁is	-8807
▁in▁front	-8808
▁love▁the	-8809
▁magazine	-8810
▁medicine	-8811
▁messages	-8812
▁operator	-8813
▁passport	-8814
▁price▁of	-8815
▁programm	-8816
▁somebody	-8817
▁spinning	-8818
▁strongly	-8819
▁suddenly	-8820
▁teamwork	-8821
▁the▁full	-8822
▁the▁main	-8823
▁the▁sign	-8824
▁the▁skin	-8825
▁tomorrow	-8826
▁to▁check	-8827
▁trillion	-8828
▁visiting	-8829
▁was▁born	-8830
▁web▁site	-8831
▁we▁could	-8832
▁whenever	-8833
ed▁through	-8834
ing▁of▁the	-8835
ing▁system	-8836
▁Hong▁Kong	-8837
▁Liverpool	-8838
▁Reference	-8839
▁School▁of	-8840
▁Singapore	-8841
▁assistant	-8842
▁blog▁post	-8843
▁buildings	-8844
▁cannot▁be	-8845
▁childhood	-8846
▁colourful	-8847
▁confirmed	-8848
▁crude▁oil	-8849
▁cryptocur	-8850
▁deal▁with	-8851
▁diversity	-8852
▁emotional	-8853
▁enjoy▁the	-8854
▁for▁years	-8855
▁go▁to▁the	-8856
▁has▁to▁be	-8857
▁have▁some	-8858
▁incidents	-8859
▁intention	-8860
▁interests	-8861
▁interpret	-8862
▁literally	-8863
▁mandatory	-8864
▁newspaper	-8865
▁objective	-8866
▁one▁thing	-8867
▁part▁of▁a	-8868
▁positions	-8869
▁principle	-8870
▁printable	-8871
▁reception	-8872
▁recognize	-8873
▁right▁now	-8874
▁serotonin	-8875
▁stability	-8876
▁surprised	-8877
▁thank▁you	-8878
▁the▁build	-8879
▁the▁whole	-8880
▁travel▁to	-8881
▁two▁weeks	-8882
▁vitamin▁D	-8883
▁where▁you	-8884
▁which▁has	-8885
▁years▁old	-8886
▁you▁might	-8887
If▁you▁have	-8888
▁There▁is▁a	-8889
▁appreciate	-8890
▁atmosphere	-8891
▁compliance	-8892
▁depends▁on	-8893
▁developers	-8894
▁due▁to▁the	-8895
▁encouraged	-8896
▁every▁time	-8897
▁from▁the▁b	-8898
▁literature	-8899
▁meaningful	-8900
▁pleased▁to	-8901
▁procedures	-8902
▁sufficient	-8903
▁the▁future	-8904
▁willing▁to	-8905
▁would▁have	-8906
three▁Sakthi	-8907
▁High▁School	-8908
▁Rod▁of▁Atos	-8909
▁advertising	-8910
▁any▁kind▁of	-8911
▁a▁beautiful	-8912
▁can▁also▁be	-8913
▁director▁of	-8914
▁discussions	-8915
▁half▁of▁the	-8916
▁her▁husband	-8917
▁in▁New▁York	-8918
▁legislation	-8919
▁many▁people	-8920
▁most▁people	-8921
▁needs▁to▁be	-8922
▁observe▁any	-8923
▁really▁good	-8924
▁returned▁to	-8925
▁that▁can▁be	-8926
▁three▁years	-8927
▁Additionally	-8928
▁Indianapolis	-8929
▁all▁over▁the	-8930
▁can▁help▁you	-8931
▁look▁forward	-8932
▁presidential	-8933
▁productivity	-8934
▁published▁in	-8935
▁satisfaction	-8936
▁something▁to	-8937
▁what▁happens	-8938
▁you▁may▁have	-8939
▁complimentary	-8940
▁in▁the▁middle	-8941
▁manufacturers	-8942
▁more▁and▁more	-8943
▁sophisticated	-8944
▁that▁you▁have	-8945
▁the▁fact▁that	-8946
▁your▁business	-8947
▁experience▁and	-8948
▁specifications	-8949
▁University▁of▁S	-8950
▁information▁and	-8951
Ed	-8952
GE	-8953
Gu	-8954
LG	-8955
Le	-8956
MI	-8957
PU	-8958
SB	-8959
SJ	-8960
ao	-8961
bb	-8962
kh	-8963
ss	-8964
ua	-8965
uy	-8966
va	-8967
vd	-8968
:▁“	-8969
Ask	-8970
CTV	-8971
ETT	-8972
Mom	-8973
Put	-8974
RCP	-8975
acr	-8976
agu	-8977
ami	-8978
aph	-8979
awl	-8980
azz	-8981
bra	-8982
coh	-8983
cus	-8984
emb	-8985
hap	-8986
him	-8987
htm	-8988
lah	-8989
lav	-8990
law	-8991
lot	-8992
mun	-8993
neg	-8994
opl	-8995
owa	-8996
rep	-8997
roy	-8998
sle	-8999
sts	-9000
tal	-9001
ula	-9002
via	-9003
▁AF	-9004
▁Ep	-9005
▁HE	-9006
▁ID	-9007
▁Id	-9008
▁WA	-9009
ABYL	-9010
Next	-9011
ORAL	-9012
Prop	-9013
Tech	-9014
Then	-9015
Very	-9016
acre	-9017
aked	-9018
arms	-9019
arte	-9020
athy	-9021
boat	-9022
brid	-9023
cure	-9024
d▁be	-9025
earl	-9026
eder	-9027
edly	-9028
erry	-9029
gend	-9030
geon	-9031
iche	-9032
iece	-9033
illa	-9034
isis	-9035
mary	-9036
onom	-9037
oots	-9038
ours	-9039
ourt	-9040
o▁in	-9041
plit	-9042
plus	-9043
quir	-9044
rack	-9045
star	-9046
s▁Ch	-9047
they	-9048
udge	-9049
ukem	-9050
▁Amy	-9051
▁Aqu	-9052
▁Bal	-9053
▁Bow	-9054
▁Bur	-9055
▁Dog	-9056
▁Gra	-9057
▁Hav	-9058
▁Hay	-9059
▁Joe	-9060
▁Jul	-9061
▁Loh	-9062
▁Mag	-9063
▁Ser	-9064
▁Sky	-9065
▁Son	-9066
▁Squ	-9067
▁Sus	-9068
▁Upd	-9069
▁Was	-9070
▁bib	-9071
▁bin	-9072
▁cha	-9073
▁gal	-9074
▁hes	-9075
▁mel	-9076
▁pip	-9077
▁sad	-9078
▁sky	-9079
▁spy	-9080
▁tub	-9081
▁unc	-9082
▁urg	-9083
▁xyz	-9084
,▁...	-9085
Since	-9086
Under	-9087
adder	-9088
alled	-9089
amera	-9090
amics	-9091
andon	-9092
anish	-9093
apjoy	-9094
astro	-9095
bound	-9096
check	-9097
depth	-9098
enger	-9099
e▁and	-9100
ffalo	-9101
fined	-9102
fraid	-9103
iddas	-9104
ilver	-9105
is▁on	-9106
itche	-9107
lings	-9108
omeli	-9109
oshop	-9110
osoph	-9111
ospel	-9112
oston	-9113
regon	-9114
rence	-9115
scale	-9116
stone	-9117
s▁new	-9118
uke▁N	-9119
umors	-9120
watch	-9121
▁ARCP	-9122
▁Aven	-9123
▁Cold	-9124
▁Conc	-9125
▁Deck	-9126
▁Dual	-9127
▁Hire	-9128
▁Hold	-9129
▁Insp	-9130
▁I▁do	-9131
▁Kent	-9132
▁Near	-9133
▁News	-9134
▁Path	-9135
▁Pump	-9136
▁RAID	-9137
▁Skid	-9138
▁Step	-9139
▁Team	-9140
▁Tool	-9141
▁Vice	-9142
▁Week	-9143
▁alle	-9144
▁apps	-9145
▁aren	-9146
▁at▁U	-9147
▁batt	-9148
▁bulk	-9149
▁cuts	-9150
▁demo	-9151
▁died	-9152
▁disp	-9153
▁east	-9154
▁eggs	-9155
▁eleg	-9156
▁elev	-9157
▁flip	-9158
▁grat	-9159
▁heav	-9160
▁heel	-9161
▁hide	-9162
▁inse	-9163
▁in▁B	-9164
▁in▁G	-9165
▁junk	-9166
▁laid	-9167
▁lett	-9168
▁logo	-9169
▁ment	-9170
▁negl	-9171
▁obst	-9172
▁peak	-9173
▁pipe	-9174
▁poly	-9175
▁popp	-9176
▁pric	-9177
▁sets	-9178
▁thus	-9179
▁tiny	-9180
▁tips	-9181
▁up▁a	-9182
▁us▁a	-9183
▁vegg	-9184
▁warn	-9185
▁wont	-9186
▁yoga	-9187
▁zero	-9188
▁zone	-9189
ABYLON	-9190
At▁the	-9191
Cayman	-9192
People	-9193
acular	-9194
ard▁Su	-9195
assion	-9196
centre	-9197
cy▁and	-9198
d▁like	-9199
equate	-9200
hentic	-9201
le▁and	-9202
outube	-9203
overty	-9204
ration	-9205
s▁what	-9206
s▁work	-9207
wealth	-9208
▁Chart	-9209
▁Exper	-9210
▁Flash	-9211
▁Greek	-9212
▁Kevin	-9213
▁Mexic	-9214
▁Oklah	-9215
▁Place	-9216
▁Sears	-9217
▁Share	-9218
▁So▁we	-9219
▁Storm	-9220
▁Study	-9221
▁The▁P	-9222
▁Works	-9223
▁abund	-9224
▁anyth	-9225
▁appet	-9226
▁as▁to	-9227
▁bioph	-9228
▁bloom	-9229
▁bonus	-9230
▁carro	-9231
▁chair	-9232
▁crisp	-9233
▁curve	-9234
▁cycle	-9235
▁debut	-9236
▁do▁it	-9237
▁do▁we	-9238
▁elder	-9239
▁epoxy	-9240
▁equal	-9241
▁fatal	-9242
▁fewer	-9243
▁gifts	-9244
▁holid	-9245
▁inner	-9246
▁input	-9247
▁keeps	-9248
▁meals	-9249
▁molec	-9250
▁natur	-9251
▁notic	-9252
▁of▁St	-9253
▁olive	-9254
▁on▁it	-9255
▁prime	-9256
▁recyc	-9257
▁roles	-9258
▁sauce	-9259
▁screw	-9260
▁shade	-9261
▁shaft	-9262
▁solic	-9263
▁south	-9264
▁spell	-9265
▁tests	-9266
▁the▁F	-9267
▁tweet	-9268
▁usage	-9269
▁vital	-9270
▁withd	-9271
I▁think	-9272
The▁new	-9273
achelor	-9274
ass▁and	-9275
clusive	-9276
ensions	-9277
ers▁for	-9278
es▁with	-9279
ics▁and	-9280
iliated	-9281
irthday	-9282
ism▁and	-9283
itative	-9284
ogether	-9285
orthern	-9286
patient	-9287
respond	-9288
through	-9289
winning	-9290
▁Amazon	-9291
▁Athlet	-9292
▁Bibles	-9293
▁Bridge	-9294
▁Compos	-9295
▁Debian	-9296
▁Do▁not	-9297
▁Econom	-9298
▁Indeed	-9299
▁I▁didn	-9300
▁I▁mean	-9301
▁Letter	-9302
▁Master	-9303
▁Menace	-9304
▁Middle	-9305
▁Oregon	-9306
▁Polish	-9307
▁Scouts	-9308
▁Though	-9309
▁We▁don	-9310
▁adults	-9311
▁alumni	-9312
▁and▁as	-9313
▁a▁free	-9314
▁closer	-9315
▁compan	-9316
▁courth	-9317
▁crisis	-9318
▁define	-9319
▁embedd	-9320
▁enable	-9321
▁fleece	-9322
▁had▁no	-9323
▁has▁an	-9324
▁hazard	-9325
▁he▁had	-9326
▁how▁we	-9327
▁humans	-9328
▁incent	-9329
▁indeed	-9330
▁infect	-9331
▁mining	-9332
▁negoti	-9333
▁on▁all	-9334
▁pencil	-9335
▁pushed	-9336
▁refere	-9337
▁resurf	-9338
▁scener	-9339
▁scenes	-9340
▁scored	-9341
▁serves	-9342
▁settle	-9343
▁shadow	-9344
▁sister	-9345
▁stimul	-9346
▁struct	-9347
▁tempor	-9348
▁tender	-9349
▁to▁put	-9350
▁upgrad	-9351
▁widely	-9352
▁with▁G	-9353
▁writer	-9354
For▁more	-9355
ages▁and	-9356
ation▁to	-9357
cing▁the	-9358
cosystem	-9359
economic	-9360
ed▁for▁a	-9361
ers▁from	-9362
ers▁that	-9363
ing▁in▁a	-9364
re▁still	-9365
s▁of▁our	-9366
s▁that▁L	-9367
t▁forget	-9368
▁Combine	-9369
▁Emeline	-9370
▁He▁also	-9371
▁Medical	-9372
▁Officer	-9373
▁Outdoor	-9374
▁Outside	-9375
▁Parking	-9376
▁Perhaps	-9377
▁Profess	-9378
▁Pumpkin	-9379
▁Roberts	-9380
▁Studies	-9381
▁The▁AOP	-9382
▁The▁new	-9383
▁Through	-9384
▁Without	-9385
▁You▁may	-9386
▁and▁end	-9387
▁and▁see	-9388
▁area▁of	-9389
▁a▁month	-9390
▁but▁are	-9391
▁colored	-9392
▁courses	-9393
▁crucial	-9394
▁crystal	-9395
▁decline	-9396
▁faculty	-9397
▁fencing	-9398
▁finding	-9399
▁for▁one	-9400
▁from▁an	-9401
▁gallery	-9402
▁gutters	-9403
▁had▁the	-9404
▁hearing	-9405
▁he▁says	-9406
▁how▁you	-9407
▁idea▁of	-9408
▁in▁both	-9409
▁in▁fact	-9410
▁is▁here	-9411
▁is▁made	-9412
▁is▁used	-9413
▁it▁with	-9414
▁lead▁to	-9415
▁made▁by	-9416
▁metabol	-9417
▁methods	-9418
▁moments	-9419
▁nations	-9420
▁neither	-9421
▁offer▁a	-9422
▁of▁some	-9423
▁our▁own	-9424
▁per▁day	-9425
▁ranking	-9426
▁rapidly	-9427
▁removal	-9428
▁retired	-9429
▁returns	-9430
▁science	-9431
▁screens	-9432
▁seasons	-9433
▁since▁I	-9434
▁tend▁to	-9435
▁tension	-9436
▁to▁hear	-9437
▁trained	-9438
▁up▁your	-9439
▁went▁to	-9440
ation▁for	-9441
ral▁valve	-9442
sequently	-9443
s▁are▁not	-9444
uke▁Nukem	-9445
uring▁the	-9446
▁Analysis	-9447
▁Bathroom	-9448
▁Contract	-9449
▁Emulator	-9450
▁I▁bought	-9451
▁I▁should	-9452
▁John▁Mac	-9453
▁Manufact	-9454
▁Material	-9455
▁Missouri	-9456
▁Networks	-9457
▁New▁Disc	-9458
▁Partners	-9459
▁Regional	-9460
▁Software	-9461
▁and▁feel	-9462
▁and▁with	-9463
▁and▁work	-9464
▁any▁time	-9465
▁an▁email	-9466
▁as▁it▁is	-9467
▁balanced	-9468
▁built▁in	-9469
▁ceremony	-9470
▁channels	-9471
▁combined	-9472
▁commonly	-9473
▁concerns	-9474
▁consumer	-9475
▁diseases	-9476
▁entrance	-9477
▁external	-9478
▁flooring	-9479
▁food▁and	-9480
▁frequent	-9481
▁holidays	-9482
▁incident	-9483
▁inspires	-9484
▁in▁these	-9485
▁it▁doesn	-9486
▁like▁you	-9487
▁machines	-9488
▁makes▁it	-9489
▁measures	-9490
▁meetings	-9491
▁miracles	-9492
▁mistakes	-9493
▁moved▁to	-9494
▁navigate	-9495
▁of▁which	-9496
▁opponent	-9497
▁overcome	-9498
▁phenomen	-9499
▁preserve	-9500
▁proposal	-9501
▁railings	-9502
▁read▁the	-9503
▁reporter	-9504
▁safe▁and	-9505
▁sections	-9506
▁surfaces	-9507
▁template	-9508
▁that▁all	-9509
▁that▁our	-9510
▁used▁the	-9511
▁value▁of	-9512
▁was▁also	-9513
▁you▁like	-9514
▁you▁with	-9515
s▁and▁more	-9516
▁Affiliate	-9517
▁Beautiful	-9518
▁Blackpool	-9519
▁Equipment	-9520
▁Meanwhile	-9521
▁Nashville	-9522
▁Photoshop	-9523
▁Testament	-9524
▁accidents	-9525
▁animation	-9526
▁authority	-9527
▁a▁look▁at	-9528
▁come▁from	-9529
▁consumers	-9530
▁copyright	-9531
▁correctly	-9532
▁courtyard	-9533
▁discovery	-9534
▁donations	-9535
▁enter▁the	-9536
▁fact▁that	-9537
▁few▁weeks	-9538
▁for▁night	-9539
▁for▁these	-9540
▁furniture	-9541
▁goods▁and	-9542
▁happiness	-9543
▁long▁term	-9544
▁naturally	-9545
▁on▁Friday	-9546
▁operators	-9547
▁people▁in	-9548
▁portfolio	-9549
▁result▁in	-9550
▁satisfied	-9551
▁scheduled	-9552
▁stressful	-9553
▁submitted	-9554
▁suppliers	-9555
▁to▁assist	-9556
▁to▁attend	-9557
▁to▁remove	-9558
▁up▁with▁a	-9559
▁vegetable	-9560
▁will▁have	-9561
▁wondering	-9562
This▁is▁the	-9563
ard▁Success	-9564
com▁Discuss	-9565
ed▁that▁the	-9566
▁Attendance	-9567
▁Australian	-9568
▁Commission	-9569
▁Queenstown	-9570
▁allowed▁to	-9571
▁called▁the	-9572
▁capability	-9573
▁components	-9574
▁correspond	-9575
▁effects▁of	-9576
▁elementary	-9577
▁every▁year	-9578
▁foundation	-9579
▁found▁that	-9580
▁grey▁water	-9581
▁health▁and	-9582
▁if▁you▁don	-9583
▁instead▁of	-9584
▁instrument	-9585
▁invited▁to	-9586
▁is▁usually	-9587
▁it▁will▁be	-9588
▁limited▁to	-9589
▁located▁at	-9590
▁net▁income	-9591
▁or▁illness	-9592
▁outside▁of	-9593
▁skills▁and	-9594
▁that▁could	-9595
▁that▁makes	-9596
▁thoroughly	-9597
▁to▁enhance	-9598
▁to▁install	-9599
▁to▁make▁it	-9600
▁tremendous	-9601
▁wanting▁to	-9602
▁with▁great	-9603
▁your▁child	-9604
reviewcentre	-9605
▁Philippines	-9606
▁appointment	-9607
▁calibration	-9608
▁compared▁to	-9609
▁connections	-9610
▁contact▁the	-9611
▁decorations	-9612
▁efficiently	-9613
▁even▁though	-9614
▁examination	-9615
▁filled▁with	-9616
▁for▁sharing	-9617
▁fundamental	-9618
▁gun▁control	-9619
▁institution	-9620
▁in▁terms▁of	-9621
▁in▁the▁area	-9622
▁is▁going▁to	-9623
▁look▁at▁the	-9624
▁more▁than▁a	-9625
▁of▁the▁Year	-9626
▁of▁the▁best	-9627
▁of▁the▁same	-9628
▁outstanding	-9629
▁photography	-9630
▁reservation	-9631
▁support▁and	-9632
▁support▁the	-9633
▁the▁country	-9634
▁the▁highest	-9635
▁the▁problem	-9636
▁without▁any	-9637
▁Harbour▁Town	-9638
▁Installation	-9639
▁alternatives	-9640
▁at▁least▁one	-9641
▁company▁that	-9642
▁continued▁to	-9643
▁designed▁for	-9644
▁focus▁on▁the	-9645
▁for▁everyone	-9646
▁intervention	-9647
▁in▁the▁state	-9648
▁one▁of▁these	-9649
▁projects▁and	-9650
▁scholarships	-9651
▁support▁from	-9652
▁the▁dividend	-9653
▁which▁is▁the	-9654
▁xyz▁homework	-9655
▁young▁people	-9656
▁access▁to▁the	-9657
▁anything▁else	-9658
▁at▁the▁moment	-9659
▁automatically	-9660
▁curling▁sheet	-9661
▁entertainment	-9662
▁marketing▁and	-9663
▁participating	-9664
▁participation	-9665
▁shut▁down▁the	-9666
▁there▁will▁be	-9667
▁treatment▁for	-9668
▁with▁the▁best	-9669
▁In▁other▁words	-9670
▁North▁Carolina	-9671
▁Smoky▁Mountain	-9672
▁cryptocurrency	-9673
▁information▁on	-9674
▁Conference▁Room	-9675
▁associated▁with	-9676
▁informal▁sector	-9677
!"	-9678
**	-9679
Ac	-9680
Ah	-9681
BL	-9682
CC	-9683
CD	-9684
CL	-9685
EA	-9686
LN	-9687
MW	-9688
PC	-9689
SE	-9690
Se	-9691
Tw	-9692
hh	-9693
ii	-9694
oa	-9695
rs	-9696
ta	-9697
▁и	-9698
.▁-	-9699
ARK	-9700
BER	-9701
Bel	-9702
Cur	-9703
Did	-9704
ELL	-9705
Pat	-9706
RNA	-9707
ROM	-9708
aik	-9709
arc	-9710
bag	-9711
cat	-9712
gev	-9713
hag	-9714
ils	-9715
iot	-9716
ket	-9717
lam	-9718
llo	-9719
met	-9720
nap	-9721
nic	-9722
oko	-9723
omb	-9724
ota	-9725
raz	-9726
rix	-9727
rol	-9728
sen	-9729
ums	-9730
uns	-9731
ura	-9732
yan	-9733
ync	-9734
éli	-9735
▁:)	-9736
▁Ap	-9737
▁BL	-9738
▁Bo	-9739
▁CO	-9740
▁EU	-9741
▁Es	-9742
▁NO	-9743
▁Sr	-9744
▁Ul	-9745
▁VA	-9746
▁da	-9747
▁er	-9748
▁rh	-9749
ARMS	-9750
Book	-9751
Cont	-9752
DETT	-9753
Each	-9754
Fact	-9755
Find	-9756
Keep	-9757
Line	-9758
OMBO	-9759
RESB	-9760
Time	-9761
Volt	-9762
Will	-9763
acqu	-9764
asts	-9765
aton	-9766
auth	-9767
aval	-9768
bles	-9769
bors	-9770
cies	-9771
ello	-9772
fall	-9773
fold	-9774
hriv	-9775
ided	-9776
inar	-9777
iner	-9778
ione	-9779
ishi	-9780
izab	-9781
jury	-9782
lear	-9783
lets	-9784
lipp	-9785
mpic	-9786
name	-9787
omat	-9788
oons	-9789
oooo	-9790
otal	-9791
othy	-9792
oust	-9793
oval	-9794
rats	-9795
rian	-9796
sole	-9797
s▁it	-9798
s▁me	-9799
umst	-9800
uper	-9801
urom	-9802
urse	-9803
utch	-9804
▁BHA	-9805
▁Box	-9806
▁Cas	-9807
▁Dun	-9808
▁ETF	-9809
▁Gul	-9810
▁Haw	-9811
▁III	-9812
▁IRA	-9813
▁Inv	-9814
▁Lin	-9815
▁Loc	-9816
▁Naz	-9817
▁Nov	-9818
▁Occ	-9819
▁Ray	-9820
▁Ron	-9821
▁Ros	-9822
▁Tal	-9823
▁Ten	-9824
▁Wat	-9825
▁Wil	-9826
▁Yol	-9827
▁arm	-9828
▁cit	-9829
▁cow	-9830
▁fus	-9831
▁kne	-9832
▁lux	-9833
▁raw	-9834
▁san	-9835
▁sod	-9836
▁tur	-9837
▁unp	-9838
▁zip	-9839
▁–▁$	-9840
Click	-9841
Found	-9842
Press	-9843
abase	-9844
achus	-9845
adena	-9846
agree	-9847
alend	-9848
aller	-9849
allow	-9850
aming	-9851
antic	-9852
aryng	-9853
ascin	-9854
being	-9855
bsite	-9856
chiev	-9857
ctors	-9858
ecake	-9859
erala	-9860
ettes	-9861
going	-9862
ifies	-9863
igent	-9864
innam	-9865
ipped	-9866
istol	-9867
ivate	-9868
lands	-9869
ly▁in	-9870
mouth	-9871
ndezv	-9872
nikov	-9873
olves	-9874
opper	-9875
organ	-9876
pered	-9877
print	-9878
proof	-9879
raint	-9880
re▁in	-9881
stock	-9882
style	-9883
ument	-9884
ython	-9885
▁Andy	-9886
▁Anth	-9887
▁Bend	-9888
▁Benn	-9889
▁Bill	-9890
▁Blvd	-9891
▁CCTV	-9892
▁Chad	-9893
▁Come	-9894
▁Dist	-9895
▁Duck	-9896
▁Entw	-9897
▁Fair	-9898
▁File	-9899
▁HERE	-9900
▁HTML	-9901
▁Lith	-9902
▁Lohr	-9903
▁Mark	-9904
▁Mike	-9905
▁Orig	-9906
▁Past	-9907
▁Pick	-9908
▁Prov	-9909
▁Roth	-9910
▁Sche	-9911
▁Stay	-9912
▁Teal	-9913
▁Tris	-9914
▁View	-9915
▁Zeal	-9916
▁able	-9917
▁abst	-9918
▁ages	-9919
▁ampl	-9920
▁auto	-9921
▁beat	-9922
▁blow	-9923
▁clay	-9924
▁coal	-9925
▁cozy	-9926
▁deny	-9927
▁duty	-9928
▁fees	-9929
▁fisc	-9930
▁folk	-9931
▁frag	-9932
▁ft▁x	-9933
▁grew	-9934
▁grip	-9935
▁if▁a	-9936
▁in▁P	-9937
▁in▁W	-9938
▁myth	-9939
▁of▁M	-9940
▁oven	-9941
▁palm	-9942
▁pets	-9943
▁prog	-9944
▁putt	-9945
▁rack	-9946
▁reef	-9947
▁runs	-9948
▁rust	-9949
▁seal	-9950
▁sear	-9951
▁sket	-9952
▁styl	-9953
▁subt	-9954
▁tape	-9955
▁thro	-9956
▁to▁N	-9957
▁wake	-9958
▁wave	-9959
Fusion	-9960
ademic	-9961
aikato	-9962
ambers	-9963
ancial	-9964
ansion	-9965
arthur	-9966
azprom	-9967
braska	-9968
enkins	-9969
ensity	-9970
everal	-9971
figure	-9972
henius	-9973
herent	-9974
id▁and	-9975
includ	-9976
in▁the	-9977
kshire	-9978
middas	-9979
olving	-9980
omeric	-9981
ouston	-9982
reland	-9983
render	-9984
s▁life	-9985
t▁want	-9986
untlet	-9987
urpose	-9988
worthy	-9989
▁ACIAR	-9990
▁Adobe	-9991
▁Advoc	-9992
▁Alone	-9993
▁Anton	-9994
▁Austr	-9995
▁Bench	-9996
▁Boris	-9997
▁CORAL	-9998
▁Clear	-9999
▁Craig	-10000
▁Draft	-10001
▁FARMS	-10002
▁Field	-10003
▁Genes	-10004
▁Hazel	-10005
▁Human	-10006
▁Ideas	-10007
▁If▁so	-10008
▁Italy	-10009
▁I▁see	-10010
▁Latin	-10011
▁Order	-10012
▁Organ	-10013
▁Refer	-10014
▁Saint	-10015
▁Santa	-10016
▁Short	-10017
▁Space	-10018
▁Start	-10019
▁Steel	-10020
▁Steer	-10021
▁Young	-10022
▁actor	-10023
▁adhes	-10024
▁alike	-10025
▁and▁K	-10026
▁annoy	-10027
▁are▁a	-10028
▁as▁of	-10029
▁audit	-10030
▁a▁law	-10031
▁becom	-10032
▁blame	-10033
▁cater	-10034
▁chapt	-10035
▁chose	-10036
▁deleg	-10037
▁divid	-10038
▁elast	-10039
▁emper	-10040
▁enemy	-10041
▁energ	-10042
▁error	-10043
▁fault	-10044
▁flash	-10045
▁gains	-10046
▁grill	-10047
▁heads	-10048
▁hyper	-10049
▁judge	-10050
▁kitty	-10051
▁knock	-10052
▁laund	-10053
▁login	-10054
▁mould	-10055
▁opens	-10056
▁owned	-10057
▁pasta	-10058
▁regul	-10059
▁rigor	-10060
▁semin	-10061
▁sizes	-10062
▁spray	-10063
▁squad	-10064
▁stamp	-10065
▁swell	-10066
▁tasks	-10067
▁trace	-10068
▁tract	-10069
▁twist	-10070
▁types	-10071
▁uncle	-10072
▁usual	-10073
▁us▁at	-10074
▁virus	-10075
▁we▁do	-10076
BABYLON	-10077
Service	-10078
actions	-10079
ameless	-10080
aminate	-10081
ed▁here	-10082
ing▁you	-10083
innamon	-10084
itality	-10085
izabeth	-10086
ized▁to	-10087
ll▁need	-10088
onymous	-10089
oplasty	-10090
outhern	-10091
pelling	-10092
pensive	-10093
ractice	-10094
ruption	-10095
unch▁of	-10096
usively	-10097
viously	-10098
▁Altern	-10099
▁Arctic	-10100
▁Before	-10101
▁Better	-10102
▁Carrey	-10103
▁Coffee	-10104
▁Course	-10105
▁Dionne	-10106
▁Donald	-10107
▁Editor	-10108
▁Friend	-10109
▁Glitch	-10110
▁It▁may	-10111
▁Keynes	-10112
▁Museum	-10113
▁Oxford	-10114
▁Palace	-10115
▁Queens	-10116
▁Reform	-10117
▁Report	-10118
▁Thomas	-10119
▁Ticket	-10120
▁Vanity	-10121
▁When▁I	-10122
▁Wonder	-10123
▁acknow	-10124
▁admire	-10125
▁agenda	-10126
▁agreed	-10127
▁all▁of	-10128
▁analyz	-10129
▁and▁ch	-10130
▁and▁go	-10131
▁and▁on	-10132
▁assure	-10133
▁a▁full	-10134
▁a▁more	-10135
▁a▁very	-10136
▁bit▁of	-10137
▁borrow	-10138
▁bridge	-10139
▁carbon	-10140
▁circle	-10141
▁clever	-10142
▁courts	-10143
▁defect	-10144
▁deploy	-10145
▁desert	-10146
▁destin	-10147
▁dialog	-10148
▁dining	-10149
▁dispos	-10150
▁earned	-10151
▁equity	-10152
▁even▁a	-10153
▁explos	-10154
▁extent	-10155
▁facial	-10156
▁far▁as	-10157
▁formal	-10158
▁gamers	-10159
▁garlic	-10160
▁grades	-10161
▁insert	-10162
▁kidney	-10163
▁lesson	-10164
▁lovely	-10165
▁museum	-10166
▁mutual	-10167
▁observ	-10168
▁one▁to	-10169
▁opened	-10170
▁paying	-10171
▁planet	-10172
▁plates	-10173
▁rarely	-10174
▁remote	-10175
▁restor	-10176
▁reward	-10177
▁scores	-10178
▁script	-10179
▁sevent	-10180
▁slight	-10181
▁slowly	-10182
▁so▁the	-10183
▁strict	-10184
▁surely	-10185
▁surger	-10186
▁survey	-10187
▁tables	-10188
▁talent	-10189
▁territ	-10190
▁thread	-10191
▁thrill	-10192
▁titles	-10193
▁to▁its	-10194
▁verify	-10195
▁versus	-10196
▁was▁in	-10197
Proposal	-10198
Students	-10199
able▁for	-10200
an▁Diego	-10201
ashnikov	-10202
ed▁after	-10203
enchmark	-10204
ers▁have	-10205
idepress	-10206
ized▁the	-10207
ones▁and	-10208
oriented	-10209
ried▁out	-10210
specific	-10211
s▁always	-10212
s▁can▁be	-10213
s▁to▁see	-10214
▁Atlanta	-10215
▁Brother	-10216
▁Builder	-10217
▁Digital	-10218
▁Finally	-10219
▁Journal	-10220
▁Michael	-10221
▁Nigeria	-10222
▁Olympic	-10223
▁Perfect	-10224
▁Spanish	-10225
▁Thistle	-10226
▁Verizon	-10227
▁We▁will	-10228
▁Zealand	-10229
▁abandon	-10230
▁and▁don	-10231
▁and▁may	-10232
▁are▁now	-10233
▁assured	-10234
▁a▁claim	-10235
▁a▁light	-10236
▁but▁don	-10237
▁cartrid	-10238
▁chamber	-10239
▁charges	-10240
▁charity	-10241
▁charter	-10242
▁concert	-10243
▁damages	-10244
▁defense	-10245
▁deposit	-10246
▁diamond	-10247
▁doctors	-10248
▁durable	-10249
▁enjoyed	-10250
▁ensures	-10251
▁entrant	-10252
▁expense	-10253
▁fastest	-10254
▁forever	-10255
▁from▁it	-10256
▁healing	-10257
▁heating	-10258
▁hunting	-10259
▁illegal	-10260
▁in▁July	-10261
▁in▁case	-10262
▁is▁done	-10263
▁it▁down	-10264
▁it▁from	-10265
▁married	-10266
▁minimal	-10267
▁miracle	-10268
▁mixture	-10269
▁motorcy	-10270
▁name▁is	-10271
▁nearest	-10272
▁noticed	-10273
▁only▁be	-10274
▁or▁your	-10275
▁pair▁of	-10276
▁picking	-10277
▁playoff	-10278
▁reaches	-10279
▁recruit	-10280
▁refined	-10281
▁refresh	-10282
▁skilled	-10283
▁species	-10284
▁strings	-10285
▁telling	-10286
▁that▁my	-10287
▁the▁day	-10288
▁the▁sun	-10289
▁tie▁bar	-10290
▁to▁live	-10291
▁try▁and	-10292
▁used▁by	-10293
▁utility	-10294
▁varying	-10295
▁virtual	-10296
▁wearing	-10297
▁what▁it	-10298
▁windows	-10299
ations▁in	-10300
bsolutely	-10301
ing▁a▁new	-10302
ising▁the	-10303
ower▁Door	-10304
rapeutics	-10305
s▁are▁the	-10306
s▁to▁your	-10307
t▁need▁to	-10308
umstances	-10309
▁Calipari	-10310
▁Explorer	-10311
▁For▁more	-10312
▁Franklin	-10313
▁Gauntlet	-10314
▁Industry	-10315
▁Pasadena	-10316
▁Question	-10317
▁Standard	-10318
▁Students	-10319
▁You▁know	-10320
▁added▁to	-10321
▁adequate	-10322
▁aircraft	-10323
▁aluminum	-10324
▁and▁help	-10325
▁and▁send	-10326
▁and▁take	-10327
▁approved	-10328
▁area▁rug	-10329
▁attribut	-10330
▁but▁this	-10331
▁came▁out	-10332
▁describe	-10333
▁disaster	-10334
▁distract	-10335
▁does▁the	-10336
▁domestic	-10337
▁dramatic	-10338
▁drinking	-10339
▁each▁day	-10340
▁emerging	-10341
▁emotions	-10342
▁examples	-10343
▁fails▁to	-10344
▁featured	-10345
▁for▁free	-10346
▁for▁many	-10347
▁ft▁round	-10348
▁give▁the	-10349
▁have▁you	-10350
▁hesitate	-10351
▁incision	-10352
▁in▁a▁way	-10353
▁in▁the▁U	-10354
▁is▁being	-10355
▁landlord	-10356
▁managing	-10357
▁minimize	-10358
▁mobility	-10359
▁not▁been	-10360
▁occasion	-10361
▁on▁other	-10362
▁order▁to	-10363
▁out▁of▁a	-10364
▁payments	-10365
▁planting	-10366
▁politics	-10367
▁realized	-10368
▁refinery	-10369
▁semester	-10370
▁sense▁of	-10371
▁sponsors	-10372
▁struggle	-10373
▁stunning	-10374
▁swimming	-10375
▁tell▁you	-10376
▁the▁body	-10377
▁the▁more	-10378
▁total▁of	-10379
▁to▁avoid	-10380
▁to▁visit	-10381
▁where▁he	-10382
▁which▁we	-10383
▁whispers	-10384
▁wineries	-10385
▁with▁her	-10386
employment	-10387
ization▁of	-10388
s▁with▁the	-10389
▁Americans	-10390
▁Entwistle	-10391
▁Instagram	-10392
▁I▁need▁to	-10393
▁Locksmith	-10394
▁NFL▁Draft	-10395
▁Pinterest	-10396
▁Represent	-10397
▁These▁are	-10398
▁abilities	-10399
▁about▁how	-10400
▁and▁later	-10401
▁and▁place	-10402
▁at▁a▁time	-10403
▁because▁I	-10404
▁continued	-10405
▁criticism	-10406
▁dedicated	-10407
▁departure	-10408
▁disappear	-10409
▁disorders	-10410
▁economies	-10411
▁estimated	-10412
▁estimates	-10413
▁evictions	-10414
▁exploring	-10415
▁failed▁to	-10416
▁forgotten	-10417
▁from▁this	-10418
▁generated	-10419
▁house▁and	-10420
▁include▁a	-10421
▁incorrect	-10422
▁indicated	-10423
▁in▁recent	-10424
▁it▁may▁be	-10425
▁lemon▁law	-10426
▁memorable	-10427
▁narrative	-10428
▁next▁week	-10429
▁note▁that	-10430
▁on▁Monday	-10431
▁operation	-10432
▁opponents	-10433
▁overnight	-10434
▁overwhelm	-10435
▁ownership	-10436
▁paperwork	-10437
▁performed	-10438
▁period▁of	-10439
▁physician	-10440
▁prominent	-10441
▁quarterly	-10442
▁reach▁out	-10443
▁resistant	-10444
▁sensitive	-10445
▁serve▁the	-10446
▁signature	-10447
▁some▁time	-10448
▁suit▁your	-10449
▁synthetic	-10450
▁telephone	-10451
▁that▁time	-10452
▁that▁were	-10453
▁these▁are	-10454
▁they▁need	-10455
▁this▁is▁a	-10456
▁very▁high	-10457
▁water▁and	-10458
▁without▁a	-10459
▁would▁not	-10460
▁your▁eyes	-10461
▁your▁yard	-10462
s▁have▁been	-10463
▁AOP▁Awards	-10464
▁Protection	-10465
▁Publishing	-10466
▁Skid▁Steer	-10467
▁accomplish	-10468
▁accordance	-10469
▁affiliated	-10470
▁amounts▁of	-10471
▁and▁in▁the	-10472
▁an▁amazing	-10473
▁artificial	-10474
▁attachment	-10475
▁at▁the▁end	-10476
▁automotive	-10477
▁cheesecake	-10478
▁comparison	-10479
▁consistent	-10480
▁containing	-10481
▁corrective	-10482
▁creativity	-10483
▁decorative	-10484
▁definition	-10485
▁delightful	-10486
▁discipline	-10487
▁engagement	-10488
▁excited▁to	-10489
▁exposed▁to	-10490
▁focuses▁on	-10491
▁game▁music	-10492
▁heart▁rate	-10493
▁incredibly	-10494
▁in▁January	-10495
▁is▁perfect	-10496
▁just▁about	-10497
▁just▁a▁few	-10498
▁kilometres	-10499
▁legitimate	-10500
▁milligrams	-10501
▁officially	-10502
▁of▁all▁the	-10503
▁passionate	-10504
▁permission	-10505
▁reasonably	-10506
▁similar▁to	-10507
▁spend▁time	-10508
▁started▁to	-10509
▁statements	-10510
▁supporters	-10511
▁that▁it▁is	-10512
▁these▁days	-10513
▁the▁public	-10514
▁took▁place	-10515
▁to▁another	-10516
▁to▁develop	-10517
▁will▁never	-10518
▁you▁really	-10519
azing▁Spider	-10520
▁At▁the▁same	-10521
▁I▁have▁been	-10522
▁about▁their	-10523
▁authorities	-10524
▁consists▁of	-10525
▁credit▁card	-10526
▁demonstrate	-10527
▁elastomeric	-10528
▁exposure▁to	-10529
▁include▁the	-10530
▁intended▁to	-10531
▁is▁possible	-10532
▁majority▁of	-10533
▁measurement	-10534
▁natural▁gas	-10535
▁necessarily	-10536
▁observation	-10537
▁on▁the▁back	-10538
▁part▁of▁our	-10539
▁possibility	-10540
▁pretty▁much	-10541
▁recognition	-10542
▁side▁of▁the	-10543
▁spectacular	-10544
▁support▁for	-10545
▁that▁may▁be	-10546
▁the▁pyramid	-10547
▁thinking▁of	-10548
▁towards▁the	-10549
▁to▁complete	-10550
▁to▁the▁next	-10551
▁versions▁of	-10552
▁waiting▁for	-10553
▁Commonwealth	-10554
▁Vanity▁Cabin	-10555
▁acquisitions	-10556
▁architecture	-10557
▁beginning▁to	-10558
▁championship	-10559
▁connected▁to	-10560
▁dedicated▁to	-10561
▁features▁and	-10562
▁for▁the▁last	-10563
▁improvements	-10564
▁increasingly	-10565
▁in▁the▁field	-10566
▁listening▁to	-10567
▁on▁Wednesday	-10568
▁on▁the▁other	-10569
▁personalised	-10570
▁supported▁by	-10571
▁team▁members	-10572
▁the▁business	-10573
▁transparency	-10574
▁working▁with	-10575
▁Environmental	-10576
▁are▁available	-10577
▁customers▁are	-10578
▁email▁address	-10579
▁importance▁of	-10580
▁in▁the▁market	-10581
▁manufacturing	-10582
▁may▁have▁been	-10583
▁on▁the▁ground	-10584
▁our▁customers	-10585
▁patients▁with	-10586
▁roller▁hockey	-10587
▁search▁engine	-10588
▁the▁potential	-10589
▁you▁will▁find	-10590
▁details▁of▁the	-10591
▁development▁of	-10592
▁quality▁of▁the	-10593
▁representative	-10594
▁the▁difference	-10595
▁development▁and	-10596
▁personal▁injury	-10597
▁per▁square▁foot	-10598
▁stainless▁steel	-10599
▁wide▁variety▁of	-10600
▁would▁have▁been	-10601
")	-10602
./	-10603
.’	-10604
BE	-10605
BS	-10606
CO	-10607
EV	-10608
IV	-10609
LY	-10610
QA	-10611
TI	-10612
TV	-10613
UL	-10614
ba	-10615
dp	-10616
ho	-10617
jo	-10618
la	-10619
ws	-10620
wy	-10621
▁>	-10622
ATE	-10623
Apr	-10624
Ass	-10625
His	-10626
Hot	-10627
Rem	-10628
UST	-10629
VAC	-10630
Wow	-10631
aba	-10632
ani	-10633
ano	-10634
bul	-10635
cro	-10636
esh	-10637
ipt	-10638
ira	-10639
irk	-10640
i▁P	-10641
lis	-10642
lob	-10643
lox	-10644
ned	-10645
ngu	-10646
oca	-10647
oit	-10648
rik	-10649
sal	-10650
six	-10651
t▁a	-10652
usr	-10653
▁).	-10654
▁CA	-10655
▁ER	-10656
▁Jo	-10657
▁LO	-10658
▁MI	-10659
▁Ms	-10660
▁NJ	-10661
▁OK	-10662
▁QB	-10663
▁RN	-10664
▁SB	-10665
▁SD	-10666
▁SH	-10667
▁Wr	-10668
▁du	-10669
▁dy	-10670
▁ok	-10671
▁ow	-10672
",▁"	-10673
,"▁"	-10674
Come	-10675
Join	-10676
Last	-10677
Star	-10678
Term	-10679
Thou	-10680
Upon	-10681
abel	-10682
aced	-10683
addy	-10684
aded	-10685
aine	-10686
anut	-10687
ardo	-10688
ards	-10689
arno	-10690
asis	-10691
beki	-10692
bell	-10693
cape	-10694
ccer	-10695
dale	-10696
ders	-10697
edar	-10698
elie	-10699
eney	-10700
enth	-10701
eous	-10702
fire	-10703
five	-10704
help	-10705
iate	-10706
isse	-10707
itle	-10708
ixel	-10709
just	-10710
kers	-10711
leet	-10712
lett	-10713
leum	-10714
logg	-10715
long	-10716
mind	-10717
ndom	-10718
norm	-10719
olia	-10720
pace	-10721
pany	-10722
pton	-10723
rapy	-10724
reas	-10725
requ	-10726
rett	-10727
rons	-10728
site	-10729
upid	-10730
▁"./	-10731
▁APX	-10732
▁Ach	-10733
▁Aut	-10734
▁Bas	-10735
▁CEO	-10736
▁CPU	-10737
▁Cub	-10738
▁Dim	-10739
▁Ele	-10740
▁FAX	-10741
▁FTZ	-10742
▁Fil	-10743
▁Hig	-10744
▁Ins	-10745
▁Jam	-10746
▁LED	-10747
▁Liv	-10748
▁RAM	-10749
▁RES	-10750
▁Raj	-10751
▁Ric	-10752
▁Set	-10753
▁Syl	-10754
▁Wax	-10755
▁YRS	-10756
▁Yor	-10757
▁ber	-10758
▁cod	-10759
▁deh	-10760
▁fib	-10761
▁flu	-10762
▁fro	-10763
▁gin	-10764
▁hom	-10765
▁hyp	-10766
▁led	-10767
▁nin	-10768
▁ore	-10769
▁png	-10770
▁pub	-10771
▁roy	-10772
▁vap	-10773
Green	-10774
I▁can	-10775
I▁don	-10776
RUNER	-10777
abric	-10778
achua	-10779
asket	-10780
ccoli	-10781
const	-10782
entle	-10783
guard	-10784
icero	-10785
idoor	-10786
indle	-10787
inois	-10788
itial	-10789
mates	-10790
month	-10791
never	-10792
ochem	-10793
omans	-10794
ongev	-10795
oween	-10796
phant	-10797
pring	-10798
redit	-10799
ripts	-10800
scrib	-10801
stead	-10802
s▁The	-10803
s▁act	-10804
s▁how	-10805
tered	-10806
t▁you	-10807
ultan	-10808
uster	-10809
▁Adam	-10810
▁Ball	-10811
▁Beck	-10812
▁Bird	-10813
▁Brod	-10814
▁Brun	-10815
▁Core	-10816
▁Date	-10817
▁Emer	-10818
▁Fort	-10819
▁Girl	-10820
▁Hack	-10821
▁Help	-10822
▁Ince	-10823
▁Iowa	-10824
▁Line	-10825
▁Link	-10826
▁Live	-10827
▁Mind	-10828
▁Mont	-10829
▁Méli	-10830
▁Nine	-10831
▁Note	-10832
▁Page	-10833
▁Prim	-10834
▁REIT	-10835
▁Sent	-10836
▁Shar	-10837
▁Sher	-10838
▁Soul	-10839
▁Stan	-10840
▁Sure	-10841
▁Tony	-10842
▁Viet	-10843
▁Wire	-10844
▁Wish	-10845
▁Yoko	-10846
▁Yuri	-10847
▁at▁C	-10848
▁bear	-10849
▁bind	-10850
▁boss	-10851
▁brew	-10852
▁bull	-10853
▁bund	-10854
▁cord	-10855
▁dose	-10856
▁do▁a	-10857
▁evil	-10858
▁flaw	-10859
▁fold	-10860
▁gene	-10861
▁heal	-10862
▁hint	-10863
▁iPad	-10864
▁inch	-10865
▁in▁K	-10866
▁in▁L	-10867
▁in▁R	-10868
▁irre	-10869
▁kava	-10870
▁lace	-10871
▁lapt	-10872
▁lies	-10873
▁ling	-10874
▁loan	-10875
▁mand	-10876
▁moon	-10877
▁nail	-10878
▁neat	-10879
▁pill	-10880
▁rely	-10881
▁rush	-10882
▁scar	-10883
▁seam	-10884
▁snap	-10885
▁soup	-10886
▁tack	-10887
▁tang	-10888
▁ties	-10889
▁till	-10890
▁to▁p	-10891
▁whis	-10892
As▁the	-10893
BODETT	-10894
If▁the	-10895
I▁love	-10896
Thanks	-10897
age▁of	-10898
agishi	-10899
annell	-10900
atical	-10901
ay▁and	-10902
carbon	-10903
ed▁him	-10904
effect	-10905
embers	-10906
er▁for	-10907
forest	-10908
iberia	-10909
icture	-10910
ied▁by	-10911
ing▁ac	-10912
is▁and	-10913
ll▁see	-10914
morrow	-10915
nowned	-10916
oconut	-10917
ory▁of	-10918
oto▁by	-10919
rained	-10920
re▁all	-10921
rition	-10922
roleum	-10923
second	-10924
s▁good	-10925
s▁to▁a	-10926
th▁ann	-10927
t▁been	-10928
t▁just	-10929
uclear	-10930
us▁and	-10931
ve▁had	-10932
▁Advis	-10933
▁Aging	-10934
▁Alpha	-10935
▁As▁we	-10936
▁Banks	-10937
▁Block	-10938
▁Brian	-10939
▁Chief	-10940
▁Event	-10941
▁Giant	-10942
▁Guest	-10943
▁Istan	-10944
▁Light	-10945
▁Local	-10946
▁Obama	-10947
▁Pearl	-10948
▁Roman	-10949
▁Round	-10950
▁Stein	-10951
▁Still	-10952
▁Stock	-10953
▁Therm	-10954
▁The▁V	-10955
▁Three	-10956
▁Times	-10957
▁Video	-10958
▁and▁w	-10959
▁an▁in	-10960
▁argue	-10961
▁begun	-10962
▁bmw▁i	-10963
▁broch	-10964
▁buy▁a	-10965
▁cheer	-10966
▁chest	-10967
▁civil	-10968
▁coinc	-10969
▁comic	-10970
▁crown	-10971
▁dozen	-10972
▁dried	-10973
▁falls	-10974
▁forum	-10975
▁funny	-10976
▁hired	-10977
▁humor	-10978
▁is▁no	-10979
▁it▁on	-10980
▁lever	-10981
▁liber	-10982
▁newer	-10983
▁nomin	-10984
▁penet	-10985
▁pitch	-10986
▁plain	-10987
▁pound	-10988
▁quart	-10989
▁races	-10990
▁rider	-10991
▁sampl	-10992
▁shalt	-10993
▁sheep	-10994
▁ships	-10995
▁shoes	-10996
▁shopp	-10997
▁shops	-10998
▁shred	-10999
▁skein	-11000
▁slide	-11001
▁spark	-11002
▁stake	-11003
▁steam	-11004
▁stepp	-11005
▁terms	-11006
▁the▁N	-11007
▁thumb	-11008
▁toxic	-11009
▁wants	-11010
▁wrest	-11011
This▁is	-11012
alendar	-11013
angular	-11014
ascular	-11015
claimer	-11016
ed▁away	-11017
ificate	-11018
ificent	-11019
ing▁too	-11020
ised▁to	-11021
itution	-11022
ivating	-11023
natural	-11024
raction	-11025
rection	-11026
sequent	-11027
s▁about	-11028
s▁music	-11029
uration	-11030
urities	-11031
ve▁just	-11032
working	-11033
▁Anyone	-11034
▁Contin	-11035
▁Create	-11036
▁Dental	-11037
▁Denver	-11038
▁Energy	-11039
▁Forest	-11040
▁Having	-11041
▁Italia	-11042
▁Metrop	-11043
▁Mother	-11044
▁No▁one	-11045
▁Policy	-11046
▁Really	-11047
▁Resort	-11048
▁Simply	-11049
▁Wiggle	-11050
▁Yolngu	-11051
▁absorb	-11052
▁addict	-11053
▁advise	-11054
▁afford	-11055
▁aggreg	-11056
▁approv	-11057
▁at▁his	-11058
▁a▁list	-11059
▁barely	-11060
▁bodies	-11061
▁but▁in	-11062
▁by▁our	-11063
▁cherry	-11064
▁column	-11065
▁comedy	-11066
▁conver	-11067
▁cotton	-11068
▁coupon	-11069
▁cutter	-11070
▁decent	-11071
▁deduct	-11072
▁desper	-11073
▁digest	-11074
▁domain	-11075
▁dosage	-11076
▁drives	-11077
▁duties	-11078
▁evolve	-11079
▁exceed	-11080
▁explor	-11081
▁floors	-11082
▁formed	-11083
▁fortun	-11084
▁gentle	-11085
▁gospel	-11086
▁has▁no	-11087
▁heroes	-11088
▁insist	-11089
▁in▁act	-11090
▁is▁set	-11091
▁it▁off	-11092
▁lawyer	-11093
▁lowest	-11094
▁mathem	-11095
▁myster	-11096
▁passes	-11097
▁posted	-11098
▁powers	-11099
▁praise	-11100
▁prison	-11101
▁random	-11102
▁relief	-11103
▁saving	-11104
▁signed	-11105
▁soccer	-11106
▁solely	-11107
▁stones	-11108
▁stored	-11109
▁string	-11110
▁termin	-11111
▁the▁br	-11112
▁topics	-11113
▁to▁him	-11114
▁to▁one	-11115
▁versat	-11116
▁wheels	-11117
▁why▁we	-11118
▁writes	-11119
Laughter	-11120
arketing	-11121
ated▁the	-11122
ed▁under	-11123
eney▁Cox	-11124
esthetic	-11125
formance	-11126
ilarious	-11127
ing▁they	-11128
ing▁tool	-11129
iversary	-11130
missions	-11131
ndezvous	-11132
oneywell	-11133
s▁office	-11134
▁Antonio	-11135
▁Bennett	-11136
▁Buffalo	-11137
▁Chapter	-11138
▁Charlie	-11139
▁Country	-11140
▁Edwards	-11141
▁Gallery	-11142
▁If▁your	-11143
▁Married	-11144
▁Meeting	-11145
▁Release	-11146
▁Several	-11147
▁Society	-11148
▁Special	-11149
▁Starlin	-11150
▁Stories	-11151
▁Strateg	-11152
▁Sustain	-11153
▁Tickets	-11154
▁Unidoor	-11155
▁Version	-11156
▁Vietnam	-11157
▁Website	-11158
▁We▁also	-11159
▁Youtube	-11160
▁acquire	-11161
▁all▁our	-11162
▁and▁can	-11163
▁and▁for	-11164
▁and▁non	-11165
▁and▁she	-11166
▁a▁whole	-11167
▁banking	-11168
▁bearing	-11169
▁camping	-11170
▁can▁you	-11171
▁circles	-11172
▁citizen	-11173
▁coastal	-11174
▁coating	-11175
▁compose	-11176
▁comprom	-11177
▁congreg	-11178
▁credits	-11179
▁descend	-11180
▁desires	-11181
▁destroy	-11182
▁drivers	-11183
▁elegant	-11184
▁embrace	-11185
▁enabled	-11186
▁episode	-11187
▁equally	-11188
▁examine	-11189
▁exhibit	-11190
▁focuses	-11191
▁footage	-11192
▁fun▁and	-11193
▁granted	-11194
▁grocery	-11195
▁has▁not	-11196
▁here▁in	-11197
▁his▁own	-11198
▁if▁this	-11199
▁invoice	-11200
▁in▁good	-11201
▁in▁some	-11202
▁it▁is▁a	-11203
▁join▁us	-11204
▁know▁it	-11205
▁lecture	-11206
▁like▁me	-11207
▁managed	-11208
▁mistake	-11209
▁monster	-11210
▁of▁each	-11211
▁ongoing	-11212
▁organis	-11213
▁out▁our	-11214
▁placebo	-11215
▁plan▁to	-11216
▁proport	-11217
▁publish	-11218
▁records	-11219
▁remover	-11220
▁sectors	-11221
▁see▁how	-11222
▁set▁out	-11223
▁singing	-11224
▁so▁long	-11225
▁sponsor	-11226
▁struggl	-11227
▁studied	-11228
▁suspend	-11229
▁testing	-11230
▁the▁old	-11231
▁the▁one	-11232
▁the▁top	-11233
▁towards	-11234
▁to▁read	-11235
▁to▁talk	-11236
▁trusted	-11237
▁upgrade	-11238
▁up▁from	-11239
▁veggies	-11240
▁venture	-11241
▁visitor	-11242
▁waiting	-11243
▁weapons	-11244
These▁are	-11245
The▁first	-11246
ating▁and	-11247
es▁in▁the	-11248
forcement	-11249
imination	-11250
including	-11251
ology▁and	-11252
plit▁Rail	-11253
s▁largest	-11254
s▁such▁as	-11255
s▁time▁to	-11256
term▁care	-11257
t▁have▁to	-11258
ue▁to▁the	-11259
ugu▁State	-11260
▁Accessed	-11261
▁Advocacy	-11262
▁All▁http	-11263
▁Aquatics	-11264
▁Athletic	-11265
▁Attorney	-11266
▁Canadian	-11267
▁Channell	-11268
▁Cleaning	-11269
▁Comments	-11270
▁Democrat	-11271
▁Economic	-11272
▁Employee	-11273
▁Everyone	-11274
▁Exchange	-11275
▁Illinois	-11276
▁It▁doesn	-11277
▁I▁have▁a	-11278
▁Ministry	-11279
▁NFL▁team	-11280
▁Nebraska	-11281
▁Oklahoma	-11282
▁Remember	-11283
▁Together	-11284
▁We▁offer	-11285
▁With▁the	-11286
▁accepted	-11287
▁accompan	-11288
▁airports	-11289
▁and▁I▁am	-11290
▁and▁easy	-11291
▁animated	-11292
▁areas▁of	-11293
▁assembly	-11294
▁at▁their	-11295
▁aware▁of	-11296
▁a▁bit▁of	-11297
▁bachelor	-11298
▁based▁in	-11299
▁became▁a	-11300
▁biblical	-11301
▁both▁the	-11302
▁broccoli	-11303
▁but▁some	-11304
▁captured	-11305
▁carrying	-11306
▁chiggers	-11307
▁cleaners	-11308
▁combines	-11309
▁constant	-11310
▁contamin	-11311
▁contents	-11312
▁counties	-11313
▁criteria	-11314
▁currency	-11315
▁database	-11316
▁delicate	-11317
▁delivers	-11318
▁demonstr	-11319
▁disagree	-11320
▁disorder	-11321
▁earnings	-11322
▁extended	-11323
▁fighting	-11324
▁for▁sure	-11325
▁gorgeous	-11326
▁handyman	-11327
▁heritage	-11328
▁he▁could	-11329
▁insights	-11330
▁in▁China	-11331
▁in▁Japan	-11332
▁it▁means	-11333
▁judgment	-11334
▁judicial	-11335
▁kinds▁of	-11336
▁know▁how	-11337
▁landmark	-11338
▁lets▁you	-11339
▁matching	-11340
▁means▁of	-11341
▁moderate	-11342
▁networks	-11343
▁new▁home	-11344
▁of▁being	-11345
▁on▁board	-11346
▁pleasant	-11347
▁reducing	-11348
▁scouting	-11349
▁sessions	-11350
▁show▁you	-11351
▁soldiers	-11352
▁supervis	-11353
▁supplier	-11354
▁suppress	-11355
▁tailored	-11356
▁that▁had	-11357
▁the▁blue	-11358
▁the▁film	-11359
▁the▁pump	-11360
▁threaten	-11361
▁tips▁for	-11362
▁to▁allow	-11363
▁to▁begin	-11364
▁to▁start	-11365
▁triangle	-11366
▁universe	-11367
▁use▁of▁a	-11368
▁vertical	-11369
▁was▁last	-11370
▁was▁made	-11371
▁weakness	-11372
▁wherever	-11373
▁within▁a	-11374
▁with▁him	-11375
▁with▁its	-11376
▁wrinkles	-11377
One▁of▁the	-11378
Thou▁shalt	-11379
ations▁for	-11380
especially	-11381
es▁are▁not	-11382
m▁going▁to	-11383
s▁are▁also	-11384
▁Applicant	-11385
▁Authority	-11386
▁Available	-11387
▁Economics	-11388
▁Elizabeth	-11389
▁Francisco	-11390
▁Halloween	-11391
▁I▁believe	-11392
▁JP▁Morgan	-11393
▁NFL▁teams	-11394
▁Scripture	-11395
▁While▁the	-11396
▁Would▁you	-11397
▁Yamagishi	-11398
▁Yorkshire	-11399
▁after▁all	-11400
▁allow▁the	-11401
▁and▁I▁was	-11402
▁and▁start	-11403
▁and▁water	-11404
▁batteries	-11405
▁being▁the	-11406
▁billboard	-11407
▁campaigns	-11408
▁caused▁by	-11409
▁chance▁of	-11410
▁complaint	-11411
▁deduction	-11412
▁designers	-11413
▁enjoyable	-11414
▁everybody	-11415
▁evolution	-11416
▁expansion	-11417
▁explained	-11418
▁framework	-11419
▁from▁that	-11420
▁gathering	-11421
▁goals▁and	-11422
▁gradually	-11423
▁headquart	-11424
▁hot▁water	-11425
▁hours▁and	-11426
▁ideas▁and	-11427
▁improving	-11428
▁interface	-11429
▁in▁the▁US	-11430
▁is▁one▁of	-11431
▁is▁really	-11432
▁like▁that	-11433
▁might▁not	-11434
▁molecules	-11435
▁must▁have	-11436
▁neighbors	-11437
▁nonprofit	-11438
▁officials	-11439
▁on▁campus	-11440
▁penalties	-11441
▁personnel	-11442
▁philosoph	-11443
▁presented	-11444
▁principal	-11445
▁proofread	-11446
▁ready▁for	-11447
▁renewable	-11448
▁screening	-11449
▁searching	-11450
▁stages▁of	-11451
▁taxpayers	-11452
▁thanks▁to	-11453
▁the▁power	-11454
▁the▁store	-11455
▁things▁to	-11456
▁this▁past	-11457
▁to▁change	-11458
▁two▁years	-11459
▁universal	-11460
▁utilities	-11461
▁very▁well	-11462
▁virtually	-11463
▁with▁many	-11464
▁you▁would	-11465
idas▁NMD▁XR	-11466
▁ColdFusion	-11467
▁One▁of▁the	-11468
▁This▁means	-11469
▁about▁what	-11470
▁accessible	-11471
▁adjustable	-11472
▁and▁if▁you	-11473
▁and▁it▁was	-11474
▁and▁others	-11475
▁anyone▁who	-11476
▁as▁describ	-11477
▁but▁it▁was	-11478
▁cartridges	-11479
▁car▁rental	-11480
▁check▁your	-11481
▁click▁here	-11482
▁colors▁and	-11483
▁concerning	-11484
▁courthouse	-11485
▁created▁by	-11486
▁create▁the	-11487
▁days▁after	-11488
▁difficulty	-11489
▁doll▁house	-11490
▁efforts▁to	-11491
▁family▁and	-11492
▁fellowship	-11493
▁five▁years	-11494
▁goal▁is▁to	-11495
▁holidaymak	-11496
▁homeowners	-11497
▁inside▁the	-11498
▁interested	-11499
▁is▁schedul	-11500
▁joined▁the	-11501
▁know▁about	-11502
▁making▁the	-11503
▁membership	-11504
▁minimum▁of	-11505
▁nationwide	-11506
▁occasional	-11507
▁online▁and	-11508
▁other▁than	-11509
▁people▁and	-11510
▁performing	-11511
▁periods▁of	-11512
▁preference	-11513
▁preventing	-11514
▁productive	-11515
▁publishing	-11516
▁reflection	-11517
▁repeatedly	-11518
▁retirement	-11519
▁safety▁and	-11520
▁search▁for	-11521
▁separately	-11522
▁technician	-11523
▁the▁bottom	-11524
▁things▁are	-11525
▁to▁explore	-11526
▁trends▁and	-11527
▁turned▁out	-11528
▁using▁this	-11529
▁vegetation	-11530
▁very▁first	-11531
uromarketing	-11532
▁Bangladeshi	-11533
▁It▁would▁be	-11534
▁Kalashnikov	-11535
▁New▁Zealand	-11536
▁Reformation	-11537
▁Wall▁Street	-11538
▁all▁of▁your	-11539
▁antidepress	-11540
▁association	-11541
▁carried▁out	-11542
▁complicated	-11543
▁consumption	-11544
▁convenience	-11545
▁disappeared	-11546
▁dust▁jacket	-11547
▁emphasis▁on	-11548
▁exclusively	-11549
▁focusing▁on	-11550
▁for▁a▁while	-11551
▁fundraising	-11552
▁hundreds▁of	-11553
▁imagination	-11554
▁in▁the▁past	-11555
▁is▁the▁only	-11556
▁it▁might▁be	-11557
▁maintaining	-11558
▁may▁also▁be	-11559
▁millions▁of	-11560
▁much▁better	-11561
▁of▁the▁game	-11562
▁on▁Facebook	-11563
▁on▁the▁road	-11564
▁out▁of▁your	-11565
▁people▁that	-11566
▁personality	-11567
▁please▁call	-11568
▁quality▁and	-11569
▁reliability	-11570
▁required▁to	-11571
▁researchers	-11572
▁restaurants	-11573
▁service▁and	-11574
▁side▁effect	-11575
▁someone▁who	-11576
▁starting▁to	-11577
▁supervision	-11578
▁temporarily	-11579
▁the▁benefit	-11580
▁the▁biggest	-11581
▁to▁create▁a	-11582
▁to▁make▁the	-11583
▁to▁purchase	-11584
▁you▁have▁to	-11585
s▁that▁Led▁to	-11586
▁School▁Angel	-11587
▁Unidoor▁Plus	-11588
▁advantage▁of	-11589
▁and▁business	-11590
▁as▁well▁as▁a	-11591
▁at▁this▁time	-11592
▁a▁variety▁of	-11593
▁business▁and	-11594
▁but▁they▁are	-11595
▁close▁to▁the	-11596
▁confirmation	-11597
▁consistently	-11598
▁conventional	-11599
▁for▁the▁best	-11600
▁heart▁of▁the	-11601
▁includes▁the	-11602
▁individually	-11603
▁in▁which▁the	-11604
▁looks▁like▁a	-11605
▁manufactured	-11606
▁most▁popular	-11607
▁multipurpose	-11608
▁prior▁to▁the	-11609
▁products▁are	-11610
▁reduction▁of	-11611
▁services▁and	-11612
▁so▁that▁they	-11613
▁students▁who	-11614
▁talked▁about	-11615
▁training▁and	-11616
▁treatment▁of	-11617
▁your▁website	-11618
If▁you▁want▁to	-11619
re▁looking▁for	-11620
s▁important▁to	-11621
th▁anniversary	-11622
▁New▁Testament	-11623
▁Thank▁you▁for	-11624
▁and▁effective	-11625
▁bicycle▁theft	-11626
▁circumstances	-11627
▁commitment▁to	-11628
▁education▁and	-11629
▁effectiveness	-11630
▁experience▁in	-11631
▁functionality	-11632
▁investment▁in	-11633
▁in▁the▁second	-11634
▁over▁the▁last	-11635
▁personal▁data	-11636
▁problems▁with	-11637
▁providing▁the	-11638
▁stain▁remover	-11639
▁the▁following	-11640
▁to▁be▁able▁to	-11641
▁you▁know▁what	-11642
▁Amazing▁Spider	-11643
▁Communications	-11644
▁South▁Pasadena	-11645
▁Vice▁President	-11646
▁according▁to▁a	-11647
▁as▁part▁of▁the	-11648
▁can▁be▁used▁to	-11649
▁characteristic	-11650
▁members▁of▁the	-11651
▁mobile▁devices	-11652
▁more▁about▁the	-11653
▁rated▁All▁http	-11654
▁sustainability	-11655
▁the▁other▁hand	-11656
▁Cancer▁Research	-11657
▁Social▁Security	-11658
▁data▁protection	-11659
▁looking▁forward	-11660
▁prostate▁cancer	-11661
▁so▁that▁you▁can	-11662
!”	-11663
.'	-11664
FC	-11665
Gr	-11666
HB	-11667
IO	-11668
MF	-11669
SN	-11670
TA	-11671
TC	-11672
].	-11673
fc	-11674
fo	-11675
iw	-11676
kg	-11677
kn	-11678
ko	-11679
mg	-11680
yt	-11681
+/-	-11682
,▁‘	-11683
:▁(	-11684
?!
	-11685
ACR	-11686
EAR	-11687
INE	-11688
Int	-11689
LAN	-11690
MED	-11691
Net	-11692
ORE	-11693
OSI	-11694
SSL	-11695
TER	-11696
TLE	-11697
TLS	-11698
Tom	-11699
Tra	-11700
Who	-11701
Yes	-11702
aar	-11703
abb	-11704
abs	-11705
aks	-11706
aze	-11707
bee	-11708
bmp	-11709
cia	-11710
cum	-11711
edu	-11712
gas	-11713
har	-11714
hew	-11715
hot	-11716
ika	-11717
ima	-11718
i▁D	-11719
kit	-11720
lod	-11721
loo	-11722
mac	-11723
mes	-11724
nem	-11725
ots	-11726
ran	-11727
rob	-11728
sea	-11729
s▁G	-11730
s▁H	-11731
una	-11732
upy	-11733
urg	-11734
ype	-11735
▁->	-11736
▁AR	-11737
▁AV	-11738
▁Ah	-11739
▁CD	-11740
▁Cp	-11741
▁Cy	-11742
▁FL	-11743
▁Fa	-11744
▁RO	-11745
▁Ra	-11746
▁SC	-11747
▁SO	-11748
▁SU	-11749
▁Sy	-11750
▁TO	-11751
▁Wy	-11752
▁id	-11753
!!!!	-11754
Also	-11755
Back	-11756
Disc	-11757
Luke	-11758
Minn	-11759
Real	-11760
Supp	-11761
Work	-11762
Yeah	-11763
afer	-11764
agle	-11765
agus	-11766
ails	-11767
aink	-11768
alif	-11769
also	-11770
angh	-11771
arin	-11772
ario	-11773
arly	-11774
aroo	-11775
aved	-11776
best	-11777
bits	-11778
bone	-11779
buck	-11780
cean	-11781
cest	-11782
char	-11783
dong	-11784
erva	-11785
etts	-11786
fish	-11787
ften	-11788
game	-11789
good	-11790
hill	-11791
hire	-11792
host	-11793
hour	-11794
html	-11795
http	-11796
icid	-11797
ifle	-11798
inch	-11799
isan	-11800
izer	-11801
left	-11802
lers	-11803
litt	-11804
mith	-11805
neys	-11806
onia	-11807
oody	-11808
orno	-11809
otto	-11810
outs	-11811
page	-11812
pers	-11813
post	-11814
qual	-11815
rail	-11816
rban	-11817
ryan	-11818
shot	-11819
sign	-11820
some	-11821
tist	-11822
t▁go	-11823
ulin	-11824
ulpt	-11825
umAn	-11826
walk	-11827
week	-11828
wing	-11829
ythm	-11830
▁Arm	-11831
▁Arn	-11832
▁Bit	-11833
▁Bon	-11834
▁CON	-11835
▁Cir	-11836
▁Dut	-11837
▁ENG	-11838
▁Emp	-11839
▁Gre	-11840
▁Guy	-11841
▁Isl	-11842
▁Leg	-11843
▁Lew	-11844
▁MWK	-11845
▁Mah	-11846
▁Nut	-11847
▁Opp	-11848
▁Paw	-11849
▁SSL	-11850
▁Spa	-11851
▁Typ	-11852
▁Vul	-11853
▁Wal	-11854
▁Wid	-11855
▁Zey	-11856
▁aid	-11857
▁a▁S	-11858
▁bug	-11859
▁dye	-11860
▁gym	-11861
▁jam	-11862
▁jew	-11863
▁lie	-11864
▁mad	-11865
▁mic	-11866
▁oct	-11867
▁oun	-11868
▁ped	-11869
▁pig	-11870
▁por	-11871
▁rom	-11872
▁sin	-11873
▁spo	-11874
▁tor	-11875
▁ves	-11876
▁von	-11877
Along	-11878
EPORT	-11879
Is▁it	-11880
Match	-11881
Neich	-11882
Right	-11883
Smart	-11884
The▁F	-11885
Watch	-11886
adium	-11887
agger	-11888
anted	-11889
aryam	-11890
ashes	-11891
asing	-11892
ay▁of	-11893
clean	-11894
cular	-11895
emark	-11896
er▁or	-11897
eters	-11898
faire	-11899
found	-11900
icate	-11901
icide	-11902
ieces	-11903
ifest	-11904
ifier	-11905
ilage	-11906
ilion	-11907
impse	-11908
inder	-11909
in▁to	-11910
ishly	-11911
issez	-11912
iting	-11913
izona	-11914
lfare	-11915
lower	-11916
oline	-11917
oscow	-11918
osing	-11919
ourse	-11920
ovely	-11921
oviet	-11922
plays	-11923
point	-11924
prene	-11925
quest	-11926
reeze	-11927
riger	-11928
ropri	-11929
rosso	-11930
rules	-11931
scape	-11932
stage	-11933
stamp	-11934
start	-11935
stick	-11936
swick	-11937
there	-11938
th▁in	-11939
trans	-11940
ugeot	-11941
ughed	-11942
ussel	-11943
usual	-11944
xiety	-11945
yrics	-11946
▁Arch	-11947
▁Awcc	-11948
▁Banc	-11949
▁Chef	-11950
▁FREE	-11951
▁HVAC	-11952
▁Hand	-11953
▁Hard	-11954
▁Hing	-11955
▁Hous	-11956
▁Item	-11957
▁Jeff	-11958
▁Jews	-11959
▁Last	-11960
▁Lost	-11961
▁Mand	-11962
▁Mens	-11963
▁NCAA	-11964
▁Nazi	-11965
▁Nick	-11966
▁Noth	-11967
▁Pare	-11968
▁Pink	-11969
▁RESP	-11970
▁Rand	-11971
▁Reis	-11972
▁Sale	-11973
▁Save	-11974
▁Sell	-11975
▁Size	-11976
▁Sold	-11977
▁So▁I	-11978
▁Tang	-11979
▁Walk	-11980
▁Zion	-11981
▁bact	-11982
▁bran	-11983
▁chin	-11984
▁chur	-11985
▁clip	-11986
▁conj	-11987
▁cust	-11988
▁deno	-11989
▁exam	-11990
▁eyel	-11991
▁fert	-11992
▁fing	-11993
▁hill	-11994
▁hole	-11995
▁hung	-11996
▁in▁E	-11997
▁lamp	-11998
▁lawn	-11999
▁mode	-12000
▁numb	-12001
▁of▁A	-12002
▁of▁N	-12003
▁pant	-12004
▁pave	-12005
▁perl	-12006
▁pizz	-12007
▁puzz	-12008
▁quil	-12009
▁rect	-12010
▁semi	-12011
▁shed	-12012
▁sist	-12013
▁slap	-12014
▁slid	-12015
▁torn	-12016
▁unne	-12017
▁vill	-12018
▁ware	-12019
▁whit	-12020
▁yell	-12021
BRUNER	-12022
Bright	-12023
I▁just	-12024
I▁like	-12025
Minnis	-12026
agraph	-12027
alifax	-12028
anghai	-12029
anshan	-12030
author	-12031
called	-12032
ced▁in	-12033
com▁or	-12034
edroom	-12035
engers	-12036
ets▁in	-12037
flower	-12038
hes▁to	-12039
holder	-12040
iating	-12041
ifting	-12042
igious	-12043
ing▁am	-12044
ipping	-12045
irming	-12046
issues	-12047
mazing	-12048
negans	-12049
oclass	-12050
on▁and	-12051
orothy	-12052
ortium	-12053
ounter	-12054
parent	-12055
pected	-12056
rafted	-12057
rently	-12058
roduct	-12059
rowave	-12060
rowing	-12061
s▁on▁a	-12062
th▁Man	-12063
t▁work	-12064
ugment	-12065
umbing	-12066
urable	-12067
ursion	-12068
venues	-12069
▁About	-12070
▁Agent	-12071
▁Allen	-12072
▁Based	-12073
▁Biote	-12074
▁Blank	-12075
▁Boots	-12076
▁Bowen	-12077
▁Brand	-12078
▁Broad	-12079
▁Casey	-12080
▁Cedar	-12081
▁Chang	-12082
▁Cover	-12083
▁Cross	-12084
▁Davis	-12085
▁Fresh	-12086
▁Hills	-12087
▁If▁we	-12088
▁Is▁it	-12089
▁Korea	-12090
▁Larry	-12091
▁Linda	-12092
▁Maver	-12093
▁NFLPA	-12094
▁Nancy	-12095
▁Never	-12096
▁Olive	-12097
▁Print	-12098
▁Quick	-12099
▁The▁C	-12100
▁The▁U	-12101
▁Treat	-12102
▁Union	-12103
▁Veter	-12104
▁Witch	-12105
▁Wrote	-12106
▁acres	-12107
▁alarm	-12108
▁alcoh	-12109
▁alive	-12110
▁and▁r	-12111
▁angle	-12112
▁angry	-12113
▁a▁bad	-12114
▁blank	-12115
▁cells	-12116
▁crazy	-12117
▁curse	-12118
▁degre	-12119
▁delay	-12120
▁dilut	-12121
▁doorm	-12122
▁drawn	-12123
▁dwell	-12124
▁edges	-12125
▁enorm	-12126
▁flood	-12127
▁flour	-12128
▁frank	-12129
▁funds	-12130
▁gates	-12131
▁giant	-12132
▁goods	-12133
▁got▁a	-12134
▁grape	-12135
▁humid	-12136
▁icons	-12137
▁infin	-12138
▁injur	-12139
▁is▁it	-12140
▁lands	-12141
▁loose	-12142
▁meets	-12143
▁neuro	-12144
▁newly	-12145
▁nokia	-12146
▁not▁a	-12147
▁nurse	-12148
▁or▁by	-12149
▁outer	-12150
▁phase	-12151
▁pione	-12152
▁prest	-12153
▁recon	-12154
▁reign	-12155
▁reply	-12156
▁roast	-12157
▁rocks	-12158
▁rough	-12159
▁scoot	-12160
▁sharp	-12161
▁solve	-12162
▁sorry	-12163
▁speck	-12164
▁stuck	-12165
▁suits	-12166
▁tread	-12167
▁turns	-12168
▁wider	-12169
▁yacht	-12170
For▁the	-12171
It▁is▁a	-12172
Join▁us	-12173
Vitamin	-12174
We▁have	-12175
Whether	-12176
You▁are	-12177
ager▁to	-12178
age▁and	-12179
angaroo	-12180
athered	-12181
attress	-12182
country	-12183
edition	-12184
er▁than	-12185
ictures	-12186
ighterZ	-12187
ing▁how	-12188
ing▁its	-12189
ing▁one	-12190
ing▁was	-12191
istries	-12192
ivalent	-12193
iving▁a	-12194
jection	-12195
onomous	-12196
pendent	-12197
reprene	-12198
ritical	-12199
section	-12200
selling	-12201
s▁great	-12202
s▁worth	-12203
tingham	-12204
t▁worry	-12205
ves▁and	-12206
ve▁done	-12207
▁Assist	-12208
▁A▁good	-12209
▁Bought	-12210
▁Change	-12211
▁Clinic	-12212
▁Columb	-12213
▁Corner	-12214
▁Curato	-12215
▁Desert	-12216
▁Duarte	-12217
▁During	-12218
▁Estate	-12219
▁Excell	-12220
▁Feeder	-12221
▁Finish	-12222
▁Follow	-12223
▁Herman	-12224
▁Inside	-12225
▁Invest	-12226
▁I▁find	-12227
▁I▁hope	-12228
▁I▁made	-12229
▁Johnny	-12230
▁Kaybee	-12231
▁Kerala	-12232
▁Listen	-12233
▁Martin	-12234
▁Mental	-12235
▁Modern	-12236
▁Oil▁Re	-12237
▁Picket	-12238
▁Rattan	-12239
▁Select	-12240
▁Senate	-12241
▁Taylor	-12242
▁Threes	-12243
▁Triple	-12244
▁Unless	-12245
▁Waters	-12246
▁advent	-12247
▁age▁of	-12248
▁analyt	-12249
▁and▁am	-12250
▁and▁un	-12251
▁an▁eye	-12252
▁are▁in	-12253
▁as▁our	-12254
▁at▁a▁l	-12255
▁a▁well	-12256
▁a▁word	-12257
▁basket	-12258
▁bother	-12259
▁bottle	-12260
▁breast	-12261
▁bridal	-12262
▁by▁any	-12263
▁caused	-12264
▁cervix	-12265
▁circus	-12266
▁clinic	-12267
▁config	-12268
▁cookie	-12269
▁crimes	-12270
▁curios	-12271
▁curved	-12272
▁defeat	-12273
▁degrad	-12274
▁delete	-12275
▁deserv	-12276
▁did▁it	-12277
▁discom	-12278
▁driven	-12279
▁enclos	-12280
▁enrich	-12281
▁expose	-12282
▁fallen	-12283
▁fascin	-12284
▁filter	-12285
▁finger	-12286
▁fiscal	-12287
▁folder	-12288
▁forest	-12289
▁fruits	-12290
▁funded	-12291
▁garage	-12292
▁gently	-12293
▁glance	-12294
▁govern	-12295
▁grants	-12296
▁grills	-12297
▁habits	-12298
▁hassle	-12299
▁heater	-12300
▁horses	-12301
▁hybrid	-12302
▁inquir	-12303
▁in▁May	-12304
▁in▁a▁l	-12305
▁issued	-12306
▁killed	-12307
▁killer	-12308
▁locals	-12309
▁luxury	-12310
▁me▁the	-12311
▁mirror	-12312
▁motion	-12313
▁my▁way	-12314
▁no▁one	-12315
▁obsess	-12316
▁occurs	-12317
▁of▁art	-12318
▁of▁her	-12319
▁on▁its	-12320
▁out▁in	-12321
▁overse	-12322
▁perpet	-12323
▁pickup	-12324
▁play▁a	-12325
▁pounds	-12326
▁preced	-12327
▁prelim	-12328
▁profil	-12329
▁promis	-12330
▁recept	-12331
▁referr	-12332
▁resign	-12333
▁runway	-12334
▁safely	-12335
▁salary	-12336
▁scouts	-12337
▁sculpt	-12338
▁sensor	-12339
▁septum	-12340
▁she▁is	-12341
▁singer	-12342
▁sounds	-12343
▁sprink	-12344
▁strain	-12345
▁strive	-12346
▁subsid	-12347
▁tested	-12348
▁timing	-12349
▁took▁a	-12350
▁to▁her	-12351
▁use▁it	-12352
▁vessel	-12353
▁was▁an	-12354
▁was▁it	-12355
▁waters	-12356
▁weekly	-12357
▁we▁got	-12358
▁wisdom	-12359
U▁Denver	-12360
aches▁to	-12361
ars▁Hill	-12362
ated▁for	-12363
ate▁your	-12364
busNeich	-12365
ed▁me▁to	-12366
finished	-12367
finitely	-12368
fortable	-12369
ives▁and	-12370
ized▁and	-12371
ments▁in	-12372
ongevity	-12373
photo▁by	-12374
position	-12375
s▁and▁an	-12376
s▁degree	-12377
s▁really	-12378
utomatic	-12379
with▁the	-12380
▁Alachua	-12381
▁Arizona	-12382
▁Bancorp	-12383
▁Brussel	-12384
▁Capital	-12385
▁Centres	-12386
▁Compare	-12387
▁Control	-12388
▁Correct	-12389
▁Cost▁to	-12390
▁Dynasty	-12391
▁Gardens	-12392
▁Genesis	-12393
▁Hazlitt	-12394
▁He▁said	-12395
▁Holiday	-12396
▁Indiana	-12397
▁Indones	-12398
▁Ireland	-12399
▁It▁also	-12400
▁It▁will	-12401
▁I▁never	-12402
▁I▁still	-12403
▁Justice	-12404
▁Livorno	-12405
▁Lots▁of	-12406
▁Madison	-12407
▁Mayline	-12408
▁Parkway	-12409
▁Protest	-12410
▁Radical	-12411
▁Records	-12412
▁Vulgate	-12413
▁Waikato	-12414
▁You▁don	-12415
▁acceler	-12416
▁acclaim	-12417
▁all▁day	-12418
▁amongst	-12419
▁and▁ask	-12420
▁and▁let	-12421
▁and▁low	-12422
▁and▁new	-12423
▁and▁now	-12424
▁and▁put	-12425
▁apprent	-12426
▁archive	-12427
▁are▁all	-12428
▁as▁many	-12429
▁at▁risk	-12430
▁authors	-12431
▁a▁short	-12432
▁balcony	-12433
▁best▁to	-12434
▁bring▁a	-12435
▁build▁a	-12436
▁but▁for	-12437
▁came▁to	-12438
▁captain	-12439
▁carrots	-12440
▁car▁and	-12441
▁chronic	-12442
▁circuit	-12443
▁compete	-12444
▁convict	-12445
▁days▁of	-12446
▁decided	-12447
▁derived	-12448
▁distill	-12449
▁do▁they	-12450
▁earning	-12451
▁easiest	-12452
▁enemies	-12453
▁engines	-12454
▁exploit	-12455
▁facilit	-12456
▁filling	-12457
▁fitness	-12458
▁formats	-12459
▁fusible	-12460
▁gardens	-12461
▁glimpse	-12462
▁goal▁of	-12463
▁goes▁to	-12464
▁granite	-12465
▁harmful	-12466
▁home▁is	-12467
▁home▁or	-12468
▁insured	-12469
▁invites	-12470
▁in▁love	-12471
▁is▁this	-12472
▁justice	-12473
▁laughed	-12474
▁leagues	-12475
▁leave▁a	-12476
▁legally	-12477
▁let▁you	-12478
▁line▁of	-12479
▁live▁in	-12480
▁more▁or	-12481
▁musical	-12482
▁need▁an	-12483
▁neglect	-12484
▁nuclear	-12485
▁nursery	-12486
▁offices	-12487
▁of▁mind	-12488
▁of▁such	-12489
▁on▁both	-12490
▁on▁what	-12491
▁persist	-12492
▁persons	-12493
▁planner	-12494
▁planted	-12495
▁posting	-12496
▁preview	-12497
▁privacy	-12498
▁receipt	-12499
▁recover	-12500
▁restore	-12501
▁reverse	-12502
▁rington	-12503
▁risotto	-12504
▁roughly	-12505
▁scenery	-12506
▁seventh	-12507
▁shortly	-12508
▁singles	-12509
▁so▁glad	-12510
▁so▁they	-12511
▁speaker	-12512
▁specify	-12513
▁staying	-12514
▁stopped	-12515
▁such▁an	-12516
▁taxable	-12517
▁telecom	-12518
▁the▁bar	-12519
▁the▁law	-12520
▁the▁sur	-12521
▁time▁of	-12522
▁tonight	-12523
▁to▁call	-12524
▁to▁gain	-12525
▁to▁many	-12526
▁tracker	-12527
▁up▁some	-12528
▁use▁and	-12529
▁we▁want	-12530
▁why▁the	-12531
▁willing	-12532
▁will▁do	-12533
▁winners	-12534
▁you▁use	-12535
Meanwhile	-12536
Rationale	-12537
Term▁Care	-12538
achusetts	-12539
angelical	-12540
configure	-12541
ensorship	-12542
expensive	-12543
ffordable	-12544
foliating	-12545
ified▁and	-12546
inguished	-12547
ing▁after	-12548
irational	-12549
mentative	-12550
omination	-12551
s▁because	-12552
s▁in▁this	-12553
▁Consider	-12554
▁Does▁the	-12555
▁Electric	-12556
▁Is▁there	-12557
▁I▁couldn	-12558
▁Medicaid	-12559
▁Moreover	-12560
▁New▁Brun	-12561
▁Not▁only	-12562
▁Official	-12563
▁Referral	-12564
▁That▁was	-12565
▁The▁main	-12566
▁absolute	-12567
▁accounts	-12568
▁affected	-12569
▁and▁jump	-12570
▁and▁once	-12571
▁and▁only	-12572
▁annually	-12573
▁answered	-12574
▁appeared	-12575
▁apply▁to	-12576
▁are▁very	-12577
▁athletes	-12578
▁at▁night	-12579
▁a▁player	-12580
▁backyard	-12581
▁bacteria	-12582
▁begin▁to	-12583
▁believed	-12584
▁box▁step	-12585
▁but▁that	-12586
▁but▁will	-12587
▁calendar	-12588
▁calories	-12589
▁care▁and	-12590
▁cases▁of	-12591
▁caulking	-12592
▁choosing	-12593
▁claimant	-12594
▁clothing	-12595
▁colorful	-12596
▁color▁is	-12597
▁cosmetic	-12598
▁critique	-12599
▁crystall	-12600
▁cultures	-12601
▁deadline	-12602
▁disabled	-12603
▁disclose	-12604
▁displays	-12605
▁duration	-12606
▁dynamics	-12607
▁educator	-12608
▁email▁or	-12609
▁employed	-12610
▁even▁the	-12611
▁face▁and	-12612
▁flagship	-12613
▁followed	-12614
▁for▁long	-12615
▁from▁all	-12616
▁from▁his	-12617
▁from▁its	-12618
▁giveaway	-12619
▁handling	-12620
▁his▁work	-12621
▁homemade	-12622
▁home▁for	-12623
▁how▁they	-12624
▁if▁there	-12625
▁instinct	-12626
▁intimate	-12627
▁into▁his	-12628
▁in▁every	-12629
▁in▁touch	-12630
▁is▁right	-12631
▁it▁takes	-12632
▁join▁the	-12633
▁junction	-12634
▁just▁one	-12635
▁keep▁the	-12636
▁licensed	-12637
▁long▁and	-12638
▁madicken	-12639
▁mark▁the	-12640
▁may▁help	-12641
▁measured	-12642
▁meet▁the	-12643
▁midfield	-12644
▁monetary	-12645
▁of▁a▁new	-12646
▁onto▁the	-12647
▁opinions	-12648
▁optional	-12649
▁parts▁of	-12650
▁pavilion	-12651
▁place▁of	-12652
▁plan▁and	-12653
▁presents	-12654
▁prevents	-12655
▁producer	-12656
▁profiles	-12657
▁prolapse	-12658
▁promised	-12659
▁rankings	-12660
▁refriger	-12661
▁refunded	-12662
▁remained	-12663
▁removing	-12664
▁requests	-12665
▁say▁that	-12666
▁sentence	-12667
▁since▁it	-12668
▁talented	-12669
▁techniqu	-12670
▁terrible	-12671
▁them▁all	-12672
▁the▁area	-12673
▁the▁baby	-12674
▁the▁link	-12675
▁the▁pool	-12676
▁the▁site	-12677
▁the▁time	-12678
▁thorough	-12679
▁three▁to	-12680
▁too▁late	-12681
▁to▁apply	-12682
▁to▁these	-12683
▁unlikely	-12684
▁until▁it	-12685
▁uses▁the	-12686
▁use▁them	-12687
▁use▁this	-12688
▁violence	-12689
▁vitamins	-12690
▁we▁might	-12691
▁when▁she	-12692
▁will▁see	-12693
▁year▁old	-12694
▁you▁from	-12695
ed▁in▁your	-12696
ifications	-12697
ing▁to▁see	-12698
oclassical	-12699
ris▁County	-12700
s▁going▁to	-12701
y▁Birthday	-12702
▁Arrhenius	-12703
▁Certified	-12704
▁Companies	-12705
▁Composite	-12706
▁Copyright	-12707
▁Cyrus▁was	-12708
▁Directory	-12709
▁DreamLine	-12710
▁Financial	-12711
▁Finnegans	-12712
▁Hinged▁Sh	-12713
▁His▁voice	-12714
▁Hollywood	-12715
▁Hopefully	-12716
▁It▁can▁be	-12717
▁Knoxville	-12718
▁Marketing	-12719
▁No▁matter	-12720
▁Pilot▁FTZ	-12721
▁Solutions	-12722
▁Surrender	-12723
▁They▁also	-12724
▁They▁were	-12725
▁We▁have▁a	-12726
▁about▁his	-12727
▁against▁a	-12728
▁and▁again	-12729
▁and▁women	-12730
▁are▁often	-12731
▁are▁still	-12732
▁automatic	-12733
▁before▁it	-12734
▁beginners	-12735
▁believers	-12736
▁candidate	-12737
▁centuries	-12738
▁classical	-12739
▁click▁the	-12740
▁closer▁to	-12741
▁collected	-12742
▁color▁and	-12743
▁coming▁to	-12744
▁committed	-12745
▁confusion	-12746
▁construct	-12747
▁dimension	-12748
▁directors	-12749
▁disciples	-12750
▁dollhouse	-12751
▁doors▁and	-12752
▁economist	-12753
▁ecosystem	-12754
▁electrons	-12755
▁elsewhere	-12756
▁emperumAn	-12757
▁engage▁in	-12758
▁featuring	-12759
▁for▁a▁new	-12760
▁generates	-12761
▁gives▁you	-12762
▁hair▁loss	-12763
▁hard▁time	-12764
▁hilarious	-12765
▁ideas▁for	-12766
▁intend▁to	-12767
▁into▁this	-12768
▁introduce	-12769
▁involving	-12770
▁is▁a▁huge	-12771
▁it▁to▁the	-12772
▁look▁like	-12773
▁makes▁the	-12774
▁make▁them	-12775
▁make▁this	-12776
▁make▁your	-12777
▁more▁of▁a	-12778
▁needs▁and	-12779
▁nutrients	-12780
▁olive▁oil	-12781
▁paintings	-12782
▁poisoning	-12783
▁processed	-12784
▁professor	-12785
▁protocols	-12786
▁provision	-12787
▁qualities	-12788
▁reach▁the	-12789
▁regularly	-12790
▁reporting	-12791
▁result▁of	-12792
▁returning	-12793
▁running▁a	-12794
▁same▁time	-12795
▁schedules	-12796
▁scientist	-12797
▁seriously	-12798
▁source▁of	-12799
▁space▁for	-12800
▁specialty	-12801
▁such▁as▁a	-12802
▁suggested	-12803
▁the▁local	-12804
▁the▁money	-12805
▁this▁call	-12806
▁this▁post	-12807
▁this▁site	-12808
▁this▁will	-12809
▁to▁gather	-12810
▁to▁review	-12811
▁trademark	-12812
▁very▁good	-12813
▁visit▁the	-12814
▁was▁found	-12815
▁where▁she	-12816
▁which▁can	-12817
▁with▁both	-12818
▁young▁man	-12819
▁your▁life	-12820
▁you▁think	-12821
ated▁by▁the	-12822
ed▁together	-12823
oneywell▁DC	-12824
s▁important	-12825
s▁that▁will	-12826
▁Charleston	-12827
▁Christians	-12828
▁Disability	-12829
▁Duke▁Nukem	-12830
▁FrontPoint	-12831
▁Interested	-12832
▁I▁remember	-12833
▁King▁James	-12834
▁Nottingham	-12835
▁Rendezvous	-12836
▁Saint▁John	-12837
▁Super▁Bowl	-12838
▁The▁second	-12839
▁advantages	-12840
▁and▁beyond	-12841
▁and▁can▁be	-12842
▁an▁article	-12843
▁apartments	-12844
▁a▁lot▁more	-12845
▁a▁positive	-12846
▁billion▁in	-12847
▁born▁again	-12848
▁choice▁for	-12849
▁compassion	-12850
▁compelling	-12851
▁continuous	-12852
▁controvers	-12853
▁customized	-12854
▁determined	-12855
▁driver▁for	-12856
▁events▁and	-12857
▁even▁after	-12858
▁foot▁round	-12859
▁guidelines	-12860
▁has▁become	-12861
▁have▁to▁be	-12862
▁impression	-12863
▁innovation	-12864
▁in▁the▁end	-12865
▁metabolism	-12866
▁negligence	-12867
▁noted▁that	-12868
▁offering▁a	-12869
▁of▁the▁day	-12870
▁person▁who	-12871
▁popularity	-12872
▁possession	-12873
▁practition	-12874
▁prevention	-12875
▁program▁is	-12876
▁regardless	-12877
▁round▁rugs	-12878
▁serving▁as	-12879
▁settlement	-12880
▁since▁then	-12881
▁staircases	-12882
▁taking▁the	-12883
▁tax▁expend	-12884
▁tax▁status	-12885
▁their▁hand	-12886
▁the▁design	-12887
▁the▁second	-12888
▁to▁discuss	-12889
▁to▁produce	-12890
▁travelling	-12891
▁vulnerable	-12892
▁waterproof	-12893
▁we▁need▁to	-12894
▁what▁to▁do	-12895
▁will▁start	-12896
▁you▁can▁do	-12897
▁you▁do▁not	-12898
▁Description	-12899
▁If▁you▁want	-12900
▁I▁recommend	-12901
▁On▁Business	-12902
▁The▁bicycle	-12903
▁The▁company	-12904
▁agriculture	-12905
▁anticipated	-12906
▁blood▁sugar	-12907
▁can▁be▁made	-12908
▁challenging	-12909
▁communicate	-12910
▁competitors	-12911
▁coordinates	-12912
▁country▁and	-12913
▁financially	-12914
▁for▁the▁new	-12915
▁including▁a	-12916
▁incorporate	-12917
▁interest▁in	-12918
▁in▁business	-12919
▁in▁the▁game	-12920
▁it▁would▁be	-12921
▁looked▁like	-12922
▁magnificent	-12923
▁many▁of▁the	-12924
▁my▁favorite	-12925
▁name▁of▁the	-12926
▁of▁the▁area	-12927
▁on▁Thursday	-12928
▁operational	-12929
▁preliminary	-12930
▁preparation	-12931
▁promotional	-12932
▁prospective	-12933
▁provided▁to	-12934
▁publication	-12935
▁rain▁gutter	-12936
▁resurfacing	-12937
▁small▁group	-12938
▁soybean▁oil	-12939
▁specialized	-12940
▁supposed▁to	-12941
▁system▁that	-12942
▁that▁is▁the	-12943
▁that▁it▁was	-12944
▁there▁was▁a	-12945
▁the▁current	-12946
▁the▁perfect	-12947
▁things▁like	-12948
▁third▁party	-12949
▁view▁of▁the	-12950
▁when▁he▁was	-12951
▁which▁means	-12952
▁you▁can▁get	-12953
es▁for▁Threes	-12954
ogan▁Property	-12955
ris▁County▁NJ	-12956
▁Corporations	-12957
▁Intelligence	-12958
▁I▁think▁that	-12959
▁Therapeutics	-12960
▁Thistle▁Farm	-12961
▁accomplished	-12962
▁already▁been	-12963
▁and▁has▁been	-12964
▁announcement	-12965
▁at▁all▁times	-12966
▁availability	-12967
▁available▁to	-12968
▁a▁little▁bit	-12969
▁blocked▁sink	-12970
▁can▁be▁found	-12971
▁corporations	-12972
▁developments	-12973
▁entering▁the	-12974
▁experiencing	-12975
▁for▁yourself	-12976
▁green▁coffee	-12977
▁increase▁the	-12978
▁is▁all▁about	-12979
▁is▁the▁first	-12980
▁knowledge▁of	-12981
▁mitral▁valve	-12982
▁occasionally	-12983
▁of▁the▁world	-12984
▁our▁products	-12985
▁recreational	-12986
▁registration	-12987
▁respectively	-12988
▁some▁kind▁of	-12989
▁subscription	-12990
▁surveillance	-12991
▁that▁you▁are	-12992
▁the▁mountain	-12993
▁when▁you▁are	-12994
▁will▁also▁be	-12995
▁your▁profile	-12996
cat▁Skid▁Steer	-12997
▁Courteney▁Cox	-12998
▁New▁Brunswick	-12999
▁Resume▁Format	-13000
▁There▁will▁be	-13001
▁accommodation	-13002
▁announced▁the	-13003
▁appropriately	-13004
▁collection▁of	-13005
▁combined▁with	-13006
▁consideration	-13007
▁equipped▁with	-13008
▁experience▁of	-13009
▁familiar▁with	-13010
▁for▁the▁first	-13011
▁for▁the▁whole	-13012
▁generation▁of	-13013
▁if▁you▁have▁a	-13014
▁indooroutdoor	-13015
▁mobile▁device	-13016
▁over▁the▁next	-13017
▁regarding▁the	-13018
▁relationships	-13019
▁suggests▁that	-13020
▁surrounded▁by	-13021
▁that▁they▁are	-13022
▁total▁cost▁of	-13023
▁was▁posted▁in	-13024
▁where▁you▁can	-13025
▁with▁the▁help	-13026
▁with▁your▁own	-13027
▁Administration	-13028
▁Association▁of	-13029
▁Coloring▁Pages	-13030
▁In▁addition▁to	-13031
▁North▁American	-13032
▁Primary▁School	-13033
▁The▁Company▁is	-13034
▁and▁industrial	-13035
▁another▁person	-13036
▁coloring▁pages	-13037
▁edited▁Welcome	-13038
▁for▁the▁second	-13039
▁found▁that▁the	-13040
▁housing▁market	-13041
▁information▁is	-13042
▁in▁the▁morning	-13043
▁is▁part▁of▁the	-13044
▁more▁than▁just	-13045
▁must▁have▁been	-13046
▁of▁my▁favorite	-13047
▁over▁the▁years	-13048
▁parking▁ticket	-13049
▁path▁animation	-13050
▁period▁of▁time	-13051
▁there▁are▁some	-13052
▁to▁participate	-13053
▁transportation	-13054
▁Verizon▁Connect	-13055
▁is▁likely▁to▁be	-13056
▁one▁of▁the▁best	-13057
▁recommendations	-13058
▁understand▁what	-13059
%,	-13060
?!	-13061
?)	-13062
AI	-13063
AW	-13064
DT	-13065
EE	-13066
EG	-13067
HO	-13068
Hi	-13069
Jo	-13070
MO	-13071
Mr	-13072
Ob	-13073
Qu	-13074
SP	-13075
TO	-13076
TR	-13077
VC	-13078
bu	-13079
ez	-13080
hl	-13081
ls	-13082
mn	-13083
ui	-13084
uv	-13085
yk	-13086
▁’	-13087
.
$	-13088
;▁(	-13089
Ann	-13090
Del	-13091
ERD	-13092
Enh	-13093
Fun	-13094
HUM	-13095
ICK	-13096
ITY	-13097
Ind	-13098
Ion	-13099
LGC	-13100
MFV	-13101
May	-13102
Met	-13103
Min	-13104
NEX	-13105
NOW	-13106
PDF	-13107
Pol	-13108
Rec	-13109
Rep	-13110
TON	-13111
Two	-13112
USA	-13113
aca	-13114
ags	-13115
ala	-13116
ali	-13117
asi	-13118
asm	-13119
avs	-13120
azy	-13121
a▁M	-13122
bar	-13123
bre	-13124
bro	-13125
bye	-13126
car	-13127
cep	-13128
cfm	-13129
cho	-13130
cor	-13131
cyc	-13132
een	-13133
enz	-13134
fax	-13135
gil	-13136
gly	-13137
hin	-13138
iox	-13139
iro	-13140
isd	-13141
iti	-13142
kid	-13143
kyo	-13144
lit	-13145
lix	-13146
lla	-13147
lli	-13148
loc	-13149
lux	-13150
mar	-13151
oey	-13152
oks	-13153
oms	-13154
opy	-13155
ori	-13156
oub	-13157
ows	-13158
pad	-13159
pee	-13160
rab	-13161
rus	-13162
she	-13163
sus	-13164
s▁I	-13165
s▁K	-13166
s▁W	-13167
s▁l	-13168
tel	-13169
ulf	-13170
urb	-13171
wen	-13172
whe	-13173
xia	-13174
yet	-13175
”▁–	-13176
▁"/	-13177
▁CF	-13178
▁CH	-13179
▁IF	-13180
▁LT	-13181
▁LX	-13182
▁ME	-13183
▁Ma	-13184
▁Mu	-13185
▁PK	-13186
▁Ru	-13187
▁Sl	-13188
▁VM	-13189
▁Vo	-13190
▁XF	-13191
▁av	-13192
▁ga	-13193
▁mg	-13194
▁mm	-13195
▁od	-13196
▁vo	-13197
▁vs	-13198
▁ye	-13199
ALLY	-13200
As▁I	-13201
Both	-13202
Cent	-13203
Have	-13204
High	-13205
Pres	-13206
Step	-13207
abil	-13208
aled	-13209
amil	-13210
anna	-13211
arah	-13212
arse	-13213
atin	-13214
atis	-13215
aulk	-13216
avan	-13217
azed	-13218
bird	-13219
brow	-13220
ceiv	-13221
claw	-13222
dust	-13223
edIn	-13224
elig	-13225
emus	-13226
enry	-13227
fied	-13228
fund	-13229
gaon	-13230
gree	-13231
heim	-13232
iami	-13233
iana	-13234
icod	-13235
idel	-13236
idge	-13237
igil	-13238
illy	-13239
ishe	-13240
isks	-13241
itar	-13242
ivan	-13243
le▁L	-13244
love	-13245
napd	-13246
obby	-13247
oked	-13248
olly	-13249
olts	-13250
omed	-13251
onel	-13252
onic	-13253
opez	-13254
orce	-13255
otch	-13256
otic	-13257
otte	-13258
ousc	-13259
pher	-13260
phoz	-13261
pped	-13262
rays	-13263
ront	-13264
rosc	-13265
rypt	-13266
such	-13267
suit	-13268
sule	-13269
s▁us	-13270
tech	-13271
thod	-13272
t▁it	-13273
unct	-13274
unes	-13275
wick	-13276
ylon	-13277
your	-13278
▁ARE	-13279
▁Agr	-13280
▁Ang	-13281
▁BMW	-13282
▁Boo	-13283
▁Bot	-13284
▁Bru	-13285
▁CAR	-13286
▁Cou	-13287
▁DET	-13288
▁Dev	-13289
▁Dum	-13290
▁ERP	-13291
▁Emb	-13292
▁Fly	-13293
▁Fog	-13294
▁Fun	-13295
▁Gab	-13296
▁Hey	-13297
▁Hon	-13298
▁Jak	-13299
▁Joh	-13300
▁KAW	-13301
▁Kid	-13302
▁Liz	-13303
▁MIN	-13304
▁Map	-13305
▁Mat	-13306
▁McC	-13307
▁Mid	-13308
▁Mrs	-13309
▁Mul	-13310
▁NBA	-13311
▁Nor	-13312
▁Osc	-13313
▁Pen	-13314
▁Pow	-13315
▁RSS	-13316
▁Rox	-13317
▁Run	-13318
▁SHA	-13319
▁Scr	-13320
▁Sea	-13321
▁Sem	-13322
▁Sol	-13323
▁Som	-13324
▁Tan	-13325
▁Ton	-13326
▁Tor	-13327
▁USB	-13328
▁USD	-13329
▁YOU	-13330
▁ads	-13331
▁ais	-13332
▁aqu	-13333
▁bio	-13334
▁bru	-13335
▁bun	-13336
▁cul	-13337
▁dan	-13338
▁doc	-13339
▁dys	-13340
▁fet	-13341
▁fur	-13342
▁gem	-13343
▁gre	-13344
▁gum	-13345
▁hal	-13346
▁hat	-13347
▁hub	-13348
▁hur	-13349
▁jur	-13350
▁max	-13351
▁nic	-13352
▁odd	-13353
▁pic	-13354
▁pit	-13355
▁pod	-13356
▁sch	-13357
▁sho	-13358
▁tox	-13359
▁twe	-13360
▁voc	-13361
▁wra	-13362
.
...	-13363
About	-13364
Agent	-13365
Below	-13366
Check	-13367
HUMER	-13368
Print	-13369
Super	-13370
Three	-13371
Works	-13372
acent	-13373
adays	-13374
agged	-13375
ained	-13376
akita	-13377
amous	-13378
ampoo	-13379
am▁to	-13380
andah	-13381
andal	-13382
andid	-13383
annel	-13384
armen	-13385
ashed	-13386
athon	-13387
avors	-13388
aware	-13389
books	-13390
bra▁R	-13391
burgr	-13392
chant	-13393
chest	-13394
enced	-13395
encer	-13396
er▁of	-13397
esign	-13398
estly	-13399
eties	-13400
gilvy	-13401
grain	-13402
group	-13403
ickle	-13404
iders	-13405
ieves	-13406
igeon	-13407
igned	-13408
imony	-13409
incip	-13410
ingle	-13411
ing▁p	-13412
istan	-13413
i▁and	-13414
jamin	-13415
lined	-13416
loved	-13417
natal	-13418
odies	-13419
on▁of	-13420
or▁to	-13421
oured	-13422
oving	-13423
pared	-13424
piece	-13425
plete	-13426
quire	-13427
ratic	-13428
reets	-13429
share	-13430
shine	-13431
somet	-13432
sters	-13433
stood	-13434
s▁now	-13435
terly	-13436
ubbed	-13437
udder	-13438
ullah	-13439
umble	-13440
uming	-13441
undai	-13442
urder	-13443
ureka	-13444
urers	-13445
urtin	-13446
ushes	-13447
vised	-13448
wagon	-13449
yncio	-13450
▁AACR	-13451
▁AKQA	-13452
▁Arts	-13453
▁Base	-13454
▁Bean	-13455
▁Bull	-13456
▁Code	-13457
▁Crow	-13458
▁Dave	-13459
▁Dise	-13460
▁Dora	-13461
▁Drum	-13462
▁Ever	-13463
▁Five	-13464
▁Grey	-13465
▁Guys	-13466
▁Holl	-13467
▁Hond	-13468
▁Hunt	-13469
▁KNOW	-13470
▁Labs	-13471
▁Late	-13472
▁Leah	-13473
▁Manh	-13474
▁Mill	-13475
▁Moon	-13476
▁Nurs	-13477
▁Pads	-13478
▁Perl	-13479
▁Raid	-13480
▁Repl	-13481
▁Ripp	-13482
▁Sich	-13483
▁Song	-13484
▁Swag	-13485
▁THIS	-13486
▁Tell	-13487
▁Thus	-13488
▁True	-13489
▁Viac	-13490
▁Viol	-13491
▁Yarn	-13492
▁acre	-13493
▁agre	-13494
▁apne	-13495
▁at▁K	-13496
▁at▁P	-13497
▁a▁lo	-13498
▁bang	-13499
▁bars	-13500
▁bead	-13501
▁bike	-13502
▁bone	-13503
▁boom	-13504
▁bout	-13505
▁by▁M	-13506
▁caps	-13507
▁caut	-13508
▁chol	-13509
▁coin	-13510
▁curb	-13511
▁deem	-13512
▁exit	-13513
▁fits	-13514
▁foul	-13515
▁glow	-13516
▁golf	-13517
▁gown	-13518
▁gram	-13519
▁grap	-13520
▁gray	-13521
▁hasn	-13522
▁hing	-13523
▁hits	-13524
▁inev	-13525
▁in▁H	-13526
▁isol	-13527
▁jazz	-13528
▁lawy	-13529
▁lens	-13530
▁libr	-13531
▁logg	-13532
▁of▁J	-13533
▁pale	-13534
▁pron	-13535
▁reck	-13536
▁roam	-13537
▁solv	-13538
▁tact	-13539
▁tent	-13540
▁topp	-13541
▁trig	-13542
▁unto	-13543
▁vend	-13544
▁vene	-13545
▁vibr	-13546
▁ward	-13547
▁wrap	-13548
Arthur	-13549
During	-13550
aferne	-13551
argest	-13552
ashion	-13553
atable	-13554
ayment	-13555
binary	-13556
direct	-13557
ed▁all	-13558
ensing	-13559
ers▁is	-13560
essori	-13561
estone	-13562
es▁can	-13563
ferent	-13564
ferred	-13565
forced	-13566
ful▁of	-13567
giving	-13568
iamond	-13569
iances	-13570
iatric	-13571
icient	-13572
income	-13573
inding	-13574
itures	-13575
leased	-13576
linary	-13577
m▁sure	-13578
olitan	-13579
ounced	-13580
preced	-13581
stairs	-13582
s▁as▁a	-13583
s▁time	-13584
t▁feel	-13585
t▁make	-13586
t▁need	-13587
ubborn	-13588
unicip	-13589
urgaon	-13590
veland	-13591
▁Added	-13592
▁Adult	-13593
▁Appro	-13594
▁Audio	-13595
▁Begin	-13596
▁Chain	-13597
▁Cloud	-13598
▁Death	-13599
▁Doing	-13600
▁Dougl	-13601
▁Drain	-13602
▁Entry	-13603
▁Faith	-13604
▁Force	-13605
▁Galak	-13606
▁Georg	-13607
▁Grill	-13608
▁Gulen	-13609
▁Happy	-13610
▁Hayes	-13611
▁Hello	-13612
▁I▁may	-13613
▁Later	-13614
▁Laure	-13615
▁Liter	-13616
▁Lopez	-13617
▁Monic	-13618
▁Month	-13619
▁Motor	-13620
▁Olson	-13621
▁Patio	-13622
▁Peace	-13623
▁Phill	-13624
▁Prior	-13625
▁Putin	-13626
▁Radio	-13627
▁Right	-13628
▁Royal	-13629
▁SPARK	-13630
▁Sales	-13631
▁Sorry	-13632
▁Sound	-13633
▁Sport	-13634
▁Steam	-13635
▁Story	-13636
▁Sword	-13637
▁Tempe	-13638
▁The▁J	-13639
▁Tokyo	-13640
▁Touch	-13641
▁Upper	-13642
▁acids	-13643
▁alloc	-13644
▁and▁T	-13645
▁arriv	-13646
▁aster	-13647
▁as▁if	-13648
▁a▁log	-13649
▁blast	-13650
▁blogg	-13651
▁bonds	-13652
▁boxes	-13653
▁bride	-13654
▁carri	-13655
▁crash	-13656
▁crops	-13657
▁dance	-13658
▁decom	-13659
▁discr	-13660
▁disin	-13661
▁drugs	-13662
▁drumm	-13663
▁fancy	-13664
▁fifth	-13665
▁finds	-13666
▁for▁H	-13667
▁gauge	-13668
▁girls	-13669
▁go▁on	-13670
▁greed	-13671
▁grows	-13672
▁holds	-13673
▁https	-13674
▁jewel	-13675
▁juven	-13676
▁kaink	-13677
▁knitt	-13678
▁langu	-13679
▁lasts	-13680
▁leafy	-13681
▁liked	-13682
▁lucky	-13683
▁magaz	-13684
▁maker	-13685
▁manip	-13686
▁messy	-13687
▁minus	-13688
▁moral	-13689
▁partn	-13690
▁patio	-13691
▁pizza	-13692
▁plane	-13693
▁plate	-13694
▁put▁a	-13695
▁query	-13696
▁remod	-13697
▁revis	-13698
▁risks	-13699
▁schol	-13700
▁scope	-13701
▁setup	-13702
▁shore	-13703
▁shout	-13704
▁slipp	-13705
▁spare	-13706
▁stack	-13707
▁stars	-13708
▁stays	-13709
▁stood	-13710
▁tells	-13711
▁tooth	-13712
▁treas	-13713
▁up▁on	-13714
▁urine	-13715
▁vocal	-13716
▁walks	-13717
▁weigh	-13718
▁weren	-13719
▁width	-13720
▁yummy	-13721
Ask▁Leo	-13722
Because	-13723
Besides	-13724
Comment	-13725
Contact	-13726
Despite	-13727
If▁your	-13728
Looking	-13729
SCHUMER	-13730
Shuttle	-13731
acility	-13732
alistic	-13733
atories	-13734
berries	-13735
borough	-13736
chieved	-13737
earcher	-13738
ed▁down	-13739
ed▁like	-13740
enities	-13741
erglass	-13742
esterol	-13743
forward	-13744
fulness	-13745
gestive	-13746
ial▁and	-13747
inction	-13748
ippings	-13749
ipsmith	-13750
issouri	-13751
itching	-13752
itizens	-13753
ixtures	-13754
ll▁have	-13755
loading	-13756
ness▁to	-13757
pectral	-13758
s▁and▁l	-13759
s▁offer	-13760
s▁today	-13761
teacher	-13762
ullivan	-13763
ustrial	-13764
viation	-13765
writing	-13766
▁Abroad	-13767
▁Animal	-13768
▁Annual	-13769
▁Arthur	-13770
▁As▁you	-13771
▁Austin	-13772
▁Beauty	-13773
▁Belize	-13774
▁Bendon	-13775
▁Carmen	-13776
▁Cherry	-13777
▁Crates	-13778
▁ENGINE	-13779
▁Edison	-13780
▁Engine	-13781
▁Events	-13782
▁Fraser	-13783
▁Gender	-13784
▁God▁is	-13785
▁Golden	-13786
▁He▁had	-13787
▁I▁feel	-13788
▁I▁then	-13789
▁I▁used	-13790
▁I▁want	-13791
▁I▁went	-13792
▁Liquid	-13793
▁Medina	-13794
▁Mehriv	-13795
▁Mining	-13796
▁Object	-13797
▁Occupy	-13798
▁Ogilvy	-13799
▁Parent	-13800
▁Pastor	-13801
▁Pigeon	-13802
▁Prices	-13803
▁Python	-13804
▁Reagan	-13805
▁Rental	-13806
▁Rubber	-13807
▁She▁is	-13808
▁Sonoma	-13809
▁Soviet	-13810
▁Sports	-13811
▁Studio	-13812
▁Survey	-13813
▁Tapjoy	-13814
▁Worksh	-13815
▁achiev	-13816
▁adoles	-13817
▁almond	-13818
▁analys	-13819
▁and▁de	-13820
▁an▁end	-13821
▁approx	-13822
▁awards	-13823
▁a▁last	-13824
▁a▁life	-13825
▁a▁real	-13826
▁backup	-13827
▁barrel	-13828
▁begins	-13829
▁behavi	-13830
▁binary	-13831
▁browse	-13832
▁cancel	-13833
▁canner	-13834
▁can▁do	-13835
▁can▁we	-13836
▁clothe	-13837
▁consec	-13838
▁costly	-13839
▁creamy	-13840
▁danger	-13841
▁dealer	-13842
▁deeply	-13843
▁denied	-13844
▁do▁the	-13845
▁drying	-13846
▁exists	-13847
▁extrem	-13848
▁filled	-13849
▁flying	-13850
▁frames	-13851
▁from▁B	-13852
▁get▁to	-13853
▁gotten	-13854
▁hiring	-13855
▁hookup	-13856
▁ignore	-13857
▁immers	-13858
▁impair	-13859
▁intent	-13860
▁in▁Mor	-13861
▁in▁San	-13862
▁in▁her	-13863
▁it▁had	-13864
▁jurisd	-13865
▁key▁to	-13866
▁laptop	-13867
▁legend	-13868
▁limits	-13869
▁livest	-13870
▁losses	-13871
▁lot▁of	-13872
▁marine	-13873
▁marvel	-13874
▁matche	-13875
▁namely	-13876
▁newest	-13877
▁nicely	-13878
▁of▁a▁l	-13879
▁one▁is	-13880
▁orders	-13881
▁or▁any	-13882
▁or▁get	-13883
▁or▁her	-13884
▁outfit	-13885
▁out▁to	-13886
▁peanut	-13887
▁picket	-13888
▁poorly	-13889
▁powder	-13890
▁prayer	-13891
▁redact	-13892
▁refine	-13893
▁refres	-13894
▁refuse	-13895
▁relate	-13896
▁repeat	-13897
▁rowing	-13898
▁ruling	-13899
▁rumors	-13900
▁rustic	-13901
▁say▁it	-13902
▁served	-13903
▁sheets	-13904
▁sodium	-13905
▁speech	-13906
▁spouse	-13907
▁strang	-13908
▁tablet	-13909
▁that▁l	-13910
▁the▁sk	-13911
▁to▁his	-13912
▁traged	-13913
▁trauma	-13914
▁uses▁a	-13915
▁us▁and	-13916
▁ventil	-13917
▁visits	-13918
▁was▁no	-13919
▁we▁may	-13920
▁worker	-13921
▁worthy	-13922
Brighten	-13923
Business	-13924
Security	-13925
With▁the	-13926
ating▁to	-13927
ed▁by▁an	-13928
ents▁and	-13929
ers▁were	-13930
icodemus	-13931
ificance	-13932
ified▁in	-13933
igations	-13934
ines▁and	-13935
ings▁are	-13936
ing▁room	-13937
ise▁your	-13938
isheries	-13939
ists▁and	-13940
itude▁of	-13941
lessness	-13942
ling▁the	-13943
loomberg	-13944
ning▁the	-13945
novative	-13946
ould▁You	-13947
s▁are▁in	-13948
s▁invest	-13949
s▁in▁his	-13950
s▁report	-13951
s▁toward	-13952
ventions	-13953
▁Christa	-13954
▁Concert	-13955
▁Crowley	-13956
▁Debra▁R	-13957
▁Dorothy	-13958
▁Factory	-13959
▁Feature	-13960
▁Formats	-13961
▁Hackett	-13962
▁Hyundai	-13963
▁If▁they	-13964
▁Islamic	-13965
▁It▁wasn	-13966
▁I▁was▁a	-13967
▁Kitchen	-13968
▁Library	-13969
▁Lithium	-13970
▁Nanshan	-13971
▁Neither	-13972
▁Oakland	-13973
▁Offices	-13974
▁Overall	-13975
▁Pacific	-13976
▁Package	-13977
▁Pattern	-13978
▁Seeking	-13979
▁Sichuan	-13980
▁Spotify	-13981
▁Storage	-13982
▁Teacher	-13983
▁Therapy	-13984
▁added▁a	-13985
▁airline	-13986
▁alleged	-13987
▁also▁be	-13988
▁and▁who	-13989
▁anybody	-13990
▁anymore	-13991
▁aspects	-13992
▁attacks	-13993
▁at▁Hope	-13994
▁at▁each	-13995
▁at▁your	-13996
▁a▁three	-13997
▁beloved	-13998
▁berries	-13999
▁bromeli	-14000
▁builder	-14001
▁but▁has	-14002
▁but▁she	-14003
▁cancell	-14004
▁capsule	-14005
▁carries	-14006
▁centers	-14007
▁cheaper	-14008
▁clarity	-14009
▁cleared	-14010
▁closest	-14011
▁clothes	-14012
▁coconut	-14013
▁compact	-14014
▁consequ	-14015
▁console	-14016
▁couples	-14017
▁daytime	-14018
▁disqual	-14019
▁dollars	-14020
▁dropped	-14021
▁ethical	-14022
▁even▁if	-14023
▁eyebrow	-14024
▁fear▁of	-14025
▁feeding	-14026
▁figures	-14027
▁find▁it	-14028
▁found▁a	-14029
▁frankly	-14030
▁genetic	-14031
▁gets▁to	-14032
▁give▁us	-14033
▁he▁made	-14034
▁home▁to	-14035
▁honored	-14036
▁hours▁a	-14037
▁inciner	-14038
▁instant	-14039
▁intense	-14040
▁intrigu	-14041
▁in▁need	-14042
▁is▁most	-14043
▁is▁much	-14044
▁it▁also	-14045
▁just▁as	-14046
▁lasting	-14047
▁laundry	-14048
▁let▁the	-14049
▁lifting	-14050
▁locally	-14051
▁loss▁of	-14052
▁made▁me	-14053
▁made▁of	-14054
▁more▁of	-14055
▁nervous	-14056
▁no▁idea	-14057
▁officer	-14058
▁of▁what	-14059
▁only▁in	-14060
▁only▁to	-14061
▁on▁some	-14062
▁orchest	-14063
▁or▁some	-14064
▁outlook	-14065
▁out▁and	-14066
▁part▁in	-14067
▁passing	-14068
▁pay▁for	-14069
▁pension	-14070
▁plug▁in	-14071
▁possess	-14072
▁poverty	-14073
▁pricing	-14074
▁proceed	-14075
▁pursuit	-14076
▁pushing	-14077
▁quite▁a	-14078
▁ratings	-14079
▁readily	-14080
▁reduces	-14081
▁referen	-14082
▁removes	-14083
▁role▁of	-14084
▁runners	-14085
▁satisfy	-14086
▁segment	-14087
▁sending	-14088
▁settled	-14089
▁shampoo	-14090
▁shouldn	-14091
▁site▁is	-14092
▁spinach	-14093
▁stadium	-14094
▁stating	-14095
▁strange	-14096
▁stylish	-14097
▁summary	-14098
▁tablets	-14099
▁talk▁to	-14100
▁tax▁cut	-14101
▁tell▁me	-14102
▁tell▁us	-14103
▁therapy	-14104
▁the▁end	-14105
▁the▁low	-14106
▁the▁ten	-14107
▁the▁two	-14108
▁tightly	-14109
▁told▁me	-14110
▁to▁move	-14111
▁to▁name	-14112
▁to▁play	-14113
▁to▁that	-14114
▁trip▁to	-14115
▁trophoz	-14116
▁urinary	-14117
▁utilize	-14118
▁villain	-14119
▁wall▁is	-14120
▁watched	-14121
▁ways▁of	-14122
▁welfare	-14123
▁well▁as	-14124
▁western	-14125
▁we▁just	-14126
▁we▁know	-14127
▁where▁I	-14128
▁who▁can	-14129
▁why▁not	-14130
▁with▁un	-14131
▁you▁had	-14132
▁you▁see	-14133
OMBO▁Plus	-14134
allowtail	-14135
amforming	-14136
an▁Church	-14137
astically	-14138
ationally	-14139
ed▁by▁our	-14140
ed▁within	-14141
effective	-14142
fortunate	-14143
ified▁the	-14144
ing▁to▁me	-14145
irmingham	-14146
napdragon	-14147
prisingly	-14148
star▁game	-14149
s▁leading	-14150
s▁that▁we	-14151
s▁to▁come	-14152
▁Agricult	-14153
▁And▁that	-14154
▁And▁what	-14155
▁At▁least	-14156
▁A▁lot▁of	-14157
▁Clinical	-14158
▁Computer	-14159
▁Director	-14160
▁Dora▁The	-14161
▁Download	-14162
▁FREEPORT	-14163
▁Festival	-14164
▁FighterZ	-14165
▁Fogbound	-14166
▁From▁the	-14167
▁Governor	-14168
▁His▁Word	-14169
▁Holdings	-14170
▁Hospital	-14171
▁Istanbul	-14172
▁I▁wonder	-14173
▁I▁wouldn	-14174
▁KJV▁says	-14175
▁Kangaroo	-14176
▁Magazine	-14177
▁Memorial	-14178
▁Mohammed	-14179
▁Once▁you	-14180
▁Portland	-14181
▁Sciences	-14182
▁Scottish	-14183
▁Shopping	-14184
▁Solution	-14185
▁Template	-14186
▁The▁same	-14187
▁Verandah	-14188
▁Virginia	-14189
▁abstract	-14190
▁adhesive	-14191
▁advertis	-14192
▁advocacy	-14193
▁agencies	-14194
▁and▁both	-14195
▁and▁heat	-14196
▁and▁just	-14197
▁and▁long	-14198
▁and▁need	-14199
▁and▁post	-14200
▁and▁very	-14201
▁any▁more	-14202
▁an▁event	-14203
▁an▁image	-14204
▁are▁made	-14205
▁around▁a	-14206
▁asked▁me	-14207
▁assisted	-14208
▁at▁about	-14209
▁at▁first	-14210
▁a▁better	-14211
▁a▁lovely	-14212
▁began▁to	-14213
▁be▁aware	-14214
▁breaking	-14215
▁bunch▁of	-14216
▁but▁only	-14217
▁charming	-14218
▁churches	-14219
▁circular	-14220
▁clean▁up	-14221
▁click▁on	-14222
▁coherent	-14223
▁contempl	-14224
▁cracking	-14225
▁deciding	-14226
▁declared	-14227
▁diameter	-14228
▁doing▁it	-14229
▁doing▁so	-14230
▁downtown	-14231
▁early▁to	-14232
▁electron	-14233
▁enhanced	-14234
▁enormous	-14235
▁ensuring	-14236
▁expanded	-14237
▁fats▁and	-14238
▁finances	-14239
▁forms▁of	-14240
▁for▁most	-14241
▁founders	-14242
▁from▁you	-14243
▁gasoline	-14244
▁generous	-14245
▁given▁to	-14246
▁good▁for	-14247
▁guidance	-14248
▁has▁done	-14249
▁has▁made	-14250
▁have▁any	-14251
▁headache	-14252
▁how▁this	-14253
▁improves	-14254
▁informed	-14255
▁integral	-14256
▁into▁its	-14257
▁investor	-14258
▁in▁those	-14259
▁is▁going	-14260
▁is▁worth	-14261
▁knitting	-14262
▁lifeboat	-14263
▁lifetime	-14264
▁made▁for	-14265
▁majority	-14266
▁makes▁me	-14267
▁make▁you	-14268
▁maximize	-14269
▁meantime	-14270
▁minister	-14271
▁modified	-14272
▁momentum	-14273
▁musician	-14274
▁needs▁of	-14275
▁northern	-14276
▁nsurance	-14277
▁of▁birth	-14278
▁of▁every	-14279
▁of▁human	-14280
▁of▁the▁C	-14281
▁one▁that	-14282
▁on▁these	-14283
▁ordinary	-14284
▁or▁email	-14285
▁overseas	-14286
▁over▁and	-14287
▁plans▁to	-14288
▁portable	-14289
▁prescrib	-14290
▁profound	-14291
▁pursuing	-14292
▁referral	-14293
▁regulate	-14294
▁reinvest	-14295
▁relative	-14296
▁renowned	-14297
▁revenues	-14298
▁right▁to	-14299
▁shredder	-14300
▁signs▁of	-14301
▁spectrum	-14302
▁stations	-14303
▁still▁be	-14304
▁still▁in	-14305
▁story▁of	-14306
▁strictly	-14307
▁stubborn	-14308
▁studying	-14309
▁study▁of	-14310
▁swelling	-14311
▁switched	-14312
▁taken▁to	-14313
▁taking▁a	-14314
▁targeted	-14315
▁terminal	-14316
▁the▁calf	-14317
▁the▁cart	-14318
▁the▁dust	-14319
▁the▁file	-14320
▁the▁free	-14321
▁the▁home	-14322
▁the▁mold	-14323
▁the▁path	-14324
▁tomatoes	-14325
▁took▁the	-14326
▁too▁many	-14327
▁to▁be▁in	-14328
▁to▁watch	-14329
▁treasure	-14330
▁two▁days	-14331
▁ultimate	-14332
▁unnecess	-14333
▁unwanted	-14334
▁was▁that	-14335
▁weddings	-14336
▁we▁offer	-14337
▁while▁we	-14338
▁with▁all	-14339
▁with▁new	-14340
▁workflow	-14341
▁years▁in	-14342
▁you▁just	-14343
There▁is▁a	-14344
This▁entry	-14345
ed▁for▁the	-14346
ed▁in▁this	-14347
ing▁with▁a	-14348
ll▁have▁to	-14349
selves▁and	-14350
s▁and▁many	-14351
s▁and▁some	-14352
s▁decision	-14353
s▁for▁your	-14354
[...]
